<unk>	0
<s>	0
</s>	0
.	-2.82967
▁a	-3.31766
▁Un	-3.83957
©	-3.94782
▁A	-3.9732
▁un	-4.01902
'	-4.11067
▁in	-4.12038
▁de	-4.19702
e	-4.37677
▁une	-4.40598
▁the	-4.46191
▁en	-4.51995
Ã	-4.5326
s	-4.54971
▁	-4.55889
▁d	-4.67064
,	-4.67263
▁on	-4.73904
▁dans	-4.74915
▁sur	-4.76653
▁homme	-4.80027
▁Ã	-4.81474
▁is	-4.83154
▁man	-4.83707
▁et	-4.84008
▁and	-4.8462
▁avec	-4.87361
▁of	-4.91713
▁with	-5.01683
▁des	-5.11043
▁la	-5.14071
ing	-5.25135
-	-5.30776
un	-5.33387
▁femme	-5.34232
▁l	-5.37917
▁woman	-5.50501
▁are	-5.53606
▁le	-5.64458
▁to	-5.68663
▁est	-5.68944
▁Two	-5.70731
ant	-5.72921
▁at	-5.79394
une	-5.82723
▁wearing	-5.88201
▁people	-5.9091
§	-5.97416
ux	-5.98579
▁white	-6.04954
▁se	-6.06592
▁shirt	-6.09998
▁t	-6.10574
▁garÃ	-6.11066
▁young	-6.11419
▁De	-6.13139
on	-6.138
▁debout	-6.15437
▁black	-6.15806
▁his	-6.16404
▁personnes	-6.18018
▁sont	-6.18253
▁while	-6.186
▁an	-6.19977
▁blue	-6.21643
▁̈re	-6.22301
▁jeune	-6.24069
▁devant	-6.26249
▁fille	-6.26919
▁au	-6.27799
▁red	-6.28742
▁sitting	-6.29054
▁du	-6.29172
¢	-6.3027
▁assis	-6.31474
▁girl	-6.32033
▁groupe	-6.3285
▁dog	-6.33359
▁chien	-6.33774
▁boy	-6.34672
▁T	-6.34713
▁men	-6.35735
▁standing	-6.36768
▁Des	-6.37988
▁playing	-6.38613
shirt	-6.38777
▁hommes	-6.40023
▁group	-6.41854
▁son	-6.41876
is	-6.44756
▁rue	-6.45945
▁rouge	-6.46133
▁street	-6.47429
eux	-6.47608
▁les	-6.49615
▁qu	-6.50435
▁down	-6.51342
▁noir	-6.51402
▁walking	-6.52617
▁D	-6.53024
▁pour	-6.5487
▁blanc	-6.55992
portant	-6.57182
▁front	-6.58683
▁train	-6.58926
▁her	-6.59661
▁̈s	-6.60569
▁holding	-6.63374
▁bÃ	-6.64742
andis	-6.68525
▁cÃ	-6.70661
▁prÃ	-6.72003
▁gens	-6.72594
es	-6.73049
ed	-6.76243
▁water	-6.76393
▁bleu	-6.76718
▁The	-6.7757
▁by	-6.8013
▁fait	-6.80211
eau	-6.80588
nt	-6.82771
▁par	-6.82772
▁petit	-6.8359
▁femmes	-6.84656
▁dÃ	-6.849
▁s	-6.85239
▁sa	-6.85487
▁́t	-6.87232
▁table	-6.87542
▁enfant	-6.88691
▁for	-6.89192
▁qui	-6.89269
▁up	-6.90423
▁orange	-6.91312
▁green	-6.92938
▁women	-6.9302
▁tient	-6.94634
▁An	-6.95927
▁regarde	-6.97775
▁outside	-6.98393
▁child	-6.98507
▁deux	-6.99528
▁vÃ	-6.99992
d	-7.00318
▁Thre	-7.00548
▁large	-7.00904
▁que	-7.01233
▁little	-7.01582
▁enfants	-7.03024
ir	-7.04536
▁joue	-7.04751
looking	-7.04931
▁through	-7.05156
y	-7.05529
▁one	-7.05647
▁photo	-7.06385
▁brown	-7.09448
▁yellow	-7.09838
▁personne	-7.10097
▁two	-7.1074
▁vÃatu	-7.11925
▁ball	-7.13862
▁jouant	-7.14599
▁hat	-7.15462
▁from	-7.16475
▁look	-7.16556
▁person	-7.21035
▁over	-7.23263
lo	-7.24046
▁jaune	-7.24541
▁chemise	-7.24682
▁children	-7.2483
▁other	-7.25075
riÃ	-7.25365
▁next	-7.25578
▁Le	-7.26208
▁small	-7.27106
▁jeunes	-7.29031
▁dressed	-7.30145
lÃ	-7.31315
▁football	-7.31538
▁out	-7.31599
▁Tro	-7.31772
▁jouent	-7.32618
▁as	-7.32979
▁petite	-7.33503
▁building	-7.34529
▁regardant	-7.34599
▁long	-7.34942
▁lors	-7.34954
▁tout	-7.35206
▁dehors	-7.35922
timent	-7.35989
▁marche	-7.36783
▁porte	-7.37929
▁blanche	-7.38438
▁riding	-7.3846
▁running	-7.38795
▁lunettes	-7.3915
▁near	-7.39481
▁People	-7.39483
▁tand	-7.4025
▁stand	-7.4047
▁jacket	-7.40885
▁veste	-7.41203
gÃ	-7.4148
▁couple	-7.41823
▁another	-7.42323
▁be	-7.4241
▁around	-7.42458
air	-7.42586
▁trottoir	-7.44124
▁court	-7.4419
▁air	-7.4573
▁saute	-7.45861
▁some	-7.45972
r	-7.46203
▁regardent	-7.46507
▁assise	-7.46907
▁field	-7.46937
▁beach	-7.47076
▁cheveux	-7.47247
▁sidewalk	-7.47264
ent	-7.47981
▁autre	-7.48033
▁foule	-7.48198
▁Man	-7.4887
▁ses	-7.48959
t	-7.49044
▁vert	-7.50495
▁crowd	-7.51166
▁marchant	-7.51539
▁mÃ	-7.52198
▁plage	-7.52432
▁stands	-7.5449
▁pink	-7.54824
▁snow	-7.55341
▁jumping	-7.55363
▁bleue	-7.55492
▁behind	-7.56047
▁sits	-7.56088
▁face	-7.56259
▁arri	-7.58162
▁der	-7.58932
▁grass	-7.59522
▁main	-7.60788
ly	-7.60852
▁blond	-7.60945
▁̈ne	-7.61203
▁neige	-7.61494
▁background	-7.6217
▁ballon	-7.62343
▁grand	-7.62774
plan	-7.6331
▁rose	-7.64168
▁quelque	-7.64199
▁bike	-7.64964
▁girls	-7.65947
▁chose	-7.66213
il	-7.66587
▁brun	-7.67462
▁city	-7.68454
re	-7.68929
▁player	-7.69008
into	-7.70049
▁park	-7.70193
▁tenue	-7.70929
▁vers	-7.70936
▁rÃ	-7.70965
herbe	-7.71436
dessus	-7.71654
▁fais	-7.72024
▁top	-7.72217
▁L	-7.72292
▁wall	-7.72313
u	-7.72355
▁off	-7.7259
▁filles	-7.72947
▁marchent	-7.73407
▁dress	-7.74222
er	-7.74872
▁that	-7.75011
rieur	-7.75176
▁chapeau	-7.75399
▁robe	-7.75569
▁tennis	-7.75912
tÃ	-7.76067
▁sous	-7.76267
▁camera	-7.76856
▁mur	-7.76928
▁baseball	-7.77173
to	-7.77679
▁course	-7.77797
▁chiens	-7.7811
sieurs	-7.78586
▁costume	-7.79121
▁ville	-7.80089
▁dogs	-7.80509
▁restaurant	-7.80595
▁hold	-7.80725
▁short	-7.80768
▁talking	-7.80826
▁play	-7.80937
▁bois	-7.81234
▁something	-7.81309
▁autour	-7.8184
▁skateboard	-7.82608
▁guitar	-7.82875
▁older	-7.83209
▁hand	-7.8367
▁noire	-7.83771
▁along	-7.84213
▁soleil	-7.84426
▁walks	-7.85056
▁soccer	-7.85059
▁hair	-7.85093
▁font	-7.85386
▁ten	-7.85669
▁food	-7.85685
ons	-7.85839
▁lady	-7.86196
▁together	-7.86432
▁parc	-7.86868
▁balle	-7.87109
▁working	-7.87194
▁guitare	-7.87542
▁car	-7.87712
autre	-7.88631
▁sac	-7.88655
"	-7.88918
▁gray	-7.88959
▁match	-7.90572
▁smiling	-7.91271
▁game	-7.9134
▁tÃ	-7.91566
▁bord	-7.91742
▁picture	-7.92192
▁has	-7.92774
▁boys	-7.92972
▁assises	-7.93042
▁marron	-7.93617
▁ensemble	-7.94246
▁"	-7.94866
▁scÃ	-7.95321
▁shorts	-7.95553
▁Asian	-7.95832
▁plays	-7.96266
▁terrain	-7.96356
▁terre	-7.967
▁jean	-7.97927
▁leur	-7.98115
n	-7.98254
enant	-7.98426
▁habill	-7.98749
▁walk	-7.99293
▁joueur	-7.99551
▁sit	-7.99968
▁Four	-8.00078
iÃ	-8.00469
▁banc	-8.00488
▁maillot	-8.00782
▁gars	-8.00845
▁haut	-8.01023
▁him	-8.01038
▁road	-8.01093
▁bench	-8.01495
bÃ	-8.02053
▁Quat	-8.02262
▁pants	-8.03037
▁glasses	-8.03079
▁stage	-8.04006
▁rock	-8.04042
▁asiatique	-8.04073
▁dirt	-8.04718
▁carry	-8.04813
▁vÃatue	-8.04951
▁lui	-8.05009
▁head	-8.05865
▁Pl	-8.06172
▁it	-8.06523
▁trÃ	-8.07113
▁them	-8.07144
▁pantalon	-8.07472
▁baby	-8.07674
▁bicycle	-8.07877
▁La	-8.07938
▁gris	-8.08046
▁bus	-8.08048
▁voiture	-8.08155
▁tree	-8.08164
▁tÃate	-8.08581
▁side	-8.08973
veral	-8.10396
®	-8.10411
▁C	-8.10579
an	-8.11156
▁casque	-8.12054
▁pose	-8.12681
▁jeans	-8.12916
▁pool	-8.12997
▁race	-8.13058
▁old	-8.13114
▁casquette	-8.13897
each	-8.14177
▁dos	-8.14513
o	-8.14883
▁route	-8.15292
▁verte	-8.16007
▁back	-8.16098
▁doing	-8.17017
▁cheval	-8.17741
▁pull	-8.18308
▁y	-8.18631
▁watching	-8.19253
phone	-8.19326
autres	-8.19338
▁dark	-8.19392
▁grande	-8.20067
▁male	-8.2014
elle	-8.20515
▁middle	-8.20856
▁vÃatements	-8.2106
▁gros	-8.21142
▁trois	-8.21872
▁boat	-8.21987
▁area	-8.22283
leurs	-8.22443
▁bateau	-8.22451
▁who	-8.22567
st	-8.22595
▁suit	-8.24183
▁jumps	-8.24253
a	-8.24513
▁sautant	-8.24559
rois	-8.2471
▁magasin	-8.2479
▁hands	-8.24963
▁pendant	-8.25367
▁piscine	-8.25667
▁band	-8.26039
▁ground	-8.26226
▁sol	-8.26325
▁sand	-8.26328
▁room	-8.26547
▁day	-8.26716
▁sable	-8.26997
▁nourriture	-8.27325
▁champ	-8.2733
▁performing	-8.27545
ton	-8.27708
▁lit	-8.27902
▁female	-8.28957
▁prend	-8.29018
▁eating	-8.29143
▁milieu	-8.29859
▁guy	-8.30247
▁sign	-8.30346
▁courant	-8.3042
▁rouges	-8.30744
▁coat	-8.3083
▁f	-8.31927
▁Il	-8.32023
▁piÃ	-8.32755
▁construction	-8.32909
▁using	-8.32957
▁horse	-8.33215
l	-8.33339
▁sweat	-8.33405
homme	-8.33501
▁under	-8.33705
▁mouth	-8.3385
▁watch	-8.34027
▁bar	-8.34096
▁ray	-8.34625
▁striped	-8.34803
▁microphone	-8.35173
▁store	-8.35218
▁purple	-8.35587
▁faire	-8.3625
▁parle	-8.36992
▁manteau	-8.37212
haired	-8.37996
▁On	-8.38111
▁passe	-8.38307
ne	-8.38905
▁basketball	-8.3896
▁public	-8.39006
▁bras	-8.39257
▁toward	-8.39414
▁he	-8.39601
▁contre	-8.39655
▁S	-8.3973
▁gilet	-8.39805
▁enjoy	-8.3998
▁runs	-8.40316
▁Young	-8.40704
▁mountain	-8.41228
▁machine	-8.4124
▁uniform	-8.41486
▁journ	-8.41947
▁go	-8.41983
▁past	-8.42378
▁color	-8.42468
mÃ	-8.42538
▁sunglasses	-8.42637
▁reading	-8.42699
▁visage	-8.43245
▁clothing	-8.44172
▁three	-8.44172
▁allong	-8.44661
▁souriant	-8.44683
▁vieil	-8.44877
ment	-8.44908
▁blonde	-8.45297
▁line	-8.45427
▁courent	-8.45685
▁travers	-8.4586
▁There	-8.45907
1	-8.45981
▁noirs	-8.46313
▁players	-8.46558
▁hockey	-8.46597
▁toy	-8.47052
quipe	-8.47173
▁ocean	-8.47619
▁tente	-8.48114
▁blancs	-8.48122
▁helmet	-8.48788
▁portable	-8.48797
▁watches	-8.48874
▁micro	-8.49319
▁moto	-8.49346
▁its	-8.49739
▁Se	-8.49797
▁or	-8.49952
▁chemin	-8.50196
▁climbing	-8.50328
vÃ	-8.50568
▁kids	-8.50736
▁salle	-8.5077
▁work	-8.50977
▁sourit	-8.51271
▁again	-8.51888
▁lÃ	-8.5216
in	-8.52312
▁window	-8.53049
▁elder	-8.53417
▁arbre	-8.53671
▁dancing	-8.53994
▁all	-8.54004
▁show	-8.54193
▁basket	-8.54622
ve	-8.54648
▁team	-8.5471
▁montagne	-8.55037
▁march	-8.55301
▁chair	-8.55404
rÃ	-8.56005
▁rides	-8.56393
▁throw	-8.57115
en	-8.57115
▁piste	-8.57496
▁mains	-8.57853
▁costumes	-8.58698
nent	-8.59344
ricain	-8.59501
▁wooden	-8.59597
▁posing	-8.59712
▁catch	-8.5974
▁outdoor	-8.59809
▁fleurs	-8.60333
▁plus	-8.60339
▁about	-8.60635
▁trees	-8.60993
▁figure	-8.61181
▁jeu	-8.61217
▁statue	-8.61601
across	-8.61602
▁travaille	-8.61709
▁cuisine	-8.61716
▁plein	-8.61736
▁covered	-8.61771
▁floor	-8.62215
▁waiting	-8.62649
▁swimming	-8.63081
▁nu	-8.63189
▁fonc	-8.63629
▁jump	-8.64174
▁bain	-8.64746
te	-8.65395
▁pÃ	-8.65922
▁autres	-8.66035
▁bag	-8.66712
▁very	-8.66779
▁workers	-8.66798
▁tan	-8.6753
▁ice	-8.67647
▁colorful	-8.67931
ext	-8.67997
▁busy	-8.68113
▁cap	-8.68174
▁fence	-8.6819
▁instruments	-8.6825
▁parlant	-8.68618
▁singing	-8.68679
▁hav	-8.69167
prÃ	-8.69224
▁Woman	-8.69232
▁get	-8.6952
▁plan	-8.69686
▁clÃ	-8.7026
al	-8.70528
▁high	-8.70602
▁pren	-8.70811
▁truck	-8.70972
▁hill	-8.71075
▁b	-8.71432
▁base	-8.71609
▁bas	-8.72299
▁tenues	-8.72352
▁cart	-8.72436
▁torse	-8.72662
Ãatre	-8.7275
coup	-8.73009
pÃ	-8.73258
▁utilise	-8.73394
▁jouer	-8.73771
hommes	-8.74277
▁nuit	-8.74478
▁open	-8.74761
▁camion	-8.74881
▁book	-8.74944
▁point	-8.74995
le	-8.75095
▁travaillant	-8.75129
▁ski	-8.7537
▁livre	-8.75417
▁ride	-8.75675
▁vÃatus	-8.75704
▁Men	-8.75838
▁jouet	-8.75871
▁joueurs	-8.76396
▁bright	-8.76437
▁laying	-8.76789
▁planche	-8.76828
▁beard	-8.77557
bardeur	-8.77595
▁cellphone	-8.7764
▁kitchen	-8.77847
▁path	-8.77851
▁market	-8.77853
▁inside	-8.78216
▁Seve	-8.78257
▁light	-8.78263
▁structure	-8.78337
▁beige	-8.78339
▁̈ce	-8.78341
▁rampe	-8.78802
▁making	-8.79334
▁grassy	-8.7953
▁ou	-8.79598
▁polo	-8.79855
▁stick	-8.80085
▁brick	-8.80478
▁gueule	-8.80486
▁track	-8.80488
▁semble	-8.80608
▁clothes	-8.80703
▁big	-8.80784
▁umbrella	-8.81178
▁outfit	-8.81184
▁metal	-8.81401
▁travaillent	-8.81519
▁body	-8.81583
▁hats	-8.81609
▁place	-8.81818
▁violet	-8.81855
▁tak	-8.81898
▁motorcycle	-8.81917
▁couch	-8.81943
▁others	-8.8203
enfants	-8.82314
▁swing	-8.82348
▁perform	-8.82361
▁o	-8.82377
▁p	-8.82514
▁concert	-8.82815
▁takes	-8.82881
▁full	-8.83254
▁rocher	-8.8338
▁night	-8.83591
▁shirts	-8.83924
▁musique	-8.84278
▁ouvriers	-8.84327
▁paper	-8.84819
▁cigarette	-8.84855
▁lean	-8.85074
▁ready	-8.85079
▁river	-8.85096
▁fenÃatre	-8.85607
▁instrument	-8.85771
amÃ	-8.85937
▁cycliste	-8.85958
it	-8.86466
▁montre	-8.86598
▁blanches	-8.86674
▁sÃ	-8.86756
▁maison	-8.87173
▁entour	-8.87183
▁chaise	-8.879
▁pierre	-8.87953
▁police	-8.88023
▁tank	-8.88053
oire	-8.88157
▁tire	-8.88438
▁she	-8.88856
uring	-8.8909
▁trouve	-8.89213
ils	-8.89305
▁pont	-8.89439
neig	-8.8956
▁spectateurs	-8.89635
▁dessus	-8.89767
colored	-8.89924
▁bleus	-8.90142
ral	-8.90255
▁sweater	-8.90329
▁hard	-8.904
▁balan	-8.90445
▁push	-8.90847
▁foot	-8.90953
▁shop	-8.90989
▁piece	-8.9114
▁shopping	-8.91167
▁riv	-8.91343
▁bowling	-8.91345
▁c	-8.91698
▁lac	-8.91783
▁trick	-8.91845
tro	-8.92176
▁painting	-8.92185
▁́ture	-8.92256
▁lake	-8.92352
▁appareil	-8.92422
▁chante	-8.92483
inq	-8.92508
▁plu	-8.9278
▁vend	-8.93445
▁bonnet	-8.93466
▁above	-8.93548
▁pelouse	-8.93549
▁entre	-8.93756
▁vest	-8.9402
▁surround	-8.94147
▁dance	-8.94325
▁corde	-8.94363
▁volleyball	-8.9437
pare	-8.9439
▁run	-8.94626
▁coup	-8.94831
▁fÃate	-8.95319
▁stone	-8.9553
objectif	-8.95566
▁wave	-8.96031
▁station	-8.96151
cÃ	-8.9634
▁frÃ	-8.96462
▁lot	-8.96516
▁just	-8.96783
▁zone	-8.96921
▁sport	-8.97065
▁snowy	-8.97179
nÃ	-8.97308
▁marches	-8.97585
▁combinaison	-8.97684
aking	-8.98133
▁music	-8.98391
mi	-8.9846
▁̈res	-8.98509
▁board	-8.98517
▁beside	-8.98567
▁backpack	-8.98609
▁worker	-8.98616
▁Th	-8.98765
ge	-8.98926
tant	-8.99124
▁glace	-8.9952
▁uniforms	-9.00127
▁vague	-9.00202
▁ma	-9.00307
▁objet	-9.00335
▁pole	-9.00498
ball	-9.00622
▁arm	-9.00648
rying	-9.00657
▁tie	-9.01236
▁manger	-9.01324
▁crowded	-9.01543
▁smiles	-9.01635
▁many	-9.01966
ch	-9.02016
▁house	-9.02207
▁posent	-9.02437
▁adultes	-9.02488
oc	-9.02672
▁bikini	-9.02852
▁chariot	-9.02854
▁conversation	-9.0288
▁toddler	-9.02888
▁gear	-9.02913
shirts	-9.03024
▁Fi	-9.0318
▁outdoors	-9.03387
itÃ	-9.03391
▁prom	-9.03571
▁graffiti	-9.03765
▁frisbee	-9.0377
▁adults	-9.03884
▁four	-9.04008
▁drinking	-9.04079
▁parking	-9.04572
▁couleur	-9.04669
▁kid	-9.04696
▁traverse	-9.05357
▁famille	-9.0558
▁regarder	-9.05623
▁saut	-9.06008
▁sort	-9.06084
▁fruits	-9.06189
▁kick	-9.06279
nement	-9.06281
▁forÃat	-9.06501
▁cowboy	-9.06514
▁sacs	-9.06527
▁parlent	-9.06746
▁oranges	-9.06805
i	-9.07337
▁quai	-9.07343
▁gathered	-9.07474
▁briques	-9.07568
▁pieds	-9.08207
▁event	-9.08386
▁hanging	-9.08507
▁photos	-9.08521
▁chaussures	-9.08541
ur	-9.08596
ro	-9.08717
▁attend	-9.09028
hair	-9.09198
▁subway	-9.093
▁bridge	-9.09303
▁African	-9.0931
▁colline	-9.09335
▁elle	-9.09482
▁g	-9.09632
▁̈ve	-9.09764
▁arbres	-9.09792
▁forest	-9.09981
▁family	-9.10255
▁arms	-9.10581
aisant	-9.10828
▁utilis	-9.10908
▁flowers	-9.11009
▁verre	-9.1131
▁preparing	-9.11328
▁object	-9.11331
▁ext	-9.11332
▁fire	-9.1134
▁peint	-9.11444
▁passent	-9.11568
▁grill	-9.11734
▁away	-9.12074
▁phone	-9.1214
▁pass	-9.12156
▁rope	-9.12386
quent	-9.12479
▁sorte	-9.12742
▁set	-9.13046
▁attempt	-9.13165
▁carreaux	-9.13169
▁sleeping	-9.132
▁fontaine	-9.13233
▁prendre	-9.13387
▁steps	-9.13427
▁num	-9.13624
▁like	-9.13848
▁cow	-9.14127
▁take	-9.1418
▁fountain	-9.14225
▁after	-9.14266
▁vieux	-9.14352
▁fishing	-9.14508
▁does	-9.14564
▁adult	-9.1473
▁cour	-9.14738
▁surf	-9.15132
▁Children	-9.15156
▁parade	-9.15209
cross	-9.15495
▁beautiful	-9.16121
▁guys	-9.16256
▁clean	-9.16277
▁tena	-9.16588
▁casques	-9.16761
▁ce	-9.16994
▁met	-9.17003
▁pente	-9.1726
▁descend	-9.17292
▁asian	-9.17293
▁caf	-9.17296
▁sun	-9.177
lors	-9.17841
▁tent	-9.17887
▁barbe	-9.17934
▁su	-9.18199
▁monte	-9.18304
▁parapluie	-9.18344
soleil	-9.184
▁rassembl	-9.1851
▁longs	-9.18549
▁appear	-9.18849
▁can	-9.18932
▁jaunes	-9.19184
chÃ	-9.19185
▁stairs	-9.19369
▁skate	-9.20037
▁tous	-9.20241
▁prepare	-9.20245
▁pousse	-9.20414
▁jupe	-9.20614
▁shoes	-9.20712
▁quelqu	-9.20887
▁pile	-9.20983
▁asiatiques	-9.2109
▁vif	-9.21377
▁graffitis	-9.21393
▁shirtless	-9.21442
x	-9.21442
nny	-9.21571
▁selling	-9.21599
▁̈ge	-9.21627
▁gÃ	-9.21821
▁essay	-9.21848
▁ta	-9.22111
par	-9.22146
▁slide	-9.22256
▁bruns	-9.22313
▁travail	-9.22332
▁papier	-9.2264
est	-9.22953
▁setting	-9.23016
▁re	-9.23048
▁rempli	-9.23308
▁glass	-9.23408
▁Some	-9.23526
▁quatre	-9.23598
▁sommet	-9.23695
▁attendant	-9.23851
▁beau	-9.24159
▁American	-9.24307
▁noires	-9.24568
▁bouche	-9.24643
▁racing	-9.24682
▁flag	-9.24863
▁bo	-9.24881
▁rocks	-9.25255
▁crÃ	-9.2535
▁marathon	-9.25396
▁pÃache	-9.25534
▁corner	-9.25801
▁someone	-9.2581
▁loin	-9.25896
▁party	-9.26051
▁grosse	-9.26329
▁attraper	-9.26568
▁bet	-9.26654
▁drink	-9.26723
▁both	-9.26919
▁feu	-9.26948
▁tall	-9.27179
▁uniforme	-9.27269
▁whi	-9.27345
▁animal	-9.27369
▁balance	-9.2748
▁escalier	-9.27558
▁chairs	-9.27561
ween	-9.28005
▁attendent	-9.28173
▁nombreux	-9.28184
▁flower	-9.28335
▁nombreuse	-9.28409
▁pied	-9.28623
▁view	-9.28907
▁ramp	-9.28984
▁panneau	-9.29144
▁putt	-9.29154
▁genoux	-9.29155
▁equipment	-9.29157
▁plastique	-9.29161
▁ladies	-9.29171
▁frapper	-9.29269
▁laughing	-9.29276
▁roller	-9.29306
▁computer	-9.29398
▁clown	-9.29398
tting	-9.2942
▁have	-9.29458
▁ouvrier	-9.29538
▁bleues	-9.2963
nnent	-9.29748
▁adulte	-9.29806
▁fish	-9.2982
ont	-9.29888
▁F	-9.29974
▁diff	-9.30133
▁trail	-9.3027
▁bureau	-9.3031
▁v	-9.30456
▁pleine	-9.30689
▁toit	-9.3083
▁kayak	-9.30989
▁poses	-9.31038
aged	-9.31058
▁try	-9.31195
▁arts	-9.31331
▁tien	-9.31405
etting	-9.31418
c	-9.31513
▁clair	-9.31535
proxim	-9.31693
▁bi	-9.31803
▁cyclistes	-9.31822
▁wood	-9.31846
▁sans	-9.32113
▁passant	-9.32158
▁sweatshirt	-9.32183
▁robes	-9.32237
▁nus	-9.32238
▁donne	-9.32308
▁dansent	-9.32668
▁tas	-9.32681
▁plastic	-9.32684
▁playground	-9.32695
▁dock	-9.3288
▁cross	-9.33325
▁bath	-9.33466
▁woods	-9.33643
▁golf	-9.33733
▁concrete	-9.3389
▁rod	-9.34032
▁vÃatues	-9.34048
▁attire	-9.34098
▁ligne	-9.34233
▁scooter	-9.34256
▁reach	-9.34341
▁lance	-9.34406
▁hit	-9.3485
▁Quelqu	-9.3501
▁jet	-9.3505
▁winter	-9.35108
▁journal	-9.35155
▁yard	-9.35244
▁pictures	-9.35366
▁coin	-9.35408
▁pancarte	-9.35425
▁vue	-9.35506
▁posant	-9.35636
▁do	-9.35678
▁comp	-9.35797
▁lisant	-9.35802
▁rain	-9.36033
▁drapeau	-9.36348
▁midair	-9.36365
▁spectacle	-9.36409
▁distance	-9.36412
apprÃate	-9.36526
▁feuilles	-9.36632
▁P	-9.3717
▁belle	-9.37194
▁but	-9.37509
▁number	-9.37828
▁rochers	-9.37886
curit	-9.37896
▁skirt	-9.37952
▁ciel	-9.38237
▁airs	-9.38355
▁mat	-9.38458
fil	-9.38544
▁tables	-9.38599
king	-9.38688
tallique	-9.39185
▁microscope	-9.39214
▁montagnes	-9.39681
▁No	-9.39756
w	-9.39789
▁sautent	-9.39811
hiver	-9.40045
▁no	-9.40121
crit	-9.40232
▁comme	-9.40499
▁dort	-9.40515
ting	-9.40568
▁yeux	-9.40841
▁port	-9.41196
▁tunnel	-9.41439
▁what	-9.41471
▁seated	-9.41508
▁lancer	-9.41648
▁chaises	-9.41681
▁mangeant	-9.41702
▁reads	-9.41791
▁repas	-9.42018
▁avant	-9.42099
▁chef	-9.42291
▁sauter	-9.42336
aux	-9.42426
▁maillots	-9.42497
▁escalade	-9.42604
▁sourient	-9.42761
▁cream	-9.42766
▁left	-9.4277
▁tapis	-9.42784
▁barbu	-9.42791
▁sky	-9.42798
▁moyen	-9.4285
▁̈te	-9.42853
▁vendeur	-9.43102
▁fauteuil	-9.43167
▁beer	-9.4348
▁nombre	-9.43552
ying	-9.43714
▁pilote	-9.43788
▁classe	-9.43804
puis	-9.43834
▁motocross	-9.44109
▁chapeaux	-9.44161
▁bikes	-9.44208
▁cooking	-9.4423
▁ordinateur	-9.44325
▁kneel	-9.44513
▁rider	-9.44759
▁vieille	-9.44819
▁bond	-9.44893
▁works	-9.45182
ittle	-9.45205
▁wear	-9.45305
▁cliff	-9.45436
▁sentier	-9.45439
▁smoking	-9.45484
▁Boy	-9.45497
▁where	-9.45581
▁sculpture	-9.45885
▁fruit	-9.45891
▁home	-9.46248
▁ont	-9.46279
▁pick	-9.46842
▁art	-9.46966
▁blouse	-9.47124
tition	-9.47144
▁vests	-9.47197
▁panier	-9.47274
▁school	-9.47277
▁bags	-9.47363
▁glisse	-9.47784
▁bed	-9.47795
▁box	-9.48013
tons	-9.48042
teau	-9.48058
▁toboggan	-9.48197
▁Group	-9.48197
▁̈me	-9.482
▁edge	-9.48298
▁plate	-9.48535
▁snowboarder	-9.48668
▁uniformes	-9.48805
▁fix	-9.48805
▁make	-9.49169
los	-9.4951
▁Frisbee	-9.49605
gumes	-9.49629
▁quelques	-9.4991
▁B	-9.49979
▁tablier	-9.50093
▁crossing	-9.50107
▁plai	-9.50299
▁voitures	-9.50471
▁gauche	-9.50878
▁frappe	-9.51015
▁scarf	-9.51046
quilibre	-9.5106
▁paysage	-9.51127
▁eux	-9.51163
ers	-9.51395
▁right	-9.51441
▁jersey	-9.51561
▁tir	-9.51719
▁cup	-9.51928
▁mountains	-9.52306
▁Women	-9.52481
▁trampoline	-9.52484
▁nearby	-9.52508
▁stop	-9.52833
▁buildings	-9.52996
▁apron	-9.53036
arbres	-9.53185
▁snowboard	-9.53536
▁cana	-9.53802
▁cutt	-9.53826
parent	-9.53917
▁buvant	-9.53955
▁chantant	-9.53984
▁faÃ	-9.54006
▁pench	-9.54007
▁driving	-9.54023
ra	-9.54034
▁cours	-9.5405
▁th	-9.54365
▁jardin	-9.54386
▁skateur	-9.54528
▁surfer	-9.54642
ier	-9.54951
▁brune	-9.551
▁mother	-9.55487
▁leaves	-9.55497
▁pluie	-9.55542
▁barbecue	-9.55694
▁shore	-9.55762
▁blonds	-9.55799
▁friends	-9.55982
▁bottle	-9.56043
▁display	-9.56076
▁smile	-9.56134
▁door	-9.56173
▁skateboarder	-9.5631
ement	-9.56376
tal	-9.56475
▁filled	-9.56523
▁hot	-9.56685
▁morceau	-9.56946
▁boots	-9.56977
▁attach	-9.56989
▁couleurs	-9.56999
▁bottes	-9.57013
▁pav	-9.57121
▁horses	-9.57128
▁star	-9.5713
▁Si	-9.57187
▁bien	-9.57289
▁gants	-9.57348
▁dansant	-9.57375
▁lumi	-9.57411
▁parked	-9.57543
hicule	-9.57546
▁rocheuse	-9.57553
▁shovel	-9.57572
▁doigt	-9.57578
▁vendor	-9.5758
▁fe	-9.57617
▁danse	-9.57863
▁net	-9.57917
▁Person	-9.58047
▁goggles	-9.58511
▁artiste	-9.5855
▁drapeaux	-9.58562
ring	-9.58584
▁battent	-9.58632
▁bowl	-9.58897
▁longue	-9.58913
▁part	-9.59002
▁falaise	-9.59048
▁vehicle	-9.59138
▁roulant	-9.59262
▁boule	-9.5937
▁dame	-9.59373
▁bull	-9.59733
▁time	-9.59822
▁sale	-9.59854
▁anim	-9.59879
ar	-9.59935
▁peinture	-9.6007
▁poteau	-9.60135
his	-9.60206
▁com	-9.60211
▁painted	-9.60235
arri	-9.60322
▁produits	-9.60564
▁drums	-9.60611
▁shot	-9.60689
id	-9.60714
▁il	-9.60721
▁talks	-9.60846
boy	-9.61265
▁coffee	-9.6165
▁jogging	-9.6165
▁flying	-9.61868
tre	-9.61909
▁rocky	-9.62045
▁eyes	-9.62077
▁rail	-9.62098
▁ballons	-9.62179
▁snowboardeur	-9.62284
▁newspaper	-9.62329
▁bouteille	-9.62339
que	-9.62341
▁ge	-9.62356
sert	-9.62481
▁cars	-9.6278
▁safety	-9.63259
▁gentleman	-9.63262
▁bunch	-9.63271
▁membre	-9.6328
▁roof	-9.63283
▁paint	-9.63289
▁dresses	-9.63311
▁grise	-9.63363
▁gather	-9.63395
▁rassemblent	-9.63397
▁surface	-9.63424
▁jeux	-9.63636
se	-9.63662
▁surfeur	-9.63978
▁Old	-9.63982
▁bucket	-9.63984
▁swinging	-9.64117
▁couvert	-9.64265
man	-9.64346
▁verts	-9.64416
▁flags	-9.64582
▁tour	-9.64629
▁giv	-9.6467
▁carrie	-9.64816
▁sports	-9.64916
▁meal	-9.64924
▁practicing	-9.64939
▁spectators	-9.64945
▁waves	-9.6496
▁martiaux	-9.6504
▁centre	-9.6504
▁bicyclist	-9.65076
▁cake	-9.65144
▁gloves	-9.65183
▁ar	-9.65234
▁younger	-9.65343
attraper	-9.65365
▁mÃame	-9.65382
▁ladder	-9.65593
▁essaie	-9.65625
▁policier	-9.65651
▁break	-9.65816
▁mange	-9.66097
▁biker	-9.66487
▁empty	-9.66565
▁competition	-9.66568
▁festival	-9.66568
▁different	-9.6658
▁listening	-9.66645
▁forme	-9.66694
chelle	-9.66718
▁temps	-9.66745
▁wait	-9.66831
▁parler	-9.66986
▁musiciens	-9.6701
▁blanket	-9.6733
▁vitrine	-9.67356
▁masque	-9.67459
▁nage	-9.67498
▁penche	-9.6759
▁examine	-9.6759
▁turn	-9.67599
▁dur	-9.67665
▁co	-9.67866
▁canne	-9.68065
▁certain	-9.68261
▁chevaux	-9.68268
▁capuche	-9.68276
▁poussette	-9.68285
▁peu	-9.68323
tendue	-9.6839
art	-9.68417
▁scene	-9.68452
▁check	-9.68511
out	-9.68516
▁items	-9.68518
▁couverture	-9.69059
de	-9.69084
▁balloon	-9.69111
▁mask	-9.6914
▁cha	-9.69454
▁fils	-9.69476
▁M	-9.69502
▁seau	-9.69654
▁desk	-9.69888
▁audience	-9.69985
▁chantier	-9.69986
▁lawn	-9.70043
▁mangent	-9.70196
▁coupe	-9.70219
▁lire	-9.70409
▁skateboarding	-9.70743
age	-9.70762
arious	-9.70779
▁afro	-9.70806
▁class	-9.7102
▁Beau	-9.71163
▁put	-9.71228
▁railing	-9.71262
entre	-9.71385
riel	-9.71681
et	-9.71709
▁softball	-9.7174
▁rodeo	-9.71742
▁jackets	-9.71751
▁Someone	-9.71752
▁Indian	-9.71769
▁onlookers	-9.71792
▁among	-9.71873
▁pause	-9.71895
timents	-9.72181
uses	-9.72197
▁grands	-9.72418
▁leaps	-9.72431
▁collier	-9.72575
▁traversant	-9.72587
▁Girl	-9.72593
▁cam	-9.7263
▁filet	-9.7272
▁longues	-9.72798
▁cut	-9.72833
▁courses	-9.72923
▁ouverte	-9.72976
▁joueuse	-9.73056
▁drinks	-9.73201
▁lieu	-9.73256
▁slid	-9.73372
▁espace	-9.73572
▁roses	-9.73584
▁vegetables	-9.73787
▁gathering	-9.73957
▁chas	-9.73987
▁obstacle	-9.74027
clair	-9.7407
▁flip	-9.7417
▁m	-9.74273
▁surfboard	-9.74362
▁saxophone	-9.74373
▁tattoo	-9.74416
▁skieur	-9.74458
▁pointing	-9.74525
▁́te	-9.74551
▁bicycles	-9.74676
▁type	-9.74808
▁adolescent	-9.74817
tirant	-9.75059
▁pot	-9.7519
▁bat	-9.75223
▁New	-9.75284
▁premier	-9.75356
▁facing	-9.75425
▁feet	-9.75467
▁collar	-9.75591
▁wet	-9.75616
▁cement	-9.75666
ieurs	-9.7577
▁bulles	-9.75801
▁petites	-9.75873
▁montr	-9.76003
fore	-9.76038
▁manches	-9.76066
▁vertes	-9.76079
▁platform	-9.7615
cran	-9.76201
charpe	-9.76262
▁new	-9.76278
▁poisson	-9.76285
▁bird	-9.76312
▁help	-9.76349
▁argent	-9.76815
▁photographe	-9.77118
▁gold	-9.7718
▁silver	-9.77192
▁tradition	-9.77193
▁wedding	-9.77197
▁batterie	-9.77202
▁rivage	-9.77203
▁competing	-9.77221
rentes	-9.77228
ix	-9.77385
▁speaking	-9.77459
▁descendant	-9.77635
▁droite	-9.77898
▁skis	-9.77922
▁purse	-9.78203
▁sombre	-9.7825
▁laisse	-9.78365
▁skier	-9.78495
▁remplie	-9.78509
▁business	-9.78584
▁wash	-9.78678
▁martia	-9.7886
▁piano	-9.79077
▁hula	-9.79079
▁camouflage	-9.79081
▁classroom	-9.79081
▁performance	-9.79085
genouillÃ	-9.79096
▁counter	-9.79105
▁discutent	-9.79116
▁salon	-9.79149
▁pas	-9.7918
▁bride	-9.79261
▁huge	-9.79444
▁suits	-9.79447
▁country	-9.79448
▁mer	-9.7959
▁pompiers	-9.79672
▁podium	-9.79957
▁helmets	-9.80485
▁employ	-9.81042
elles	-9.81047
▁vagues	-9.81095
▁mett	-9.81194
▁recouverte	-9.81256
▁students	-9.81392
▁rugby	-9.81429
▁lift	-9.81469
▁sings	-9.81584
▁taille	-9.81646
▁hors	-9.8172
▁climbs	-9.81777
▁surfing	-9.81778
▁there	-9.81965
▁cascade	-9.81993
▁h	-9.82053
▁direction	-9.82078
▁violette	-9.82097
▁immeuble	-9.82244
▁teams	-9.82246
▁peluche	-9.82954
▁mirror	-9.82961
▁foulard	-9.82964
▁military	-9.82966
▁repose	-9.83057
▁participe	-9.83065
che	-9.83105
▁alley	-9.83126
▁kissing	-9.83194
parer	-9.83358
▁roll	-9.83605
▁musical	-9.83736
▁boissons	-9.83836
▁inspect	-9.83851
▁dessin	-9.8395
▁stroller	-9.84034
▁flÃ	-9.84132
quipes	-9.84518
▁position	-9.84591
▁Cet	-9.84675
▁marcher	-9.84703
▁taureau	-9.84944
▁terrasse	-9.84963
▁violin	-9.84966
▁violon	-9.84969
▁walkway	-9.8498
▁nettoie	-9.84998
▁writing	-9.85007
cor	-9.85018
▁moment	-9.85021
▁screen	-9.85025
▁cinq	-9.85113
▁transport	-9.85119
▁coucher	-9.85142
▁six	-9.85198
▁projet	-9.85223
▁pelle	-9.85302
▁fighting	-9.8531
▁traverser	-9.85457
▁same	-9.85506
▁talk	-9.85585
▁leap	-9.85736
▁elles	-9.85884
▁comptoir	-9.85946
▁shoulder	-9.86085
▁tape	-9.86437
▁observe	-9.8651
nant	-9.86667
▁recouvert	-9.86738
▁lap	-9.86952
▁chauve	-9.87003
▁sunset	-9.87004
▁artist	-9.87004
quipement	-9.8722
▁clients	-9.87275
▁tableau	-9.87325
▁amis	-9.87551
▁boue	-9.87787
▁randonn	-9.88013
▁runner	-9.88169
▁boisson	-9.88236
▁waits	-9.8827
m	-9.88309
▁electric	-9.88484
▁attrape	-9.88954
▁barefoot	-9.89087
▁mariage	-9.89089
▁waving	-9.89149
▁gym	-9.89178
▁affiche	-9.89197
up	-9.89208
▁roule	-9.89288
▁pa	-9.89694
▁tasse	-9.9003
ette	-9.90125
▁policiers	-9.90248
▁row	-9.90337
▁n	-9.90577
▁close	-9.91069
▁club	-9.91214
▁rousse	-9.91215
▁ciment	-9.91243
▁1	-9.91246
▁wheel	-9.9132
▁Ce	-9.9139
▁females	-9.91466
▁so	-9.91483
tudiants	-9.91532
ans	-9.9176
▁spray	-9.91827
▁athlÃ	-9.91935
▁jette	-9.91961
▁vole	-9.92084
▁seul	-9.92142
▁pre	-9.9224
▁avoir	-9.92375
▁cravate	-9.92473
▁sell	-9.92499
▁conduit	-9.92514
▁officer	-9.92569
escalade	-9.92582
top	-9.92873
▁brandi	-9.93053
▁In	-9.93066
▁va	-9.93127
entra	-9.93193
▁urban	-9.93439
▁father	-9.93451
▁promenant	-9.93452
▁volley	-9.93481
▁profite	-9.93543
▁effectu	-9.9356
▁signs	-9.93574
▁says	-9.93575
▁cordes	-9.93638
▁blowing	-9.93688
▁York	-9.93749
▁voie	-9.93774
▁bubbles	-9.93847
▁fond	-9.93879
▁outfits	-9.93957
▁arrÃat	-9.94281
▁profit	-9.94329
▁cuir	-9.94341
▁examin	-9.94492
lectrique	-9.94626
▁coureur	-9.94709
▁gi	-9.94848
▁touche	-9.94947
pom	-9.9504
▁dents	-9.95087
▁jus	-9.95244
▁O	-9.9532
▁seen	-9.95406
▁bald	-9.95438
▁chemis	-9.95488
▁garage	-9.95618
▁happy	-9.95622
▁leather	-9.95651
▁meat	-9.95681
▁life	-9.9572
▁vive	-9.95783
▁hole	-9.95868
▁skating	-9.95986
ter	-9.96146
▁trou	-9.9615
A	-9.96208
oÃ	-9.96362
▁makes	-9.96512
▁coureurs	-9.9656
▁leg	-9.96633
▁photograph	-9.96692
▁surfe	-9.96776
▁balloons	-9.96804
▁miroir	-9.96858
▁grimpe	-9.96881
▁swim	-9.96924
▁escalator	-9.97138
▁rit	-9.97234
▁chat	-9.9724
▁pouss	-9.97418
▁jockey	-9.97879
▁Construction	-9.97883
▁hang	-9.97883
▁foreground	-9.97883
▁passage	-9.97905
▁brightly	-9.98018
board	-9.98137
▁five	-9.98192
▁alone	-9.98202
▁protection	-9.98209
▁helping	-9.98335
▁musicians	-9.98383
▁local	-9.98487
▁paroi	-9.98498
▁lights	-9.98739
▁pos	-9.98835
▁pom	-9.9893
▁plant	-9.99033
▁hoop	-9.99225
▁magazine	-9.99281
▁motard	-9.99282
▁U	-9.99339
▁mud	-9.99724
▁mari	-9.99738
▁desert	-9.99778
▁surplomb	-9.99835
▁image	-9.999
▁streets	-9.99941
▁ca	-9.9995
▁canoe	-10.0001
▁suspendu	-10.0005
▁effectue	-10.0008
▁monsieur	-10.0021
▁endormi	-10.0021
▁headphones	-10.0023
▁asleep	-10.0024
▁poussiÃ	-10.0024
▁goal	-10.0032
▁well	-10.0034
▁float	-10.0035
▁site	-10.0051
▁oiseau	-10.0053
▁oppos	-10.0057
sentant	-10.0064
▁fa	-10.0077
▁appuy	-10.008
▁umbrellas	-10.0084
▁jouets	-10.0115
▁legs	-10.0115
or	-10.0144
▁made	-10.0146
▁wagon	-10.0157
▁danseuse	-10.0182
▁ne	-10.0198
oit	-10.0199
▁avion	-10.0229
▁fume	-10.024
▁office	-10.0251
ive	-10.0254
▁brush	-10.0256
▁prairie	-10.0259
▁stadium	-10.0259
▁viande	-10.0259
▁promenade	-10.0259
▁discutant	-10.0259
couteurs	-10.026
▁doorway	-10.026
▁sandals	-10.0268
qu	-10.027
▁stade	-10.0271
▁leash	-10.029
▁rest	-10.0292
▁diving	-10.0324
aprÃ	-10.0339
guis	-10.034
▁give	-10.0362
▁drive	-10.0406
rangÃ	-10.0432
▁sh	-10.0446
▁chÃ	-10.0493
▁accordion	-10.0503
▁stuff	-10.0503
ng	-10.0505
▁video	-10.051
▁sandales	-10.0511
▁profonde	-10.0511
▁multicolored	-10.0516
▁cou	-10.0521
▁falling	-10.0537
▁soir	-10.0542
▁pierres	-10.0548
▁tube	-10.0554
▁swings	-10.0564
▁sticks	-10.0574
▁oriental	-10.0578
▁orchestre	-10.0595
▁officers	-10.0607
▁w	-10.0612
▁way	-10.0637
▁speak	-10.0642
▁vi	-10.0643
▁laptop	-10.0659
▁drawing	-10.066
▁̈che	-10.0662
▁accroch	-10.0672
▁photographer	-10.0672
▁cat	-10.0674
g	-10.0705
traÃ	-10.0713
▁frapp	-10.0731
▁teenage	-10.0741
tries	-10.0751
▁kaki	-10.0752
▁church	-10.0752
▁shallow	-10.0752
▁traffic	-10.0753
glise	-10.0754
▁batte	-10.0758
▁souriante	-10.0763
▁Quelque	-10.0772
norme	-10.0773
▁Worker	-10.0776
▁ruelle	-10.0783
int	-10.0783
paules	-10.083
▁faces	-10.0834
arbre	-10.0857
ous	-10.0867
petit	-10.0867
▁climb	-10.0879
▁̈nent	-10.0898
▁skiing	-10.0903
ombre	-10.0923
▁bea	-10.0942
▁vin	-10.0945
eurs	-10.0948
▁toys	-10.0961
▁fun	-10.0966
able	-10.0986
▁vide	-10.1002
▁quartier	-10.1009
▁digging	-10.1009
▁below	-10.101
▁heads	-10.1028
▁pays	-10.1028
▁sled	-10.1037
ade	-10.1041
▁garden	-10.1046
▁hammer	-10.1049
▁plantes	-10.1065
▁pond	-10.109
▁project	-10.1097
▁plonge	-10.1119
▁drum	-10.1124
ish	-10.1127
▁ba	-10.1154
▁brosse	-10.1167
▁́le	-10.1173
▁mouvement	-10.1178
▁raquette	-10.1179
▁barre	-10.118
▁friend	-10.1202
▁action	-10.1208
▁van	-10.1257
▁village	-10.1272
▁silhouette	-10.1272
▁laboratoire	-10.1272
▁hoodie	-10.1273
▁hugging	-10.1273
▁tuyau	-10.1277
▁upside	-10.128
▁brunette	-10.1281
▁dreadlocks	-10.1281
▁taxi	-10.1284
▁relaxing	-10.1293
▁peut	-10.1297
▁mural	-10.1302
▁objets	-10.1333
▁install	-10.1334
▁vestes	-10.1336
▁fans	-10.1345
au	-10.1353
ayant	-10.137
▁includ	-10.1375
▁signe	-10.1404
▁cano	-10.1408
▁divers	-10.1422
▁tourne	-10.1436
▁block	-10.1444
▁stunt	-10.1447
▁tronc	-10.1448
▁multicolore	-10.1452
▁participant	-10.1463
▁endroit	-10.1472
▁cloud	-10.1493
▁sandwich	-10.1521
loigne	-10.1533
aving	-10.1538
lescope	-10.154
▁BM	-10.1541
▁virage	-10.1542
▁poubelle	-10.1542
▁Christmas	-10.1542
▁sauvetage	-10.1542
▁Chinese	-10.1543
▁combat	-10.1543
▁assiette	-10.1549
▁golden	-10.1553
▁sweeping	-10.1558
▁sleeps	-10.1564
enfant	-10.1567
▁courir	-10.1572
▁move	-10.1586
▁mont	-10.1596
▁accroupi	-10.1598
▁pla	-10.1605
k	-10.1607
▁start	-10.1611
▁dancers	-10.1614
aide	-10.162
▁serr	-10.1622
ding	-10.163
▁escalad	-10.1641
▁G	-10.1648
▁males	-10.1662
▁si	-10.1714
▁singer	-10.1726
▁parachute	-10.1727
place	-10.173
▁caisse	-10.1745
▁daughter	-10.1745
▁string	-10.1763
▁courts	-10.1764
▁blow	-10.1778
hiking	-10.1789
▁ring	-10.1803
▁karat	-10.1806
▁hose	-10.1812
▁Guy	-10.1819
▁sieste	-10.182
▁teeth	-10.182
monie	-10.1821
▁telescope	-10.1821
▁patio	-10.1821
▁cadre	-10.1822
▁tissu	-10.1822
▁flies	-10.1823
▁ruban	-10.1823
▁conversing	-10.1824
▁batteur	-10.1825
▁tomb	-10.1827
▁basketteur	-10.1828
▁fumant	-10.1832
▁ruisseau	-10.1832
▁vendre	-10.1836
arts	-10.1839
▁align	-10.1849
▁quad	-10.185
▁trunks	-10.1855
▁cafe	-10.1858
▁nageant	-10.1861
▁resting	-10.1874
▁travailler	-10.1876
▁mo	-10.1895
▁passes	-10.1901
▁points	-10.1911
▁plants	-10.1921
apprÃ	-10.195
▁agent	-10.1958
at	-10.1958
▁balustrade	-10.1995
paule	-10.2012
▁produit	-10.2018
▁jambe	-10.203
▁En	-10.2031
▁adolescents	-10.2041
▁pique	-10.209
▁pier	-10.2104
▁studio	-10.2105
▁Black	-10.2105
▁cricket	-10.2105
▁underneath	-10.2106
▁racket	-10.2107
▁nettoyant	-10.2108
▁wrestling	-10.2108
▁Voic	-10.2119
▁splashing	-10.2121
▁intersection	-10.2121
▁cold	-10.2122
accord	-10.2122
▁lone	-10.2125
▁remorque	-10.2126
▁town	-10.2136
▁regard	-10.2143
▁held	-10.2144
▁eat	-10.2165
▁ex	-10.2168
f	-10.2176
▁shoe	-10.2183
cart	-10.2188
▁bol	-10.2192
▁karate	-10.2225
▁mid	-10.2242
▁stack	-10.2279
▁how	-10.2296
apÃ	-10.2329
▁ferm	-10.233
▁commercial	-10.2342
▁escaliers	-10.2342
▁traÃ	-10.2347
ids	-10.2363
tang	-10.239
▁stroll	-10.2393
▁straw	-10.2393
▁picnic	-10.2399
▁campagne	-10.24
▁solitaire	-10.24
▁themselves	-10.24
▁roulettes	-10.24
▁curly	-10.24
▁dinner	-10.2402
▁gymnase	-10.2405
▁coats	-10.2406
▁paille	-10.2408
▁hall	-10.2412
▁motifs	-10.2418
▁cyclist	-10.2435
▁cercle	-10.2441
▁chase	-10.2451
▁seem	-10.2468
▁gate	-10.2472
▁rient	-10.2475
th	-10.248
▁E	-10.2491
▁cloth	-10.2491
▁card	-10.2493
ure	-10.2508
▁balaie	-10.2514
▁kiss	-10.2521
▁shoulders	-10.2534
▁style	-10.2537
▁chinois	-10.255
▁vol	-10.2573
lin	-10.2585
▁gardien	-10.2592
▁seule	-10.2595
▁partage	-10.2603
la	-10.2607
▁hiker	-10.2615
ation	-10.2645
forme	-10.2646
▁expos	-10.2673
coute	-10.2677
▁roue	-10.2685
▁stream	-10.2691
cupÃ	-10.2691
▁pe	-10.2699
▁carnival	-10.2703
▁wetsuit	-10.2703
▁crosswalk	-10.2703
▁kind	-10.2703
▁fresque	-10.2703
▁heavy	-10.2704
▁produce	-10.2704
▁makeup	-10.2705
▁dirige	-10.271
▁voit	-10.2714
▁protÃ	-10.2716
▁nez	-10.2719
▁crying	-10.2724
▁descendent	-10.2725
appuie	-10.2725
▁wooded	-10.2726
▁formal	-10.274
▁crois	-10.2744
▁partie	-10.2748
eaux	-10.2755
▁individuals	-10.2762
▁roux	-10.2772
▁voile	-10.278
▁deep	-10.2781
▁taken	-10.2784
▁cane	-10.2789
▁knee	-10.281
▁end	-10.2816
▁voir	-10.282
▁riant	-10.2826
▁couper	-10.2843
arrÃate	-10.2847
▁e	-10.2849
▁mix	-10.2859
▁infant	-10.2873
▁gymnaste	-10.2874
▁not	-10.2885
▁doigts	-10.2887
ner	-10.2888
cole	-10.2901
▁gonflable	-10.2919
▁parasol	-10.2921
▁militaire	-10.2922
▁ch	-10.2933
▁fall	-10.2935
▁nose	-10.2935
▁performer	-10.2947
▁gliss	-10.2956
ordinateur	-10.2957
▁slope	-10.296
▁aide	-10.2975
▁fÃ	-10.2979
▁cherche	-10.2984
▁balanc	-10.2988
▁plat	-10.3004
▁jungle	-10.3015
▁trash	-10.3015
▁professional	-10.3016
▁center	-10.3017
▁nice	-10.3018
▁discussion	-10.302
ucoup	-10.3028
ez	-10.3029
▁lunch	-10.3035
▁post	-10.3035
▁sewing	-10.3038
▁finish	-10.3048
▁covering	-10.3048
▁queue	-10.3052
lying	-10.3053
▁tend	-10.3054
▁pigeons	-10.3055
▁tricks	-10.3058
▁closed	-10.3059
▁members	-10.3061
▁driver	-10.3063
▁roulent	-10.3066
▁bout	-10.3066
▁Dog	-10.3081
▁soldats	-10.309
orÃ	-10.3098
▁̈rement	-10.3121
z	-10.3134
▁nouveau	-10.3147
▁chevauche	-10.3157
▁pin	-10.3168
▁po	-10.3173
▁lab	-10.3181
▁practice	-10.3195
▁tÃates	-10.3196
▁patient	-10.3204
▁urbain	-10.3205
▁mov	-10.3206
▁balcon	-10.3222
▁patin	-10.3229
▁button	-10.3234
▁square	-10.324
▁adverse	-10.3244
▁pompier	-10.3245
▁booth	-10.3246
▁randonneur	-10.3246
▁baskets	-10.3247
▁circle	-10.3251
▁gun	-10.3258
▁hauts	-10.326
▁log	-10.3264
nique	-10.3273
▁fight	-10.3289
ndis	-10.3291
▁gril	-10.3292
ty	-10.33
▁toute	-10.3309
ci	-10.3314
▁guitariste	-10.3314
▁gare	-10.3321
coutant	-10.3337
▁himself	-10.3337
▁third	-10.3337
▁marteau	-10.3338
▁lanceur	-10.3343
▁balcony	-10.3346
▁speed	-10.3346
▁derby	-10.3347
▁gazon	-10.3349
▁manteaux	-10.3379
▁montent	-10.3385
▁dances	-10.3391
▁opening	-10.3407
eur	-10.3414
▁print	-10.342
ie	-10.342
▁film	-10.343
▁souffle	-10.3432
▁randonneurs	-10.3432
▁jambes	-10.3452
▁use	-10.3486
▁pois	-10.3487
us	-10.3493
cette	-10.351
▁ressemble	-10.3514
▁prÃat	-10.3533
▁sourire	-10.3554
tend	-10.3564
▁hÃ	-10.3569
▁vache	-10.3575
▁athlete	-10.3578
▁neck	-10.3582
onnant	-10.3584
▁device	-10.3585
▁indoor	-10.3597
▁mouill	-10.3606
▁shav	-10.3609
ny	-10.3611
▁hautes	-10.3618
▁eye	-10.3655
▁tabouret	-10.3671
▁staircase	-10.3671
▁monticule	-10.3671
▁travaux	-10.3671
▁supermar	-10.3673
▁monde	-10.3673
▁bagages	-10.3673
▁parcours	-10.3678
▁poutre	-10.3684
▁langue	-10.3684
▁balls	-10.3697
▁camping	-10.3707
▁chanteur	-10.3708
flÃ	-10.3715
▁deck	-10.372
▁traditionnels	-10.3721
▁fer	-10.3743
▁montant	-10.3745
▁boxes	-10.3746
avant	-10.3757
▁pr	-10.376
▁plateau	-10.3762
▁most	-10.3787
▁indienne	-10.3797
▁repair	-10.3798
▁gymnast	-10.3824
ricains	-10.3851
▁pantalons	-10.3876
▁grind	-10.3879
▁perche	-10.3913
▁tatouage	-10.3923
▁poster	-10.3928
▁sheet	-10.3933
▁musicien	-10.3935
▁chefs	-10.395
▁frame	-10.4004
▁grocery	-10.4015
▁couloir	-10.4015
▁publique	-10.4015
▁gentlemen	-10.4016
▁garb	-10.4016
▁puddle	-10.4016
▁circulation	-10.4016
▁fresh	-10.4016
▁salto	-10.4017
▁heureux	-10.4019
▁produis	-10.4023
▁fallen	-10.4023
▁lay	-10.4037
▁direct	-10.4042
▁compos	-10.4044
▁overalls	-10.4052
less	-10.4059
covered	-10.4064
▁chantent	-10.4072
semblent	-10.4093
▁paved	-10.4098
▁blocks	-10.4132
O	-10.4133
▁livres	-10.4134
▁balai	-10.414
▁J	-10.4146
▁couvre	-10.4152
▁swims	-10.416
▁r	-10.418
▁couverte	-10.4191
▁admir	-10.4194
▁jour	-10.4206
▁pain	-10.4225
▁porch	-10.423
▁fair	-10.4252
▁bon	-10.4258
rieure	-10.4259
▁waterfall	-10.4261
▁pitcher	-10.4278
▁cavalier	-10.4278
▁guard	-10.428
▁̈que	-10.428
▁round	-10.4282
▁conduis	-10.4318
allÃ	-10.433
▁I	-10.4337
▁vid	-10.4339
▁dancer	-10.4341
ricaine	-10.4346
▁travel	-10.4348
▁steep	-10.4365
▁palm	-10.437
▁curb	-10.4371
▁laundry	-10.4372
▁salopette	-10.4373
claboussures	-10.4373
▁airplane	-10.4374
▁gamin	-10.4375
▁passerelle	-10.4375
▁conf	-10.4376
affrontent	-10.4378
▁flight	-10.4382
▁dorm	-10.4383
▁pitch	-10.4386
▁ledge	-10.4387
▁professionnelle	-10.4396
▁stool	-10.4398
▁luge	-10.4404
urs	-10.4406
ts	-10.4412
▁customers	-10.4417
▁comment	-10.4419
ight	-10.4426
▁fingers	-10.4429
▁climber	-10.4433
▁carton	-10.444
▁load	-10.4455
▁teenagers	-10.4464
▁militaires	-10.448
▁hikers	-10.4483
▁books	-10.4505
▁peau	-10.4512
mall	-10.4525
▁haute	-10.4529
▁nature	-10.4543
▁birds	-10.455
ping	-10.4562
ssant	-10.4579
▁kicks	-10.4594
▁camp	-10.4594
h	-10.4595
▁volant	-10.46
▁barri	-10.4601
▁chain	-10.4616
▁cape	-10.4618
ion	-10.464
▁khaki	-10.4647
rents	-10.4656
▁rollers	-10.4661
▁teenager	-10.4667
▁marching	-10.4672
▁publicit	-10.4676
▁ouvre	-10.4676
▁pipe	-10.4676
▁present	-10.4686
▁machines	-10.4697
▁parapluies	-10.4697
▁chemises	-10.4708
isant	-10.4708
▁clear	-10.4713
appareil	-10.473
▁cadeau	-10.4741
▁VTT	-10.4741
▁pyjama	-10.4741
▁fabric	-10.4741
▁bandana	-10.4742
▁flaque	-10.4743
▁bouquet	-10.4743
▁imposant	-10.4743
▁denim	-10.4743
▁backyard	-10.4743
▁paddling	-10.4745
▁Here	-10.4748
amusent	-10.4749
▁humide	-10.475
▁chaussette	-10.4756
▁cuisinier	-10.4757
▁evening	-10.4758
▁V	-10.4759
▁pattes	-10.4762
▁attached	-10.4767
▁opposi	-10.4777
▁touristes	-10.4778
▁shooting	-10.478
▁arena	-10.4781
▁rang	-10.481
▁tombe	-10.4826
▁tracks	-10.4837
▁tenir	-10.4853
▁bend	-10.4861
▁lies	-10.4879
▁ferr	-10.4887
unis	-10.4888
▁laugh	-10.4899
▁tee	-10.4905
▁jolie	-10.4923
▁ship	-10.4927
▁shoot	-10.4932
▁pro	-10.4933
▁chevauch	-10.497
▁nap	-10.4976
▁plaque	-10.4989
yant	-10.4989
▁raft	-10.499
▁st	-10.4996
▁windows	-10.4999
rence	-10.5007
▁lasso	-10.5016
▁tongue	-10.5017
▁mound	-10.502
▁chambre	-10.5021
▁keyboard	-10.5021
▁floral	-10.5024
▁rambarde	-10.5025
▁serviette	-10.503
▁wheelchair	-10.503
▁alimentaire	-10.5031
▁soldat	-10.5034
ce	-10.5043
▁ami	-10.5055
sant	-10.5084
▁crouche	-10.5089
▁repr	-10.5091
p	-10.5095
▁feuille	-10.51
▁cage	-10.5101
hÃ	-10.5111
▁Child	-10.5126
▁Japan	-10.5126
▁pavement	-10.5127
▁luggage	-10.5127
▁inflatable	-10.5127
▁attentivement	-10.5128
▁rayures	-10.5129
▁warm	-10.5131
▁balade	-10.514
▁poles	-10.5157
▁agit	-10.5157
▁shade	-10.5176
▁articles	-10.5187
▁vie	-10.5188
▁rues	-10.5193
▁PÃ	-10.5198
part	-10.52
▁arbitre	-10.5201
amusant	-10.521
▁fenced	-10.5211
▁cones	-10.5214
▁live	-10.522
onto	-10.5224
rs	-10.5225
▁file	-10.5251
▁tile	-10.527
▁wine	-10.529
▁waters	-10.5293
▁plane	-10.53
men	-10.5303
▁engag	-10.5307
▁directions	-10.5311
▁ear	-10.5317
▁fan	-10.5325
rie	-10.5351
▁colors	-10.5389
▁peign	-10.5411
▁bandanna	-10.5413
▁hurdle	-10.5421
▁container	-10.5423
and	-10.5425
▁tricycle	-10.5428
▁bottom	-10.5429
▁portrait	-10.5431
▁swimsuit	-10.5432
▁motos	-10.5436
▁cook	-10.5469
▁̈ves	-10.5477
▁thÃ	-10.548
▁tub	-10.5482
▁verres	-10.55
▁fast	-10.5512
▁record	-10.5519
▁radeau	-10.5525
▁monument	-10.5526
▁clavier	-10.5526
▁railroad	-10.5526
▁married	-10.5526
▁tractor	-10.5526
▁joyeusement	-10.5526
▁boivent	-10.5527
▁courtyard	-10.5527
▁goalie	-10.5527
▁Santa	-10.5527
▁rassemblement	-10.553
▁model	-10.5532
▁berger	-10.5533
▁juggling	-10.5533
▁accident	-10.5538
▁tracteur	-10.5538
▁referee	-10.5538
▁landscape	-10.5548
▁descendre	-10.555
▁sea	-10.5552
▁buying	-10.5556
▁name	-10.5564
▁ha	-10.557
▁pointe	-10.5572
▁fris	-10.5575
▁boire	-10.5576
▁nouvelle	-10.5576
▁chest	-10.5584
▁compete	-10.5605
▁branches	-10.5612
▁seat	-10.5623
▁nageur	-10.5629
▁laughs	-10.5629
▁footballeurs	-10.5645
▁surfant	-10.5646
like	-10.5661
▁outils	-10.5662
▁linge	-10.5669
▁bou	-10.5674
▁fill	-10.5674
▁passer	-10.5681
▁discuss	-10.5681
atteindre	-10.5688
talons	-10.5691
eign	-10.5693
▁serre	-10.5711
▁eats	-10.5722
serte	-10.5773
▁indien	-10.5789
apprÃat	-10.579
▁low	-10.5807
▁mus	-10.5811
▁pit	-10.5831
▁pancartes	-10.5834
▁skirts	-10.5837
▁trottinette	-10.5841
▁towel	-10.5847
▁soldier	-10.585
▁musician	-10.5851
▁lead	-10.5853
▁pou	-10.5853
ian	-10.5862
▁footballeur	-10.5864
▁́tur	-10.5872
▁rame	-10.5901
▁chauss	-10.5929
▁H	-10.593
▁acousti	-10.5942
▁allemand	-10.5943
▁happily	-10.5943
▁banjo	-10.5943
▁yoga	-10.5943
▁adjust	-10.5943
▁natation	-10.5943
▁casual	-10.5943
▁ceinture	-10.5943
▁camionnette	-10.5943
▁chacun	-10.5943
▁carriage	-10.5943
▁garbage	-10.5943
roport	-10.5943
▁acoustique	-10.5944
▁coudre	-10.5944
▁marketplace	-10.5945
▁carpet	-10.5945
▁sapin	-10.5948
▁pajamas	-10.5949
▁bucking	-10.595
▁blouson	-10.595
▁socks	-10.5956
▁Male	-10.596
▁scaffolding	-10.5962
▁backwards	-10.5962
▁cheering	-10.5966
▁adversaire	-10.5967
▁bread	-10.5967
▁shape	-10.5967
▁touching	-10.598
▁feed	-10.5985
rer	-10.5987
▁ambulant	-10.5991
▁alpiniste	-10.5992
▁hay	-10.5997
▁you	-10.5997
▁wind	-10.6008
ither	-10.6009
C	-10.6009
▁ro	-10.6011
▁goods	-10.6015
▁protecti	-10.6017
▁step	-10.6018
merican	-10.6018
▁parents	-10.6021
▁fly	-10.6022
▁touch	-10.6027
▁fai	-10.603
▁tools	-10.603
▁vast	-10.6032
▁soldiers	-10.6036
vant	-10.6044
▁motorcycles	-10.6056
▁shown	-10.6079
▁mustache	-10.6083
▁prise	-10.6087
▁caresse	-10.6096
▁moves	-10.61
ies	-10.6105
▁support	-10.6111
▁magazines	-10.6112
▁pair	-10.6132
▁shin	-10.616
▁wrappe	-10.6169
side	-10.6193
▁W	-10.6215
▁jerseys	-10.6216
▁brillant	-10.6228
skinn	-10.6232
argent	-10.6232
▁riders	-10.624
▁rural	-10.6243
▁unique	-10.6251
▁mais	-10.6265
▁pratique	-10.6272
▁circuit	-10.6276
▁advertisement	-10.628
line	-10.628
chafaudage	-10.6282
▁kilt	-10.6284
▁groom	-10.6289
▁bubble	-10.6291
▁shak	-10.633
ret	-10.6366
▁coÃ	-10.6374
▁sheep	-10.6375
▁German	-10.6377
▁athletic	-10.6377
▁corpulent	-10.6377
▁gradins	-10.6377
▁mannequin	-10.6377
▁turquoise	-10.6377
▁plaza	-10.6377
▁caught	-10.6378
▁rebord	-10.6378
▁stove	-10.6378
▁White	-10.6378
▁underwater	-10.638
▁pagaie	-10.638
▁airport	-10.638
▁welding	-10.6382
▁discuter	-10.6385
sleeved	-10.6386
▁teacher	-10.6388
▁tatou	-10.6389
▁bassin	-10.6393
▁serving	-10.6393
▁map	-10.6395
▁harness	-10.6398
▁buissons	-10.6401
▁mobile	-10.6401
▁pouce	-10.6404
▁peace	-10.6404
▁dining	-10.6409
▁raised	-10.6414
▁battant	-10.6421
▁blocs	-10.6427
vision	-10.6431
▁foin	-10.6434
▁coach	-10.6438
▁living	-10.6438
embrassant	-10.6442
▁repos	-10.6446
▁dry	-10.6455
▁tirer	-10.6461
▁mord	-10.6468
▁maÃ	-10.6481
cher	-10.6484
b	-10.6487
ger	-10.6496
S	-10.6514
issant	-10.6537
tier	-10.6549
▁participat	-10.6551
▁vives	-10.6553
volant	-10.6577
▁cartes	-10.6596
▁poissons	-10.6601
▁paints	-10.6655
▁ajuste	-10.6658
way	-10.6678
▁poil	-10.669
amp	-10.6707
▁tag	-10.6717
fully	-10.6717
▁pris	-10.672
▁turban	-10.6736
▁gobelet	-10.6737
▁student	-10.6739
▁animals	-10.674
▁tr	-10.6792
▁aid	-10.6799
▁i	-10.6809
▁kiosque	-10.6832
▁manifestation	-10.6832
▁polka	-10.6832
▁plafond	-10.6832
phonique	-10.6832
▁Street	-10.6832
▁haircut	-10.6832
▁nettoyer	-10.6833
▁native	-10.6833
▁gravel	-10.6833
▁fluo	-10.6835
▁half	-10.6841
▁tongs	-10.6843
▁operating	-10.6843
▁identiques	-10.6848
▁bateaux	-10.685
▁mom	-10.685
▁hooded	-10.6853
▁occup	-10.6856
▁hood	-10.6862
▁backpacks	-10.6864
▁rire	-10.6868
▁marchandises	-10.6869
▁glaces	-10.6873
▁graviss	-10.6894
▁pÃacheur	-10.6916
▁́nes	-10.6917
▁soude	-10.692
▁herbes	-10.6923
▁ramass	-10.6935
▁boats	-10.6936
▁ordures	-10.6936
▁cabine	-10.6961
▁thrown	-10.6969
P	-10.6972
▁achet	-10.6977
ic	-10.6998
▁multicolores	-10.7
▁skateboards	-10.7001
▁grilling	-10.7003
attractions	-10.7009
ked	-10.7011
adultes	-10.7018
▁wa	-10.7031
▁runners	-10.704
▁savoure	-10.7057
▁ouvert	-10.7062
▁walls	-10.7074
sÃ	-10.7087
▁bouteilles	-10.7101
▁form	-10.7127
uvre	-10.7137
▁fin	-10.7141
▁murs	-10.7141
▁per	-10.7145
▁droit	-10.716
▁colle	-10.7187
▁flottant	-10.7191
▁fum	-10.7192
▁peer	-10.7193
▁routine	-10.7194
▁publicitaire	-10.7203
▁opponent	-10.7209
▁ordinateurs	-10.7211
tranger	-10.7211
▁magnifique	-10.7211
▁chaussure	-10.7215
▁individual	-10.7217
▁visages	-10.7224
ew	-10.7243
▁sculpt	-10.7253
▁wire	-10.7258
▁protest	-10.7267
▁danseurs	-10.729
▁pleure	-10.7304
pt	-10.7305
▁wi	-10.7306
lange	-10.7307
▁ATV	-10.7308
▁auditorium	-10.7308
▁pizza	-10.7308
▁vitesse	-10.7308
▁bathroom	-10.7308
▁discours	-10.7308
▁headscarf	-10.7308
▁hallway	-10.7308
cipient	-10.7308
▁DJ	-10.7309
▁orchestra	-10.7309
▁presentation	-10.7309
▁youth	-10.7309
▁probabl	-10.7311
▁ressemblant	-10.7311
▁candy	-10.7312
▁dormir	-10.7317
▁lacrosse	-10.7317
▁commence	-10.7318
▁redhead	-10.7318
▁sink	-10.7319
▁heels	-10.732
▁things	-10.7321
▁Europe	-10.7321
▁cuisinant	-10.7321
▁money	-10.7322
▁checkered	-10.7322
▁spread	-10.7325
▁contrÃ	-10.7331
▁pedestrians	-10.7331
▁wide	-10.7332
▁toucher	-10.7337
▁arrive	-10.7343
▁passagers	-10.7345
▁tomber	-10.7347
▁farm	-10.7355
▁menu	-10.7369
ration	-10.737
▁approach	-10.737
▁frais	-10.7371
jeuner	-10.7375
arrow	-10.7387
▁rafting	-10.74
▁Sur	-10.7409
▁sleeve	-10.7415
▁jongle	-10.7419
▁pack	-10.743
ches	-10.7432
▁bro	-10.7434
▁oiseaux	-10.7434
▁musel	-10.7444
▁fleur	-10.7446
origine	-10.7456
▁fl	-10.7472
▁cartons	-10.7472
▁cover	-10.7482
dÃ	-10.7496
▁motards	-10.7502
▁cyclists	-10.7506
lays	-10.7511
red	-10.7518
▁attrap	-10.7546
▁photographs	-10.7552
▁types	-10.7564
▁mudd	-10.7574
▁dit	-10.7578
contract	-10.759
▁construis	-10.7593
▁vehicles	-10.7599
▁benches	-10.7601
▁interact	-10.7631
▁fauteuils	-10.765
ufs	-10.7663
▁pan	-10.7665
tiste	-10.7689
▁fil	-10.769
▁drummer	-10.7694
▁relax	-10.7701
▁ramasse	-10.7708
▁jumpsuit	-10.7713
▁soda	-10.7722
▁̈ges	-10.7727
down	-10.7729
ate	-10.7737
▁design	-10.7752
▁ropes	-10.7758
me	-10.7758
▁tool	-10.7765
▁gant	-10.7766
▁grab	-10.7778
▁danser	-10.7794
▁heart	-10.7794
▁́ne	-10.7794
▁craft	-10.78
▁ballet	-10.7807
▁blazer	-10.7808
▁speech	-10.7808
▁Brown	-10.7808
▁ceiling	-10.7808
▁racetrack	-10.7808
▁entrance	-10.7809
▁badge	-10.7809
▁harnais	-10.781
▁patinoire	-10.781
▁trompette	-10.781
▁int	-10.781
▁machinery	-10.7811
▁grimpant	-10.7814
embrassent	-10.7815
▁leaf	-10.7816
▁hospital	-10.7816
▁puck	-10.7817
▁pattern	-10.7821
▁cone	-10.7822
▁policeman	-10.7825
▁summer	-10.7826
▁aliments	-10.785
▁pourchass	-10.7852
▁travailleurs	-10.7872
▁passengers	-10.7874
▁soulev	-10.7874
▁St	-10.788
▁racer	-10.7882
▁chaude	-10.7886
▁chanter	-10.7887
▁africains	-10.7888
▁grille	-10.7904
▁sword	-10.794
▁snowboarding	-10.7949
▁guide	-10.7949
▁sets	-10.795
▁prÃats	-10.7951
▁basse	-10.7953
▁oreilles	-10.7957
▁animaux	-10.7962
▁ears	-10.7976
rique	-10.798
▁planches	-10.7997
▁pins	-10.7999
▁charge	-10.8003
▁ras	-10.8016
▁urbaine	-10.8019
▁rais	-10.8021
▁photographi	-10.8031
▁casquettes	-10.8032
▁aire	-10.8032
▁we	-10.8039
▁suspende	-10.8043
▁rests	-10.8058
▁filets	-10.8073
▁overlook	-10.8089
▁situ	-10.81
▁sortant	-10.8109
▁mar	-10.8114
hicules	-10.8118
voie	-10.8124
▁sha	-10.8134
oth	-10.8148
criv	-10.8153
▁rowing	-10.8164
▁tops	-10.8169
▁read	-10.8177
▁ancien	-10.8181
talliques	-10.8182
▁bancs	-10.8184
▁tambour	-10.8199
▁froid	-10.8199
▁stra	-10.8204
▁branche	-10.8206
▁gravier	-10.822
▁inspecte	-10.8223
siÃ	-10.8225
▁trumpet	-10.8228
▁automatique	-10.8232
ped	-10.8239
▁formation	-10.824
ful	-10.824
▁beverage	-10.824
▁grimace	-10.8241
▁pneu	-10.8241
▁glove	-10.8243
▁good	-10.8245
▁John	-10.8246
▁cleans	-10.8249
▁smoke	-10.8257
▁beam	-10.8258
▁palet	-10.8267
trange	-10.8275
▁visible	-10.828
neur	-10.8282
dical	-10.8294
▁carte	-10.8299
▁tourn	-10.8303
vent	-10.8315
▁bow	-10.8316
▁buy	-10.8318
▁enter	-10.8321
▁bear	-10.8332
▁voyage	-10.8332
▁museum	-10.8334
▁quarterback	-10.8334
▁Blond	-10.8334
▁impliqu	-10.8334
▁peindre	-10.8334
▁ornate	-10.8334
sentation	-10.8334
▁Crowd	-10.8334
▁herself	-10.8334
▁donkey	-10.8335
▁chanson	-10.8335
▁boardwalk	-10.8335
▁rapidement	-10.8335
▁possibly	-10.8335
▁horseback	-10.8336
▁crÃate	-10.8336
▁spinning	-10.8337
▁hillside	-10.8337
▁stopped	-10.8338
▁paix	-10.8339
▁african	-10.834
▁boueuse	-10.8343
▁bushes	-10.8346
clabouss	-10.8347
▁moteur	-10.8348
▁chanteuse	-10.8351
▁ho	-10.8357
▁branch	-10.8357
▁incendie	-10.8363
▁keep	-10.8369
▁visit	-10.8375
▁̈vres	-10.8388
▁nagent	-10.8388
▁wrestler	-10.8394
cuba	-10.8406
▁maman	-10.8412
▁partielle	-10.8427
▁paddle	-10.8433
rienne	-10.8435
▁jou	-10.8435
▁crosses	-10.8461
▁raise	-10.8498
▁flipp	-10.8507
▁plac	-10.8513
▁pilot	-10.8542
▁faux	-10.8553
▁je	-10.8555
▁ballerine	-10.857
▁batter	-10.8576
▁serve	-10.8576
ciel	-10.859
▁pen	-10.8598
▁rough	-10.8603
▁pots	-10.8609
▁lave	-10.8612
▁me	-10.8629
amis	-10.865
▁̈tes	-10.8656
▁plaqu	-10.8656
▁bikers	-10.8661
▁rails	-10.8669
▁creus	-10.8708
quel	-10.8712
ll	-10.8713
▁portables	-10.8739
▁tropical	-10.8749
▁scooters	-10.875
▁exp	-10.8757
▁choses	-10.8766
▁accroupie	-10.877
▁poitrine	-10.8775
▁balles	-10.8777
▁slides	-10.8788
▁snack	-10.8794
▁motorcyclist	-10.8795
▁vÃatement	-10.8798
▁song	-10.8816
▁garde	-10.8818
▁couples	-10.8823
▁cheer	-10.8832
▁vitre	-10.8839
▁participate	-10.8842
▁enseigne	-10.8844
▁moustache	-10.8849
ally	-10.8855
▁bijoux	-10.889
▁nautique	-10.889
▁́pital	-10.889
▁billard	-10.889
▁neighborhood	-10.889
▁miniature	-10.889
▁Moyen	-10.889
▁tramway	-10.889
▁atelier	-10.889
▁carnaval	-10.889
▁maroon	-10.889
▁brouette	-10.889
▁Coca	-10.889
▁coiffure	-10.889
▁puppy	-10.889
▁cobble	-10.889
▁maquillage	-10.889
▁celebrating	-10.8891
▁outstretched	-10.8891
▁Homme	-10.8892
▁squatting	-10.8892
▁sportif	-10.8892
▁firetruck	-10.8893
▁great	-10.8894
▁vu	-10.8894
▁fencing	-10.8895
▁collection	-10.8895
▁cabane	-10.8895
▁flanc	-10.8896
▁lampe	-10.8897
▁panneaux	-10.8899
▁clay	-10.8902
▁papa	-10.8904
▁service	-10.8904
▁dishes	-10.8908
▁mall	-10.8909
▁africaine	-10.8909
▁handstand	-10.8909
▁battre	-10.8909
▁talent	-10.8912
rubber	-10.8913
▁expression	-10.8913
▁envelopp	-10.8914
▁journaux	-10.892
▁foire	-10.8933
▁scouts	-10.8933
pped	-10.8936
▁Texas	-10.8945
▁dust	-10.8958
▁farmer	-10.8966
accroche	-10.8981
pping	-10.8988
▁plancher	-10.8988
▁plongeur	-10.8991
▁attention	-10.9003
▁semi	-10.9021
rant	-10.9039
▁seats	-10.9042
amuse	-10.9045
▁converse	-10.9062
▁indoors	-10.9078
▁dish	-10.9078
▁calm	-10.9081
ry	-10.9089
▁Bo	-10.909
▁marine	-10.9092
▁levant	-10.9097
▁drap	-10.9097
▁creuse	-10.91
chissant	-10.91
ning	-10.912
▁ahead	-10.9131
▁soul	-10.9153
▁arc	-10.9156
▁dessous	-10.9163
▁al	-10.9183
ou	-10.9185
▁circule	-10.9186
mment	-10.9195
corps	-10.9198
tudiant	-10.9207
uff	-10.9209
▁guitarist	-10.9212
▁buckets	-10.9215
▁drill	-10.9215
▁decorate	-10.9219
▁bottles	-10.9242
▁engage	-10.9264
▁plates	-10.9301
TM	-10.9301
ble	-10.9315
▁sack	-10.9317
▁fra	-10.9335
▁mini	-10.9336
▁baril	-10.9341
ling	-10.9346
▁sing	-10.9351
▁heureuse	-10.9366
▁professionnel	-10.9367
▁papillon	-10.9372
▁ombrelle	-10.9379
▁fusil	-10.9379
▁doctor	-10.938
▁storefront	-10.9382
▁cerf	-10.9384
▁swimmer	-10.9384
▁finger	-10.9386
▁chiot	-10.9388
▁broom	-10.9389
▁́	-10.939
▁item	-10.939
▁belt	-10.9392
▁wakeboard	-10.9398
minin	-10.9398
car	-10.9417
tendant	-10.9422
illÃ	-10.9428
▁brique	-10.9454
▁microphones	-10.9463
abri	-10.9469
▁wrestle	-10.9471
▁order	-10.9478
▁Square	-10.9478
▁aquarium	-10.9478
▁patauge	-10.9478
▁nacelle	-10.9478
▁pinata	-10.9478
▁victoire	-10.9478
▁conducteur	-10.9478
▁calf	-10.9478
▁gymnastique	-10.9478
flops	-10.9479
▁wife	-10.9479
▁scenery	-10.9479
▁chalk	-10.948
▁hi	-10.9481
▁disput	-10.9484
igÃ	-10.9487
▁ballerina	-10.9487
▁rocheux	-10.9488
▁ventre	-10.949
▁stretching	-10.949
▁partout	-10.949
▁newly	-10.9491
▁crew	-10.9492
occupe	-10.9493
▁carving	-10.9493
▁crouching	-10.9506
▁odd	-10.951
▁first	-10.951
▁paire	-10.9512
▁canal	-10.9516
▁cheerleaders	-10.9516
▁receiv	-10.9518
▁cool	-10.952
▁palmiers	-10.9522
▁space	-10.9522
▁tache	-10.9533
▁choir	-10.9533
▁stripes	-10.9539
▁stones	-10.9545
▁sortie	-10.9548
toffe	-10.955
▁observent	-10.955
▁collÃ	-10.9557
▁hugs	-10.956
▁vente	-10.9562
▁stares	-10.9562
▁skates	-10.9567
▁lanc	-10.9568
▁rink	-10.9569
▁crafts	-10.9576
▁kite	-10.9576
▁amid	-10.9578
▁smokes	-10.9583
▁char	-10.9589
▁tap	-10.9592
▁maisons	-10.9598
▁gas	-10.9601
▁Asiatiques	-10.9615
▁iron	-10.9632
▁admire	-10.9634
▁tatouages	-10.9641
ard	-10.9647
▁boxing	-10.965
▁bare	-10.9657
born	-10.9663
▁nav	-10.9673
▁roues	-10.9679
▁caisses	-10.9683
▁barres	-10.97
ggy	-10.9703
▁filme	-10.9707
▁apartment	-10.9718
▁complet	-10.974
E	-10.975
▁crie	-10.9755
▁hoops	-10.9762
▁knit	-10.978
aring	-10.9783
▁images	-10.9788
▁tattoos	-10.979
des	-10.9794
bles	-10.9804
▁guitars	-10.9815
arbitre	-10.9816
▁arme	-10.9821
nding	-10.9823
les	-10.9837
▁ra	-10.9842
▁reflecti	-10.9851
▁liquid	-10.9854
▁bowls	-10.9855
▁dessine	-10.9855
tte	-10.9869
▁lamp	-10.9879
▁paniers	-10.9889
▁wrap	-10.9892
▁coloring	-10.9899
▁couche	-10.9907
lement	-10.9924
▁glac	-10.9941
▁agite	-10.9942
as	-10.9942
▁rase	-10.9956
stone	-10.9958
fÃ	-10.9973
embras	-10.999
▁sofa	-10.9996
▁traditionnel	-11.0002
▁banderole	-11.0003
▁motorbike	-11.0003
▁individu	-11.0004
▁artistique	-11.0004
▁banner	-11.001
▁vegetable	-11.001
▁canard	-11.0011
▁boutique	-11.0012
▁sprinkler	-11.0013
▁barrel	-11.0024
▁ri	-11.0024
▁member	-11.0027
▁bite	-11.0027
▁scie	-11.0035
golfi	-11.0039
▁splashe	-11.0048
▁free	-11.0049
▁draw	-11.0066
▁sweep	-11.0068
▁mop	-11.0074
envers	-11.0076
ned	-11.0079
cossaise	-11.0079
▁cla	-11.0084
go	-11.009
▁duck	-11.0095
▁far	-11.0096
▁N	-11.0097
honneur	-11.0103
lectronique	-11.0103
▁caoutchouc	-11.0103
▁cornemuse	-11.0103
▁fanfare	-11.0103
▁gymnasium	-11.0103
▁xylophone	-11.0103
▁monocycle	-11.0103
▁material	-11.0103
▁Middle	-11.0103
▁stairway	-11.0103
puscule	-11.0103
▁matelas	-11.0103
▁receveur	-11.0103
▁caddie	-11.0103
▁furniture	-11.0103
▁second	-11.0103
▁conference	-11.0103
▁dimly	-11.0104
▁greyhound	-11.0104
▁baignoire	-11.0104
▁craie	-11.0104
▁partially	-11.0104
▁jeep	-11.0104
▁intently	-11.0104
▁buffet	-11.0104
▁laverie	-11.0104
▁foraine	-11.0104
▁nighttime	-11.0105
▁library	-11.0105
▁similar	-11.0105
▁angel	-11.0107
▁parquet	-11.0107
▁nourrisson	-11.0108
▁castle	-11.0109
▁moped	-11.011
tendent	-11.0111
▁poteaux	-11.0112
▁marbre	-11.0113
cient	-11.0114
loignant	-11.0115
▁lecture	-11.0118
▁circulant	-11.0121
▁li	-11.0123
▁crane	-11.0124
▁flotte	-11.0125
▁meeting	-11.0128
▁logo	-11.0128
▁tower	-11.0129
coutent	-11.013
▁benne	-11.0134
▁immense	-11.0137
▁infirmi	-11.0137
unissent	-11.0138
▁following	-11.0138
▁unicycle	-11.0139
ke	-11.014
▁bougies	-11.0149
utiliser	-11.015
▁double	-11.0153
▁vaisselle	-11.0156
irthday	-11.0158
▁candles	-11.0161
▁bande	-11.0163
ries	-11.0172
▁trailer	-11.0177
ncy	-11.0178
▁listens	-11.0178
▁bonnets	-11.0181
llÃ	-11.0186
▁muzzle	-11.0202
Cola	-11.0206
▁propos	-11.0209
▁pieces	-11.0213
▁act	-11.0214
▁balding	-11.0218
▁moderne	-11.0231
▁barber	-11.0231
▁saisi	-11.0232
▁toge	-11.0253
▁toges	-11.0262
▁tied	-11.0263
▁tenu	-11.0268
▁̈le	-11.0276
ken	-11.0289
▁share	-11.0302
▁individus	-11.031
▁surrounding	-11.0318
▁loung	-11.0324
▁fo	-11.0327
▁control	-11.0348
▁baiss	-11.0352
▁liquide	-11.0359
▁thin	-11.0366
▁viewing	-11.0372
▁plante	-11.0385
▁wheels	-11.0395
▁tron	-11.0397
▁voies	-11.0401
▁goÃ	-11.0405
▁saw	-11.0407
imper	-11.0414
▁motor	-11.0414
▁ti	-11.0423
tirent	-11.0436
▁Girls	-11.0442
ept	-11.0448
▁skieurs	-11.0448
escalier	-11.0466
▁dames	-11.0481
dessous	-11.0482
▁bandeau	-11.0497
arge	-11.0498
sent	-11.0501
▁africain	-11.0514
▁tackle	-11.053
▁micros	-11.0531
▁con	-11.0543
▁tribal	-11.0543
▁lounge	-11.0551
tered	-11.0553
▁protect	-11.0555
▁involv	-11.0558
▁Ma	-11.0569
▁cast	-11.0573
tent	-11.0577
▁sales	-11.0597
▁doors	-11.0601
▁gaz	-11.0609
illy	-11.0615
▁clowns	-11.0624
▁seaux	-11.0625
▁computers	-11.0627
▁modern	-11.0637
▁boucl	-11.0644
sente	-11.0648
▁lampadaire	-11.0654
▁spoon	-11.0659
▁electronic	-11.0667
▁headband	-11.0668
▁elephant	-11.067
▁scolaire	-11.067
▁ribbon	-11.0672
▁valise	-11.0672
▁necklace	-11.0673
▁teammate	-11.0673
▁crayon	-11.0679
decin	-11.068
▁geste	-11.0681
folding	-11.0699
▁City	-11.0702
▁corn	-11.0702
▁lines	-11.0704
▁horn	-11.0705
▁objects	-11.0721
ze	-11.0723
▁chaud	-11.0726
▁camel	-11.0731
em	-11.0737
▁discute	-11.0749
▁poign	-11.0762
▁cerceau	-11.0768
bris	-11.0769
▁Walmart	-11.077
▁advertising	-11.077
▁badauds	-11.077
▁professeur	-11.077
▁stomach	-11.077
▁London	-11.077
▁jewelry	-11.077
▁destination	-11.077
▁senior	-11.077
escrime	-11.077
▁applaudissent	-11.077
▁billboard	-11.077
▁rainbow	-11.077
▁casino	-11.077
▁steel	-11.077
▁celui	-11.077
▁pistolet	-11.077
▁television	-11.0771
▁return	-11.0772
▁forward	-11.0772
▁voilier	-11.0773
▁called	-11.0773
▁trench	-11.0774
▁consist	-11.0774
▁leggings	-11.0774
▁flute	-11.0775
▁bundle	-11.0775
phant	-11.0776
▁pet	-11.0776
▁marquer	-11.0778
▁bonbons	-11.078
▁huit	-11.0784
chant	-11.0787
▁fireman	-11.0787
▁observing	-11.0788
▁piercing	-11.0792
▁Multip	-11.0798
di	-11.0799
tes	-11.0804
▁Whi	-11.0807
▁learn	-11.081
▁plumes	-11.0819
▁theater	-11.082
▁Elmo	-11.0825
▁termin	-11.0826
▁tombant	-11.0826
▁catcher	-11.0838
▁kitesurf	-11.0839
▁doll	-11.0841
▁follows	-11.0859
▁crayons	-11.0865
▁notes	-11.087
▁bordure	-11.0872
▁acheter	-11.0873
embrasser	-11.0877
▁laver	-11.0892
▁cr	-11.0902
ue	-11.0911
U	-11.0914
neath	-11.0929
dog	-11.0932
▁embrasse	-11.0932
▁shades	-11.0937
▁tri	-11.0938
garni	-11.0944
▁froide	-11.0947
▁lutte	-11.0962
▁exposition	-11.0965
ri	-11.0965
ill	-11.0968
▁Je	-11.0973
▁documents	-11.0974
▁exit	-11.0979
use	-11.0982
▁retourn	-11.099
▁land	-11.0997
▁assistant	-11.1014
▁camions	-11.1016
▁guns	-11.1032
▁peek	-11.1033
sleeve	-11.1033
▁dead	-11.1034
gion	-11.1043
▁Blu	-11.1052
▁plong	-11.1058
▁cache	-11.1068
semblant	-11.1069
▁toile	-11.1071
▁na	-11.1095
▁pu	-11.1106
▁got	-11.1107
▁manche	-11.1113
▁bars	-11.1114
ges	-11.1116
ated	-11.1129
▁turns	-11.1129
ibli	-11.113
vier	-11.1134
chases	-11.1144
▁bit	-11.1153
approche	-11.1167
ient	-11.1175
▁shovels	-11.1192
horizon	-11.1199
ooks	-11.1211
▁whil	-11.1212
▁nets	-11.1216
▁client	-11.1224
union	-11.1235
▁eau	-11.1241
▁dive	-11.1244
▁sculptures	-11.1246
ined	-11.1263
▁retourne	-11.1279
coupe	-11.128
▁maquill	-11.1301
▁passants	-11.1318
gets	-11.132
iers	-11.1327
▁pine	-11.1349
▁follow	-11.135
our	-11.1351
▁gift	-11.1378
▁scientifique	-11.1381
so	-11.1386
▁McDonald	-11.1386
quipier	-11.1387
ky	-11.1389
▁pirate	-11.1389
▁pillow	-11.139
▁document	-11.139
▁pigeon	-11.1391
▁passenger	-11.1391
▁trunk	-11.1392
▁Time	-11.1394
▁ver	-11.1394
▁gra	-11.1395
▁attraction	-11.1447
▁bac	-11.1467
▁premi	-11.1483
▁non	-11.1484
▁Caucasian	-11.1484
▁Cheerleaders	-11.1484
▁Jenga	-11.1484
▁bulldozer	-11.1484
▁prochain	-11.1484
▁rickshaw	-11.1484
▁wheelbarrow	-11.1484
▁charrette	-11.1484
▁chorale	-11.1484
▁Sooner	-11.1484
▁multiple	-11.1484
▁ponytail	-11.1484
▁downtown	-11.1485
▁slightly	-11.1485
▁fisherman	-11.1485
▁poterie	-11.1485
▁airborne	-11.1486
▁job	-11.1486
▁pottery	-11.1487
▁temple	-11.1487
▁glacier	-11.1487
▁weaving	-11.1487
▁couteau	-11.1487
▁reflet	-11.1488
▁binoculars	-11.1488
▁crawl	-11.1489
▁russes	-11.1489
crire	-11.1489
▁pub	-11.149
▁forestier	-11.149
tage	-11.1491
▁closeup	-11.1492
▁bordeaux	-11.1496
▁excited	-11.1497
▁apple	-11.1497
▁grue	-11.1497
▁State	-11.1498
▁nuageux	-11.1498
▁servant	-11.1498
▁scoop	-11.1499
▁bracelet	-11.1502
▁Students	-11.1502
▁aisle	-11.1508
▁tug	-11.1508
▁retournant	-11.1511
▁bikinis	-11.1511
▁cible	-11.1512
▁navigue	-11.1513
▁dribble	-11.1513
▁allum	-11.1514
▁science	-11.1518
▁imprim	-11.1522
▁poor	-11.1534
▁gravit	-11.1535
▁rapides	-11.1538
▁accompagn	-11.1538
▁protesting	-11.1542
▁voler	-11.1544
▁dough	-11.1549
T	-11.155
▁volent	-11.156
occer	-11.156
▁patch	-11.1561
▁rappel	-11.1562
▁size	-11.1564
neau	-11.1565
D	-11.157
▁tourists	-11.157
aspirateur	-11.1572
colier	-11.1574
▁joy	-11.1575
▁photographed	-11.1575
corative	-11.1576
▁aussi	-11.1576
▁vous	-11.1577
▁claire	-11.1577
▁gratte	-11.1582
▁gestes	-11.1583
▁verse	-11.1589
▁dedans	-11.1592
▁boueux	-11.1592
▁pellette	-11.1593
▁cherch	-11.1593
▁japonais	-11.1597
cal	-11.16
uvres	-11.16
▁pneus	-11.1614
▁renvers	-11.1627
▁contain	-11.1635
▁bless	-11.1642
ooking	-11.1647
▁outil	-11.1658
▁veau	-11.1669
ponge	-11.1671
▁wild	-11.1673
▁repairs	-11.1682
dis	-11.1687
▁test	-11.1692
▁amuse	-11.1703
▁amie	-11.1708
▁see	-11.1721
▁bass	-11.1722
▁teach	-11.1722
tudie	-11.173
▁papers	-11.1731
▁El	-11.1736
▁raquettes	-11.1748
▁bulle	-11.1753
▁hike	-11.1769
▁engine	-11.1769
▁portes	-11.177
▁mi	-11.1779
labr	-11.1809
▁gr	-11.1818
ance	-11.1824
▁cor	-11.1827
▁backs	-11.1833
▁coiffe	-11.1834
▁corps	-11.1842
ville	-11.1852
attente	-11.1854
▁funn	-11.1863
toile	-11.1878
▁environ	-11.1891
com	-11.1891
▁engin	-11.1892
▁complete	-11.1902
▁fetch	-11.1907
▁appel	-11.1918
▁joli	-11.1925
▁feather	-11.1927
arrosage	-11.193
▁ethnic	-11.1932
▁lion	-11.1937
▁hug	-11.1939
American	-11.1943
▁cuire	-11.1944
anniversaire	-11.1947
orchestre	-11.1959
automne	-11.196
weight	-11.1973
▁bounc	-11.1981
▁fonctionne	-11.1992
partment	-11.1997
onneuse	-11.2013
▁cu	-11.2029
▁cuisini	-11.203
▁fort	-11.2032
of	-11.2032
▁orientale	-11.2038
▁sari	-11.2056
▁che	-11.2061
▁aqua	-11.2089
colle	-11.2116
▁teen	-11.2122
▁sta	-11.2125
▁medic	-11.2132
▁official	-11.2137
▁cop	-11.2139
▁sauvage	-11.2151
▁tea	-11.2151
▁descent	-11.2155
▁tutu	-11.2157
▁acrobatie	-11.2158
▁shadow	-11.216
▁customer	-11.216
▁tentes	-11.2165
▁barrier	-11.2167
ois	-11.2173
▁mug	-11.2175
▁vo	-11.2182
girl	-11.2185
▁reste	-11.2197
▁entertain	-11.2203
▁pul	-11.2205
▁shave	-11.2207
the	-11.2208
▁fi	-11.2211
▁ouvr	-11.2211
▁cra	-11.2214
tire	-11.2218
aire	-11.2229
▁cowboys	-11.2246
lit	-11.2248
▁abrupte	-11.2253
▁burgundy	-11.2253
▁espagnol	-11.2253
▁groceries	-11.2253
▁percussion	-11.2253
▁Londres	-11.2253
▁perceuse	-11.2253
▁sniff	-11.2253
▁chainsaw	-11.2253
▁confetti	-11.2253
▁tondeuse	-11.2253
▁caniche	-11.2254
▁mousse	-11.2254
▁croix	-11.2254
▁process	-11.2254
▁Elder	-11.2254
▁paquet	-11.2254
▁encombr	-11.2254
opard	-11.2255
▁location	-11.2255
▁perron	-11.2255
▁wheelie	-11.2256
▁exhibit	-11.2257
▁ceremony	-11.2257
▁stylo	-11.2258
▁bleachers	-11.2258
▁sneakers	-11.2258
▁spotted	-11.2258
▁bretelles	-11.2258
▁coaster	-11.2259
▁messy	-11.2259
▁overhead	-11.226
▁morceaux	-11.2261
▁studying	-11.2261
▁empil	-11.2262
▁officier	-11.2263
▁dusk	-11.2264
▁pratiquant	-11.2271
▁telephone	-11.2272
▁commencer	-11.2272
▁factory	-11.2273
▁loom	-11.2274
▁skater	-11.2274
▁waterway	-11.2276
▁waterfront	-11.2279
▁porta	-11.2279
▁wings	-11.2282
ploy	-11.2287
▁score	-11.2289
▁oven	-11.2293
▁was	-11.2294
▁rouler	-11.2299
▁apprend	-11.2305
▁bombe	-11.2305
▁ju	-11.231
▁entass	-11.231
▁gestures	-11.231
sty	-11.2312
▁́tel	-11.2312
tation	-11.2314
▁strap	-11.2315
▁eggs	-11.2323
▁manifestants	-11.2325
▁section	-11.2327
▁houses	-11.2332
▁charg	-11.2336
▁tuba	-11.2336
▁hauteur	-11.2336
▁firefighters	-11.2336
▁pomme	-11.2337
▁moutons	-11.2343
▁skie	-11.2343
▁dunk	-11.2344
pousse	-11.2359
▁tents	-11.2363
cume	-11.237
▁chiots	-11.2374
tandi	-11.2376
▁swimmers	-11.2379
▁usine	-11.238
▁debris	-11.2382
▁appareils	-11.2385
▁brillante	-11.2399
oir	-11.2402
▁praying	-11.2412
▁shops	-11.2416
▁pushe	-11.2416
▁pleurs	-11.2417
▁fenÃatres	-11.2424
▁fur	-11.2427
▁pÃacher	-11.2432
▁dune	-11.2434
▁movie	-11.2434
ident	-11.2443
▁bascule	-11.2473
nd	-11.2479
▁dipl	-11.2483
▁shake	-11.2483
▁places	-11.249
▁parasols	-11.2494
▁violets	-11.2501
▁Orient	-11.2516
▁opÃ	-11.2533
▁mouvements	-11.254
▁col	-11.2542
vÃatements	-11.2551
▁commande	-11.2552
▁laptops	-11.2555
▁concentr	-11.2568
▁hache	-11.2568
▁link	-11.2569
he	-11.2573
▁boi	-11.2595
▁caps	-11.2615
▁landing	-11.2625
▁hid	-11.2626
eignant	-11.2633
avion	-11.2639
▁observes	-11.264
▁balay	-11.2641
▁operate	-11.2653
▁bann	-11.2668
uf	-11.2671
nes	-11.2687
▁bin	-11.2688
▁flips	-11.269
chef	-11.2702
▁races	-11.2704
▁Dan	-11.2707
▁laine	-11.2714
avoir	-11.272
▁cups	-11.2737
▁ga	-11.2743
arrÃat	-11.2762
▁te	-11.2762
poids	-11.2775
athlÃ	-11.2793
affaires	-11.2798
ta	-11.2811
▁tourist	-11.283
▁fatigu	-11.2843
accroupi	-11.2846
ence	-11.2862
▁careful	-11.2871
entretien	-11.2873
▁slip	-11.2887
▁super	-11.2887
▁create	-11.2898
made	-11.2904
stern	-11.2908
▁Bea	-11.2909
▁featur	-11.2911
ssÃ	-11.2916
▁pÃach	-11.2925
▁artistes	-11.2932
juste	-11.2937
▁smash	-11.2941
▁brows	-11.2943
▁bloc	-11.295
▁ours	-11.295
▁listen	-11.2951
▁rayon	-11.2953
▁exercise	-11.2969
▁target	-11.2971
▁snowsuit	-11.2974
▁boulder	-11.2983
▁chicken	-11.2984
▁suitcase	-11.2987
clairage	-11.2991
▁begin	-11.3003
▁incline	-11.301
▁bra	-11.3018
▁explor	-11.3029
▁mouton	-11.3029
▁accord	-11.3032
▁breakdance	-11.3037
thÃ	-11.3041
blement	-11.3046
▁scaffold	-11.3048
ns	-11.3048
aÃ	-11.3057
flamm	-11.3076
▁peints	-11.3076
▁surveille	-11.3079
▁contrebas	-11.3083
▁automobile	-11.3087
▁badminton	-11.3087
▁bamboo	-11.3087
▁experiment	-11.3087
▁galerie	-11.3087
▁knife	-11.3087
▁merchandise	-11.3087
▁renifl	-11.3087
▁umpire	-11.3087
▁fourrure	-11.3087
▁Female	-11.3087
▁celebration	-11.3087
▁China	-11.3087
▁carrelage	-11.3087
▁casserole	-11.3087
▁NY	-11.3087
▁iPod	-11.3087
▁forehead	-11.3087
▁trolley	-11.3087
▁juice	-11.3087
▁clapping	-11.3087
▁poÃale	-11.3087
▁radio	-11.3087
▁bal	-11.3087
▁plongeoir	-11.3088
▁paperwork	-11.3088
▁sailboat	-11.3088
▁hotel	-11.3088
▁alleyway	-11.3088
▁blood	-11.3088
▁countryside	-11.3088
treignent	-11.3088
▁stoop	-11.3089
▁emergency	-11.3089
▁cheese	-11.3091
▁brother	-11.3091
▁phase	-11.3091
▁pigtails	-11.3092
▁retriever	-11.3092
▁soap	-11.3093
rience	-11.3095
▁firemen	-11.3096
▁meet	-11.3097
▁bureaux	-11.3097
▁mower	-11.3098
argile	-11.3098
meute	-11.3099
▁jumelles	-11.31
▁bystanders	-11.31
▁lettres	-11.31
ille	-11.3102
▁poodle	-11.3102
▁TV	-11.3103
▁dragon	-11.3103
▁chess	-11.3104
▁world	-11.3105
▁Legos	-11.3108
▁dorment	-11.3108
▁hockeyeurs	-11.3112
▁chips	-11.3113
▁wares	-11.3116
▁gymnastics	-11.3116
▁baguettes	-11.3116
▁herbeux	-11.3117
▁chewing	-11.3122
▁strange	-11.3122
▁bagpipes	-11.3124
▁teal	-11.3125
▁punch	-11.3126
▁forces	-11.3129
▁canot	-11.3131
▁tournoi	-11.3131
▁pauvre	-11.3131
▁mec	-11.3131
▁Police	-11.3131
▁ferme	-11.3135
▁olympiques	-11.315
▁rempliss	-11.3152
▁eight	-11.3152
▁nuages	-11.3161
▁pommes	-11.3166
▁patineurs	-11.3168
▁glisser	-11.3171
▁creat	-11.3172
▁motion	-11.3174
lu	-11.3177
troite	-11.3182
▁shadows	-11.319
▁bound	-11.3194
▁presse	-11.3194
▁pillows	-11.3198
▁It	-11.3199
▁tremp	-11.3204
ary	-11.3207
▁skaters	-11.3211
itiÃ	-11.3212
▁nom	-11.323
▁wires	-11.323
▁inclin	-11.3232
orange	-11.3234
▁grimaces	-11.3239
▁nager	-11.3241
▁beverages	-11.3241
▁donn	-11.3244
I	-11.3244
▁paddles	-11.3249
▁jo	-11.3256
▁interview	-11.3258
▁essentielle	-11.3265
issent	-11.328
▁cigarettes	-11.3282
▁backdrop	-11.3285
▁comes	-11.3285
▁lick	-11.3286
▁ados	-11.3287
▁arcade	-11.3304
▁tray	-11.3308
▁lane	-11.3309
▁war	-11.3309
▁label	-11.331
▁poste	-11.3327
▁tackl	-11.3349
▁spike	-11.3349
▁mal	-11.3351
▁come	-11.3356
▁̈ces	-11.3357
if	-11.336
▁pay	-11.3363
▁performers	-11.3365
erous	-11.3368
▁spin	-11.3383
arriv	-11.3387
▁tires	-11.3388
rifie	-11.3394
grale	-11.3395
cking	-11.34
▁knees	-11.3403
▁porche	-11.344
▁stare	-11.3444
▁brÃ	-11.345
▁tubes	-11.3464
▁manipule	-11.3472
tagÃ	-11.3489
▁page	-11.3491
▁bains	-11.3502
diÃ	-11.3503
brÃ	-11.3505
▁news	-11.3512
▁aller	-11.3518
▁sombres	-11.3527
ity	-11.3533
ture	-11.3539
dy	-11.3555
▁coiff	-11.356
ma	-11.3567
▁couvertures	-11.3567
▁blankets	-11.3574
▁fla	-11.3579
os	-11.3589
teaux	-11.3597
▁newspapers	-11.36
▁bronze	-11.3602
▁boules	-11.3604
tail	-11.3617
▁decorat	-11.3618
▁vendors	-11.3626
oreille	-11.3628
▁aim	-11.363
filant	-11.3632
▁carrÃ	-11.3634
▁Hu	-11.364
▁muscl	-11.3642
▁trie	-11.3659
ud	-11.3672
▁verdoyante	-11.3681
cour	-11.369
Orient	-11.3696
▁bu	-11.3728
tient	-11.3732
lever	-11.3739
▁rust	-11.3745
paisse	-11.3761
▁couvr	-11.3762
▁remplis	-11.3764
▁lignes	-11.3774
▁fashion	-11.3777
▁brass	-11.378
couper	-11.3787
▁pl	-11.3794
▁tress	-11.3794
▁rollerskat	-11.3798
▁essaye	-11.3823
▁case	-11.3833
cossais	-11.3836
▁Mia	-11.3844
▁papiers	-11.3854
▁sou	-11.3863
▁vent	-11.3867
▁Jack	-11.3868
om	-11.3874
▁diver	-11.3877
▁bizarre	-11.3879
▁conten	-11.3891
▁torch	-11.3893
▁enthousiaste	-11.39
▁firefighter	-11.3901
▁traditionnelle	-11.3901
▁shower	-11.3902
▁̈vre	-11.3906
▁cheek	-11.391
▁pliante	-11.392
▁celebrate	-11.3923
ted	-11.3927
▁hut	-11.393
▁chasse	-11.3933
arÃ	-11.3939
▁secou	-11.3946
▁mule	-11.3946
▁burn	-11.3948
▁trip	-11.395
▁boxer	-11.3951
plaÃ	-11.3967
▁Qua	-11.3971
▁quitte	-11.3972
cked	-11.3972
▁weather	-11.3987
▁fell	-11.399
▁coast	-11.3993
affrontant	-11.3996
▁christmas	-11.3996
▁enthousiasme	-11.3996
▁laundromat	-11.3996
▁masculin	-11.3996
▁Batman	-11.3996
▁Mohawk	-11.3996
▁technique	-11.3996
▁unusual	-11.3996
▁Subway	-11.3996
▁rapids	-11.3996
▁religieuse	-11.3996
▁medium	-11.3996
picerie	-11.3996
▁similaire	-11.3996
▁surgery	-11.3996
▁tripod	-11.3996
▁puppies	-11.3996
▁Couple	-11.3996
▁̈bre	-11.3996
▁underwear	-11.3996
▁separate	-11.3996
ait	-11.3996
▁robot	-11.3996
▁staff	-11.3997
▁yarn	-11.3997
▁municipal	-11.3997
▁sunlight	-11.3997
▁homeless	-11.3997
▁distributeur	-11.3997
▁chameaux	-11.3997
▁chalkboard	-11.3997
▁shoreline	-11.3997
▁rollerblading	-11.3997
▁We	-11.3998
▁construire	-11.3998
▁butcher	-11.3998
checs	-11.3998
▁suspenders	-11.3998
▁perdu	-11.4
▁highway	-11.4
▁chargement	-11.4
▁folded	-11.4
▁handrail	-11.4
▁snap	-11.4001
▁supplies	-11.4002
▁combattant	-11.4003
unners	-11.4003
▁tisser	-11.4004
▁violoncelle	-11.4005
▁haie	-11.4005
▁cello	-11.4005
▁joie	-11.4007
▁screaming	-11.4008
▁handle	-11.401
▁ronde	-11.401
▁observant	-11.4012
▁Nik	-11.4012
▁closely	-11.4015
▁America	-11.4015
▁sponsor	-11.4016
▁Apple	-11.4017
▁natte	-11.4019
▁chatting	-11.4019
▁ramant	-11.4019
▁snowshoes	-11.402
▁single	-11.4028
▁splash	-11.4029
▁range	-11.4038
▁rament	-11.4038
chets	-11.4039
▁meubles	-11.4044
▁colonnes	-11.4046
▁reposer	-11.4055
▁bank	-11.4055
▁lifted	-11.4056
▁bush	-11.4059
▁stall	-11.4061
rimmed	-11.4062
▁rice	-11.4062
▁chute	-11.4064
▁activit	-11.407
vriers	-11.4071
▁tights	-11.4073
▁crossed	-11.4078
▁soci	-11.4078
▁hotdogs	-11.4083
▁sortir	-11.4084
▁stationn	-11.4091
▁tond	-11.4091
▁diverses	-11.4092
▁enthousiastes	-11.4092
ake	-11.4106
gging	-11.4111
▁peintre	-11.4115
▁lighted	-11.4116
▁fleurie	-11.4125
▁harmonica	-11.4128
▁nageuse	-11.4128
▁thumbs	-11.413
▁magasins	-11.4134
▁sprinklers	-11.4138
war	-11.414
unk	-11.4144
▁habit	-11.4144
▁Car	-11.4148
▁appl	-11.4155
▁motorcyclists	-11.4156
co	-11.417
der	-11.4182
▁gobelets	-11.4192
▁watched	-11.4202
▁huddle	-11.4204
▁bols	-11.4205
homa	-11.4216
still	-11.4218
▁swimsuits	-11.422
ients	-11.4221
▁juggle	-11.4221
▁nappe	-11.4226
tiÃ	-11.423
▁hind	-11.4238
▁khakis	-11.4238
L	-11.4243
Un	-11.4247
▁cavaliers	-11.4248
▁bricks	-11.426
▁training	-11.4264
▁prop	-11.4266
▁logs	-11.4275
green	-11.4278
▁athletes	-11.4284
▁arrange	-11.4284
▁bik	-11.4289
land	-11.4291
▁floats	-11.4292
anie	-11.4295
ception	-11.4317
▁cameras	-11.4319
▁verdoyant	-11.4321
ady	-11.4348
pais	-11.4355
▁retir	-11.4359
▁stir	-11.4361
▁plats	-11.437
venant	-11.4374
ins	-11.4382
▁aider	-11.4404
leading	-11.4407
▁poing	-11.441
▁comfort	-11.4415
▁flan	-11.4425
ving	-11.4428
▁picks	-11.4432
▁atterri	-11.4432
▁suspendue	-11.4436
sailing	-11.4453
ject	-11.4456
▁violettes	-11.4465
▁fleuri	-11.4466
▁skiers	-11.4499
▁douche	-11.4508
one	-11.4522
▁carts	-11.4532
charge	-11.4532
▁calme	-11.4534
▁marque	-11.4534
▁poche	-11.4563
▁concentre	-11.4563
ist	-11.4566
tion	-11.4569
mÃame	-11.46
▁gathers	-11.461
▁cab	-11.4612
▁rassemble	-11.4619
ses	-11.4625
v	-11.4631
V	-11.4654
embrasse	-11.4668
ga	-11.4682
▁stepp	-11.4686
obstacle	-11.469
ouvriers	-11.469
animaux	-11.4705
exposition	-11.4706
▁catche	-11.4707
▁microscopes	-11.4709
adolescents	-11.4719
▁bring	-11.4723
▁celle	-11.4729
ered	-11.4744
▁souffl	-11.4748
wood	-11.4749
▁illumin	-11.4754
trÃ	-11.4768
▁squat	-11.4775
▁personnel	-11.4782
unies	-11.4801
▁particip	-11.4809
graphie	-11.4819
▁marchand	-11.4831
▁cir	-11.4834
▁cont	-11.4846
▁rally	-11.4863
▁lens	-11.4863
el	-11.4868
borne	-11.4876
▁triste	-11.4877
▁pupitre	-11.4879
▁faible	-11.4882
▁leotard	-11.4888
▁bongo	-11.4894
▁citron	-11.4894
▁mince	-11.4899
▁poulet	-11.49
▁ticket	-11.49
▁canette	-11.4901
▁upward	-11.4902
▁thumb	-11.4902
▁hotdog	-11.4902
▁candle	-11.4902
▁patineur	-11.4905
▁manifestant	-11.4906
▁egg	-11.4907
▁patron	-11.4909
round	-11.491
▁monitor	-11.4919
▁ea	-11.492
▁travailleur	-11.4942
▁disque	-11.4945
▁goat	-11.4949
▁focuse	-11.495
▁arche	-11.4953
▁vacuum	-11.4955
▁treat	-11.4961
lle	-11.4963
▁contest	-11.4964
▁carve	-11.4966
euse	-11.4974
▁headdress	-11.4976
pectators	-11.4986
licopt	-11.4989
loseup	-11.4991
▁chameau	-11.4996
Obama	-11.4996
▁Monopoly	-11.4996
▁School	-11.4996
▁Speedo	-11.4996
▁agricole	-11.4996
▁caricatur	-11.4996
▁contraption	-11.4996
▁demoiselle	-11.4996
▁gallery	-11.4996
▁signalisation	-11.4996
▁canvas	-11.4996
▁restauration	-11.4996
▁vacances	-11.4996
▁frozen	-11.4996
▁universitaire	-11.4996
▁lobby	-11.4996
▁earphones	-11.4996
▁trashcan	-11.4996
wed	-11.4996
▁champagne	-11.4996
▁valley	-11.4996
▁dumpster	-11.4996
▁passersby	-11.4996
▁monkey	-11.4996
▁workshop	-11.4996
▁plaisir	-11.4996
▁sideways	-11.4996
▁facility	-11.4996
▁maintenance	-11.4996
▁navire	-11.4996
▁peignoir	-11.4996
▁adorable	-11.4996
▁spotlight	-11.4996
▁canyon	-11.4997
▁driveway	-11.4997
▁lingerie	-11.4997
▁sarcelle	-11.4997
▁gagner	-11.4997
▁quickly	-11.4997
▁injured	-11.4997
▁transportation	-11.4997
▁vrai	-11.4998
▁stilts	-11.4998
▁embracing	-11.4998
▁rooftop	-11.4999
▁highchair	-11.4999
▁Asia	-11.5001
▁pedal	-11.5001
▁sportive	-11.5002
rench	-11.5002
▁regroup	-11.5003
▁tranquille	-11.5003
▁olive	-11.5004
gue	-11.5004
▁activity	-11.5005
▁classique	-11.5006
chasses	-11.5007
▁roadside	-11.5008
▁collie	-11.501
▁pilier	-11.501
B	-11.501
▁interesting	-11.501
▁scarves	-11.5013
▁Brit	-11.5015
▁concours	-11.5015
▁artwork	-11.5016
▁mis	-11.5017
▁workout	-11.5018
▁nuageuse	-11.5019
▁maneuver	-11.5019
▁mixer	-11.502
▁Band	-11.5022
▁libre	-11.5024
▁hawa	-11.5028
▁even	-11.5029
▁genou	-11.503
▁sprayed	-11.5032
▁Army	-11.5035
▁stores	-11.5036
▁bonne	-11.5038
hepherd	-11.5039
couter	-11.5041
ors	-11.5041
▁focus	-11.5042
▁kimonos	-11.5042
▁approaches	-11.5046
▁Seattle	-11.5049
poux	-11.5051
▁Easter	-11.5056
▁extrÃ	-11.5058
▁soutien	-11.5063
▁torches	-11.5063
▁dispos	-11.507
▁products	-11.5072
▁Olympics	-11.5072
▁flamme	-11.5074
▁Player	-11.5076
▁Cafe	-11.5081
▁gaze	-11.5084
cy	-11.5087
▁autumn	-11.5093
▁capot	-11.5095
▁lutteur	-11.5097
▁rive	-11.5097
▁modÃ	-11.5098
▁intense	-11.5101
▁interagiss	-11.5104
▁fabriqu	-11.5104
▁washer	-11.511
▁amus	-11.5113
▁gazes	-11.512
iles	-11.5132
▁fromage	-11.5133
▁mess	-11.5136
▁chocolate	-11.5137
▁boards	-11.5141
▁jongl	-11.5149
▁veston	-11.515
▁painter	-11.5151
▁attache	-11.5152
▁venue	-11.5153
▁belts	-11.5159
▁shar	-11.5176
▁rond	-11.5182
by	-11.5182
▁trouver	-11.5183
▁fixes	-11.5183
▁termine	-11.5187
ven	-11.519
▁dig	-11.5194
▁oreille	-11.5196
▁salu	-11.5199
▁commun	-11.52
▁spa	-11.5207
▁larger	-11.5214
▁racers	-11.5219
chafaudages	-11.5224
▁cuisiner	-11.5228
▁heavi	-11.525
▁content	-11.5252
ily	-11.5253
bout	-11.5254
fashioned	-11.5254
▁tricot	-11.5258
▁Asie	-11.5274
opÃ	-11.5285
▁drag	-11.5286
▁sp	-11.529
▁adverses	-11.5305
▁ponton	-11.5316
nder	-11.5349
▁strike	-11.5349
▁cards	-11.5354
achÃ	-11.5355
▁kayaking	-11.5358
▁bib	-11.5365
lot	-11.537
agenouille	-11.5377
▁accroupis	-11.5382
vention	-11.5383
▁pale	-11.5384
aider	-11.5391
▁classic	-11.5391
led	-11.5394
sing	-11.5399
▁He	-11.54
etty	-11.5401
▁curve	-11.5403
▁propre	-11.5408
▁horizon	-11.5414
▁trucks	-11.5427
▁Br	-11.5438
▁typ	-11.5446
▁angle	-11.5455
▁padd	-11.548
▁dis	-11.5483
▁played	-11.5495
▁Vu	-11.5504
▁retire	-11.551
ota	-11.5512
lots	-11.5517
▁tail	-11.5523
dale	-11.5524
M	-11.5534
crans	-11.5537
▁pince	-11.5538
ak	-11.554
ail	-11.5542
range	-11.5543
ossÃ	-11.5545
reux	-11.5547
▁moin	-11.5559
▁my	-11.5578
light	-11.558
isÃ	-11.5596
▁lighting	-11.5606
▁recev	-11.561
▁crash	-11.5614
enne	-11.5623
▁displays	-11.5632
house	-11.5636
eusement	-11.5645
▁Mar	-11.5651
▁vari	-11.5669
col	-11.5672
ateur	-11.5683
▁fou	-11.5692
image	-11.5708
▁adolescente	-11.5728
▁capture	-11.5728
body	-11.5765
▁fu	-11.5765
lant	-11.5768
▁vall	-11.5771
striped	-11.5798
▁numbers	-11.5799
ched	-11.5799
ad	-11.5806
style	-11.5807
nce	-11.5809
most	-11.5812
oiseaux	-11.582
appuy	-11.5822
arcade	-11.5822
nnel	-11.583
attendre	-11.5841
▁ve	-11.5842
▁arch	-11.5847
▁perch	-11.5848
▁bicycl	-11.5877
pied	-11.5891
▁Lo	-11.5899
▁jailli	-11.593
▁Hol	-11.5933
jour	-11.5943
▁moustach	-11.5949
▁apart	-11.5954
▁stor	-11.5961
corations	-11.5971
otted	-11.5973
▁rifle	-11.599
ventail	-11.5991
▁construit	-11.5991
alcool	-11.5997
▁pumpkin	-11.5999
▁nuage	-11.6001
uillÃ	-11.6002
▁perruque	-11.6004
ca	-11.6006
▁Lot	-11.6009
▁diner	-11.601
vrier	-11.6011
▁texto	-11.6012
▁marchandise	-11.6016
▁task	-11.6023
its	-11.6024
▁rug	-11.6025
▁proche	-11.6026
kla	-11.6031
▁wig	-11.6037
▁reflection	-11.6037
troit	-11.6037
fend	-11.6045
▁navigate	-11.6047
▁arrose	-11.6048
cutent	-11.6051
are	-11.6065
▁collines	-11.6068
▁navigu	-11.6074
▁partition	-11.6078
▁Canad	-11.6084
▁drop	-11.6085
▁tight	-11.6095
▁smooth	-11.6099
▁synchroni	-11.6105
▁mechanic	-11.6107
artifice	-11.6107
▁Skateboarder	-11.6107
▁Starbucks	-11.6107
▁afternoon	-11.6107
▁bambin	-11.6107
▁brouillard	-11.6107
▁caucasian	-11.6107
▁chopsticks	-11.6107
▁cockpit	-11.6107
▁foliage	-11.6107
▁monospace	-11.6107
▁shawl	-11.6107
▁squeez	-11.6107
▁couvercle	-11.6107
▁gesturing	-11.6107
▁marmite	-11.6107
▁trombone	-11.6107
▁Hockey	-11.6107
▁bathtub	-11.6107
▁revÃatement	-11.6107
▁helicopter	-11.6107
▁accept	-11.6107
▁sparring	-11.6107
▁butterfly	-11.6107
▁stump	-11.6107
▁bedroom	-11.6108
▁baiser	-11.6108
▁raincoat	-11.6108
▁soyeux	-11.6108
▁Disney	-11.6108
▁foyer	-11.6108
▁morning	-11.6108
▁cherry	-11.6108
▁collation	-11.6108
▁pencil	-11.6108
▁curieux	-11.6108
▁compris	-11.6108
▁synchroniz	-11.6109
▁Shepherd	-11.6109
▁pourpre	-11.6109
▁Food	-11.6109
▁USA	-11.6109
broue	-11.6109
▁kickboxing	-11.611
▁pathway	-11.6111
edestrians	-11.6111
▁suivant	-11.6111
▁every	-11.6111
▁prix	-11.6112
▁breakdancing	-11.6112
▁jardinage	-11.6112
▁excit	-11.6114
▁belongings	-11.6114
▁built	-11.6114
▁Dark	-11.6115
midi	-11.6116
▁fausse	-11.6116
▁pretend	-11.6116
▁serveur	-11.6116
▁officielle	-11.6117
▁servir	-11.6117
▁rollerblades	-11.6118
▁parasailing	-11.6119
▁kayakiste	-11.6119
▁beret	-11.612
▁cannon	-11.612
▁unhappy	-11.612
▁checkers	-11.6123
▁perles	-11.6124
▁digital	-11.6125
▁monk	-11.6125
▁surveillent	-11.6126
obscuri	-11.6128
▁terrier	-11.6128
treint	-11.613
▁acrobatic	-11.6133
H	-11.6134
▁braid	-11.6134
▁cowgirl	-11.6136
▁chariots	-11.6138
▁raser	-11.614
pouse	-11.6142
▁games	-11.6142
▁avance	-11.6144
▁zoo	-11.6145
▁letter	-11.6146
▁steaks	-11.6147
wing	-11.6148
▁chercher	-11.615
▁transporte	-11.6155
▁punching	-11.6156
▁suivi	-11.6156
▁obscure	-11.6159
▁package	-11.616
▁writes	-11.6162
▁jogs	-11.6163
▁crates	-11.6169
uzz	-11.6169
cha	-11.6171
▁displayed	-11.6172
▁fumer	-11.6173
▁tendus	-11.6174
▁tombent	-11.6176
▁riot	-11.6176
▁congregate	-11.6177
▁11	-11.6178
nu	-11.618
▁Park	-11.6181
▁unload	-11.6183
filent	-11.619
▁accÃ	-11.6192
▁rid	-11.6193
▁coff	-11.6196
▁brushes	-11.6196
▁pads	-11.6196
▁proches	-11.6197
▁convention	-11.6199
▁choisiss	-11.62
▁cuit	-11.6201
▁rag	-11.6203
▁Toy	-11.6203
▁vite	-11.6222
▁chinoises	-11.6222
ress	-11.623
▁begins	-11.6234
▁sculpte	-11.6241
ire	-11.6241
▁pagay	-11.6242
▁Bear	-11.6255
▁marin	-11.6255
▁matin	-11.6256
▁jumper	-11.6256
▁waiter	-11.627
▁decorations	-11.6272
▁tags	-11.6281
▁canards	-11.6283
▁scen	-11.6286
vers	-11.6288
▁measur	-11.629
ten	-11.6291
▁peupl	-11.6294
▁dessert	-11.6306
▁illuminat	-11.6309
▁designs	-11.6311
▁visibles	-11.6314
▁ducks	-11.632
▁lower	-11.632
▁fishes	-11.6323
▁than	-11.6324
▁collect	-11.6325
▁grasp	-11.6332
▁locat	-11.6339
▁cans	-11.6342
▁flo	-11.6346
resque	-11.6355
ace	-11.6369
▁teint	-11.6376
▁rings	-11.6382
miling	-11.6386
▁pi	-11.6387
▁portraits	-11.6387
sh	-11.639
ens	-11.6395
▁gar	-11.6403
▁tu	-11.6407
▁cet	-11.6409
▁cute	-11.6411
▁̈ques	-11.6419
▁icy	-11.6433
ex	-11.6434
opcorn	-11.6439
neige	-11.6444
▁booths	-11.6446
armi	-11.6448
ore	-11.6463
▁Nin	-11.6478
▁plain	-11.6486
▁clouds	-11.6486
enlace	-11.6491
▁ici	-11.6493
▁fois	-11.6504
▁peinte	-11.651
ut	-11.6514
▁parachutes	-11.6514
▁win	-11.6515
▁affaires	-11.652
ls	-11.6522
▁participants	-11.6526
▁Ba	-11.6526
other	-11.6534
▁dad	-11.6541
▁lever	-11.6552
▁automne	-11.6563
▁k	-11.6576
▁appren	-11.658
▁anti	-11.659
ort	-11.6599
▁waist	-11.6605
▁banquet	-11.6622
▁armes	-11.6644
▁boucle	-11.6653
▁sens	-11.6664
▁boxeur	-11.6679
be	-11.6686
F	-11.6687
▁complex	-11.6695
sur	-11.6702
▁entra	-11.671
ick	-11.671
▁await	-11.6723
▁immeubles	-11.6744
▁baigne	-11.6776
▁fini	-11.6778
jo	-11.678
▁profond	-11.6783
▁cannes	-11.6801
▁entr	-11.6821
▁antique	-11.6834
▁roulants	-11.6835
▁spot	-11.6837
▁cree	-11.6848
▁think	-11.685
▁Par	-11.6851
rize	-11.6866
aille	-11.6866
reuse	-11.687
▁am	-11.6876
▁aprons	-11.688
▁skateurs	-11.6887
instrument	-11.6899
▁photographes	-11.6907
iste	-11.6926
▁She	-11.6937
▁Hawa	-11.6942
ious	-11.6943
▁cho	-11.6951
po	-11.6958
ai	-11.6959
▁Vi	-11.6963
▁dinosaur	-11.6971
▁prepar	-11.6981
▁cigar	-11.6993
▁power	-11.7005
▁secur	-11.7009
environ	-11.7012
▁di	-11.702
ial	-11.7022
animal	-11.7024
coat	-11.704
▁trace	-11.7052
gle	-11.7052
cause	-11.7057
paved	-11.7059
instruments	-11.7062
▁ru	-11.7065
mount	-11.7073
▁scale	-11.7076
▁hook	-11.7081
rifi	-11.7081
size	-11.7084
▁bross	-11.7089
ales	-11.709
▁wh	-11.7096
pong	-11.7107
▁aride	-11.7108
▁offer	-11.7117
itting	-11.7134
onne	-11.7137
▁diverti	-11.7139
vert	-11.714
▁lo	-11.7155
▁securi	-11.7162
ouillÃ	-11.7162
ments	-11.7163
▁Mark	-11.7168
▁singe	-11.7172
cas	-11.7172
▁solo	-11.7175
▁chocolat	-11.7181
monstration	-11.7201
dress	-11.7203
▁Fire	-11.7208
▁civil	-11.7213
▁pyramid	-11.7215
▁sleep	-11.7227
▁disc	-11.7227
▁pop	-11.7229
▁Co	-11.7229
▁trouv	-11.7233
▁patine	-11.7243
▁notebook	-11.7249
▁scrap	-11.7249
▁fabrique	-11.725
▁message	-11.725
▁coussin	-11.725
▁bambou	-11.7251
▁pocket	-11.7251
▁brochure	-11.7254
▁survÃatement	-11.7254
▁citrouille	-11.7258
▁ethnique	-11.7258
▁moyenne	-11.7259
▁rapide	-11.7259
▁column	-11.726
▁Olympic	-11.7261
▁olympique	-11.7262
▁product	-11.7262
▁bougie	-11.7262
▁gesture	-11.7263
▁palmier	-11.7265
vil	-11.7272
▁raide	-11.7275
▁oreiller	-11.7276
▁̈tre	-11.7278
▁speaker	-11.728
▁visi	-11.728
▁gown	-11.7281
▁plume	-11.7287
ume	-11.7288
▁receive	-11.7294
▁nail	-11.7294
all	-11.7296
▁faite	-11.7308
▁flou	-11.7312
▁orn	-11.7317
▁savon	-11.7328
▁passager	-11.733
▁potato	-11.7335
▁India	-11.7335
▁puzzle	-11.7339
▁harvest	-11.7346
▁social	-11.7348
▁Gym	-11.7352
tat	-11.7355
itchenAid	-11.7357
tablissement	-11.7357
▁Vegas	-11.7357
▁Vendor	-11.7357
▁Yamaha	-11.7357
▁bermuda	-11.7357
▁cardigan	-11.7357
▁elaborate	-11.7357
▁laboratory	-11.7357
▁mascara	-11.7357
▁pizzeria	-11.7357
▁possession	-11.7357
▁substance	-11.7357
▁toothbrush	-11.7357
▁treadmill	-11.7357
▁warehouse	-11.7357
urgence	-11.7357
▁flamboyant	-11.7357
▁fourgonnette	-11.7357
▁hammock	-11.7357
▁trafic	-11.7357
▁Concert	-11.7357
▁Yellow	-11.7357
▁register	-11.7357
▁hydrant	-11.7357
▁powder	-11.7357
▁remuant	-11.7357
▁turtle	-11.7357
▁scrubs	-11.7357
▁easel	-11.7357
▁hamac	-11.7357
▁triangle	-11.7357
▁campfire	-11.7357
▁drainage	-11.7357
▁attelage	-11.7357
▁tuxedo	-11.7357
▁establishment	-11.7357
▁consult	-11.7357
▁mutuellement	-11.7357
▁favorite	-11.7357
▁conductor	-11.7357
▁vibrant	-11.7357
▁Musician	-11.7357
▁handicap	-11.7357
▁religious	-11.7357
▁Mouse	-11.7357
▁mohawk	-11.7357
▁victory	-11.7357
quoise	-11.7357
▁historique	-11.7357
▁tarp	-11.7357
▁chisel	-11.7358
▁babies	-11.7358
▁Spanish	-11.7358
▁sample	-11.7358
▁chic	-11.7358
▁bowtie	-11.7358
▁pelleteuse	-11.7358
▁abandoned	-11.7358
▁Big	-11.7358
▁turkey	-11.7358
▁multi	-11.7359
▁marble	-11.7359
▁sucette	-11.7359
▁messieurs	-11.7359
▁cerceaux	-11.736
▁ombrag	-11.736
▁sumo	-11.7361
▁coiffeur	-11.7361
▁tournament	-11.7361
▁projector	-11.7361
▁arrangement	-11.7361
▁Chine	-11.7362
▁daytime	-11.7362
▁cadeaux	-11.7362
▁tracksuit	-11.7362
▁underground	-11.7363
▁mor	-11.7363
▁company	-11.7363
▁sledding	-11.7364
▁plateforme	-11.7364
▁dresse	-11.7364
▁lapin	-11.7364
▁contenu	-11.7365
▁noix	-11.7365
▁nourrit	-11.7365
▁terminal	-11.7366
▁murale	-11.7367
▁shoppers	-11.7368
▁maquette	-11.7368
▁pony	-11.7368
▁stretches	-11.737
▁cycling	-11.737
▁paintball	-11.737
▁catcheur	-11.737
▁bloquer	-11.7371
▁upset	-11.7373
▁trouble	-11.7373
▁saluent	-11.7374
▁waterskiing	-11.7379
▁passion	-11.7381
▁photographier	-11.7384
▁split	-11.7385
▁cheerlead	-11.7386
▁transit	-11.7387
▁industri	-11.7388
▁sombrero	-11.7389
▁beads	-11.739
▁judges	-11.739
▁revers	-11.7392
▁instructions	-11.7392
▁indian	-11.7395
▁juges	-11.7396
▁beat	-11.7397
▁tackled	-11.7398
▁conditions	-11.7399
▁crashing	-11.7401
▁creusent	-11.7402
▁owner	-11.7403
bbing	-11.7404
▁plaquer	-11.7405
▁fortune	-11.7406
▁tomates	-11.7407
▁billets	-11.7412
▁ongles	-11.7412
▁cookies	-11.7414
▁Deere	-11.7414
▁flock	-11.7415
▁hiver	-11.7422
▁entreprise	-11.7423
▁Green	-11.7424
▁entrep	-11.7426
▁allume	-11.7429
▁filmant	-11.7429
▁skills	-11.743
▁crouch	-11.7431
▁clut	-11.7432
▁stance	-11.7433
▁salue	-11.7434
▁rack	-11.7435
▁nurses	-11.7437
▁riz	-11.7439
ver	-11.744
▁henn	-11.7441
▁fine	-11.7443
▁carrier	-11.7452
▁columns	-11.7455
but	-11.7458
boys	-11.7464
▁lips	-11.7464
▁find	-11.7467
▁call	-11.7469
▁rencontre	-11.7469
▁patrons	-11.7474
▁touriste	-11.748
▁oreillers	-11.7483
▁arros	-11.7499
▁iro	-11.7504
▁cameraman	-11.7505
▁instruct	-11.7508
▁year	-11.7517
▁acrobaties	-11.7518
▁coud	-11.7519
▁gardening	-11.7526
ordre	-11.7528
▁calmes	-11.7529
▁cave	-11.753
▁pirates	-11.7531
▁̈les	-11.7534
▁Mexica	-11.7538
▁chopp	-11.7543
vi	-11.7543
▁rake	-11.7544
▁teammates	-11.7546
▁peers	-11.7552
▁nous	-11.7553
▁battl	-11.7556
▁assorti	-11.7557
▁cries	-11.7557
▁banners	-11.756
cker	-11.756
▁purchase	-11.7562
aseball	-11.7568
▁parent	-11.7572
▁brillantes	-11.7579
▁quilles	-11.7579
▁services	-11.7586
▁vitres	-11.7591
▁fr	-11.7598
ded	-11.7605
▁caress	-11.7613
▁boxe	-11.7622
▁us	-11.7623
▁rush	-11.7623
▁sang	-11.7628
rd	-11.7633
laden	-11.7634
▁US	-11.7641
▁kilts	-11.7647
▁ouverts	-11.7657
▁Con	-11.7658
▁ador	-11.7659
▁maquille	-11.7669
▁cuisinent	-11.7672
▁tow	-11.7686
opping	-11.7691
▁j	-11.7695
tif	-11.7695
▁sides	-11.7698
op	-11.7712
ddy	-11.7724
▁hills	-11.7724
▁transparent	-11.7729
▁muret	-11.7732
▁cigare	-11.7734
▁contrer	-11.7741
▁entrer	-11.7746
▁vitr	-11.775
▁cause	-11.7752
▁dinosaure	-11.7758
▁structures	-11.7758
▁ATM	-11.776
▁cott	-11.7765
bardeurs	-11.7768
▁cellphones	-11.777
▁demande	-11.7773
▁involve	-11.778
▁rurale	-11.778
fro	-11.7788
irÃ	-11.7802
▁Mac	-11.7819
▁endroits	-11.7834
▁sunbath	-11.7835
▁glaci	-11.7837
rri	-11.7843
▁yell	-11.7849
▁̈ches	-11.7867
▁montagneux	-11.7878
gant	-11.7891
cage	-11.7893
▁launch	-11.7899
▁flat	-11.7905
tendu	-11.7906
▁moine	-11.7928
omm	-11.7952
▁enterr	-11.7953
▁cass	-11.7962
▁camper	-11.7967
▁inter	-11.7967
ques	-11.7971
▁dessins	-11.7973
▁canoes	-11.7981
Y	-11.7987
▁quat	-11.7992
▁inclu	-11.7996
▁brand	-11.7997
▁panel	-11.8
suit	-11.8025
▁napp	-11.8027
league	-11.8028
mon	-11.8033
▁enclos	-11.8036
▁skies	-11.8047
▁purses	-11.8054
▁photographie	-11.8054
▁plank	-11.8055
crÃ	-11.8058
▁complexe	-11.8065
▁remove	-11.807
▁Gro	-11.8078
ntÃ	-11.8079
emment	-11.8081
▁masks	-11.8082
owing	-11.8088
quelle	-11.809
ading	-11.8092
▁Qu	-11.8099
atterrir	-11.81
▁organis	-11.8124
▁fouille	-11.8126
▁chor	-11.8128
sses	-11.8133
▁bloqu	-11.8148
▁maniÃ	-11.8156
pi	-11.817
▁sw	-11.8178
ives	-11.8182
▁colo	-11.8227
▁rebondi	-11.8229
▁lis	-11.8241
▁arrow	-11.8242
per	-11.8244
▁Ste	-11.8248
▁toss	-11.8252
▁done	-11.8261
▁ange	-11.8269
▁tabliers	-11.8273
▁pinceau	-11.8275
▁prÃate	-11.8278
▁shout	-11.8279
teindre	-11.828
▁toast	-11.8285
ordures	-11.8286
qui	-11.829
▁gri	-11.8303
▁Mi	-11.8305
▁ballot	-11.8315
▁accompanie	-11.832
▁circula	-11.8333
▁garder	-11.8343
▁bouc	-11.8344
ours	-11.8344
▁chin	-11.8362
ine	-11.8363
G	-11.8367
▁courte	-11.8377
▁recouvr	-11.8388
▁writ	-11.8389
▁Num	-11.8392
▁love	-11.8403
country	-11.8468
emmÃ	-11.8469
rise	-11.8474
gorge	-11.8478
▁bronz	-11.8479
ressant	-11.8482
Halloween	-11.8485
ungle	-11.8487
attention	-11.8489
service	-11.8491
▁dunes	-11.8495
Asiatiques	-11.8497
uniformes	-11.8506
▁buri	-11.8515
hinese	-11.8529
occup	-11.8536
▁say	-11.8539
▁mort	-11.855
dans	-11.8554
▁baie	-11.8562
escalader	-11.8565
▁franchi	-11.8575
objets	-11.8575
venue	-11.8577
raÃ	-11.8577
ice	-11.8581
rivi	-11.859
▁mu	-11.8614
▁human	-11.8633
uch	-11.8635
oreilles	-11.8638
▁signing	-11.8639
▁masqu	-11.864
▁ravin	-11.8651
od	-11.8651
ante	-11.8652
▁barque	-11.8667
▁mobylette	-11.8667
▁circulaire	-11.8668
▁pic	-11.8671
▁mexicain	-11.8672
▁europ	-11.8676
▁twirl	-11.8678
yo	-11.8678
pa	-11.8679
right	-11.8681
▁fountains	-11.8681
fenseur	-11.8683
▁defender	-11.8685
▁spectateur	-11.8685
▁character	-11.8687
▁cupcake	-11.8688
leans	-11.8689
▁̈gue	-11.869
▁motif	-11.8692
▁nurse	-11.8697
▁cheerleader	-11.8698
▁employee	-11.8702
▁fold	-11.8707
ab	-11.8718
▁tige	-11.8734
do	-11.8736
▁z	-11.8738
▁disco	-11.8739
▁crosse	-11.8746
▁trop	-11.876
▁season	-11.8763
▁berge	-11.8765
▁projecteur	-11.8765
▁weigh	-11.8768
▁though	-11.8771
▁marqu	-11.8773
▁fog	-11.8775
▁mitt	-11.8778
▁industriel	-11.878
ustomers	-11.878
lastique	-11.8781
▁stripe	-11.8781
▁mascot	-11.8783
▁elevat	-11.8784
tritus	-11.8785
▁Muslim	-11.8785
▁chirurgien	-11.8785
▁hispanique	-11.8785
▁javelot	-11.8785
▁meadow	-11.8785
▁musulman	-11.8785
▁puppet	-11.8785
▁toujours	-11.8785
▁wilderness	-11.8785
▁cathedral	-11.8785
▁exercising	-11.8785
▁fedora	-11.8785
▁harbor	-11.8785
▁extreme	-11.8785
▁littoral	-11.8785
▁caravan	-11.8785
▁verdure	-11.8785
▁cygne	-11.8785
▁soigneusement	-11.8785
▁explosion	-11.8785
▁progress	-11.8785
▁videotap	-11.8785
▁cellulaire	-11.8786
▁maybe	-11.8786
▁tigre	-11.8786
▁special	-11.8786
▁supermarket	-11.8786
▁chapiteau	-11.8786
▁slacks	-11.8786
▁galets	-11.8786
▁citizen	-11.8786
artisanat	-11.8786
▁Island	-11.8786
▁rustic	-11.8786
autoroute	-11.8786
▁seafood	-11.8786
▁backseat	-11.8786
▁activities	-11.8786
vateur	-11.8786
▁herbeuse	-11.8786
▁lumineux	-11.8786
▁arabe	-11.8786
▁aquatique	-11.8786
▁woodland	-11.8786
tisme	-11.8786
▁husky	-11.8786
▁resort	-11.8786
chantillon	-11.8787
▁parallel	-11.8787
▁visor	-11.8787
▁guichet	-11.8787
▁grotte	-11.8787
▁scientist	-11.8787
▁suivent	-11.8787
▁peloton	-11.8787
▁tablecloth	-11.8787
▁buggy	-11.8787
▁facial	-11.8788
▁tournage	-11.8788
▁mascotte	-11.8788
▁reception	-11.8788
▁fermier	-11.8788
▁textile	-11.8789
▁impressionnant	-11.8789
▁skydiving	-11.8789
▁skyline	-11.8789
▁Ford	-11.8789
▁mattress	-11.8789
▁crops	-11.8789
▁somewhere	-11.879
▁poney	-11.879
▁mounted	-11.8791
▁relay	-11.8791
▁expans	-11.8791
▁starring	-11.8791
▁bodysuit	-11.8791
▁violoniste	-11.8792
▁trophy	-11.8793
▁frire	-11.8793
Est	-11.8793
drale	-11.8793
▁compagn	-11.8793
chappe	-11.8793
▁sourcils	-11.8794
▁mitaines	-11.8794
▁Wall	-11.8794
crasant	-11.8795
▁web	-11.8795
▁applaudit	-11.8797
▁conducting	-11.8797
▁tiger	-11.8798
▁downhill	-11.88
▁moulant	-11.88
▁bicyclette	-11.8801
▁topless	-11.8802
▁guerre	-11.8802
▁feutre	-11.8802
▁intens	-11.8802
▁brassard	-11.8805
▁cargo	-11.8805
▁artificielle	-11.8805
▁marker	-11.8806
▁dryer	-11.8806
▁niveau	-11.8808
▁asperg	-11.8809
▁sidelines	-11.8809
▁information	-11.8812
▁cime	-11.8812
▁sunhat	-11.8815
▁historic	-11.8816
▁flottent	-11.8816
▁autochtone	-11.8817
▁mountaintop	-11.8818
amuser	-11.8818
▁clutch	-11.8819
▁lush	-11.8821
▁crown	-11.8822
▁rentrer	-11.8823
▁muscula	-11.8824
mo	-11.8825
▁milk	-11.8826
▁broad	-11.8827
da	-11.8827
▁level	-11.8831
▁stationnement	-11.8838
▁hamburgers	-11.8839
▁roche	-11.884
▁rollerskates	-11.884
▁trotting	-11.8841
▁Inde	-11.8842
▁vocal	-11.8842
▁troph	-11.8843
parations	-11.8844
▁vacuuming	-11.8846
▁cuill	-11.8846
▁stock	-11.8848
US	-11.8852
▁exhib	-11.8852
▁watermelons	-11.8854
▁bananas	-11.8856
▁quoi	-11.8858
▁damage	-11.8858
▁chew	-11.8861
▁Washington	-11.8863
arm	-11.8863
▁personnages	-11.8866
▁embrace	-11.8866
squ	-11.8867
▁bananes	-11.8868
▁Tourists	-11.8869
▁appartement	-11.8871
▁lanterns	-11.8874
▁complÃ	-11.8875
▁select	-11.8877
▁lanternes	-11.8881
▁greet	-11.8883
▁̈gues	-11.8884
ical	-11.8884
▁cupcakes	-11.8884
▁characters	-11.8884
▁attracti	-11.8885
▁employees	-11.8886
parp	-11.8889
▁touchent	-11.8894
▁colorfully	-11.8899
▁Indien	-11.8903
eval	-11.8904
▁skill	-11.8904
▁ordering	-11.8905
▁enseignante	-11.8905
▁ultim	-11.8906
▁indiqu	-11.8909
▁shooter	-11.8914
▁DS	-11.8923
ogie	-11.8924
▁monitors	-11.893
▁str	-11.8931
▁upwards	-11.8944
▁colorie	-11.8947
▁shack	-11.8949
▁pliantes	-11.8949
▁chevalet	-11.8964
▁dolls	-11.8964
ear	-11.8965
▁demonstration	-11.8973
▁tutus	-11.8973
▁assembl	-11.8978
zard	-11.8979
▁camels	-11.898
shape	-11.8982
▁pÃachent	-11.8988
quipiers	-11.899
yed	-11.8991
▁rallye	-11.8993
▁jar	-11.8997
▁prepared	-11.8998
tory	-11.9004
▁necklaces	-11.9006
▁drawn	-11.9008
▁barrels	-11.9019
▁jailliss	-11.9022
▁Walk	-11.9023
▁award	-11.9031
▁baisse	-11.9039
▁peaks	-11.9042
▁snacks	-11.9049
▁seating	-11.9049
▁professionnels	-11.9052
▁gay	-11.9055
tudiante	-11.9061
▁sold	-11.9067
gout	-11.9068
▁amies	-11.9072
▁coco	-11.9073
ti	-11.9077
oles	-11.908
▁harp	-11.9085
▁Halloween	-11.9095
▁magnifiques	-11.9097
let	-11.9101
ppy	-11.9103
ened	-11.9106
▁eff	-11.9108
▁emm	-11.9108
iversity	-11.911
pprÃ	-11.9112
viÃ	-11.912
▁need	-11.912
▁armor	-11.9123
▁organiz	-11.9128
▁advertisements	-11.9128
▁feature	-11.9129
▁flame	-11.9144
▁floue	-11.9151
▁ado	-11.9155
▁pleu	-11.9157
▁text	-11.9162
▁alimentaires	-11.9174
para	-11.9175
▁brille	-11.918
toufl	-11.9183
▁polos	-11.9188
riod	-11.9203
li	-11.9209
▁tableaux	-11.9215
embers	-11.9231
tats	-11.9235
▁quitt	-11.9236
▁weight	-11.9237
▁sc	-11.9241
▁u	-11.9258
▁strings	-11.9264
ennis	-11.9264
▁soi	-11.9265
▁gonflables	-11.9265
urry	-11.9272
▁beiges	-11.9275
chevÃ	-11.9282
ignant	-11.9284
errier	-11.9298
amour	-11.9306
▁balais	-11.9308
hole	-11.9316
ange	-11.9323
▁flu	-11.933
▁troncs	-11.9334
▁guards	-11.9343
▁stars	-11.9355
fin	-11.9356
robe	-11.9365
gu	-11.9368
va	-11.9372
▁gratt	-11.9375
ants	-11.938
▁slic	-11.9394
▁app	-11.9394
▁Nat	-11.9398
The	-11.9404
▁symbol	-11.9404
▁scal	-11.9409
tique	-11.9412
▁wrapp	-11.9415
▁trains	-11.9418
▁border	-11.9425
ler	-11.9431
▁paw	-11.9437
▁shi	-11.9439
▁installe	-11.9449
▁Shop	-11.945
lectriques	-11.9464
▁Protest	-11.9468
▁quiet	-11.947
back	-11.948
ros	-11.9484
▁own	-11.9491
ese	-11.9493
▁dropp	-11.9494
ap	-11.9499
▁bloque	-11.9515
▁bounce	-11.9522
▁Power	-11.9528
▁medi	-11.953
dults	-11.9531
▁fat	-11.9536
▁dump	-11.9537
▁bump	-11.9547
ars	-11.9557
▁sad	-11.9559
camera	-11.9567
▁artists	-11.9573
als	-11.9576
▁remov	-11.9588
onner	-11.9607
▁baign	-11.9614
▁polish	-11.9623
▁crab	-11.9625
dressed	-11.9629
sol	-11.9636
▁poser	-11.9642
▁railings	-11.9648
▁impatie	-11.9666
▁Long	-11.9668
▁statues	-11.9678
colte	-11.9692
im	-11.9692
▁pans	-11.9694
ria	-11.97
▁jets	-11.9702
rill	-11.9702
▁hour	-11.9709
▁cats	-11.9713
▁masques	-11.9719
▁serveu	-11.9726
▁suspend	-11.9732
▁flow	-11.9739
▁comm	-11.9743
▁mauvaise	-11.9745
▁rocheuses	-11.9775
▁mic	-11.9785
▁relev	-11.9807
ack	-11.9808
▁dot	-11.9812
lass	-11.9819
pose	-11.9825
▁desks	-11.9827
▁carri	-11.9832
serves	-11.9851
val	-11.989
▁corne	-11.9909
andy	-11.9909
▁auto	-11.9913
▁salad	-11.9919
chir	-11.9924
ssing	-11.9928
▁para	-11.9933
▁sip	-11.9934
voyant	-11.9938
▁soup	-11.995
phones	-11.9957
▁build	-11.9964
tÃate	-11.9964
▁remet	-11.9973
ique	-11.9984
▁dor	-11.9997
ds	-12
core	-12.0014
▁sail	-12.0015
▁manuel	-12.0015
▁locale	-12.0024
ively	-12.0028
▁souple	-12.0044
jupes	-12.0047
▁oil	-12.0069
ather	-12.0074
agent	-12.0077
▁shirted	-12.0081
▁souriants	-12.01
▁peigne	-12.0107
▁lin	-12.0112
oppos	-12.0116
▁pops	-12.0126
▁Wi	-12.0133
York	-12.0136
sion	-12.0138
try	-12.0145
storm	-12.0147
collant	-12.015
documents	-12.0155
individus	-12.0156
ster	-12.0157
allure	-12.0173
▁connecte	-12.0174
▁japonaise	-12.018
▁beers	-12.0182
high	-12.0189
effor	-12.0197
marine	-12.02
filled	-12.0206
▁tisse	-12.022
▁concentrate	-12.0225
oney	-12.0225
▁nou	-12.0228
held	-12.023
▁recline	-12.0232
▁release	-12.0244
▁spik	-12.0249
▁fran	-12.0255
▁Ge	-12.0262
day	-12.0263
ood	-12.0275
▁interagi	-12.0277
▁kn	-12.0278
▁gla	-12.029
▁compan	-12.0302
▁tribu	-12.0309
▁wo	-12.0309
▁zip	-12.0324
io	-12.033
▁explore	-12.0331
▁fork	-12.0332
▁fontaines	-12.0333
▁briefcase	-12.0334
▁dossard	-12.0334
▁skull	-12.0334
▁handbag	-12.0336
▁comb	-12.0347
▁hutte	-12.0349
▁question	-12.0349
▁pillar	-12.035
▁mode	-12.0351
▁friandise	-12.0351
▁weapon	-12.0352
▁enseignant	-12.0352
▁zombie	-12.0353
▁poncho	-12.0353
▁Tourist	-12.0354
▁banane	-12.0356
▁buisson	-12.0357
▁colonne	-12.0361
▁rep	-12.0363
▁personnage	-12.0365
▁crate	-12.0369
▁strik	-12.037
▁meuble	-12.037
▁porc	-12.0381
▁dribbl	-12.0381
▁sweet	-12.0383
▁temp	-12.0387
▁trim	-12.0394
▁brid	-12.0395
▁patte	-12.0396
▁voi	-12.0397
▁scout	-12.0399
▁disposi	-12.0406
con	-12.0406
▁serpent	-12.0417
ot	-12.0419
irefighters	-12.0425
oddler	-12.043
▁encadr	-12.0431
▁tomato	-12.0433
ature	-12.0434
▁mon	-12.0436
▁ceremon	-12.0444
den	-12.0447
▁clarinet	-12.0449
▁fantaisi	-12.0452
affichage	-12.0452
▁Basketball	-12.0452
▁Berlin	-12.0452
▁Cowboy	-12.0452
▁Pizza	-12.0452
▁album	-12.0452
▁alcohol	-12.0452
▁brindle	-12.0452
▁caucasien	-12.0452
▁concession	-12.0452
▁crocodile	-12.0452
▁husband	-12.0452
▁invisible	-12.0452
▁kiosk	-12.0452
▁liquor	-12.0452
▁monopoly	-12.0452
▁ninja	-12.0452
▁opinion	-12.0452
▁ornament	-12.0452
▁paisible	-12.0452
▁patrouille	-12.0452
▁perplexe	-12.0452
▁physique	-12.0452
▁pittoresque	-12.0452
▁professor	-12.0452
▁scissors	-12.0452
▁spatula	-12.0452
▁spatule	-12.0452
▁sunshine	-12.0452
▁bronco	-12.0452
▁fluorescent	-12.0452
▁lipstick	-12.0452
▁razor	-12.0452
▁Company	-12.0452
▁recreat	-12.0452
▁Hotel	-12.0452
▁jazz	-12.0452
▁maigre	-12.0452
▁system	-12.0452
▁Angels	-12.0452
▁lavabo	-12.0452
▁cable	-12.0452
▁Angeles	-12.0452
▁tortue	-12.0452
▁Certain	-12.0452
▁Surfer	-12.0452
▁ciseaux	-12.0452
▁bardeaux	-12.0452
▁navigable	-12.0452
▁nightclub	-12.0452
▁Volkswagen	-12.0452
▁soudure	-12.0452
▁Claus	-12.0452
▁geisha	-12.0452
▁boulangerie	-12.0452
▁High	-12.0452
▁seesaw	-12.0452
▁secouriste	-12.0452
▁rustique	-12.0452
▁Life	-12.0452
▁breath	-12.0452
▁BMW	-12.0452
▁archway	-12.0452
▁riverbank	-12.0453
▁cuivre	-12.0453
▁situation	-12.0453
▁compagnie	-12.0453
▁Lakers	-12.0453
▁propane	-12.0453
▁tunic	-12.0453
▁typique	-12.0453
▁lourd	-12.0453
▁rasoir	-12.0453
▁fitness	-12.0453
▁Spiderman	-12.0453
▁operation	-12.0453
▁curious	-12.0454
▁wonder	-12.0454
▁suburb	-12.0454
▁rafra	-12.0454
▁hipster	-12.0454
▁remue	-12.0454
▁tatoueur	-12.0454
marrer	-12.0455
▁projection	-12.0455
▁relais	-12.0455
▁vieillard	-12.0455
▁audio	-12.0455
▁sharp	-12.0455
▁goatee	-12.0455
▁panda	-12.0455
▁Wii	-12.0456
▁arbor	-12.0456
▁index	-12.0456
▁socializing	-12.0456
▁crochet	-12.0456
▁constructed	-12.0457
▁sauveteur	-12.0457
▁campement	-12.0458
▁saddle	-12.0458
▁ruade	-12.0458
▁wineglasses	-12.0458
▁clap	-12.0458
ordonn	-12.0458
▁tunique	-12.0458
dicaux	-12.0459
▁hairstyle	-12.0459
▁radeaux	-12.0459
▁chunk	-12.0459
dalant	-12.0459
▁frown	-12.0459
▁poker	-12.046
▁glider	-12.0461
▁Cyclist	-12.0461
▁tuyaux	-12.0462
lly	-12.0462
▁sailor	-12.0462
▁completely	-12.0462
▁saucisses	-12.0463
▁mittens	-12.0463
▁excitedly	-12.0463
▁fireworks	-12.0463
▁session	-12.0463
▁Bikers	-12.0463
▁knitting	-12.0464
▁Ice	-12.0465
▁joyeuse	-12.0466
▁assembled	-12.0467
▁banlieue	-12.0468
▁surveillant	-12.0469
▁parvien	-12.047
▁puff	-12.047
▁Colle	-12.0471
▁sauna	-12.0471
▁pride	-12.0471
▁tomatoes	-12.0472
▁cash	-12.0472
▁barreaux	-12.0472
▁secours	-12.0473
▁contra	-12.0473
▁obten	-12.0474
▁criant	-12.0474
▁flaming	-12.0477
▁escarp	-12.0477
▁East	-12.0477
▁crack	-12.0477
▁belly	-12.0479
▁souvenirs	-12.048
▁prient	-12.0481
▁policemen	-12.0481
▁spr	-12.0481
▁bridesmaids	-12.0481
▁eager	-12.0482
▁except	-12.0484
▁sueur	-12.0485
▁balaye	-12.0488
▁priant	-12.0488
ctors	-12.0489
▁Superman	-12.049
▁Gray	-12.0492
▁mosa	-12.0493
▁words	-12.0494
▁pastel	-12.0495
▁ascend	-12.0495
▁melons	-12.0495
▁grillage	-12.05
chement	-12.05
▁texting	-12.0501
▁poudre	-12.0502
▁Skier	-12.0504
▁ceris	-12.0504
▁tresses	-12.0505
ame	-12.0507
▁stay	-12.0509
▁rondin	-12.0509
▁tumbling	-12.0512
▁Sud	-12.0512
amily	-12.0512
▁clos	-12.0514
▁mouettes	-12.0515
▁tips	-12.052
▁clothed	-12.052
▁Dirt	-12.0522
▁ollie	-12.0524
agged	-12.0524
▁steer	-12.0526
▁blower	-12.0529
gale	-12.053
▁Joe	-12.0531
▁trio	-12.0531
▁dirig	-12.0532
▁waterside	-12.0532
▁girlfriend	-12.0534
▁paresse	-12.0535
ging	-12.0538
acheteurs	-12.0539
▁prÃatre	-12.054
▁scratch	-12.0541
▁checked	-12.0541
▁enceinte	-12.0542
▁Bull	-12.0543
▁champs	-12.0543
▁South	-12.0546
▁essuie	-12.0548
▁signal	-12.0548
▁loupe	-12.055
▁Loca	-12.055
▁grimper	-12.055
▁stair	-12.0552
▁plonger	-12.0552
▁ponchos	-12.0552
▁zombies	-12.0552
▁ascension	-12.0553
▁approchant	-12.0553
▁Hous	-12.0555
barrasse	-12.0556
▁note	-12.0557
▁framed	-12.0561
▁ancienne	-12.0562
▁mout	-12.0564
▁via	-12.0564
▁ombres	-12.0566
▁cierge	-12.0567
▁agrÃ	-12.0569
lic	-12.0571
five	-12.0572
▁gowns	-12.0572
ber	-12.0578
▁talkie	-12.0579
▁projecteurs	-12.0579
▁abandonn	-12.058
▁equ	-12.0581
▁̈tres	-12.0582
▁nails	-12.0584
▁br	-12.0585
▁ethniques	-12.0588
▁citrouilles	-12.0589
▁blurr	-12.0592
▁spots	-12.0592
▁snowball	-12.0593
▁swan	-12.0594
▁Day	-12.0598
▁lapins	-12.0601
▁vigo	-12.0601
lins	-12.0602
▁enroul	-12.0604
▁tranch	-12.0606
▁drape	-12.0606
▁personnels	-12.0614
▁ravine	-12.0617
▁flood	-12.0618
▁strip	-12.0619
▁poulets	-12.0623
▁minces	-12.0623
▁marsh	-12.0625
ston	-12.0629
▁rugs	-12.0634
▁braqu	-12.0635
▁rou	-12.0637
▁varie	-12.0639
ey	-12.0641
▁want	-12.0642
anneaux	-12.0642
▁plongeon	-12.0645
ssed	-12.0649
▁pyramide	-12.0649
Bo	-12.0655
▁boxers	-12.0659
▁Jew	-12.066
clairages	-12.0661
▁rondes	-12.0662
▁construite	-12.0665
tournant	-12.067
elve	-12.0678
▁haul	-12.068
▁chand	-12.0681
phants	-12.0684
▁yo	-12.0685
▁barriers	-12.0685
decins	-12.0695
▁McDonalds	-12.0697
▁Mick	-12.07
▁expose	-12.0701
minine	-12.0702
vale	-12.0705
toiles	-12.0706
W	-12.0707
ung	-12.0711
▁kit	-12.0712
▁valises	-12.0715
▁ribbons	-12.0715
▁bonhomme	-12.0725
▁brow	-12.0732
▁brooms	-12.0735
▁blocking	-12.0735
▁cerfs	-12.074
▁ja	-12.0742
▁surplombe	-12.0745
▁decide	-12.075
▁ajust	-12.0753
▁festive	-12.0753
▁allure	-12.0757
▁beams	-12.0758
▁doctors	-12.0763
▁enseignes	-12.077
▁baton	-12.0773
▁wok	-12.0775
▁dots	-12.0777
ootball	-12.0777
▁planter	-12.0783
bli	-12.0783
▁swords	-12.0788
▁amarr	-12.0791
▁formations	-12.0792
▁descente	-12.0793
▁console	-12.0801
▁jumpsuits	-12.0807
▁hearts	-12.081
▁devanture	-12.0811
▁Ho	-12.0814
▁africaines	-12.0826
▁boa	-12.0827
▁drying	-12.0828
▁cl	-12.084
▁turbans	-12.0841
▁sound	-12.0847
▁Bill	-12.0847
▁utili	-12.0852
pe	-12.0852
▁sleeves	-12.0852
stretched	-12.0872
▁litter	-12.0875
▁mots	-12.0875
tales	-12.088
▁skim	-12.0889
▁bottoms	-12.0895
▁bows	-12.0897
▁fier	-12.0898
▁tricycles	-12.0898
▁cages	-12.0904
▁presents	-12.0906
▁invi	-12.0907
▁dra	-12.0914
▁pipes	-12.0915
▁tropicale	-12.0916
▁wheelchairs	-12.0917
▁serviettes	-12.0917
set	-12.0929
▁assisting	-12.0933
▁marathonien	-12.0937
erry	-12.0941
▁Sal	-12.0945
ugging	-12.0949
tin	-12.0949
rt	-12.096
▁lands	-12.0964
▁flee	-12.0971
ssent	-12.0973
▁raining	-12.0978
▁Tim	-12.0981
▁devices	-12.099
▁secure	-12.0991
▁vaches	-12.0993
▁remett	-12.0995
▁rafts	-12.0997
arde	-12.1002
riment	-12.1003
▁attack	-12.1011
▁Minne	-12.1021
her	-12.1029
tex	-12.1032
▁slopes	-12.1038
chauff	-12.1039
▁escalader	-12.1048
cla	-12.1049
▁noses	-12.1058
▁change	-12.1061
▁plaine	-12.1063
▁menton	-12.1085
▁acier	-12.1092
▁golfeur	-12.111
▁stunts	-12.1111
ag	-12.1113
chette	-12.1114
▁Nou	-12.1118
▁press	-12.1138
got	-12.1155
▁visite	-12.1159
▁pend	-12.1161
no	-12.1177
▁soupe	-12.1181
▁mise	-12.1181
▁pouv	-12.1185
ummer	-12.1186
▁rapport	-12.1214
▁profondes	-12.122
alise	-12.1228
Ãate	-12.1233
▁suspendus	-12.1234
head	-12.1238
imÃ	-12.1246
ac	-12.1248
▁gonfle	-12.1248
▁plush	-12.125
▁approche	-12.1255
▁chats	-12.1255
rasant	-12.1264
insi	-12.1281
▁So	-12.1292
eling	-12.1298
▁campeur	-12.1315
▁Ja	-12.1325
▁savour	-12.1333
verse	-12.1338
▁vides	-12.1352
▁tendue	-12.1358
▁trans	-12.136
▁limb	-12.1366
rows	-12.1372
▁strollers	-12.1375
▁hear	-12.1377
▁crabe	-12.1379
▁magnif	-12.1387
oulÃ	-12.1394
▁toilet	-12.1422
Bron	-12.1429
▁origin	-12.1439
▁Pe	-12.1439
hand	-12.1442
time	-12.1445
ngry	-12.1449
▁tambourin	-12.145
▁pellet	-12.1457
▁Chi	-12.1464
▁cath	-12.1466
▁colliers	-12.1487
▁lanes	-12.149
crase	-12.149
▁gen	-12.1493
▁brunes	-12.151
wearing	-12.1512
iving	-12.1517
ages	-12.1527
▁pelles	-12.1528
▁Grand	-12.1533
▁breaks	-12.1553
ize	-12.156
▁vitrines	-12.1561
ional	-12.1564
ilitary	-12.1565
▁taill	-12.1574
▁trous	-12.1576
chi	-12.1578
▁Mad	-12.1581
hose	-12.1583
▁surfeurs	-12.1598
▁Pa	-12.1611
▁accroche	-12.1613
rest	-12.1616
ouli	-12.1618
▁observ	-12.1629
eautiful	-12.163
▁peak	-12.1631
tery	-12.1635
asse	-12.1636
▁conveni	-12.1641
thing	-12.1641
ellow	-12.1655
ctur	-12.1655
▁axe	-12.166
hat	-12.1665
▁squa	-12.1679
▁may	-12.1681
ff	-12.1698
rious	-12.1716
▁vise	-12.1731
▁assort	-12.1748
Unis	-12.1752
▁cord	-12.1778
▁vision	-12.1779
son	-12.1782
rded	-12.1783
ouche	-12.1786
short	-12.179
▁mow	-12.1792
▁musta	-12.1797
▁fle	-12.1814
▁Asians	-12.1815
uvr	-12.183
skating	-12.183
▁glid	-12.1847
▁wade	-12.1852
▁frott	-12.1859
ay	-12.1859
ft	-12.1871
▁search	-12.1884
▁vertical	-12.1885
wards	-12.1886
▁rapporte	-12.1886
mat	-12.1888
piece	-12.19
▁chip	-12.1914
objet	-12.1919
cute	-12.1937
▁suite	-12.1942
▁stretch	-12.1951
hoop	-12.1956
▁demand	-12.1959
pool	-12.1964
golf	-12.1965
▁bouton	-12.1974
▁glissa	-12.1978
▁museau	-12.1989
cast	-12.1995
▁coll	-12.2001
▁manipul	-12.202
▁environn	-12.2021
aller	-12.2028
exercice	-12.2029
▁stre	-12.2034
iens	-12.204
▁too	-12.2045
white	-12.2053
▁care	-12.2058
▁Me	-12.2059
▁demonstrat	-12.2072
▁principale	-12.2072
command	-12.2075
cie	-12.2079
N	-12.2081
ok	-12.2082
ris	-12.2083
ser	-12.2083
cteurs	-12.2085
▁barbecu	-12.2093
wheeler	-12.21
ka	-12.21
cting	-12.21
▁clou	-12.21
work	-12.2107
fi	-12.2112
ime	-12.2113
▁shad	-12.2113
quip	-12.2115
bat	-12.2122
treign	-12.2124
informatique	-12.2136
cercle	-12.2136
▁canin	-12.2136
upÃ	-12.214
articles	-12.2144
ctively	-12.2145
asphalte	-12.2145
Asie	-12.2145
harmonica	-12.2152
acier	-12.2154
acheter	-12.2157
vage	-12.2158
▁inscription	-12.2159
corn	-12.216
break	-12.2164
artistes	-12.2188
uds	-12.2188
rent	-12.2195
Le	-12.2196
outils	-12.2205
itty	-12.2206
▁mouths	-12.221
vin	-12.222
▁mark	-12.2225
▁Ca	-12.2226
▁tra	-12.2235
▁trotte	-12.2241
▁Fisherm	-12.2243
▁submerge	-12.2247
rien	-12.225
▁culture	-12.2252
j	-12.2254
oiseau	-12.226
▁wipe	-12.2261
artial	-12.2267
▁pourchasse	-12.227
▁multicolor	-12.2275
scope	-12.228
▁major	-12.2282
▁truc	-12.2288
▁choisi	-12.23
▁final	-12.2307
▁important	-12.2308
▁asphalt	-12.2309
▁hung	-12.2309
▁cal	-12.2322
aby	-12.233
▁marionnette	-12.2333
▁arroseur	-12.2338
rateur	-12.2338
▁sister	-12.2341
▁cahier	-12.2344
▁chiffon	-12.2344
▁canadien	-12.2345
▁concurrent	-12.2349
▁Bicyclist	-12.2349
▁struggl	-12.2352
▁blind	-12.2352
▁watermelon	-12.2354
▁banana	-12.2356
▁kimono	-12.2356
clabousse	-12.2356
▁pedestrian	-12.2357
▁bagpipe	-12.2357
▁jog	-12.2359
▁expert	-12.2359
▁backward	-12.2359
▁dinde	-12.236
▁billet	-12.2366
▁cookie	-12.2371
▁cooler	-12.2372
sole	-12.2375
▁protester	-12.2376
haps	-12.2377
▁rouleau	-12.2379
▁pig	-12.2379
chefs	-12.2386
▁fro	-12.2389
ras	-12.2392
▁kart	-12.2395
▁pie	-12.2397
▁emerg	-12.2398
▁snorkel	-12.2409
uma	-12.2413
▁effray	-12.2421
combres	-12.2423
ig	-12.243
▁́me	-12.2431
▁know	-12.2435
▁Japon	-12.2436
▁sauce	-12.2439
▁libert	-12.2442
▁pray	-12.2444
▁competitive	-12.2447
▁soft	-12.2449
enaissance	-12.245
UNICEF	-12.2452
▁Golden	-12.2452
▁Hispani	-12.2452
▁Photographer	-12.2452
▁apparatus	-12.2452
▁blossom	-12.2452
▁bookshelf	-12.2452
▁britannique	-12.2452
▁cagoule	-12.2452
▁dauphin	-12.2452
▁disponibles	-12.2452
▁dolphin	-12.2452
▁javelin	-12.2452
▁pacifier	-12.2452
▁peacock	-12.2452
▁rehears	-12.2452
▁rocailleux	-12.2452
▁tyrolienne	-12.2452
▁unknown	-12.2452
▁watercraft	-12.2452
▁zebra	-12.2452
▁camarade	-12.2452
▁elbow	-12.2452
▁gallop	-12.2452
▁intrigu	-12.2452
▁lumineuse	-12.2452
▁vegetation	-12.2452
▁dizaine	-12.2452
▁fingernail	-12.2452
▁Gentlem	-12.2452
▁tightrope	-12.2452
▁autocollant	-12.2452
ambulateur	-12.2452
▁carousel	-12.2452
▁charbon	-12.2452
▁hijab	-12.2452
▁ukulele	-12.2452
▁Patrick	-12.2452
▁corniche	-12.2452
estrian	-12.2452
▁squelette	-12.2452
▁represent	-12.2452
▁Dancers	-12.2452
▁refresh	-12.2452
▁France	-12.2452
▁stylish	-12.2452
▁campsite	-12.2452
▁shoeshine	-12.2452
▁treilli	-12.2452
▁coloriage	-12.2452
▁dominos	-12.2452
▁community	-12.2452
▁applaudissant	-12.2452
▁ordinaire	-12.2452
▁rowboat	-12.2452
▁kitten	-12.2452
▁hippique	-12.2452
▁nouilles	-12.2452
▁sacoche	-12.2453
▁malheureux	-12.2453
▁vacation	-12.2453
▁nettoyage	-12.2453
▁touristique	-12.2453
▁meilleur	-12.2453
▁overhang	-12.2453
▁remote	-12.2453
▁canopy	-12.2453
▁identical	-12.2453
▁fourneaux	-12.2453
▁swamp	-12.2453
▁curtain	-12.2453
▁passionate	-12.2453
▁cartwheel	-12.2453
▁synth	-12.2453
▁mignon	-12.2453
▁Castro	-12.2453
▁cinder	-12.2453
▁dragster	-12.2453
▁Coffee	-12.2453
▁exhibition	-12.2453
▁fourchette	-12.2453
▁blindfolded	-12.2453
▁tiara	-12.2453
▁religieux	-12.2453
▁backstroke	-12.2453
▁escape	-12.2453
▁york	-12.2453
▁Singer	-12.2454
▁nibbl	-12.2454
▁excitement	-12.2454
▁renaissance	-12.2454
▁neuf	-12.2454
▁dentaire	-12.2454
▁earth	-12.2454
▁sifflet	-12.2454
▁retrouve	-12.2454
▁drunk	-12.2454
▁shelves	-12.2454
▁clock	-12.2455
▁attentively	-12.2455
▁passerby	-12.2455
▁Gap	-12.2455
odeo	-12.2455
▁California	-12.2455
▁scantily	-12.2455
▁Soldier	-12.2455
autobus	-12.2455
▁bakery	-12.2455
▁rubble	-12.2455
▁eyeglasses	-12.2455
▁promener	-12.2455
cemment	-12.2456
▁clarinette	-12.2456
▁Story	-12.2456
▁priest	-12.2456
▁labrado	-12.2456
▁tram	-12.2456
▁merchant	-12.2456
▁answer	-12.2456
▁hanches	-12.2456
▁mixage	-12.2457
▁parachuting	-12.2457
▁cattle	-12.2457
▁Hero	-12.2458
▁honor	-12.2458
▁sweatsuit	-12.2458
▁bathrobe	-12.2458
▁whistle	-12.2458
rosol	-12.2458
▁sketch	-12.2459
▁daylight	-12.2459
▁greenery	-12.2459
▁confused	-12.2459
▁fireplace	-12.246
▁crib	-12.246
▁lovely	-12.2461
▁Femme	-12.2462
▁clothesline	-12.2462
▁sujet	-12.2462
▁puits	-12.2462
▁contrebasse	-12.2462
apid	-12.2463
▁Grouch	-12.2463
▁cartoon	-12.2463
▁depict	-12.2464
▁Scout	-12.2464
▁produire	-12.2465
▁competitors	-12.2465
▁gratuits	-12.2465
▁SU	-12.2465
▁ruins	-12.2465
▁oversize	-12.2465
▁extension	-12.2466
▁bl	-12.2466
▁gigant	-12.2469
▁couture	-12.2469
▁lacets	-12.2469
▁deliver	-12.247
▁snake	-12.2471
▁encourageant	-12.2471
▁rythme	-12.2472
ollerblades	-12.2472
▁grains	-12.2473
▁lessive	-12.2474
merveill	-12.2475
▁steam	-12.2477
▁zoom	-12.2478
▁randonneuse	-12.248
▁Met	-12.2484
▁interviewed	-12.2485
▁floaties	-12.2485
▁Sports	-12.2486
▁ruines	-12.2486
▁figurines	-12.2487
▁early	-12.2487
▁You	-12.249
▁weave	-12.2492
▁audition	-12.2492
▁collide	-12.2492
▁karting	-12.2493
▁nine	-12.2494
▁agripp	-12.2494
▁flexible	-12.2495
▁volunteer	-12.2497
▁slab	-12.2499
▁headset	-12.25
▁strawberr	-12.25
▁jack	-12.2501
▁cruis	-12.2502
▁struggles	-12.2502
▁cutout	-12.2503
ose	-12.2504
licieuse	-12.2504
▁courbe	-12.2508
▁pleurer	-12.2508
▁earrings	-12.2509
▁dalles	-12.251
▁toilettes	-12.2511
▁selection	-12.2512
▁assorties	-12.2514
▁force	-12.2516
▁upper	-12.2516
▁emerge	-12.2516
▁fairy	-12.252
tan	-12.2521
yer	-12.2522
▁parachutist	-12.2522
▁keys	-12.2525
▁dramatic	-12.2527
▁fau	-12.2527
▁paysan	-12.2527
▁squirt	-12.2528
▁fashionabl	-12.253
▁shingles	-12.253
▁seagulls	-12.2533
▁exciting	-12.2538
▁inconnue	-12.254
▁cuve	-12.2544
▁crowns	-12.2546
cial	-12.2548
▁served	-12.255
▁wool	-12.2551
▁grave	-12.2553
▁frite	-12.2554
▁sprinte	-12.2556
▁coolers	-12.2558
▁envol	-12.256
▁entertainer	-12.256
▁breast	-12.2562
▁garment	-12.2565
▁trap	-12.2566
▁poilu	-12.2572
▁morte	-12.2573
▁plow	-12.2574
▁legged	-12.2574
ayer	-12.2574
▁flour	-12.2574
▁ambulanc	-12.2575
▁weapons	-12.2576
▁perd	-12.2576
▁friandises	-12.2577
▁respond	-12.2577
▁foam	-12.2577
woman	-12.2583
▁medal	-12.2584
▁safe	-12.2589
▁lama	-12.2589
labor	-12.2596
adresse	-12.2607
▁informal	-12.2609
▁marking	-12.2609
▁ref	-12.2611
▁barking	-12.2613
hirtless	-12.2616
▁magici	-12.2617
paration	-12.2618
▁exercices	-12.2621
ais	-12.2627
merge	-12.2628
▁tribe	-12.2632
eep	-12.2634
▁feathers	-12.2636
▁dash	-12.2636
ucking	-12.2637
▁identifi	-12.2638
mÃames	-12.2639
▁encouragent	-12.2643
▁marins	-12.2646
▁laveur	-12.2648
taires	-12.2651
▁tip	-12.2651
▁given	-12.2651
▁carried	-12.2653
▁nourriss	-12.2654
▁encl	-12.2654
▁goats	-12.2662
▁trays	-12.2662
▁contemplat	-12.2662
dimen	-12.2663
▁appliqu	-12.2664
▁poursui	-12.2665
▁tickets	-12.2667
▁lost	-12.2667
▁quille	-12.2668
▁toque	-12.2673
▁canettes	-12.2677
▁leashes	-12.2679
pice	-12.2682
▁troupe	-12.2683
▁haies	-12.2688
▁cheeks	-12.2689
▁couette	-12.269
▁cire	-12.2692
▁grin	-12.2693
▁civile	-12.2696
▁hu	-12.2697
▁torche	-12.2701
▁completed	-12.2707
▁ratisse	-12.2709
▁suitcases	-12.2712
▁clearing	-12.2712
▁recent	-12.2714
▁bones	-12.2715
▁ad	-12.2716
▁bris	-12.2724
▁botte	-12.2724
▁spend	-12.2727
▁sight	-12.274
mas	-12.2742
▁engins	-12.2745
▁noms	-12.2754
agÃ	-12.2759
▁elephants	-12.278
▁cornes	-12.2784
▁gu	-12.2796
▁apples	-12.2798
▁snowman	-12.2798
▁smashe	-12.2801
▁Che	-12.2801
▁banderoles	-12.2803
▁motorbikes	-12.2803
▁artistiques	-12.2804
▁handles	-12.2804
ide	-12.2806
cement	-12.2807
▁solder	-12.2815
▁anno	-12.282
▁fusils	-12.2825
▁storefronts	-12.2825
▁ombrelles	-12.2825
▁horns	-12.2838
▁anneau	-12.2839
▁applaudi	-12.2842
ward	-12.2842
▁sodas	-12.2843
▁mind	-12.2848
▁taste	-12.2851
▁divertiss	-12.2855
ueuses	-12.2856
long	-12.2865
▁construct	-12.2866
▁storm	-12.2866
▁domin	-12.2871
▁parti	-12.2872
TE	-12.2875
tuellement	-12.2884
▁Work	-12.2886
▁emball	-12.2887
accroch	-12.2894
tter	-12.2902
▁chains	-12.2906
▁flash	-12.2906
lectrici	-12.2906
▁supports	-12.2907
taille	-12.2907
front	-12.2913
viron	-12.2915
▁opponents	-12.2916
▁auvent	-12.2917
▁asphalte	-12.2919
▁gosse	-12.293
tisserie	-12.2936
quÃ	-12.294
▁longueur	-12.2944
▁pursu	-12.2951
▁enlev	-12.2956
▁quilt	-12.2957
▁gorge	-12.2958
ache	-12.2959
▁cliente	-12.297
▁towels	-12.2977
uck	-12.2981
▁slop	-12.2988
▁nun	-12.2989
▁cli	-12.299
▁courtes	-12.2994
▁photographing	-12.2995
▁ka	-12.2995
opsicle	-12.2997
▁boutonn	-12.3002
ador	-12.3005
▁trot	-12.3005
pÃacher	-12.3006
lender	-12.3007
▁appara	-12.3014
▁rollerskater	-12.3014
▁rien	-12.3028
▁poke	-12.304
titu	-12.3046
▁horizontal	-12.3054
mble	-12.3058
▁patrol	-12.3065
▁verticale	-12.3067
▁vien	-12.3068
▁congr	-12.3071
▁parka	-12.3076
lage	-12.3077
▁vase	-12.3077
uffle	-12.3088
▁sheets	-12.3093
skier	-12.3097
▁adolescentes	-12.3102
iki	-12.3103
taire	-12.3104
▁bosse	-12.3106
▁posters	-12.3112
pite	-12.3112
▁Pen	-12.3113
▁ob	-12.3118
▁starts	-12.3121
▁jug	-12.3122
▁attein	-12.313
▁tam	-12.3132
▁gum	-12.3133
▁bel	-12.3141
▁Arabi	-12.3141
chit	-12.3142
hree	-12.3144
ried	-12.3144
bble	-12.3145
▁chal	-12.3149
▁communique	-12.3152
tch	-12.3153
▁retriev	-12.3153
▁percute	-12.3158
▁pump	-12.316
▁posts	-12.3166
▁east	-12.3169
▁pense	-12.3169
▁salade	-12.3179
▁sangle	-12.3207
▁Be	-12.3212
tonnier	-12.3215
▁̈	-12.3216
▁shoote	-12.3218
sionn	-12.323
▁em	-12.3232
▁guitaristes	-12.3234
▁Sma	-12.3238
▁Adult	-12.3239
▁wheeler	-12.3242
▁derni	-12.3248
dies	-12.3252
tages	-12.3258
▁reflect	-12.3273
voir	-12.3279
▁canon	-12.328
endant	-12.3286
cteur	-12.3294
▁singers	-12.3296
esse	-12.3303
chet	-12.3307
tals	-12.3312
▁Gr	-12.3314
lice	-12.3325
entourent	-12.3331
▁continue	-12.3346
urgical	-12.3349
ck	-12.3354
series	-12.3356
pack	-12.3373
ank	-12.3374
▁tiss	-12.3397
▁da	-12.3401
▁cornet	-12.3406
ult	-12.341
▁Ci	-12.3412
take	-12.3415
risÃ	-12.3427
aillant	-12.3431
litary	-12.3443
for	-12.3446
ltim	-12.3454
▁sci	-12.3455
▁wor	-12.3459
bord	-12.3462
▁handed	-12.3465
▁barbie	-12.3466
tine	-12.3468
▁deli	-12.3495
▁concour	-12.3525
runette	-12.3526
▁rampes	-12.3531
▁Neu	-12.3533
▁defens	-12.3535
▁artisan	-12.3539
▁colÃ	-12.3551
tam	-12.3554
eye	-12.3558
▁sprinkle	-12.3567
▁chaton	-12.3567
▁lan	-12.3569
▁fighter	-12.3572
▁butt	-12.3581
▁cloths	-12.3582
xy	-12.3585
turne	-12.359
stle	-12.359
rowing	-12.359
▁lutt	-12.3594
▁affiches	-12.3594
py	-12.3598
▁cascades	-12.3604
▁floors	-12.3605
mes	-12.3615
▁fixe	-12.362
▁guitares	-12.3643
▁bake	-12.365
▁Ch	-12.3657
dding	-12.3661
liÃ	-12.3672
▁write	-12.3677
▁scra	-12.368
▁tambourine	-12.3686
▁galope	-12.3696
▁imit	-12.3705
▁sprinkl	-12.3706
▁saying	-12.3719
▁saxophones	-12.3721
linge	-12.3728
▁Sp	-12.373
ome	-12.3732
act	-12.3733
key	-12.3737
hoe	-12.3743
▁Bu	-12.3745
iant	-12.3766
ution	-12.3775
▁vac	-12.379
▁puiss	-12.3795
▁pol	-12.3825
▁miss	-12.3836
▁sprint	-12.3841
ouverture	-12.3845
▁assemble	-12.3877
▁sirote	-12.3883
▁mot	-12.389
▁symbole	-12.39
ul	-12.3906
rtial	-12.3909
esque	-12.3919
▁amaz	-12.3924
▁intern	-12.3935
rou	-12.3937
nake	-12.395
▁cabin	-12.3951
roll	-12.3957
nded	-12.3963
chissante	-12.3964
▁oar	-12.399
▁Pan	-12.399
▁bouch	-12.3991
quette	-12.3991
▁pistes	-12.4
▁footing	-12.4002
▁gonfl	-12.4007
gum	-12.4017
▁flier	-12.4018
iz	-12.4023
▁tricote	-12.4032
pass	-12.4063
▁count	-12.4069
Doo	-12.4083
▁bark	-12.4087
▁surfers	-12.4088
lissant	-12.4094
ite	-12.4095
ift	-12.4098
▁communicat	-12.4099
▁bung	-12.41
▁holes	-12.4107
superman	-12.4114
▁skateboarders	-12.414
▁cueille	-12.4141
mult	-12.4141
▁Athlete	-12.4163
muff	-12.4174
rait	-12.4184
teur	-12.4193
lk	-12.4194
▁command	-12.4202
▁lie	-12.4203
ussi	-12.422
▁cro	-12.4221
▁imp	-12.4226
action	-12.4227
ave	-12.4233
cier	-12.4236
▁ombre	-12.4265
rous	-12.4267
oul	-12.4269
▁tell	-12.4269
eek	-12.4274
rry	-12.4284
▁affich	-12.4307
termin	-12.431
▁bandage	-12.4318
dit	-12.4319
ots	-12.4323
▁circul	-12.4333
sus	-12.4334
owered	-12.4355
▁Care	-12.4362
▁rocker	-12.4368
▁chant	-12.439
gers	-12.439
nis	-12.4393
neck	-12.4396
▁dev	-12.4408
▁quel	-12.4419
file	-12.4425
▁embrass	-12.443
▁curren	-12.4443
ouvrier	-12.4445
tiques	-12.4448
▁habil	-12.445
▁sweatshirts	-12.4451
vous	-12.4454
immeuble	-12.4459
ets	-12.4464
▁numer	-12.4469
sier	-12.4475
truck	-12.4483
▁hol	-12.4498
▁boss	-12.4504
▁costum	-12.4511
▁cell	-12.4527
ied	-12.4527
▁purchas	-12.4528
ike	-12.4531
▁fÃat	-12.4534
Guitar	-12.4535
ho	-12.4539
aris	-12.4544
▁distribu	-12.4546
lad	-12.455
Bien	-12.4569
where	-12.4587
blade	-12.4592
▁thought	-12.4594
mission	-12.4606
zone	-12.4607
type	-12.4611
escalator	-12.4611
▁audit	-12.4617
canique	-12.462
▁Y	-12.4629
▁Oh	-12.4629
tui	-12.4636
oad	-12.4636
observer	-12.4636
alpiniste	-12.4637
estomac	-12.4643
spect	-12.4644
last	-12.4644
stand	-12.4646
drawn	-12.4648
ambulant	-12.465
▁distribue	-12.4653
box	-12.4659
deep	-12.4662
mark	-12.4664
guards	-12.4665
▁lemon	-12.4667
▁graduati	-12.4672
▁pagaye	-12.4673
Indien	-12.4682
quilles	-12.4685
▁burger	-12.4685
handed	-12.4687
ron	-12.4688
fter	-12.4694
▁fleuris	-12.4705
capot	-12.4712
▁Side	-12.4717
llant	-12.4719
▁lantern	-12.4729
ancien	-12.4732
▁sandal	-12.4765
▁sl	-12.4773
pond	-12.4775
roule	-12.4775
▁washe	-12.4785
▁fit	-12.4786
▁Teenage	-12.4786
entrer	-12.4788
rit	-12.4798
▁pollu	-12.4801
▁marke	-12.4802
uz	-12.4808
▁Na	-12.4812
▁lunette	-12.4813
gar	-12.4815
▁officiel	-12.4818
▁arr	-12.4825
▁casse	-12.4831
▁agriculteur	-12.4833
▁instructor	-12.4835
pplies	-12.4835
▁patineuse	-12.4835
▁wrist	-12.4835
▁designe	-12.4835
rmaid	-12.4836
vis	-12.4837
dish	-12.4844
▁holiday	-12.4844
▁magique	-12.4844
▁pancake	-12.4844
▁Garden	-12.4844
▁crÃape	-12.4845
▁armure	-12.4846
▁rabbit	-12.4849
ados	-12.4849
▁seagull	-12.4851
▁mauve	-12.4852
▁hamburger	-12.4854
▁steak	-12.4857
▁identique	-12.4857
▁baguette	-12.4857
▁mouette	-12.4857
▁gymnastic	-12.4859
▁tarte	-12.4862
▁rub	-12.4876
▁tomate	-12.4877
acing	-12.4879
▁enfon	-12.4882
▁dist	-12.4889
ssive	-12.489
▁kiddi	-12.4893
mant	-12.4893
▁mixe	-12.4894
▁late	-12.4895
images	-12.4898
▁mosqu	-12.4903
▁streetlight	-12.4903
▁slam	-12.4904
▁stocking	-12.4905
keep	-12.4905
▁vault	-12.4905
▁recycl	-12.4909
▁exam	-12.4912
▁don	-12.4912
glac	-12.4915
tted	-12.4916
▁promoti	-12.4916
assi	-12.4924
shake	-12.4924
▁word	-12.4926
▁artificiel	-12.4927
rindien	-12.493
▁Bike	-12.4935
enseigne	-12.4937
vatrice	-12.4937
AM	-12.4938
tard	-12.4939
▁artifici	-12.494
ndant	-12.4941
▁occurr	-12.4942
▁weld	-12.4944
▁attaqu	-12.4945
mergency	-12.4945
xford	-12.4947
▁Latin	-12.4947
▁unidentifi	-12.4948
ibbon	-12.495
▁douce	-12.495
▁enthusiast	-12.4951
hawk	-12.4951
▁Ocean	-12.4952
olkswagen	-12.4952
awasaki	-12.4952
▁Scooby	-12.4952
bouriff	-12.4952
empanadas	-12.4952
enregistrement	-12.4952
immigration	-12.4952
tincelles	-12.4952
▁Brazil	-12.4952
▁Challenge	-12.4952
▁Chinois	-12.4952
▁Circus	-12.4952
▁Doberman	-12.4952
▁Engine	-12.4952
▁Heineken	-12.4952
▁Individual	-12.4952
▁Michigan	-12.4952
▁Pokemon	-12.4952
▁SWAT	-12.4952
▁Samsung	-12.4952
▁Seahawks	-12.4952
▁YMCA	-12.4952
▁Yankee	-12.4952
▁accueill	-12.4952
▁aircraft	-12.4952
▁anorak	-12.4952
▁burqa	-12.4952
▁burrito	-12.4952
▁cafeteria	-12.4952
▁chubby	-12.4952
▁convertible	-12.4952
▁crutches	-12.4952
▁deltaplane	-12.4952
▁diaporama	-12.4952
▁didgeridoo	-12.4952
▁difficult	-12.4952
▁domicile	-12.4952
▁espresso	-12.4952
▁goudron	-12.4952
▁guirlande	-12.4952
▁hirsute	-12.4952
▁hispanic	-12.4952
▁hopscotch	-12.4952
▁igloo	-12.4952
▁lambeaux	-12.4952
▁librairie	-12.4952
▁octopus	-12.4952
▁palissade	-12.4952
▁piggyback	-12.4952
▁pineapple	-12.4952
▁pluvieuse	-12.4952
▁screwdriver	-12.4952
▁seaweed	-12.4952
▁skeleton	-12.4952
▁technology	-12.4952
▁teckel	-12.4952
▁tortillas	-12.4952
▁zigzag	-12.4952
▁Chinatown	-12.4952
▁Earth	-12.4952
▁carrefour	-12.4952
▁horloge	-12.4952
▁menuisier	-12.4952
▁minutieuse	-12.4952
▁poverty	-12.4952
▁satchel	-12.4952
▁spaghetti	-12.4952
▁trompettiste	-12.4952
▁Hopper	-12.4952
▁foundation	-12.4952
▁health	-12.4952
▁tourniquet	-12.4952
pproximate	-12.4952
▁David	-12.4952
▁flatbed	-12.4952
▁condiment	-12.4952
▁difficile	-12.4952
▁dominoes	-12.4952
▁mailbox	-12.4952
▁stairwell	-12.4952
▁Airways	-12.4952
▁kettle	-12.4952
▁partenaire	-12.4952
▁insolite	-12.4952
▁paintbrush	-12.4952
noopy	-12.4952
▁embarcation	-12.4952
▁charcuterie	-12.4952
▁collision	-12.4952
▁frustrated	-12.4952
▁recherche	-12.4952
▁corridor	-12.4952
▁brief	-12.4952
▁landmark	-12.4952
▁Hiker	-12.4952
▁ficelle	-12.4952
▁panoramique	-12.4952
▁captiv	-12.4952
▁violence	-12.4952
▁forgeron	-12.4952
▁occupations	-12.4952
▁source	-12.4952
▁consider	-12.4952
▁Picture	-12.4952
▁swimwear	-12.4952
▁motorboat	-12.4952
▁napkin	-12.4952
▁spectaculaire	-12.4952
▁MMA	-12.4952
▁cluster	-12.4952
▁freestyle	-12.4952
▁victim	-12.4952
▁Block	-12.4952
▁retrouss	-12.4952
▁cuvette	-12.4952
▁pieuvre	-12.4952
▁James	-12.4952
minaire	-12.4953
▁megaphone	-12.4953
▁pressure	-12.4953
▁frolic	-12.4953
▁eatery	-12.4953
▁bistro	-12.4953
▁Harlem	-12.4953
▁mermaid	-12.4953
▁studies	-12.4953
▁terrace	-12.4953
▁footbridge	-12.4953
tiseur	-12.4953
▁gyro	-12.4953
▁llama	-12.4953
▁jewelery	-12.4953
▁mariachi	-12.4953
▁carriole	-12.4953
▁marcel	-12.4953
▁Water	-12.4953
▁diaper	-12.4953
ong	-12.4953
▁bookbag	-12.4953
▁minivan	-12.4953
▁prestation	-12.4953
▁Bank	-12.4953
▁notice	-12.4953
▁coiffeuse	-12.4953
▁raconte	-12.4953
▁western	-12.4953
▁phare	-12.4953
▁institut	-12.4953
▁memorial	-12.4953
▁procession	-12.4953
▁cityscape	-12.4953
▁buoy	-12.4954
▁miniskirt	-12.4954
▁weeds	-12.4954
▁farine	-12.4954
▁Parade	-12.4954
▁sunrise	-12.4954
▁protestation	-12.4954
▁spiral	-12.4954
▁suspect	-12.4954
Afrique	-12.4954
▁playpen	-12.4954
▁oxen	-12.4954
▁bookstore	-12.4954
▁View	-12.4954
▁Jeep	-12.4954
▁corgi	-12.4954
▁bavardent	-12.4954
▁Photo	-12.4955
▁moquette	-12.4955
orah	-12.4955
abeille	-12.4955
▁balconies	-12.4955
▁bunker	-12.4955
▁Marx	-12.4955
▁stationary	-12.4955
▁sunbathers	-12.4955
▁workbench	-12.4955
▁ginger	-12.4956
ananas	-12.4956
▁winning	-12.4956
▁trek	-12.4956
▁postal	-12.4956
▁hurlant	-12.4956
▁inhabituelle	-12.4956
▁particulier	-12.4956
▁knock	-12.4957
agility	-12.4957
enthusiastically	-12.4957
coratif	-12.4957
▁Giant	-12.4957
▁diable	-12.4957
▁Snowboarder	-12.4958
▁drift	-12.4958
▁metropoli	-12.4958
vious	-12.4958
▁skimboard	-12.4958
▁paperasse	-12.4958
ON	-12.4958
▁bidon	-12.4958
▁Swimmer	-12.4958
▁corral	-12.4959
▁dealer	-12.4959
ssenger	-12.4959
▁stalks	-12.4959
▁partner	-12.4959
▁Jackson	-12.4959
endort	-12.4959
▁campus	-12.4959
▁coq	-12.496
▁roadwork	-12.496
▁spectate	-12.496
▁outfielder	-12.4961
▁scared	-12.4961
oller	-12.4961
▁extended	-12.4961
▁guidon	-12.4961
▁Heal	-12.4961
▁apparel	-12.4961
▁Iz	-12.4961
▁mesh	-12.4962
▁runway	-12.4962
▁slum	-12.4962
▁spear	-12.4962
▁violinist	-12.4963
▁else	-12.4963
▁boucherie	-12.4963
fille	-12.4963
▁Station	-12.4964
nds	-12.4964
▁montagneuse	-12.4964
▁conduire	-12.4964
▁tightly	-12.4964
essence	-12.4965
▁Fast	-12.4965
▁elevator	-12.4965
cident	-12.4965
▁plaisanc	-12.4966
▁entrelac	-12.4966
▁curling	-12.4966
▁pastries	-12.4966
panish	-12.4967
▁Petit	-12.4967
▁steal	-12.4967
▁guest	-12.4967
▁poignard	-12.4967
▁puces	-12.4968
chauffent	-12.4969
▁tuiles	-12.4969
▁prizes	-12.4969
▁tournoy	-12.4969
▁percuter	-12.4969
▁bondissant	-12.497
▁Mom	-12.497
▁Stones	-12.497
▁fosse	-12.497
▁placard	-12.4972
▁Latino	-12.4973
▁surgeons	-12.4973
▁ceme	-12.4973
▁fon	-12.4973
▁manual	-12.4974
▁sheepdog	-12.4974
NE	-12.4974
▁aime	-12.4974
▁countertop	-12.4974
ates	-12.4975
▁overcoat	-12.4976
▁mixte	-12.4976
Carol	-12.4977
▁bloom	-12.4977
▁Wal	-12.4977
▁bassiste	-12.4977
▁gesticule	-12.4977
▁roadway	-12.4978
▁massage	-12.4978
UFC	-12.4978
▁known	-12.4979
▁Notre	-12.4979
▁humaine	-12.4979
▁mock	-12.498
▁mime	-12.4981
▁weathered	-12.4981
▁mountainside	-12.4983
▁circus	-12.4983
▁hairnet	-12.4985
▁archet	-12.4986
▁enfonc	-12.4986
▁saluer	-12.4988
▁explorer	-12.4989
▁̈tement	-12.4989
▁gallon	-12.4989
▁sprinting	-12.4991
usiness	-12.4992
▁tasting	-12.4994
▁cot	-12.4995
▁vendus	-12.4995
fugi	-12.4995
▁troops	-12.4997
▁̈gle	-12.4998
▁acrobatiques	-12.4998
▁marelle	-12.4998
▁sausages	-12.4998
▁coconuts	-12.4998
▁hips	-12.4998
▁frontale	-12.5001
▁shield	-12.5001
▁commander	-12.5002
▁communication	-12.5003
▁grown	-12.5004
▁Mc	-12.5004
▁Diner	-12.5004
▁Nouve	-12.5005
▁vaporis	-12.5006
▁repli	-12.5006
Spring	-12.5007
appartements	-12.5007
▁achats	-12.5007
▁snorkeling	-12.5008
▁interrog	-12.5008
rice	-12.5009
▁Happy	-12.501
▁affection	-12.501
▁ustensile	-12.501
extrÃame	-12.501
▁discover	-12.501
clecti	-12.501
mmage	-12.5011
▁loose	-12.5011
▁ascenseur	-12.5011
▁serpentin	-12.5011
▁created	-12.5012
▁lanterne	-12.5013
▁ac	-12.5014
coller	-12.5015
▁available	-12.5015
change	-12.5017
▁dozen	-12.5018
▁DI	-12.5018
gume	-12.5018
▁luxuriante	-12.5019
▁libÃ	-12.5019
▁shields	-12.5019
▁sponge	-12.502
▁pompes	-12.5021
▁smell	-12.5025
▁interest	-12.5025
▁metro	-12.5025
▁master	-12.5026
▁aerial	-12.5026
▁Light	-12.5027
▁locomotives	-12.5027
▁pneumatiques	-12.5027
nergi	-12.5027
▁topic	-12.5029
▁ongle	-12.5029
▁voyageurs	-12.503
▁interior	-12.503
▁inflated	-12.503
▁couronnes	-12.5031
▁kayakers	-12.5031
▁element	-12.5033
▁seeds	-12.5033
▁pulley	-12.5035
roulent	-12.5035
fait	-12.5035
▁Peter	-12.5036
▁comfortable	-12.5036
▁jongler	-12.5041
▁washed	-12.5041
IS	-12.5041
▁observers	-12.5044
▁mollet	-12.5045
balle	-12.5045
▁ondul	-12.5051
▁calling	-12.5052
▁aube	-12.5055
▁lip	-12.5056
▁couturi	-12.5056
▁stockings	-12.5057
▁rabbits	-12.5057
▁barricades	-12.5057
▁mordill	-12.5057
lac	-12.5057
▁partly	-12.5058
brant	-12.5059
▁exposed	-12.5061
▁chirurgicale	-12.5062
▁crue	-12.5062
▁ranch	-12.5063
▁cooked	-12.5063
same	-12.5063
▁rideau	-12.5064
▁dropped	-12.5065
▁moque	-12.5069
coltes	-12.5069
unning	-12.5069
▁extend	-12.507
raman	-12.507
tisseries	-12.507
▁contestant	-12.5071
▁quick	-12.5072
▁thread	-12.5074
▁steers	-12.5075
▁Amis	-12.5076
▁flap	-12.5078
▁lemons	-12.5081
▁wigs	-12.5084
▁oeuvres	-12.5084
▁concurrents	-12.5086
▁evil	-12.5087
▁Bicyclists	-12.5087
scin	-12.5087
▁altitude	-12.5088
blue	-12.5089
▁idiot	-12.5091
▁basement	-12.5094
▁accompliss	-12.5095
EN	-12.5096
▁cows	-12.5096
▁astronaut	-12.5096
▁latine	-12.5098
▁stride	-12.5098
▁commer	-12.5099
rmy	-12.5099
▁cables	-12.5102
▁espÃ	-12.5103
▁mortes	-12.5104
▁Twister	-12.5105
▁Jim	-12.5106
▁Look	-12.5107
▁relaxant	-12.511
actory	-12.511
▁orage	-12.5111
curi	-12.5112
▁pillars	-12.5113
▁questions	-12.5116
inspiration	-12.5117
▁grins	-12.5123
▁viewer	-12.5123
▁ponce	-12.5125
▁danger	-12.5126
ney	-12.5128
coal	-12.5131
ashore	-12.5132
▁condition	-12.5135
▁sn	-12.5136
▁tiges	-12.5138
▁Teen	-12.514
▁Colorful	-12.5141
▁shine	-12.5142
▁boutons	-12.5144
fenseurs	-12.5146
▁defenders	-12.5146
▁parall	-12.5146
▁jongleur	-12.5147
▁dalle	-12.5148
▁texts	-12.5149
▁Deli	-12.5156
▁cler	-12.5156
▁morts	-12.5157
▁closer	-12.5159
▁fronce	-12.5162
envole	-12.5162
▁taller	-12.5164
▁hippie	-12.5167
ass	-12.5169
▁navigat	-12.5171
▁sandwiches	-12.5174
▁brochures	-12.5176
▁clous	-12.5183
▁self	-12.5188
▁venir	-12.519
ach	-12.5192
▁voient	-12.5193
ottery	-12.5196
exer	-12.5202
▁textos	-12.5203
▁perruques	-12.5206
▁enregistre	-12.5213
dalo	-12.5216
▁miner	-12.5216
▁desserts	-12.5218
▁barricade	-12.5218
▁heure	-12.5221
▁Chan	-12.5224
▁cheminot	-12.5225
▁ram	-12.5229
▁sca	-12.523
▁citrons	-12.5231
▁provide	-12.5233
▁Thai	-12.5234
▁bongos	-12.5234
gante	-12.5234
▁douz	-12.5238
▁graduate	-12.524
▁poches	-12.5243
▁̈nement	-12.5245
▁pad	-12.525
enfonce	-12.5256
AH	-12.5257
▁celebrates	-12.5258
glig	-12.5259
▁traditionnelles	-12.5271
▁mine	-12.5271
▁estomac	-12.5271
▁avoi	-12.5272
▁hum	-12.5285
▁informations	-12.5292
riends	-12.5294
▁chickens	-12.5295
▁boulders	-12.5297
▁musicales	-12.5299
▁boucher	-12.5304
▁breakdancer	-12.5306
▁prie	-12.5307
▁aboie	-12.5308
layers	-12.5313
▁bearer	-12.5315
▁orang	-12.5319
▁mingl	-12.5321
▁cordon	-12.5321
▁sauvages	-12.5325
▁̈de	-12.5331
▁cabinet	-12.5333
▁bagarre	-12.5336
▁buff	-12.5337
▁arid	-12.5341
▁siding	-12.5344
▁scientifiques	-12.5356
tuck	-12.5358
▁encourage	-12.5358
▁artisanale	-12.5359
▁fouill	-12.5364
▁informatique	-12.5373
▁muzzles	-12.5378
cou	-12.5381
▁sex	-12.5381
▁headbands	-12.5385
▁electronics	-12.5385
rates	-12.539
lowly	-12.5391
▁av	-12.5393
neiger	-12.5397
▁controls	-12.5406
rette	-12.5407
▁kites	-12.5411
▁seeming	-12.5419
▁appre	-12.5419
du	-12.542
ndex	-12.5422
grÃ	-12.5423
sage	-12.5423
▁surroundings	-12.5425
ker	-12.5434
raw	-12.5434
▁tendu	-12.5438
mong	-12.5441
▁sais	-12.5445
▁rad	-12.5452
▁rin	-12.5452
▁rounds	-12.5455
ordinateurs	-12.5455
▁lesquel	-12.5457
▁principal	-12.5461
▁voil	-12.5477
▁Teenager	-12.548
jeunent	-12.5485
▁skinn	-12.5501
▁guitarists	-12.5502
▁sec	-12.5504
▁Johns	-12.5504
▁automatiques	-12.5506
IN	-12.5512
bu	-12.5513
▁walker	-12.5515
▁grises	-12.5518
ntrÃ	-12.552
piqueur	-12.5526
aid	-12.5526
▁traineau	-12.5527
▁hooping	-12.553
▁Hand	-12.5533
apprÃata	-12.5534
▁sweaters	-12.5544
▁Centr	-12.5548
▁grooms	-12.5551
▁Ne	-12.5554
xcited	-12.5558
▁soin	-12.5559
▁shapes	-12.5569
▁renvo	-12.5583
▁pratiqu	-12.5586
▁coude	-12.5598
over	-12.56
tranges	-12.5605
▁indig	-12.561
▁films	-12.5621
▁circuits	-12.5624
taught	-12.5628
▁arriv	-12.5635
▁halt	-12.5637
racas	-12.5646
▁impressi	-12.5646
▁Nav	-12.5648
▁cre	-12.5653
▁trottinettes	-12.5657
▁atterrissa	-12.5661
abst	-12.5662
▁soil	-12.5663
▁demonstrate	-12.5665
▁react	-12.5678
▁comprend	-12.5687
▁parts	-12.5687
falls	-12.5689
▁nettoy	-12.5701
▁mount	-12.5705
▁ivre	-12.5707
▁affa	-12.5708
arathon	-12.571
▁carr	-12.5713
▁copie	-12.5713
▁rambardes	-12.5716
builder	-12.5717
eignent	-12.5718
implement	-12.572
▁arbitres	-12.5721
▁bullet	-12.5727
▁mats	-12.5741
▁pairs	-12.5742
▁pant	-12.5742
▁spill	-12.5743
▁challenge	-12.5746
umping	-12.5752
▁loade	-12.5753
eam	-12.5753
▁mesur	-12.5764
ttes	-12.5771
▁clairs	-12.5776
tt	-12.5783
teen	-12.5791
▁pitchers	-12.5792
▁Pap	-12.5792
ple	-12.5795
assure	-12.5799
▁peach	-12.581
own	-12.581
▁tread	-12.5813
▁croque	-12.5819
▁battu	-12.5822
point	-12.5825
cur	-12.5825
▁trott	-12.5834
IG	-12.5841
▁cueill	-12.5842
▁canine	-12.5844
ham	-12.5857
▁ampli	-12.5865
▁saxophoniste	-12.5867
▁San	-12.587
▁Ski	-12.5873
clat	-12.5875
▁squares	-12.5878
▁classeur	-12.5882
soin	-12.5882
reyhound	-12.5888
well	-12.5896
boyant	-12.5899
langer	-12.5901
▁peintes	-12.5901
overalls	-12.5907
ignot	-12.5911
▁accompani	-12.5927
temporary	-12.5929
▁mates	-12.593
installe	-12.5934
▁balcons	-12.5934
ider	-12.5938
regnant	-12.5939
prints	-12.5941
▁roul	-12.5965
▁came	-12.5967
potted	-12.5969
▁statu	-12.597
▁prints	-12.598
▁buck	-12.5982
ingham	-12.5988
imate	-12.599
appare	-12.5993
▁Wo	-12.5996
▁moue	-12.6002
▁chart	-12.601
▁add	-12.6013
▁daughters	-12.6022
▁mill	-12.6022
ign	-12.6022
immer	-12.6025
ouvre	-12.6026
ignent	-12.6031
oussant	-12.6051
▁poids	-12.6067
essaye	-12.6067
ortant	-12.607
coli	-12.607
aise	-12.6087
water	-12.6098
▁Mon	-12.6099
▁veil	-12.613
▁paon	-12.6139
uor	-12.615
▁dirai	-12.6152
▁rear	-12.6157
▁scar	-12.6161
seen	-12.6162
▁chinoise	-12.6163
powered	-12.6173
▁bur	-12.6174
tonni	-12.6181
▁pointu	-12.6181
ropped	-12.6183
rning	-12.6188
▁ties	-12.6189
atif	-12.6191
table	-12.6202
▁anniversaire	-12.6208
▁Itali	-12.6215
bo	-12.6215
▁gravi	-12.6226
▁photographers	-12.6227
▁appearing	-12.6227
▁Divers	-12.623
▁insecte	-12.623
examiner	-12.6245
quet	-12.6246
▁crashe	-12.6246
▁patiente	-12.625
▁cale	-12.6254
daille	-12.6256
▁escalators	-12.6269
▁sirot	-12.6271
▁Cal	-12.6272
▁spare	-12.6297
anges	-12.6312
na	-12.6314
▁supervise	-12.6326
▁ways	-12.6328
▁rode	-12.6335
alais	-12.6346
▁perc	-12.6352
▁cravates	-12.6354
bic	-12.6365
lling	-12.6369
▁hom	-12.6375
ements	-12.638
iment	-12.6394
▁viv	-12.6397
antes	-12.6398
ise	-12.6419
exprime	-12.6424
▁reli	-12.6429
once	-12.6433
▁Fin	-12.6434
ground	-12.6441
EL	-12.6453
▁Lad	-12.6467
tout	-12.6469
▁real	-12.6493
▁agita	-12.6495
ables	-12.6496
vite	-12.6497
ley	-12.6512
▁positionne	-12.6514
▁leader	-12.6517
▁pein	-12.6547
▁Ha	-12.6563
choir	-12.657
▁adventur	-12.6572
▁sticker	-12.6575
▁pounc	-12.659
vel	-12.659
vie	-12.6593
▁operat	-12.6597
usement	-12.66
▁pace	-12.6606
frog	-12.6611
▁Har	-12.6617
▁expli	-12.6644
nches	-12.6648
ultim	-12.6654
ering	-12.6655
nchÃ	-12.6656
care	-12.6684
eva	-12.6685
▁scri	-12.6695
mar	-12.6697
ain	-12.6729
ouvri	-12.6733
▁insect	-12.674
lime	-12.675
▁ladders	-12.6755
▁parce	-12.6759
ond	-12.6779
ther	-12.6785
lein	-12.6793
venir	-12.6798
ocal	-12.6804
finishe	-12.6809
iller	-12.681
walk	-12.6812
▁acrobat	-12.6818
▁cer	-12.6824
vice	-12.6827
face	-12.6829
eedle	-12.6831
ello	-12.6833
anÃ	-12.6833
▁pictured	-12.6847
shed	-12.6874
▁snowboardeurs	-12.6876
ute	-12.6881
ord	-12.6931
▁suspens	-12.6933
avec	-12.6941
▁vienn	-12.6946
▁vis	-12.6951
▁shed	-12.696
▁reven	-12.6962
▁Bur	-12.6962
▁delic	-12.6967
▁trimm	-12.6976
▁detail	-12.698
▁rise	-12.698
▁hun	-12.6995
▁fields	-12.7001
Oh	-12.7018
vole	-12.7041
approchent	-12.7056
▁courb	-12.7062
▁natur	-12.7071
▁cle	-12.7076
ni	-12.7086
euses	-12.7094
▁retrieve	-12.7123
gical	-12.7124
▁mustach	-12.7127
▁exc	-12.7128
▁spark	-12.7129
orn	-12.7137
▁manifeste	-12.7138
illeux	-12.7142
▁muni	-12.7144
▁Am	-12.715
▁slalom	-12.7152
elling	-12.7154
▁mou	-12.7158
toire	-12.7193
stop	-12.7194
zer	-12.72
gie	-12.7206
mber	-12.7207
raz	-12.7216
mer	-12.7217
▁snowboarders	-12.7222
▁selle	-12.7224
▁address	-12.7237
▁organ	-12.7238
▁walkie	-12.7246
plac	-12.7269
▁foods	-12.7269
appell	-12.7272
align	-12.728
▁princess	-12.7287
tr	-12.7288
▁contract	-12.7307
lapse	-12.7317
duisant	-12.7326
book	-12.7331
▁cata	-12.7333
oma	-12.7334
tial	-12.734
▁buses	-12.7345
▁mesure	-12.7377
ault	-12.74
▁cas	-12.74
▁orienta	-12.7403
oose	-12.7406
▁politi	-12.7416
▁collecte	-12.7416
ations	-12.7418
▁ban	-12.7428
▁nues	-12.7435
prim	-12.7442
▁feel	-12.7448
eeding	-12.7449
▁percut	-12.7457
▁organize	-12.7461
▁fac	-12.7461
▁Sm	-12.7469
ox	-12.7477
bras	-12.748
color	-12.7489
liste	-12.749
essay	-12.7495
▁interviewe	-12.7497
ocks	-12.75
▁Do	-12.7505
ell	-12.7514
roi	-12.7525
Book	-12.7536
llow	-12.7537
shing	-12.7541
▁trai	-12.7542
ellement	-12.7552
ances	-12.7554
▁promo	-12.7557
▁raff	-12.7559
cation	-12.7566
▁Sou	-12.757
champ	-12.7574
ssis	-12.7576
entr	-12.7596
harpe	-12.7612
▁prevent	-12.7614
▁lea	-12.7619
zing	-12.7627
ien	-12.7633
orte	-12.7639
viseur	-12.7639
visage	-12.7642
▁poul	-12.7644
▁styl	-12.7648
▁contempl	-12.7653
▁bru	-12.7657
med	-12.7661
affiche	-12.7664
shes	-12.7666
fri	-12.7666
rendre	-12.7667
passe	-12.767
nations	-12.7671
▁glanc	-12.7671
ast	-12.7673
▁pens	-12.768
▁broussaille	-12.769
ski	-12.769
▁Tr	-12.7713
▁solid	-12.7713
mpact	-12.7713
▁pout	-12.7717
▁gl	-12.7718
▁ser	-12.7721
jump	-12.7724
Love	-12.7724
▁sommets	-12.7732
ves	-12.7756
▁marti	-12.7757
▁pulle	-12.7761
rape	-12.7762
view	-12.778
▁confus	-12.7781
▁garni	-12.7781
marin	-12.7785
▁inond	-12.7796
▁Mo	-12.7802
umber	-12.7807
moin	-12.7813
▁antiqu	-12.7814
▁our	-12.7818
motion	-12.7822
▁flic	-12.7833
llowing	-12.7838
nts	-12.7841
information	-12.7859
yard	-12.7859
▁waterski	-12.7859
pressing	-12.786
uit	-12.7861
love	-12.7865
▁Bal	-12.7869
▁solide	-12.7872
tonne	-12.7873
usine	-12.7876
▁nourri	-12.788
tourne	-12.7881
▁lock	-12.7881
Am	-12.7903
friend	-12.7907
screen	-12.7912
lift	-12.7916
▁fraise	-12.7917
volley	-12.7925
▁tre	-12.7928
chase	-12.7928
utumn	-12.793
aventure	-12.7933
▁enregistr	-12.7933
daughter	-12.7938
endroit	-12.7941
▁euro	-12.7946
voix	-12.795
ttant	-12.7951
Welcome	-12.7953
occasion	-12.7954
hood	-12.7957
aison	-12.7958
circle	-12.7958
ks	-12.7959
dient	-12.796
▁blotti	-12.7964
universit	-12.7965
vaisselle	-12.7969
mur	-12.7969
Texas	-12.797
completed	-12.7971
fast	-12.7974
Elmo	-12.7975
hauteur	-12.7976
encouragent	-12.7976
Ex	-12.7979
▁surpris	-12.7982
ow	-12.7983
chaud	-12.7984
activit	-12.7985
courent	-12.7987
▁grip	-12.7998
passer	-12.7999
cool	-12.8002
▁batt	-12.8008
franc	-12.8012
hui	-12.8025
adolescentes	-12.8026
cific	-12.8032
cierge	-12.8047
▁furr	-12.8055
foam	-12.8088
▁accompli	-12.809
gants	-12.8098
can	-12.8099
▁butter	-12.8104
tendre	-12.8105
▁karaok	-12.8115
▁retrait	-12.8117
quilibr	-12.8119
▁boulev	-12.813
train	-12.8131
gues	-12.8131
▁dentist	-12.8132
thnic	-12.8132
▁loca	-12.8132
▁chirurgical	-12.8138
▁inconnu	-12.814
▁ramps	-12.8141
rets	-12.8145
anger	-12.8148
▁pingouin	-12.8167
▁jackhammer	-12.8167
▁any	-12.8168
▁secret	-12.8168
omÃ	-12.8168
show	-12.817
▁jogger	-12.817
▁Farmer	-12.8171
hoops	-12.8171
▁reporter	-12.8172
▁plÃ	-12.8172
▁commerce	-12.8174
▁hedge	-12.8176
▁jamb	-12.8177
▁noodle	-12.8178
▁maille	-12.8178
▁tulip	-12.8178
▁feuillage	-12.8178
▁politique	-12.8179
▁sparkler	-12.8181
▁locomotive	-12.8182
▁pneumatique	-12.8182
▁oeuvre	-12.8183
terior	-12.8183
▁onlooker	-12.8184
Q	-12.8184
tiquette	-12.8185
▁gro	-12.8188
▁judge	-12.8189
▁Student	-12.8189
▁snowshoe	-12.8189
▁flotteur	-12.8191
tly	-12.8192
▁caiss	-12.8193
▁earring	-12.8194
▁melon	-12.8195
▁voyageur	-12.8199
▁tranche	-12.8205
▁Africa	-12.8207
▁vivant	-12.8211
pas	-12.8217
▁toilette	-12.8218
ines	-12.822
▁Snow	-12.8221
ozen	-12.8223
▁swa	-12.8226
▁Lego	-12.8231
▁couronne	-12.8231
▁seve	-12.8231
▁awning	-12.8237
uer	-12.8238
even	-12.8239
▁parasail	-12.8245
▁study	-12.8247
▁graffit	-12.825
▁res	-12.8254
▁Las	-12.8255
hanne	-12.8258
▁scream	-12.8259
modÃ	-12.826
▁program	-12.8262
lace	-12.8263
▁quotidien	-12.8264
obs	-12.8265
impression	-12.8267
stroke	-12.827
teint	-12.827
wn	-12.8271
▁alpin	-12.8272
▁excavat	-12.8277
▁rembourr	-12.8277
▁cavali	-12.8278
▁attentive	-12.828
▁inhabituel	-12.828
▁ki	-12.828
duit	-12.8281
▁rectangula	-12.8283
▁proud	-12.8284
bab	-12.8284
▁primiti	-12.8284
ugby	-12.8285
▁spectacula	-12.8285
ologique	-12.8285
nitor	-12.8285
▁frustr	-12.8285
▁ukul	-12.8285
alphab	-12.8285
alimentation	-12.8285
aluminium	-12.8285
avertissement	-12.8285
canicien	-12.8285
chiquier	-12.8285
labradoodle	-12.8285
panneuse	-12.8285
prouvette	-12.8285
▁Commuter	-12.8285
▁Employee	-12.8285
▁Express	-12.8285
▁Swiffer	-12.8285
▁Victoria	-12.8285
▁VÃatu	-12.8285
▁adjacent	-12.8285
▁advantage	-12.8285
▁aluminum	-12.8285
▁beignets	-12.8285
▁bijouterie	-12.8285
▁cactus	-12.8285
▁camcorder	-12.8285
▁cardiaque	-12.8285
▁crevettes	-12.8285
▁croupier	-12.8285
▁cushion	-12.8285
▁dandelion	-12.8285
▁dishwasher	-12.8285
▁earbuds	-12.8285
▁enthusiasm	-12.8285
▁escabeau	-12.8285
▁extravagant	-12.8285
▁ferroviaire	-12.8285
▁fingertips	-12.8285
▁fournitures	-12.8285
▁gambade	-12.8285
▁handkerchief	-12.8285
▁haricots	-12.8285
▁heartbeat	-12.8285
▁humoristique	-12.8285
▁innertube	-12.8285
▁livestock	-12.8285
▁lollipop	-12.8285
▁menuiserie	-12.8285
▁mushroom	-12.8285
▁opportunity	-12.8285
▁outstreached	-12.8285
▁palourdes	-12.8285
▁pissenlit	-12.8285
▁printemps	-12.8285
▁reluctant	-12.8285
▁sanitaires	-12.8285
▁shrimp	-12.8285
▁simultan	-12.8285
▁sinistre	-12.8285
▁smirking	-12.8285
▁snowflake	-12.8285
▁stroboscopiques	-12.8285
▁symphon	-12.8285
▁temporaire	-12.8285
▁tobacco	-12.8285
▁turbulent	-12.8285
▁waterproof	-12.8285
Mexique	-12.8285
▁carabine	-12.8285
▁diagram	-12.8285
▁gaufre	-12.8285
▁gypsy	-12.8285
▁seamstress	-12.8285
▁simultaneous	-12.8285
▁Crocs	-12.8285
▁bobsle	-12.8285
▁crystal	-12.8285
▁graphique	-12.8285
▁halloween	-12.8285
▁mongol	-12.8285
▁Forever	-12.8285
▁shelter	-12.8285
▁amicale	-12.8285
▁limousine	-12.8285
▁research	-12.8285
▁wrangle	-12.8285
assoient	-12.8285
ramique	-12.8285
▁families	-12.8285
▁sleigh	-12.8285
▁varech	-12.8285
▁Chevrolet	-12.8285
▁Jockey	-12.8285
▁blacksmith	-12.8285
▁condom	-12.8285
▁plastron	-12.8285
▁Mustang	-12.8285
▁forklift	-12.8285
▁gondol	-12.8285
▁grimacing	-12.8285
▁ritual	-12.8285
▁stethoscope	-12.8285
▁texas	-12.8285
▁trinket	-12.8285
▁Eiffel	-12.8286
▁arguing	-12.8286
▁escrimeurs	-12.8286
▁majeur	-12.8286
▁execut	-12.8286
▁dustpan	-12.8286
▁refuge	-12.8286
▁wildflowers	-12.8286
▁Crouch	-12.8286
▁charriot	-12.8286
▁machete	-12.8286
▁ridicule	-12.8286
▁Barbie	-12.8286
▁mouchoir	-12.8286
▁cereal	-12.8286
▁racquet	-12.8286
EGO	-12.8286
▁Broadway	-12.8286
▁Francisco	-12.8286
▁diabol	-12.8286
▁eyeliner	-12.8286
▁manicure	-12.8286
▁flashlight	-12.8286
▁Hulk	-12.8286
▁provisions	-12.8286
▁wristband	-12.8286
▁reconstitu	-12.8286
▁vapeur	-12.8286
▁moniteur	-12.8286
▁iPhone	-12.8286
▁knives	-12.8286
▁specialize	-12.8286
cessaire	-12.8286
▁graphic	-12.8286
▁shelf	-12.8286
▁beurre	-12.8286
▁pompe	-12.8286
▁tabac	-12.8286
▁spirit	-12.8286
▁prononc	-12.8286
▁skewer	-12.8286
thoscope	-12.8286
▁cyclable	-12.8286
▁itself	-12.8286
▁tournevis	-12.8286
▁correctement	-12.8286
▁dramatique	-12.8286
▁government	-12.8286
▁confortablement	-12.8286
▁cruche	-12.8286
▁fourgon	-12.8286
▁nursing	-12.8286
▁sarong	-12.8286
▁frosting	-12.8286
▁rescu	-12.8286
▁beanbag	-12.8286
▁darkness	-12.8286
▁musculation	-12.8286
▁fierce	-12.8286
▁salmon	-12.8286
▁soudage	-12.8286
▁pelican	-12.8286
▁pavillon	-12.8286
▁remember	-12.8286
▁canister	-12.8286
▁powerpoint	-12.8286
▁squash	-12.8286
▁branchages	-12.8286
affronter	-12.8286
▁Flag	-12.8286
▁Pipe	-12.8286
ACE	-12.8286
▁toenail	-12.8286
▁colonial	-12.8286
▁loterie	-12.8286
▁sablonneuse	-12.8286
servatif	-12.8286
▁French	-12.8286
▁baggage	-12.8286
▁london	-12.8286
▁Vietnam	-12.8287
▁estrade	-12.8287
▁champignon	-12.8287
▁tribunes	-12.8287
▁crampons	-12.8287
▁production	-12.8287
▁tissage	-12.8287
▁freeway	-12.8287
▁lizard	-12.8287
▁supervision	-12.8287
▁primaire	-12.8287
▁rituelle	-12.8287
▁sandpit	-12.8287
▁kickboxer	-12.8287
▁captain	-12.8287
▁grandmother	-12.8287
▁cavern	-12.8287
▁caillou	-12.8287
algues	-12.8287
▁pompons	-12.8287
UE	-12.8287
▁tournesol	-12.8287
▁attentif	-12.8287
▁headgear	-12.8287
▁Saint	-12.8288
▁rectangulaire	-12.8288
▁junk	-12.8288
▁become	-12.8288
▁inclinable	-12.8288
▁souffre	-12.8288
▁franges	-12.8288
alligator	-12.8288
▁loaf	-12.8288
▁cutoff	-12.8288
▁swoop	-12.8288
quipage	-12.8288
adio	-12.8288
▁creative	-12.8288
▁doucement	-12.8288
▁lentement	-12.8288
▁valeur	-12.8288
▁bavarder	-12.8288
▁Coke	-12.8289
▁wheat	-12.8289
▁niveaux	-12.8289
aviateur	-12.829
▁devoirs	-12.829
▁limo	-12.829
▁snowbank	-12.829
confortant	-12.829
▁congregating	-12.829
▁judo	-12.829
▁sock	-12.829
▁brumeuse	-12.829
▁tentative	-12.829
▁Wood	-12.829
▁proudly	-12.829
▁affronte	-12.829
▁Chef	-12.829
▁cleats	-12.829
▁dispers	-12.829
ook	-12.8291
▁pleasant	-12.8291
▁̈ze	-12.8291
▁sparse	-12.8291
▁explain	-12.8291
▁waffle	-12.8291
▁presum	-12.8291
▁Justi	-12.8291
▁culina	-12.8292
▁smock	-12.8292
quoia	-12.8292
▁comique	-12.8292
▁blurry	-12.8292
▁oxford	-12.8292
▁dalmatien	-12.8292
▁patriotique	-12.8292
▁silenc	-12.8293
▁Domino	-12.8293
▁stylist	-12.8293
▁forearm	-12.8293
entrejambe	-12.8293
▁graines	-12.8293
▁machette	-12.8293
▁irrit	-12.8293
▁yawning	-12.8294
▁animated	-12.8294
▁juif	-12.8294
▁Spain	-12.8294
▁decals	-12.8294
▁glitter	-12.8295
▁SM	-12.8295
ulÃ	-12.8295
▁meditating	-12.8295
questre	-12.8295
▁Mexico	-12.8295
▁uphill	-12.8295
▁bushel	-12.8295
▁director	-12.8296
▁emotion	-12.8296
▁entertainment	-12.8296
▁huddling	-12.8297
planchiste	-12.8297
▁arrival	-12.8297
▁smart	-12.8297
▁mixeur	-12.8297
▁applied	-12.8297
pression	-12.8297
ymnast	-12.8298
▁flashy	-12.8298
▁mendiant	-12.8298
observation	-12.8298
▁ankle	-12.8298
▁Swan	-12.8298
▁Dieu	-12.8298
▁woodworking	-12.8298
▁technologie	-12.8298
▁fixture	-12.8299
▁pleurant	-12.8299
▁couteaux	-12.83
▁assembly	-12.83
▁rentr	-12.8301
▁amateur	-12.8301
▁affair	-12.8301
▁lointain	-12.8302
▁geese	-12.8302
Watch	-12.8302
▁mouche	-12.8302
▁liberty	-12.8303
▁motoneige	-12.8303
▁needed	-12.8303
▁chauffeur	-12.8303
▁dugout	-12.8304
▁carnet	-12.8304
▁routier	-12.8304
▁parlor	-12.8304
▁Artist	-12.8305
tiquement	-12.8305
unisson	-12.8306
▁lodge	-12.8306
▁sphÃ	-12.8306
chauffer	-12.8306
gaphone	-12.8306
▁lakeside	-12.8306
▁playhouse	-12.8307
▁transformer	-12.8307
▁installation	-12.8308
nual	-12.8308
▁marteaux	-12.8308
▁twigs	-12.8308
▁poursuivi	-12.8309
sentateur	-12.8309
▁latino	-12.8309
cider	-12.831
▁Horse	-12.831
▁permanent	-12.831
▁massues	-12.831
olate	-12.831
▁utensils	-12.831
▁handlebars	-12.831
▁gitan	-12.831
▁brochettes	-12.831
▁happening	-12.8311
▁grenouill	-12.8311
▁Dressed	-12.8311
▁underway	-12.8312
▁donuts	-12.8314
▁Japonais	-12.8314
▁majestueuse	-12.8314
▁price	-12.8315
▁compren	-12.8316
▁tiroir	-12.8316
▁fiddle	-12.8317
▁poli	-12.8318
Center	-12.8319
▁Camp	-12.8319
▁procla	-12.8319
▁recliner	-12.8319
▁sledge	-12.8319
▁sunflower	-12.832
▁swerv	-12.832
▁touffue	-12.8321
▁windsurfer	-12.8323
arbuste	-12.8324
▁hangar	-12.8324
▁posture	-12.8324
▁CD	-12.8324
rindienne	-12.8325
▁youngsters	-12.8325
▁hurry	-12.8327
▁liesse	-12.8327
▁showcas	-12.8328
▁programme	-12.8329
▁tricoter	-12.8329
▁Bug	-12.8329
▁digger	-12.833
▁folle	-12.833
▁transpir	-12.8331
▁soutenu	-12.8331
HO	-12.8333
▁lifeguard	-12.8334
▁architectural	-12.8334
oker	-12.8335
▁brise	-12.8336
buster	-12.8336
▁entertained	-12.8337
▁pasteur	-12.8338
▁motocycliste	-12.8339
▁promeneur	-12.834
▁smasher	-12.8341
▁cloche	-12.8341
▁technician	-12.8343
▁bouncer	-12.8344
Birthday	-12.8345
ffel	-12.8345
sertique	-12.8345
▁balancelle	-12.8345
▁defends	-12.8346
▁Asiatique	-12.8347
▁fists	-12.8348
guiser	-12.8349
▁dollars	-12.8349
scrib	-12.8349
tudier	-12.8351
▁quasi	-12.8351
▁potatoes	-12.8351
▁clog	-12.8351
▁joggeurs	-12.8352
▁Glam	-12.8352
▁steeple	-12.8352
▁timber	-12.8353
▁might	-12.8354
▁beaker	-12.8355
▁conserves	-12.8357
▁braces	-12.8357
▁states	-12.8357
▁gagn	-12.8357
more	-12.836
▁oxyg	-12.836
▁maquiller	-12.836
▁rentre	-12.836
▁croc	-12.8362
▁plaster	-12.8362
▁ditch	-12.8362
▁spout	-12.8362
clabousser	-12.8363
▁Canada	-12.8364
▁interdit	-12.8366
▁Alaska	-12.8367
▁Atlanta	-12.8368
▁respective	-12.8368
▁World	-12.8369
▁innocen	-12.8371
▁bowed	-12.8371
▁amoureux	-12.8371
▁slamm	-12.8371
▁gazeuse	-12.8372
▁colorier	-12.8373
▁twi	-12.8373
▁hurt	-12.8373
▁Wheel	-12.8374
▁Com	-12.8374
▁oversee	-12.8376
▁Wait	-12.8378
▁pret	-12.8378
sence	-12.8379
▁bouclier	-12.8379
▁bitume	-12.838
▁overall	-12.8381
▁loop	-12.8381
▁pastor	-12.8381
▁appart	-12.8381
▁chasseur	-12.8381
▁Beach	-12.8382
brer	-12.8384
▁baille	-12.8386
▁welder	-12.8387
▁cracker	-12.8388
▁Astro	-12.8388
vote	-12.8389
▁aliment	-12.839
tiquettes	-12.839
ards	-12.839
▁awnings	-12.8393
▁alter	-12.8393
▁rig	-12.8393
▁tulips	-12.8394
vement	-12.8394
▁feuillages	-12.8394
▁politiques	-12.8395
▁shampooing	-12.8395
▁chili	-12.8395
▁sparklers	-12.8395
ressantes	-12.8398
▁flotteurs	-12.8398
▁carpent	-12.8399
▁Tw	-12.84
▁goof	-12.8401
▁cutter	-12.8402
▁golfer	-12.8403
▁clasp	-12.8404
▁media	-12.8406
ties	-12.8406
▁equip	-12.8407
▁asperge	-12.8408
▁cry	-12.841
orient	-12.8411
▁Profil	-12.8411
▁technici	-12.8413
▁masses	-12.8414
▁proper	-12.8415
▁viking	-12.8418
▁Tye	-12.8419
uÃ	-12.8419
▁hoist	-12.842
▁Ori	-12.8421
▁vieillot	-12.8424
Skater	-12.8425
▁litera	-12.8427
▁clip	-12.8428
vaux	-12.843
▁bell	-12.8431
▁sandale	-12.8433
▁accessoires	-12.8434
▁troupes	-12.8434
▁crier	-12.8435
▁examen	-12.8435
▁Gardens	-12.8437
▁crÃapes	-12.8437
▁soar	-12.8437
▁magiques	-12.8437
▁pancakes	-12.8437
▁holidays	-12.8438
▁possibl	-12.844
▁Caf	-12.844
▁Pat	-12.8442
▁bagel	-12.8443
▁chape	-12.8445
▁officiels	-12.8447
▁dentiste	-12.8448
gantes	-12.8449
▁trough	-12.8449
▁patches	-12.845
jeun	-12.8451
bing	-12.8452
rge	-12.8453
▁nid	-12.8453
rican	-12.8454
▁experts	-12.8455
▁streetlights	-12.8462
▁fist	-12.8465
awing	-12.8466
randa	-12.847
▁headlight	-12.8472
lasse	-12.8472
▁skin	-12.8473
▁beautifully	-12.8473
▁noodles	-12.8475
court	-12.8477
▁entretenu	-12.8478
▁dreads	-12.848
▁canadiens	-12.848
▁dindes	-12.8481
▁chiffons	-12.8481
▁cahiers	-12.8481
▁hip	-12.8485
▁solaire	-12.8487
▁pasture	-12.8488
▁juge	-12.849
▁́mes	-12.849
▁relaxe	-12.849
some	-12.8491
▁convi	-12.8492
▁protesters	-12.8494
▁incroyable	-12.8496
▁glow	-12.8499
▁trained	-12.8501
▁servis	-12.8502
amic	-12.8502
▁marathoniens	-12.8503
▁remain	-12.8503
▁pensive	-12.8503
▁congÃ	-12.8504
▁emballage	-12.8505
▁mosque	-12.8511
chettes	-12.8512
law	-12.8512
▁volante	-12.8513
▁picker	-12.8515
▁Hug	-12.8518
▁cuisin	-12.8519
▁ornement	-12.8519
▁porcs	-12.8519
▁savoureux	-12.852
▁wal	-12.8521
▁Bus	-12.8522
af	-12.8522
▁Cast	-12.8523
▁huttes	-12.8524
▁manuels	-12.8527
▁region	-12.8528
uscule	-12.8531
▁chope	-12.8532
▁Sco	-12.8534
▁cork	-12.8534
▁fouett	-12.8536
eintes	-12.8539
els	-12.854
sordre	-12.8545
▁combin	-12.8548
▁pierc	-12.855
▁apparaiss	-12.8554
▁casier	-12.8561
tem	-12.8561
▁imm	-12.8561
▁report	-12.8562
▁finale	-12.8564
▁blast	-12.8564
▁twirls	-12.8567
▁importante	-12.8568
▁kill	-12.857
▁secs	-12.8571
▁dumps	-12.8572
▁Pain	-12.8575
▁majorit	-12.8576
▁amused	-12.8576
▁trucs	-12.8585
ever	-12.8586
▁burin	-12.8586
▁patinant	-12.8588
▁latin	-12.8591
iques	-12.8591
avantage	-12.8596
ntage	-12.8597
engagement	-12.86
▁moved	-12.8601
ulent	-12.8601
▁numbered	-12.8602
reeze	-12.8604
▁assortis	-12.8605
▁bambous	-12.8607
▁pockets	-12.8607
▁Dad	-12.8607
▁juggler	-12.8608
▁coussins	-12.8609
▁raides	-12.8609
fuyant	-12.8611
▁messages	-12.8612
▁notebooks	-12.8612
▁ornements	-12.8613
▁toilets	-12.8614
▁marks	-12.8616
▁grid	-12.8616
atifs	-12.8622
▁tasks	-12.8626
▁festivit	-12.8627
▁occasion	-12.8629
tically	-12.8629
▁Welcome	-12.8629
▁stroke	-12.8632
▁bug	-12.8633
with	-12.8633
▁chemi	-12.8637
▁speakers	-12.8637
▁stupide	-12.8638
▁Star	-12.8639
jou	-12.8639
shirted	-12.8639
conforte	-12.8643
▁arrache	-12.8647
▁treats	-12.8647
▁voix	-12.865
▁pumpkins	-12.8655
▁creep	-12.8656
▁ignore	-12.8656
▁packages	-12.8657
viewing	-12.866
▁bison	-12.8667
▁batons	-12.8668
▁Fisher	-12.8671
▁Pelo	-12.8674
form	-12.8678
dam	-12.8679
▁pri	-12.8688
▁trips	-12.869
▁blacktop	-12.8692
▁particuli	-12.8692
laÃ	-12.8695
▁thi	-12.8698
▁disques	-12.87
▁leotards	-12.87
▁tendues	-12.8706
fringe	-12.8706
▁mineur	-12.8712
▁mugs	-12.8718
▁mac	-12.8718
▁bague	-12.8719
liner	-12.872
▁passag	-12.8731
Pad	-12.8735
blaie	-12.8741
▁mass	-12.8741
buste	-12.8746
▁reclin	-12.875
▁glob	-12.875
shir	-12.8755
▁releas	-12.8755
▁exercice	-12.8767
▁dominate	-12.8767
▁swi	-12.8767
▁darkly	-12.8768
▁appare	-12.8769
▁cycle	-12.877
atre	-12.877
vol	-12.8771
treinte	-12.8784
lican	-12.8786
burgers	-12.879
▁huts	-12.8794
▁europe	-12.8796
▁wield	-12.8797
▁Ga	-12.8805
▁cords	-12.8805
▁pharmacie	-12.8805
▁Mich	-12.8805
ators	-12.8814
▁blottiss	-12.8816
Jump	-12.882
▁Ju	-12.8822
▁blown	-12.8833
▁appr	-12.8834
▁beaut	-12.8836
▁bodyboard	-12.8839
wan	-12.8844
roulant	-12.8845
collage	-12.885
▁sewer	-12.8855
tyro	-12.8856
▁mallet	-12.8858
umeau	-12.8865
▁sew	-12.8865
▁luxe	-12.8869
▁sizes	-12.8872
igne	-12.8874
▁key	-12.8874
▁gifts	-12.8874
rouille	-12.8875
peron	-12.8875
▁exploit	-12.8875
▁hitch	-12.8893
▁arcs	-12.8894
scriptions	-12.8897
▁mail	-12.8898
▁sax	-12.8898
dle	-12.89
cr	-12.8901
urant	-12.8906
fie	-12.8907
▁coton	-12.8924
ces	-12.8928
pant	-12.893
▁observer	-12.893
▁poursuiv	-12.8935
▁polici	-12.8936
▁ashore	-12.8946
▁hurle	-12.8955
▁bead	-12.8956
ateurs	-12.8958
▁tatt	-12.8958
▁boutiques	-12.8966
▁acc	-12.8987
cipit	-12.8991
▁dri	-12.8998
kly	-12.9004
▁papillons	-12.9007
servent	-12.9017
ools	-12.9017
assÃ	-12.902
idÃ	-12.9025
▁meule	-12.9029
▁Bra	-12.9039
ckey	-12.9044
▁concentrat	-12.9053
▁saupoudre	-12.9055
coupage	-12.9059
▁unison	-12.906
iding	-12.9066
omeless	-12.9073
▁dense	-12.9075
▁Husk	-12.9086
▁commerciale	-12.9089
▁profil	-12.909
tain	-12.9094
▁trumpets	-12.9095
▁fuit	-12.91
rieux	-12.9106
wall	-12.9112
▁rebondiss	-12.9119
▁tambours	-12.9123
▁arrest	-12.9124
cide	-12.9124
▁suspendues	-12.9127
oyen	-12.913
▁figur	-12.9134
▁parap	-12.9134
we	-12.9134
▁moustaches	-12.9136
cule	-12.9136
scarves	-12.9141
▁dip	-12.9147
rpill	-12.9148
▁palette	-12.9153
▁guid	-12.9157
platter	-12.9158
ntaines	-12.9159
ensive	-12.9161
dot	-12.9165
owling	-12.9168
AGA	-12.9178
tu	-12.918
▁harna	-12.9185
riz	-12.9187
▁publicitaires	-12.9187
ming	-12.9191
trangers	-12.9198
acteur	-12.9198
Po	-12.9206
▁blu	-12.9208
▁wallet	-12.9208
tric	-12.9209
▁foul	-12.9226
hopping	-12.9233
arching	-12.9236
▁cent	-12.9251
▁gueules	-12.9255
▁aquati	-12.9255
▁Wh	-12.9256
▁sli	-12.9257
tic	-12.9263
rgent	-12.9264
fs	-12.927
▁foo	-12.9282
▁stru	-12.9294
tty	-12.9297
ossing	-12.9301
▁indi	-12.9301
forming	-12.931
▁conduct	-12.9313
ams	-12.9313
▁troll	-12.9327
▁survÃatements	-12.9328
race	-12.9337
oster	-12.935
tension	-12.935
tige	-12.9353
▁hurdles	-12.9361
▁maintain	-12.9362
vec	-12.9363
▁beans	-12.9367
trole	-12.9367
mÃale	-12.937
▁containers	-12.9378
og	-12.9385
▁crush	-12.9386
room	-12.9386
▁princesse	-12.9393
dre	-12.9397
▁tether	-12.9397
tics	-12.9402
▁keyboards	-12.9407
▁chambres	-12.941
▁rend	-12.9412
ol	-12.9416
▁calend	-12.9418
lie	-12.9422
▁At	-12.9433
▁tongues	-12.9449
mp	-12.9454
▁aviat	-12.9458
Bell	-12.9458
▁Vari	-12.9462
▁sipp	-12.9462
finish	-12.9463
▁chercheur	-12.9473
▁cit	-12.9474
boards	-12.9482
addresses	-12.9488
▁campe	-12.9489
▁abs	-12.949
▁tiles	-12.9503
olo	-12.9506
iquement	-12.9518
pl	-12.9532
DE	-12.9535
ouleur	-12.954
▁camps	-12.9541
▁Africain	-12.9548
▁pebble	-12.9553
▁mad	-12.9558
▁slalome	-12.9562
incline	-12.9564
▁sortis	-12.9565
onverse	-12.9571
pace	-12.9571
▁Cel	-12.9572
nel	-12.9572
▁Sta	-12.9575
itcher	-12.9579
▁moss	-12.9593
▁driv	-12.9602
▁lives	-12.9603
▁bec	-12.9611
▁cheerful	-12.9612
rmi	-12.9619
▁assure	-12.9636
▁ajoute	-12.9639
▁rames	-12.9639
▁trait	-12.9639
osÃ	-12.9639
▁pee	-12.9642
▁dim	-12.9644
ressent	-12.9646
▁patrioti	-12.9647
▁Nor	-12.9658
pour	-12.9662
▁Personne	-12.9663
rubs	-12.9667
hakes	-12.9671
reign	-12.9672
LA	-12.9672
▁savonne	-12.9673
lliance	-12.9695
▁flora	-12.9696
ess	-12.9702
▁sauve	-12.9703
hook	-12.9713
verte	-12.9716
▁gard	-12.9721
▁tribale	-12.9726
ailing	-12.9731
▁tagg	-12.9732
▁carrel	-12.9734
▁sash	-12.9752
▁sorts	-12.9761
ited	-12.9762
▁embarque	-12.9763
▁interacti	-12.9774
▁trac	-12.9799
hot	-12.9803
▁flot	-12.9812
▁peruse	-12.9821
▁Mr	-12.9825
ran	-12.983
gage	-12.9844
ami	-12.9856
ith	-12.9858
▁helper	-12.9863
lent	-12.9864
hi	-12.9864
▁Is	-12.9868
uss	-12.9876
levant	-12.9879
▁transporta	-12.9879
▁sling	-12.9887
▁marie	-12.9889
▁rampant	-12.989
gust	-12.9909
▁agressi	-12.9916
hit	-12.9918
ale	-12.9924
▁berce	-12.9934
▁rop	-12.9948
▁spi	-12.9955
licate	-12.9961
cations	-12.9963
ird	-12.997
▁moi	-12.9977
saw	-12.9978
ague	-12.9982
▁popula	-13
▁sau	-13
▁Over	-13.0009
▁mauvais	-13.0023
accrocher	-13.0023
prendre	-13.0042
ora	-13.0043
rader	-13.0044
cras	-13.0047
▁bret	-13.0048
ating	-13.005
▁acrobate	-13.0053
odge	-13.0053
gile	-13.0062
▁rotati	-13.0063
villon	-13.0064
▁arrosage	-13.0068
▁bean	-13.0069
▁conduite	-13.0072
evil	-13.0079
roupeau	-13.0086
rtan	-13.0089
▁multit	-13.0095
field	-13.0095
dilla	-13.0104
ps	-13.011
tern	-13.0117
▁wagons	-13.0119
nces	-13.0121
tables	-13.0141
closed	-13.015
ea	-13.0162
▁slice	-13.0164
formelle	-13.018
ob	-13.0182
▁defend	-13.019
▁plaisant	-13.0196
▁ethnicit	-13.0198
eezer	-13.0207
aura	-13.0212
velt	-13.0223
▁miroirs	-13.0227
obes	-13.0229
▁Su	-13.0234
▁Guitar	-13.024
▁tondu	-13.0265
▁Petr	-13.027
▁diverse	-13.0271
▁rods	-13.0278
now	-13.0279
ters	-13.0287
▁blur	-13.029
▁survole	-13.0293
hio	-13.0301
▁darts	-13.0302
bank	-13.0315
▁pyl	-13.0315
▁danseur	-13.0322
▁oriente	-13.0342
▁pours	-13.0349
▁adventure	-13.035
▁galop	-13.0354
▁strum	-13.0359
appel	-13.0361
▁furi	-13.0368
oufl	-13.0382
cycles	-13.0391
tw	-13.0393
▁hal	-13.0402
▁clim	-13.0405
▁Perform	-13.0411
▁goe	-13.0418
ciale	-13.0422
mming	-13.0426
▁remporte	-13.0434
east	-13.0442
▁cultur	-13.0463
▁mara	-13.0486
GA	-13.049
▁hoses	-13.0492
▁rejoin	-13.0492
arche	-13.0503
▁Vir	-13.0503
rial	-13.0503
▁inner	-13.0504
▁forte	-13.0506
▁kisse	-13.0516
iretrucks	-13.0519
▁Ship	-13.0526
▁ly	-13.055
gains	-13.0554
LO	-13.0561
▁muscle	-13.0565
ction	-13.0569
bs	-13.058
▁rec	-13.059
dia	-13.0592
▁Fa	-13.0599
adles	-13.0602
ote	-13.0611
ussel	-13.0616
uve	-13.0617
ative	-13.0626
lowing	-13.0631
lim	-13.0633
▁prov	-13.0637
dant	-13.0639
▁jongla	-13.0646
▁duel	-13.0646
▁soigne	-13.0655
▁improvis	-13.0665
▁ag	-13.0667
ugh	-13.0667
▁Col	-13.0667
ug	-13.067
terback	-13.0672
▁bondi	-13.0677
▁dix	-13.0681
▁ben	-13.0682
▁descendu	-13.0689
rounding	-13.0691
jeune	-13.0692
▁sm	-13.0706
▁Motorcycl	-13.0716
▁supervis	-13.0718
▁surfboards	-13.0722
▁bats	-13.0723
rrÃ	-13.0725
▁aÃ	-13.0737
▁thre	-13.0742
orang	-13.0755
▁rouet	-13.0756
▁traction	-13.0758
▁lungi	-13.0766
teuse	-13.0768
blo	-13.0796
▁infants	-13.0805
yellow	-13.0814
▁Color	-13.0818
old	-13.0821
▁masse	-13.0835
itative	-13.0835
praying	-13.0836
cap	-13.0841
▁Buddh	-13.085
▁traje	-13.0854
enya	-13.0861
▁barbo	-13.0887
cheron	-13.09
eating	-13.0901
▁laiss	-13.0903
ambule	-13.091
ntaine	-13.0914
hoppers	-13.0922
▁My	-13.0922
▁once	-13.0932
tails	-13.0948
▁ble	-13.0968
▁cultive	-13.0974
verhead	-13.0985
low	-13.0988
has	-13.1005
▁Fr	-13.1043
▁enroule	-13.1051
▁continu	-13.1058
tained	-13.1059
chut	-13.1069
plu	-13.1069
uvant	-13.1073
▁foresti	-13.1086
inning	-13.109
tienne	-13.11
▁Cor	-13.111
zz	-13.1111
▁emb	-13.1121
rain	-13.1124
endr	-13.1134
▁JA	-13.1152
▁inspecteur	-13.116
bri	-13.1166
ould	-13.1173
lume	-13.1177
laying	-13.1191
▁stri	-13.1206
cted	-13.1209
▁frime	-13.1221
▁atteign	-13.1223
geant	-13.1252
▁embarqu	-13.1255
▁stuc	-13.1258
nager	-13.1261
fact	-13.1269
Pant	-13.1279
horn	-13.1283
▁cuis	-13.1287
▁awe	-13.1289
▁entrepreneur	-13.1305
dles	-13.1309
▁tasses	-13.1318
▁homm	-13.1319
off	-13.1319
▁permet	-13.1327
▁grav	-13.1335
nos	-13.1347
bre	-13.1347
▁pains	-13.1351
▁forge	-13.1354
oration	-13.1354
charg	-13.1366
▁claque	-13.1369
rayola	-13.1371
erri	-13.1373
training	-13.1376
▁patriot	-13.1381
AN	-13.1387
alie	-13.1393
▁div	-13.1396
▁cola	-13.1402
▁hel	-13.1407
ator	-13.141
oggers	-13.1413
cheveux	-13.142
anging	-13.1426
▁speck	-13.1434
▁Sun	-13.1438
▁positionn	-13.1442
ha	-13.1446
▁printe	-13.1453
obe	-13.1462
oking	-13.1467
▁saxophonist	-13.1469
tching	-13.1485
bike	-13.149
lated	-13.1497
▁Pho	-13.1497
▁Mach	-13.1505
▁Out	-13.1507
aspire	-13.1507
uzzled	-13.1508
▁bulls	-13.1517
▁partag	-13.1526
▁restaurants	-13.153
▁wand	-13.1538
ama	-13.1545
▁essu	-13.1547
bell	-13.1548
▁ajout	-13.1549
▁util	-13.1553
▁chi	-13.1558
illes	-13.1559
ole	-13.1561
euil	-13.1573
ucks	-13.1579
▁soud	-13.1582
▁Arab	-13.1586
panes	-13.1599
▁soign	-13.1599
▁pati	-13.1609
▁basketballs	-13.1612
fense	-13.1613
▁tw	-13.1619
▁express	-13.1624
▁labour	-13.1651
▁Cher	-13.1654
▁mold	-13.1659
arpente	-13.1665
sonne	-13.1671
uyant	-13.1672
▁Workm	-13.1675
▁capital	-13.1676
▁challeng	-13.1682
ndy	-13.169
▁Vad	-13.169
▁moon	-13.1707
▁sick	-13.172
fou	-13.1733
pic	-13.1754
ashes	-13.1758
uchant	-13.1762
▁bouill	-13.1767
An	-13.1767
agas	-13.1778
▁boisseau	-13.1784
avy	-13.1791
▁Quarte	-13.1796
nviron	-13.1797
▁vine	-13.1802
▁Pit	-13.1829
▁peddl	-13.1838
▁dan	-13.1844
uts	-13.1847
ctive	-13.1848
▁oval	-13.1858
cia	-13.1869
course	-13.187
▁publics	-13.1882
▁snowing	-13.1884
Conn	-13.1884
quant	-13.1886
tle	-13.1886
LU	-13.189
ntiÃ	-13.1902
hold	-13.1909
▁croqu	-13.1918
abo	-13.1921
um	-13.1931
ceptionn	-13.1938
res	-13.1942
OI	-13.195
enfile	-13.1951
lway	-13.1952
entourant	-13.1961
▁canes	-13.197
ree	-13.1984
gi	-13.1984
▁Haw	-13.199
lers	-13.199
terrain	-13.1999
▁Bru	-13.2002
▁lise	-13.201
Sa	-13.203
▁mart	-13.2042
rid	-13.206
▁For	-13.206
game	-13.2064
pac	-13.2085
▁fron	-13.2087
▁amput	-13.2091
▁crushe	-13.2091
ile	-13.2094
ety	-13.2115
yan	-13.2118
▁soake	-13.2123
nelle	-13.2129
femme	-13.2137
boos	-13.2139
enchÃ	-13.2145
▁ston	-13.2146
ely	-13.2165
▁Mang	-13.217
▁finisse	-13.2182
lus	-13.2184
neaux	-13.2185
urance	-13.2186
▁WA	-13.2192
pole	-13.2209
ock	-13.2217
inted	-13.2221
agiss	-13.2221
mmi	-13.2226
habiller	-13.2232
foot	-13.2243
▁ste	-13.2243
bling	-13.2243
iting	-13.2256
▁sho	-13.2257
▁cos	-13.2257
▁sangl	-13.2261
att	-13.2263
▁fourre	-13.227
ractÃ	-13.2278
passant	-13.2293
ump	-13.2293
▁colorant	-13.2294
▁pendu	-13.2305
pants	-13.2315
sable	-13.2316
iling	-13.2329
▁simple	-13.2335
▁measure	-13.2337
▁syst	-13.2349
▁grilla	-13.2353
end	-13.2357
turn	-13.2368
▁active	-13.2374
mic	-13.241
envoi	-13.2413
terre	-13.2415
climbing	-13.2417
▁brill	-13.242
ica	-13.243
▁ping	-13.2433
chiss	-13.2443
aine	-13.2445
▁artisanal	-13.2457
horse	-13.2461
beater	-13.2467
diction	-13.2468
ucho	-13.247
ays	-13.249
doors	-13.2493
▁bikin	-13.251
▁sorti	-13.2512
very	-13.2518
tall	-13.252
▁revie	-13.2523
▁emprunt	-13.253
plein	-13.2543
▁bee	-13.2543
▁gouverne	-13.2547
▁lid	-13.2562
nette	-13.257
itation	-13.2589
formal	-13.2589
▁lava	-13.2594
▁grate	-13.2597
▁ren	-13.2598
▁pharmac	-13.2599
pierre	-13.261
▁mons	-13.2614
tive	-13.2616
worker	-13.2623
taches	-13.2628
painting	-13.2629
▁campa	-13.2634
HL	-13.2641
port	-13.2642
anneau	-13.2646
▁simpl	-13.2656
risk	-13.2659
Arc	-13.2661
load	-13.2661
▁state	-13.2662
▁talon	-13.2672
crowded	-13.2676
▁servi	-13.2679
▁pres	-13.268
burn	-13.2683
couvert	-13.2683
▁capita	-13.2688
floor	-13.269
pente	-13.269
lights	-13.2694
Pop	-13.2699
▁decid	-13.2701
marque	-13.2707
jupe	-13.271
▁slow	-13.2714
onald	-13.2714
attraction	-13.2715
allonge	-13.2721
▁era	-13.2731
umbling	-13.2731
eading	-13.2733
En	-13.2736
uniforme	-13.2739
scooter	-13.2749
distance	-13.2749
▁fir	-13.2763
spectacle	-13.2767
rov	-13.2773
▁clea	-13.2774
si	-13.2774
eads	-13.278
▁cendr	-13.2784
▁lei	-13.2789
loud	-13.2796
▁casqu	-13.2798
Live	-13.28
▁Tout	-13.2804
▁born	-13.2812
painted	-13.2815
appartement	-13.2816
ored	-13.2818
gg	-13.2819
ouz	-13.282
▁magic	-13.2821
bull	-13.2823
gne	-13.2823
school	-13.2825
temps	-13.2826
q	-13.283
cake	-13.2833
nq	-13.2833
▁lavan	-13.2834
ivre	-13.2837
▁handl	-13.2837
arents	-13.2839
tand	-13.2849
▁ornementa	-13.2849
▁retour	-13.285
ph	-13.285
oing	-13.285
mme	-13.2852
tical	-13.2853
▁crow	-13.2856
class	-13.2859
flip	-13.286
hammer	-13.2863
▁flam	-13.2872
▁ceux	-13.2873
igh	-13.2879
kart	-13.2882
fighting	-13.2886
Sub	-13.2887
▁comic	-13.2888
intersection	-13.2891
block	-13.2894
remorque	-13.2898
appliqu	-13.2898
couvr	-13.2905
▁obstruct	-13.2905
▁Sub	-13.2911
▁parois	-13.2911
architecture	-13.2915
ttracti	-13.2918
ears	-13.292
hippodrome	-13.292
Cyclone	-13.2921
Paris	-13.2923
Iowa	-13.2923
rier	-13.2927
adversaire	-13.2927
▁respon	-13.293
pers	-13.293
▁Bol	-13.2933
ascension	-13.2936
bread	-13.2942
incendie	-13.2944
aliments	-13.2945
free	-13.2945
peace	-13.2946
ctor	-13.2947
emballage	-13.295
incroyable	-13.295
raised	-13.2952
first	-13.2953
infirmi	-13.2954
approchant	-13.2955
ornements	-13.2955
Jim	-13.2955
immense	-13.2955
emp	-13.2957
▁́m	-13.2958
Police	-13.296
imprim	-13.296
▁mobil	-13.2961
America	-13.2961
Twister	-13.2961
▁Chun	-13.2961
▁rat	-13.2964
observent	-13.2964
▁collecti	-13.2965
Seattle	-13.2965
astronaut	-13.2965
South	-13.2966
Washington	-13.2967
thumbs	-13.2969
▁tournoie	-13.297
accompagn	-13.297
entreprise	-13.2971
Bull	-13.2971
atterrissa	-13.2971
Cafe	-13.2971
Grand	-13.2971
Green	-13.2971
projecteur	-13.2972
enceinte	-13.2972
legged	-13.2973
pensive	-13.2974
coration	-13.2975
Easter	-13.2975
ship	-13.2976
bed	-13.2977
idiot	-13.2978
▁unwrap	-13.2978
essuie	-13.2978
away	-13.2978
exhib	-13.2981
gral	-13.2982
DS	-13.2983
baiss	-13.2985
mania	-13.2987
Hous	-13.2989
▁technic	-13.299
mused	-13.2991
▁shock	-13.2996
science	-13.2998
shade	-13.2998
▁sweating	-13.2999
Je	-13.3
asperge	-13.3
battant	-13.301
▁Jum	-13.3011
▁leav	-13.3012
zoo	-13.3017
safe	-13.3021
gonfl	-13.3025
excit	-13.3025
stride	-13.3025
unette	-13.3031
engin	-13.3037
duck	-13.3038
pieds	-13.3044
mage	-13.3048
▁langu	-13.3049
agite	-13.3049
luge	-13.3049
▁thro	-13.3052
immobilis	-13.3053
MC	-13.3055
ridge	-13.3066
▁envelop	-13.3067
nombre	-13.3068
▁mate	-13.3071
antiqu	-13.3072
rena	-13.3074
auvent	-13.3075
horns	-13.3078
disque	-13.308
▁trave	-13.3081
battu	-13.3083
taxi	-13.3085
notes	-13.3088
ari	-13.3088
▁parachutis	-13.3094
▁squir	-13.3097
altim	-13.3097
oulever	-13.3102
fit	-13.3103
quad	-13.3106
▁Q	-13.3108
step	-13.3112
oll	-13.3113
▁familial	-13.3115
lusi	-13.3117
▁souterrain	-13.3118
mates	-13.3119
▁fluid	-13.312
flated	-13.312
pain	-13.3123
patience	-13.3123
▁remorqu	-13.3124
▁approch	-13.3126
met	-13.3129
▁consum	-13.3132
▁bitum	-13.3135
▁luxuriant	-13.3136
▁ran	-13.314
ashioned	-13.3146
chu	-13.3147
▁univers	-13.3158
informations	-13.3158
interroge	-13.3159
marr	-13.316
bow	-13.3164
iole	-13.3166
▁cocktail	-13.3167
▁Outdoor	-13.3167
▁minijupe	-13.3168
▁Martin	-13.3172
late	-13.3173
▁poulie	-13.3173
dica	-13.3175
▁pelucheuse	-13.3176
▁accessoire	-13.3179
▁Well	-13.318
▁locker	-13.3181
pie	-13.3182
▁coconut	-13.3182
▁acrobatique	-13.3183
▁troop	-13.3184
stairs	-13.3185
▁joggeur	-13.3186
▁bridesmaid	-13.3186
▁souvenir	-13.3187
igital	-13.3187
▁pajama	-13.3187
▁article	-13.3188
berline	-13.3188
▁bystander	-13.3188
uggling	-13.319
▁particul	-13.319
oy	-13.319
▁figurine	-13.319
Terri	-13.3191
▁bonbon	-13.3191
▁jumelle	-13.3191
ffleur	-13.3192
parleur	-13.3198
▁conif	-13.3199
▁dollar	-13.3202
list	-13.3205
▁tard	-13.3206
▁Sport	-13.3207
▁downward	-13.3212
purs	-13.3214
▁brace	-13.3215
▁poignet	-13.3216
▁improv	-13.3219
topped	-13.3221
plaqu	-13.3222
couteur	-13.3227
lab	-13.3229
▁ethni	-13.3229
▁windsurf	-13.3238
gard	-13.3241
ajuste	-13.3242
▁conserve	-13.3242
▁molle	-13.3242
▁buste	-13.3244
▁shampoo	-13.3245
▁sushi	-13.3245
▁shingle	-13.3246
niche	-13.3247
▁navigua	-13.3249
▁drawer	-13.3249
▁pliant	-13.325
▁ruine	-13.3251
▁sideline	-13.3252
outil	-13.3252
▁happen	-13.3253
▁internationa	-13.326
▁crus	-13.3261
▁boating	-13.3262
nous	-13.3263
ournament	-13.3263
▁respect	-13.3266
▁wineglass	-13.3266
udi	-13.3268
▁cristal	-13.3269
▁mexica	-13.3269
11	-13.3271
▁Even	-13.3272
▁aventur	-13.3273
▁intervie	-13.3275
▁hydrauli	-13.3276
agilit	-13.3276
ents	-13.3277
▁inflat	-13.3278
▁municipa	-13.3278
▁should	-13.3279
polis	-13.3279
▁blank	-13.3279
ketch	-13.328
reakdance	-13.3281
ridesmaids	-13.3281
ggles	-13.3281
estaurant	-13.3282
onference	-13.3282
postale	-13.3283
▁Spider	-13.3283
ippie	-13.3283
dynami	-13.3284
▁concer	-13.3284
▁injur	-13.3284
▁Prince	-13.3284
▁Music	-13.3284
▁amphi	-13.3285
chafaud	-13.3285
obbin	-13.3285
raphic	-13.3285
▁Gra	-13.3285
▁neighbor	-13.3285
order	-13.3285
ggressive	-13.3285
ography	-13.3285
▁administrati	-13.3285
▁catacomb	-13.3285
▁certifi	-13.3285
▁exhaust	-13.3285
▁expectant	-13.3285
▁occidenta	-13.3285
▁pirogue	-13.3285
▁refrigerat	-13.3285
▁somnolent	-13.3285
Gidday	-13.3285
Touchdown	-13.3285
flexion	-13.3285
ichardson	-13.3285
intercept	-13.3285
moratif	-13.3285
occinelle	-13.3285
ographed	-13.3285
omodo	-13.3285
omorowski	-13.3285
sidentiel	-13.3285
uthhoop	-13.3285
▁AVEDA	-13.3285
▁Ballerina	-13.3285
▁Birmingham	-13.3285
▁Bradford	-13.3285
▁Budweiser	-13.3285
▁Capitol	-13.3285
▁Chiefs	-13.3285
▁Classic	-13.3285
▁Clippers	-13.3285
▁Cyranka	-13.3285
▁DVD	-13.3285
▁Dorado	-13.3285
▁Downtown	-13.3285
▁Ebay	-13.3285
▁Farmosa	-13.3285
▁Giorgio	-13.3285
▁Grizzles	-13.3285
▁HSBC	-13.3285
▁Hilfiger	-13.3285
▁Margarita	-13.3285
▁Maruga	-13.3285
▁Mayores	-13.3285
▁McDo	-13.3285
▁Morgan	-13.3285
▁Mutual	-13.3285
▁NFL	-13.3285
▁Orchestr	-13.3285
▁PADDINGTON	-13.3285
▁Packers	-13.3285
▁Seiko	-13.3285
▁ShoeGasm	-13.3285
▁Stanford	-13.3285
▁Stonehurst	-13.3285
▁Sugarland	-13.3285
▁Tannehill	-13.3285
▁Tartuffe	-13.3285
▁Transformer	-13.3285
▁Vehicle	-13.3285
▁Verizon	-13.3285
▁Veteran	-13.3285
▁Violin	-13.3285
▁Volvo	-13.3285
▁anticipati	-13.3285
▁atmosph	-13.3285
▁autograph	-13.3285
▁awkward	-13.3285
▁bazaar	-13.3285
▁beffroi	-13.3285
▁billiard	-13.3285
▁braderie	-13.3285
▁brancard	-13.3285
▁breuvage	-13.3285
▁brindille	-13.3285
▁broccoli	-13.3285
▁broyeuse	-13.3285
▁buanderie	-13.3285
▁budweiser	-13.3285
▁centurion	-13.3285
▁chinatown	-13.3285
▁comestible	-13.3285
▁communautaire	-13.3285
▁contorsionn	-13.3285
▁conveyor	-13.3285
▁corbeille	-13.3285
▁crevasse	-13.3285
▁crustac	-13.3285
▁cucumber	-13.3285
▁cuissardes	-13.3285
▁diamond	-13.3285
▁dissimul	-13.3285
▁distracted	-13.3285
▁district	-13.3285
▁espadrilles	-13.3285
▁excentrique	-13.3285
▁extatiquement	-13.3285
▁extinguish	-13.3285
▁fantasy	-13.3285
▁fundraiser	-13.3285
▁gastronomique	-13.3285
▁iMac	-13.3285
▁intertwin	-13.3285
▁kabob	-13.3285
▁lettuce	-13.3285
▁loudspeaker	-13.3285
▁memorabilia	-13.3285
▁mischievous	-13.3285
▁niveler	-13.3285
▁pamphlet	-13.3285
▁panorama	-13.3285
▁pomeranian	-13.3285
▁private	-13.3285
▁rembarde	-13.3285
▁renovat	-13.3285
▁resource	-13.3285
▁respirer	-13.3285
▁ressources	-13.3285
▁restaraunt	-13.3285
▁rocailleuse	-13.3285
▁rockabilly	-13.3285
▁safari	-13.3285
▁schizophr	-13.3285
▁snooze	-13.3285
▁snowdrift	-13.3285
▁sphinx	-13.3285
▁superior	-13.3285
▁syrup	-13.3285
▁thousands	-13.3285
▁typewriter	-13.3285
▁urgentistes	-13.3285
▁vignoble	-13.3285
▁Portland	-13.3285
▁Sprite	-13.3285
▁bibelots	-13.3285
▁brocolis	-13.3285
▁citerne	-13.3285
▁fermentation	-13.3285
▁manucure	-13.3285
▁pearls	-13.3285
▁peppers	-13.3285
▁respectifs	-13.3285
▁shrubbery	-13.3285
Novemb	-13.3285
cksmith	-13.3285
visibilit	-13.3285
▁Burberry	-13.3285
▁Fatigu	-13.3285
▁Harrod	-13.3285
▁Ikea	-13.3285
▁Mooring	-13.3285
▁Negro	-13.3285
▁Spartans	-13.3285
▁amplifier	-13.3285
▁bazar	-13.3285
▁bouddhiste	-13.3285
▁costaud	-13.3285
▁cylind	-13.3285
▁distinct	-13.3285
▁eccentric	-13.3285
▁engrenage	-13.3285
▁extraordina	-13.3285
▁eyebrow	-13.3285
▁gerbil	-13.3285
▁humorous	-13.3285
▁islamique	-13.3285
▁masonry	-13.3285
▁shuttle	-13.3285
▁slingshot	-13.3285
▁splendid	-13.3285
▁urinoir	-13.3285
▁vampire	-13.3285
▁vocabula	-13.3285
▁Libert	-13.3285
▁choristes	-13.3285
▁custody	-13.3285
▁exemplaire	-13.3285
▁geyser	-13.3285
▁kerchief	-13.3285
▁majestic	-13.3285
▁remodel	-13.3285
▁scientific	-13.3285
▁vessel	-13.3285
Thriller	-13.3285
emplacement	-13.3285
▁Dorothy	-13.3285
▁Gyro	-13.3285
▁Nescaf	-13.3285
▁Orph	-13.3285
▁assignment	-13.3285
▁charlotte	-13.3285
▁vingtaine	-13.3285
▁Club	-13.3285
▁Cricket	-13.3285
▁success	-13.3285
Info	-13.3285
▁Gateway	-13.3285
▁Tissues	-13.3285
▁chiffre	-13.3285
▁confiserie	-13.3285
▁flambeau	-13.3285
▁regrets	-13.3285
▁seminar	-13.3285
▁sinueux	-13.3285
▁somptueu	-13.3285
▁tinsel	-13.3285
▁transluc	-13.3285
Angleterre	-13.3285
▁Camel	-13.3285
▁Cream	-13.3285
▁audaci	-13.3285
▁demolishe	-13.3285
▁experienc	-13.3285
▁worship	-13.3285
ICE	-13.3285
▁Stripe	-13.3285
▁congregation	-13.3285
▁fantaisistes	-13.3285
▁tourbillon	-13.3285
▁ecstatically	-13.3285
▁Jazz	-13.3286
▁culotte	-13.3286
OME	-13.3286
brouant	-13.3286
grenier	-13.3286
▁Delwood	-13.3286
▁Italy	-13.3286
▁boulanger	-13.3286
▁calcul	-13.3286
▁pompoms	-13.3286
▁skyscraper	-13.3286
▁agrafe	-13.3286
▁canalisation	-13.3286
▁goulot	-13.3286
▁mousquet	-13.3286
▁porcelet	-13.3286
▁shoelaces	-13.3286
dominant	-13.3286
▁compartiment	-13.3286
▁hitchhiking	-13.3286
▁meulage	-13.3286
▁observateurs	-13.3286
▁Marlins	-13.3286
▁Pepper	-13.3286
▁ampoule	-13.3286
▁astonish	-13.3286
▁veteran	-13.3286
ennington	-13.3286
▁gravats	-13.3286
▁incense	-13.3286
▁poivr	-13.3286
▁respiratoire	-13.3286
▁angoiss	-13.3286
▁appropriate	-13.3286
▁aveugl	-13.3286
▁colporteur	-13.3286
▁silverware	-13.3286
▁tourisme	-13.3286
▁Blackberry	-13.3286
▁Mellon	-13.3286
▁masterpiece	-13.3286
▁Costco	-13.3286
▁manivelle	-13.3286
▁hivernal	-13.3286
▁postcards	-13.3286
▁Stitch	-13.3286
▁envahi	-13.3286
▁Playboy	-13.3286
oivent	-13.3286
▁fertili	-13.3286
▁Sunday	-13.3286
▁author	-13.3286
▁coulissante	-13.3286
▁luminaires	-13.3286
▁gladiat	-13.3286
▁irritated	-13.3286
▁protectrice	-13.3286
kraini	-13.3286
ustrali	-13.3286
argenterie	-13.3286
▁starfish	-13.3286
▁neatly	-13.3286
▁diploma	-13.3286
▁fracture	-13.3286
▁jumeaux	-13.3286
▁attirail	-13.3286
▁moelleux	-13.3286
odrome	-13.3286
▁warrior	-13.3286
▁Pioneer	-13.3286
▁clipboard	-13.3286
▁edible	-13.3286
▁dilige	-13.3286
▁limonade	-13.3286
▁racines	-13.3286
assoupi	-13.3286
potoir	-13.3286
▁Fairway	-13.3286
▁cochon	-13.3286
▁martini	-13.3286
▁Heavy	-13.3286
Easy	-13.3286
ouisiana	-13.3286
▁corsaire	-13.3286
▁bonfire	-13.3286
▁residence	-13.3286
▁Mignon	-13.3286
▁composition	-13.3286
▁Ginger	-13.3286
▁torii	-13.3286
▁chimique	-13.3286
▁rugged	-13.3286
▁domaine	-13.3286
▁̈fle	-13.3286
▁Olympiques	-13.3286
▁esquiv	-13.3286
▁poudreuse	-13.3286
▁cadenas	-13.3286
▁recital	-13.3286
▁chandelles	-13.3286
nergiquement	-13.3286
▁patriotism	-13.3286
▁reenact	-13.3286
▁reportage	-13.3286
▁yoyo	-13.3286
▁knoll	-13.3286
▁bulb	-13.3286
▁abdomen	-13.3286
▁slouch	-13.3286
nagement	-13.3286
▁residen	-13.3286
ulture	-13.3286
▁hardware	-13.3286
▁aspirations	-13.3286
▁function	-13.3286
▁abondant	-13.3286
▁modeste	-13.3286
▁incredibl	-13.3286
▁repelling	-13.3286
▁Oceanside	-13.3286
▁perfume	-13.3286
SW	-13.3286
▁biberon	-13.3287
▁necktie	-13.3287
▁Schipper	-13.3287
▁pioche	-13.3287
EF	-13.3287
▁swirl	-13.3287
▁Acura	-13.3287
▁profane	-13.3287
▁chaperon	-13.3287
▁besace	-13.3287
▁icicle	-13.3287
▁Blanche	-13.3287
▁Princess	-13.3287
▁amphibi	-13.3287
▁jagged	-13.3287
▁peanut	-13.3287
▁kung	-13.3287
▁Baker	-13.3287
▁Israel	-13.3287
volution	-13.3287
▁collaps	-13.3287
▁cornfield	-13.3287
▁Buster	-13.3287
▁Every	-13.3287
▁mulch	-13.3287
▁calligraph	-13.3287
▁grogne	-13.3287
kwon	-13.3287
▁twenty	-13.3287
▁wetland	-13.3287
▁escort	-13.3287
▁oculaire	-13.3287
▁consomm	-13.3287
▁requin	-13.3287
▁cashier	-13.3287
rodynami	-13.3287
▁infection	-13.3287
▁propeller	-13.3287
VS	-13.3287
▁valve	-13.3288
▁primitif	-13.3288
▁emporter	-13.3288
▁Beatle	-13.3288
ranien	-13.3288
▁devises	-13.3288
▁ribs	-13.3288
▁seashell	-13.3288
tissier	-13.3288
▁protectors	-13.3288
Fish	-13.3288
iums	-13.3288
▁Engl	-13.3288
▁urinal	-13.3288
▁Morse	-13.3288
▁winks	-13.3288
▁Hope	-13.3288
▁riverbed	-13.3288
▁wounds	-13.3288
blading	-13.3288
▁hibou	-13.3288
▁batelier	-13.3288
▁Miller	-13.3288
espoir	-13.3288
▁Iran	-13.3288
▁laitue	-13.3288
▁newscaster	-13.3288
nocide	-13.3289
▁brigad	-13.3289
egret	-13.3289
servoir	-13.3289
▁baggie	-13.3289
▁baleine	-13.3289
▁Grill	-13.3289
▁courrier	-13.3289
ayaker	-13.3289
exercices	-13.3289
itness	-13.3289
▁grownup	-13.3289
▁stories	-13.3289
▁fonctionnaire	-13.3289
awling	-13.3289
▁risque	-13.329
▁tilted	-13.329
▁commute	-13.329
▁hunter	-13.329
▁Comment	-13.329
▁fairground	-13.329
cago	-13.329
▁halfway	-13.329
▁Smoke	-13.329
▁Jer	-13.329
▁binette	-13.329
endorm	-13.329
▁Broad	-13.329
ilburn	-13.329
▁sinueuse	-13.329
▁carotte	-13.329
▁oignon	-13.329
▁saluting	-13.3291
▁soucoupe	-13.3291
▁adopt	-13.3291
▁blankly	-13.3291
▁conceal	-13.3291
▁slipper	-13.3291
▁management	-13.3291
▁candid	-13.3292
▁farmland	-13.3292
▁maximi	-13.3292
▁witness	-13.3292
▁brumeux	-13.3292
▁central	-13.3292
▁chevelu	-13.3293
▁plywood	-13.3293
▁Pink	-13.3293
▁sucre	-13.3293
tabli	-13.3293
▁Isla	-13.3293
▁carrosse	-13.3293
▁crisp	-13.3293
▁Sedan	-13.3294
▁respectively	-13.3294
▁EC	-13.3294
▁travelling	-13.3294
▁sparsely	-13.3294
oustiqu	-13.3294
▁mortar	-13.3294
▁ess	-13.3295
▁exotique	-13.3295
▁scrubbing	-13.3295
▁gorg	-13.3295
▁terminus	-13.3295
▁scoring	-13.3295
▁fumier	-13.3295
▁Mud	-13.3295
Bar	-13.3295
▁reaction	-13.3295
▁hydraulique	-13.3295
▁juke	-13.3295
▁reason	-13.3295
▁quarter	-13.3295
▁baladant	-13.3296
▁grandparents	-13.3296
gency	-13.3296
▁roots	-13.3296
▁volcano	-13.3296
conom	-13.3297
▁indigo	-13.3297
▁drumstick	-13.3297
zine	-13.3297
▁journaliste	-13.3297
▁rigolote	-13.3297
▁treatment	-13.3297
bby	-13.3298
bration	-13.3298
▁capuchon	-13.3298
▁rapprocher	-13.3298
immeubles	-13.3298
▁dagger	-13.3298
▁kang	-13.3298
▁sequence	-13.3298
▁teeter	-13.3298
▁rembourrage	-13.3298
▁chaume	-13.3299
▁matern	-13.3299
▁juive	-13.3299
pad	-13.3299
ision	-13.3299
▁justice	-13.33
▁snarling	-13.33
ontiac	-13.33
▁tranquillement	-13.33
▁wander	-13.33
▁chopped	-13.3301
▁competitively	-13.3301
▁cabanon	-13.3301
▁softly	-13.3301
▁navetteur	-13.3301
▁exub	-13.3301
▁cristallin	-13.3302
▁chatouill	-13.3302
▁Human	-13.3302
▁Noble	-13.3303
▁keg	-13.3303
▁bugg	-13.3303
▁alpinis	-13.3304
aneous	-13.3304
▁Firef	-13.3304
▁Oreo	-13.3305
▁jointes	-13.3305
▁rapprochant	-13.3306
▁kilom	-13.3306
▁jac	-13.3306
▁penguin	-13.3306
▁trudg	-13.3306
▁declare	-13.3306
▁voisin	-13.3307
emball	-13.3307
▁quietly	-13.3308
▁fern	-13.3308
tomic	-13.3308
▁alarm	-13.3308
gyptien	-13.3308
▁carcass	-13.3308
▁Louis	-13.3309
montant	-13.3309
atican	-13.3309
▁repel	-13.331
expressif	-13.331
▁Event	-13.331
▁occurred	-13.331
▁moussu	-13.331
▁pleas	-13.3311
▁photographique	-13.3311
▁handhold	-13.3311
▁metalworking	-13.3311
▁internationaux	-13.3312
▁Tea	-13.3312
▁spher	-13.3312
▁advanc	-13.3312
▁orateur	-13.3312
▁ocre	-13.3312
▁weightlift	-13.3312
guar	-13.3313
▁timid	-13.3313
clatant	-13.3313
▁comporte	-13.3313
▁embro	-13.3313
▁irlandais	-13.3313
▁curry	-13.3314
▁converge	-13.3314
▁repasser	-13.3314
▁serein	-13.3314
creaming	-13.3315
▁brilla	-13.3315
▁hops	-13.3316
▁tireuse	-13.3316
▁ventilateur	-13.3316
fight	-13.3317
offee	-13.3317
▁intrave	-13.3317
▁creation	-13.3318
▁exchang	-13.3318
▁Pic	-13.3318
▁attelle	-13.3318
▁recueilli	-13.3318
▁bunk	-13.3319
▁sausage	-13.3319
▁gothi	-13.3319
▁majorette	-13.3319
enj	-13.3319
▁fishnet	-13.332
▁moussant	-13.332
ponses	-13.332
▁Buy	-13.3321
▁semelle	-13.3321
▁baker	-13.3321
▁brutalit	-13.3322
▁stabilise	-13.3322
▁squ	-13.3322
▁folders	-13.3322
iffin	-13.3322
▁Chevro	-13.3322
▁chance	-13.3323
▁Pol	-13.3323
▁joint	-13.3324
▁chevilles	-13.3324
▁cuisses	-13.3325
turage	-13.3327
▁saucer	-13.3327
▁thong	-13.3327
clipse	-13.3327
oscope	-13.3327
▁correct	-13.3328
▁flocons	-13.3328
▁Em	-13.3328
▁semblables	-13.3329
▁conseils	-13.3329
▁coquillages	-13.3329
▁industrielle	-13.3329
▁noeuds	-13.3329
▁chamallows	-13.3329
▁biscuits	-13.333
▁colleagues	-13.333
▁olympics	-13.333
▁blessures	-13.333
▁dachshund	-13.333
▁dossiers	-13.333
▁budgets	-13.333
▁quotidiennes	-13.333
▁grisonnant	-13.333
▁snowmobiling	-13.3331
▁sliced	-13.3331
ican	-13.3332
▁turf	-13.3332
▁moutain	-13.3332
▁shark	-13.3332
▁plaqueur	-13.3332
▁Driver	-13.3332
▁pastry	-13.3332
▁trente	-13.3333
▁apprenti	-13.3333
▁excavati	-13.3334
▁immobiles	-13.3334
bject	-13.3334
matiques	-13.3334
case	-13.3335
chipper	-13.3335
▁crag	-13.3336
▁flottante	-13.3336
▁perro	-13.3336
▁peddler	-13.3337
▁empr	-13.3337
▁copine	-13.3337
▁humains	-13.3337
lywood	-13.3337
ckab	-13.3337
▁distribuer	-13.3337
estival	-13.3338
▁mortier	-13.3338
▁bouchons	-13.3339
▁harvested	-13.3339
▁Sled	-13.334
▁twins	-13.334
▁cramp	-13.3341
enlacer	-13.3341
▁Hind	-13.3341
▁taureaux	-13.3341
▁fisherm	-13.3342
▁contour	-13.3342
▁grima	-13.3342
trique	-13.3343
▁mob	-13.3343
▁crime	-13.3343
▁manquante	-13.3343
▁resembl	-13.3344
▁visiteurs	-13.3344
▁remorqueur	-13.3345
▁postales	-13.3345
▁gorill	-13.3345
oires	-13.3345
▁choc	-13.3345
ingbird	-13.3347
▁abdo	-13.3348
▁glowing	-13.3348
▁enthusiastic	-13.3348
▁terrorist	-13.3349
▁dalmatian	-13.3349
▁sushis	-13.3349
▁italien	-13.3349
▁pianiste	-13.335
▁warmers	-13.335
▁scintillante	-13.335
▁fondation	-13.335
▁malheureu	-13.3351
▁looping	-13.3351
▁height	-13.3351
wister	-13.3351
▁lovers	-13.3351
▁wreck	-13.3351
▁fourche	-13.3355
lique	-13.3355
dough	-13.3356
MA	-13.3356
▁OU	-13.3357
▁incubat	-13.3358
ricate	-13.3359
▁Harle	-13.3359
▁inhal	-13.3359
▁Pri	-13.3359
▁Lou	-13.3359
▁oak	-13.336
parfum	-13.336
▁pagayer	-13.336
encadrement	-13.3361
▁streamers	-13.3361
▁bund	-13.3362
▁curl	-13.3363
▁rouill	-13.3364
AT	-13.3364
roce	-13.3364
▁confort	-13.3364
giste	-13.3364
edhead	-13.3365
eader	-13.3365
▁motorist	-13.3366
atory	-13.3368
▁Cure	-13.3368
▁examination	-13.3369
▁champion	-13.3369
sentoir	-13.337
▁Hunt	-13.337
▁stapl	-13.3371
▁baptis	-13.3371
▁median	-13.3372
owl	-13.3373
▁concombre	-13.3374
▁plomb	-13.3374
▁fanny	-13.3375
▁restrain	-13.3375
▁sauts	-13.3375
▁conifer	-13.3377
▁bourgeo	-13.3377
▁effrayant	-13.3377
▁furet	-13.338
▁nationalit	-13.338
▁friser	-13.3381
▁Vieil	-13.3381
alcon	-13.3381
parse	-13.3383
▁setup	-13.3383
tilts	-13.3385
quations	-13.3385
▁recycling	-13.3385
▁ovation	-13.3386
▁puzzled	-13.3386
▁snowmobil	-13.3389
▁potter	-13.3389
▁chimi	-13.3389
▁folk	-13.3389
▁tournoyant	-13.339
alcons	-13.339
jarret	-13.3391
bine	-13.3392
habit	-13.3392
bies	-13.3392
▁illustration	-13.3393
▁rattraper	-13.3393
▁recoil	-13.3394
▁chores	-13.3395
▁Vienn	-13.3399
▁spice	-13.3399
winn	-13.3401
▁Martins	-13.3401
▁poulies	-13.3402
▁Wells	-13.3403
▁Cyclo	-13.3404
▁intention	-13.3404
▁Outdoors	-13.3405
▁cocktails	-13.3405
▁penguins	-13.3405
▁lockers	-13.3406
▁minijupes	-13.3406
▁knead	-13.3406
▁sauteur	-13.3406
▁journalistes	-13.3407
▁Theatre	-13.3407
▁recorder	-13.3407
▁puissant	-13.3408
gent	-13.341
▁surveiller	-13.3411
▁violent	-13.3412
ray	-13.3413
rot	-13.3415
▁pliss	-13.342
▁straddl	-13.342
▁drawers	-13.342
▁pelucheuses	-13.3421
▁Euro	-13.3422
▁portative	-13.3423
▁dumb	-13.3424
tains	-13.3424
▁mono	-13.3424
▁lettre	-13.3426
rtisan	-13.3426
ticent	-13.3427
entendent	-13.3427
▁ardoise	-13.3427
▁Habi	-13.3428
▁slim	-13.3428
▁dapple	-13.3429
▁Espagne	-13.3429
▁horrible	-13.343
▁assistance	-13.343
▁pork	-13.3431
▁effe	-13.3433
▁commandent	-13.3435
▁physical	-13.3436
▁trooper	-13.3436
▁Farm	-13.3437
▁rassur	-13.3439
▁jade	-13.3439
▁carol	-13.344
▁consume	-13.3442
▁headdresses	-13.3444
▁fencers	-13.3445
silien	-13.3447
▁suce	-13.3447
▁scanne	-13.3447
▁remarqu	-13.3449
▁copilot	-13.345
▁archaeologi	-13.3452
▁sauf	-13.3452
▁souterraine	-13.3457
vette	-13.3458
▁relaxed	-13.3458
▁familiale	-13.3458
phÃ	-13.346
▁visitor	-13.346
▁fluide	-13.3461
▁chim	-13.3462
▁Moh	-13.3464
endy	-13.3464
fect	-13.3465
▁Mus	-13.3469
▁criss	-13.347
▁entreten	-13.3471
▁Newly	-13.3472
▁commerces	-13.3473
moire	-13.3474
▁Indienne	-13.3475
▁hedges	-13.3477
▁linens	-13.3478
▁secrets	-13.348
▁joggers	-13.3481
sure	-13.3482
▁jackhammers	-13.3482
▁pingouins	-13.3482
▁started	-13.3483
▁reporters	-13.3484
▁Farmers	-13.3484
dgets	-13.3484
▁dispar	-13.3485
▁attaque	-13.3489
▁volleyeuse	-13.349
▁tackler	-13.3491
▁devrai	-13.3493
▁intervenant	-13.3494
▁oies	-13.3497
▁cob	-13.3499
▁average	-13.35
olding	-13.3503
▁seasoning	-13.3505
▁parfait	-13.3505
▁lubri	-13.351
armes	-13.3512
▁chore	-13.3517
▁perle	-13.3518
▁twin	-13.3518
▁Bie	-13.3518
atives	-13.3522
▁downwards	-13.3523
▁euros	-13.3524
▁AMC	-13.3524
horts	-13.3524
ohio	-13.3526
▁vivante	-13.3528
▁mauves	-13.3529
▁repasse	-13.3531
fiÃ	-13.3532
▁joggeu	-13.3536
▁Mur	-13.3537
▁gig	-13.3537
▁Sch	-13.3538
▁vaulting	-13.354
▁tartes	-13.3541
eturn	-13.3543
▁cul	-13.3543
▁crank	-13.3546
▁significa	-13.3548
lante	-13.3549
▁Volley	-13.3549
▁marier	-13.355
▁poignets	-13.3551
▁chan	-13.3552
▁wrists	-13.3559
▁struggle	-13.3561
▁All	-13.3561
▁instructors	-13.3561
▁armures	-13.3562
sia	-13.3563
▁organism	-13.3563
▁dingy	-13.3564
▁moule	-13.3565
▁tickl	-13.3565
▁patineuses	-13.3565
▁remont	-13.3567
▁retraite	-13.3567
▁golfers	-13.3569
▁ascends	-13.357
▁karaoke	-13.357
fuient	-13.357
anyon	-13.3571
▁conviv	-13.3576
▁May	-13.3577
▁chauffe	-13.3587
▁vingt	-13.3588
▁giggl	-13.3588
▁carrot	-13.3588
lope	-13.3589
▁blinds	-13.359
▁humano	-13.3591
▁sedan	-13.3597
lanie	-13.3598
acer	-13.3603
▁tablette	-13.3604
▁Gen	-13.3604
▁excitant	-13.3605
▁kayaker	-13.3605
rothy	-13.3606
▁finishe	-13.3607
▁scan	-13.3612
am	-13.3615
▁escar	-13.3615
mper	-13.3616
▁accou	-13.3617
▁chie	-13.3625
cre	-13.3628
▁promen	-13.363
▁sisters	-13.3633
Shi	-13.3634
▁embr	-13.3634
▁tumble	-13.3636
▁unwrapp	-13.3637
▁screened	-13.3637
▁marionnettes	-13.3639
▁bored	-13.3641
▁hides	-13.3644
▁sweets	-13.3646
▁arroseurs	-13.3648
▁dernier	-13.3652
puc	-13.3653
Ne	-13.3658
cente	-13.3658
▁camo	-13.3659
▁dirigent	-13.366
▁Iowa	-13.3661
▁hippodrome	-13.3664
▁Ex	-13.3665
parleurs	-13.3667
entÃ	-13.3669
▁architecture	-13.367
▁Cyclone	-13.3678
▁movement	-13.3678
▁Patro	-13.368
▁scient	-13.3681
ombardier	-13.3683
▁Bills	-13.3683
Pr	-13.3684
▁biplan	-13.3686
▁bucks	-13.3687
▁housse	-13.3695
illons	-13.37
▁rem	-13.3704
▁agriculteurs	-13.3706
▁pigs	-13.3714
▁skulls	-13.3715
▁briefcases	-13.3718
▁dossards	-13.3719
▁handbags	-13.3719
houses	-13.3723
▁pelot	-13.3725
▁hous	-13.3731
empt	-13.374
ignon	-13.3744
liser	-13.3745
▁nerv	-13.3747
gren	-13.3748
akes	-13.3755
walkie	-13.3756
▁zipp	-13.3757
▁Main	-13.3757
▁Cours	-13.3759
▁Centre	-13.3761
▁nuts	-13.3767
spark	-13.3767
rida	-13.3768
Fran	-13.3769
lbo	-13.377
▁compt	-13.3778
▁pitche	-13.3779
riomph	-13.3779
▁karts	-13.3781
▁contemple	-13.3782
▁mexicains	-13.3795
▁Paris	-13.3796
▁mobylettes	-13.3797
▁circulaires	-13.3797
suite	-13.3797
▁urina	-13.3798
ressante	-13.3804
igeant	-13.3806
▁humans	-13.3806
amarita	-13.3809
▁confession	-13.3809
▁Texa	-13.3811
rielle	-13.3814
wheel	-13.3816
rgis	-13.3817
▁weights	-13.3818
▁whale	-13.3822
ttent	-13.3826
bor	-13.3826
bodyless	-13.3831
tribute	-13.3833
▁grain	-13.3834
refighters	-13.3835
egarde	-13.3837
What	-13.3841
▁assortie	-13.3841
Bos	-13.3842
▁Grande	-13.3844
ormal	-13.3847
identifiable	-13.3852
monade	-13.3862
▁divide	-13.3875
iforme	-13.3875
▁ave	-13.3876
▁colla	-13.3876
▁butte	-13.388
dales	-13.3881
quence	-13.3892
▁vote	-13.3894
▁exoti	-13.39
▁fitting	-13.39
Donald	-13.39
▁hugg	-13.3901
▁aventure	-13.3904
aute	-13.3905
▁Bask	-13.3906
criteau	-13.3906
▁submerg	-13.3909
cks	-13.3913
▁scr	-13.3916
addle	-13.3918
alcools	-13.3921
▁connect	-13.393
night	-13.3931
abell	-13.3932
rine	-13.394
▁inspector	-13.3947
▁surprise	-13.3951
ventails	-13.3951
▁rifles	-13.3952
▁abstra	-13.3953
ablement	-13.3953
▁Brid	-13.3954
▁tricots	-13.3957
▁coudes	-13.3958
▁fre	-13.3958
mmÃ	-13.3961
▁neutr	-13.3961
▁partitions	-13.3962
ws	-13.3962
ffÃ	-13.3964
▁caged	-13.3965
▁appartien	-13.3966
▁Flo	-13.3967
▁brutale	-13.3971
▁Bright	-13.3981
▁diners	-13.3985
▁Per	-13.3989
▁Minn	-13.3991
atrice	-13.3992
limin	-13.4004
▁antenn	-13.4004
rags	-13.4006
▁reflections	-13.4006
rieures	-13.401
▁prove	-13.401
aker	-13.402
▁Or	-13.4023
▁dodg	-13.4026
▁taped	-13.403
▁pupitres	-13.4035
▁quais	-13.4042
usi	-13.4047
▁vais	-13.4051
dash	-13.4053
▁approchent	-13.4062
olÃ	-13.4063
band	-13.4063
orts	-13.4064
▁Cri	-13.4066
▁Joue	-13.4066
▁audito	-13.4073
▁tristes	-13.4074
▁polit	-13.4076
▁gouvern	-13.4081
▁volcan	-13.4082
fe	-13.4085
cess	-13.4085
▁tamise	-13.4088
▁tacle	-13.409
riture	-13.409
▁labor	-13.4093
▁Bag	-13.4095
tudiantes	-13.4095
▁props	-13.4103
▁offert	-13.4109
lette	-13.411
idewalk	-13.4111
▁Sold	-13.4112
▁bizarres	-13.4115
▁gaucher	-13.4115
▁enfil	-13.4116
▁throughout	-13.4122
▁Fed	-13.4123
▁apparent	-13.4124
▁mission	-13.4126
▁galo	-13.4138
▁soak	-13.4148
ions	-13.4152
▁Fat	-13.4154
times	-13.4155
▁piling	-13.4161
piderman	-13.4166
tonnant	-13.4169
▁ni	-13.4172
▁paraskie	-13.4172
lan	-13.4178
rotÃ	-13.418
gocie	-13.4181
ounge	-13.4181
Be	-13.4184
▁grillent	-13.4194
▁targets	-13.4194
▁Jud	-13.4197
yak	-13.4197
▁faim	-13.4198
▁speci	-13.4202
▁snowsuits	-13.4202
▁reference	-13.4206
▁exercises	-13.4207
quaint	-13.4209
rences	-13.4213
▁shoo	-13.4213
▁goutte	-13.4214
ifier	-13.4215
▁probl	-13.4215
▁meter	-13.4221
▁thoughtful	-13.4227
▁hik	-13.4235
vacu	-13.424
▁Cost	-13.4245
▁emprunte	-13.4245
ruelle	-13.4247
▁lances	-13.4248
dimanch	-13.4248
▁rosÃ	-13.4248
▁Bien	-13.4253
▁bricole	-13.4258
brise	-13.426
▁conce	-13.4263
avin	-13.4264
▁immobili	-13.4265
▁Dead	-13.4266
icolore	-13.4266
▁Enf	-13.4267
compani	-13.4267
station	-13.4269
▁officials	-13.4274
unglasses	-13.4274
diant	-13.4275
ascar	-13.4287
▁bask	-13.4289
▁laps	-13.4295
▁investigate	-13.4296
▁certificate	-13.4297
▁include	-13.4301
rel	-13.4307
▁devine	-13.4312
▁blackboard	-13.4314
waiting	-13.4318
▁siting	-13.4324
▁myst	-13.4325
▁spect	-13.4325
ntly	-13.4327
▁packe	-13.4328
▁flick	-13.4337
ettes	-13.4346
rable	-13.435
ough	-13.4356
▁franchiss	-13.4357
quin	-13.4361
▁strips	-13.4363
▁frees	-13.4379
▁horri	-13.438
sters	-13.4381
gy	-13.4392
▁fines	-13.4393
▁Top	-13.4396
erlandais	-13.4399
mous	-13.4414
ladd	-13.4417
▁hamm	-13.4427
▁spoons	-13.4428
▁sofas	-13.4431
▁dia	-13.4433
destre	-13.4435
▁manipulat	-13.4437
inker	-13.4438
▁scolaires	-13.4438
▁lampadaires	-13.4439
urses	-13.4445
sse	-13.4445
ites	-13.4446
operate	-13.4447
▁rebond	-13.445
▁jer	-13.4454
▁liste	-13.4456
pens	-13.4459
▁lesbi	-13.4464
▁maill	-13.4466
▁quarte	-13.447
▁Padd	-13.4471
bute	-13.4479
rests	-13.4481
lettes	-13.4484
▁Ore	-13.4488
▁filed	-13.449
izer	-13.4492
bound	-13.4494
ouer	-13.4497
ske	-13.4505
pris	-13.4506
▁scrute	-13.4518
▁Cha	-13.452
dos	-13.4523
▁mulet	-13.4526
▁swe	-13.4527
▁leave	-13.4529
ead	-13.4535
glo	-13.4543
assis	-13.4545
▁wakeboards	-13.4556
dige	-13.4558
curise	-13.4558
▁topping	-13.4564
attach	-13.4573
ntal	-13.458
▁wit	-13.4584
▁list	-13.4597
▁hunt	-13.4598
▁Dr	-13.4599
▁begg	-13.4599
▁glo	-13.46
▁spat	-13.46
enfourch	-13.4601
▁giraf	-13.4602
▁heureuses	-13.4603
nci	-13.4609
waits	-13.4611
gym	-13.4614
onsieur	-13.4615
lue	-13.4624
inting	-13.4628
▁chur	-13.4638
cepts	-13.4645
ills	-13.4648
habille	-13.4653
▁agitate	-13.4654
▁succ	-13.4663
illi	-13.4671
berg	-13.4671
ticul	-13.4673
ubble	-13.4675
▁poitrines	-13.4682
ching	-13.4689
gardant	-13.4698
▁surveill	-13.47
cossaises	-13.4707
▁whis	-13.4709
pagne	-13.471
▁origina	-13.471
▁lav	-13.4712
diat	-13.4718
illant	-13.4723
▁tear	-13.4751
ptions	-13.4759
nom	-13.4766
dias	-13.4767
▁nip	-13.477
▁prison	-13.4781
▁somme	-13.4784
ilot	-13.4788
▁graviers	-13.4788
vit	-13.479
istes	-13.4791
uilles	-13.4791
▁soc	-13.4793
tabl	-13.4793
aids	-13.4795
tude	-13.4803
ands	-13.4804
▁triba	-13.4807
▁lig	-13.4817
▁rocket	-13.4825
▁chaoti	-13.4841
crunch	-13.4844
apporte	-13.4846
▁propr	-13.4851
▁drummers	-13.4853
▁explose	-13.4856
Fro	-13.4856
▁grillag	-13.4867
Ca	-13.4869
▁Di	-13.4869
uge	-13.4874
▁tacti	-13.488
▁finiss	-13.488
▁stab	-13.4885
▁distra	-13.489
och	-13.4894
espa	-13.4898
ajoute	-13.4903
▁emblÃ	-13.4906
them	-13.4907
lance	-13.4919
mine	-13.4923
lka	-13.4928
▁packs	-13.4929
▁routines	-13.4933
ealty	-13.4934
▁flottants	-13.4935
▁draps	-13.496
emorial	-13.4961
▁souples	-13.4961
▁lampes	-13.4966
▁drumm	-13.4972
▁cade	-13.4977
mpled	-13.4978
testing	-13.4981
bee	-13.4987
▁winds	-13.4988
mbling	-13.4995
cassette	-13.4999
ambo	-13.5008
scription	-13.5008
een	-13.5025
▁ovale	-13.5028
roke	-13.5064
▁traveler	-13.5068
▁collective	-13.5075
▁generat	-13.5077
ired	-13.5079
pote	-13.5091
iels	-13.5097
ifs	-13.5098
IT	-13.5098
ms	-13.5131
▁affecte	-13.5133
locking	-13.514
▁prun	-13.5142
▁isol	-13.5143
▁Bre	-13.5145
ples	-13.5147
▁toil	-13.5148
Fre	-13.5157
inspir	-13.5159
gra	-13.516
sk	-13.5164
rawl	-13.5176
oven	-13.5185
aign	-13.5201
rescent	-13.5202
▁abat	-13.5219
uche	-13.5227
mmed	-13.5237
surance	-13.524
LE	-13.5251
▁frac	-13.5251
▁marchande	-13.5252
sting	-13.5253
▁bandannas	-13.5256
▁mounds	-13.5261
ollerblade	-13.5273
▁launche	-13.5273
sanglant	-13.5274
borde	-13.5274
▁Cr	-13.5284
▁arrang	-13.5288
▁Tree	-13.5295
fra	-13.5296
rby	-13.5298
▁cuddl	-13.5305
▁lassos	-13.5311
▁ven	-13.5319
▁bruy	-13.5324
▁suiv	-13.5333
oi	-13.5338
▁electrici	-13.5342
ouchement	-13.5352
▁Live	-13.5356
▁cellula	-13.5359
▁ox	-13.5361
▁chiche	-13.5369
icks	-13.5371
▁Ahead	-13.5377
▁join	-13.5386
Des	-13.5387
▁comical	-13.5392
cin	-13.5395
▁tum	-13.5427
▁harmoni	-13.5432
ferm	-13.5435
ison	-13.5443
illent	-13.5449
▁tro	-13.545
▁lev	-13.5455
▁heel	-13.5458
cons	-13.5461
▁beater	-13.5467
▁manner	-13.5472
▁viol	-13.5473
▁laboure	-13.5483
olly	-13.5487
thon	-13.5491
▁voyant	-13.5503
thy	-13.5507
▁bala	-13.5523
droite	-13.5537
▁waterfalls	-13.5537
▁viseur	-13.5541
▁skip	-13.5548
▁suspen	-13.5553
▁barb	-13.5561
reli	-13.5565
vo	-13.5573
▁explo	-13.5576
▁rempl	-13.5585
▁Tai	-13.5587
ietnamien	-13.5596
ips	-13.5598
▁crayo	-13.5605
▁tin	-13.5609
▁Vo	-13.5615
nging	-13.5616
bi	-13.5618
▁croise	-13.5623
rizzl	-13.5623
ltitude	-13.5624
noir	-13.563
▁venai	-13.563
▁fasten	-13.5631
lympiques	-13.5639
▁Sea	-13.5646
ense	-13.5655
moli	-13.5658
orce	-13.5658
thers	-13.5661
▁grou	-13.5666
▁conven	-13.5678
▁Yo	-13.5689
▁fore	-13.5694
▁allaite	-13.5699
ttle	-13.5707
▁permett	-13.571
twe	-13.5713
▁Pret	-13.5717
ensible	-13.5722
entrepreneurs	-13.5739
diens	-13.5743
▁appui	-13.5748
mÃal	-13.5754
blÃ	-13.5756
angeant	-13.5759
were	-13.5766
ific	-13.5767
▁soie	-13.5779
▁openings	-13.5783
rics	-13.5783
lanc	-13.5805
nard	-13.5812
▁buttons	-13.5817
ffer	-13.582
▁sweats	-13.582
▁captur	-13.5825
▁sourires	-13.5825
rans	-13.5842
acc	-13.5845
▁thr	-13.5848
ngs	-13.5852
▁assaisonne	-13.5858
▁tor	-13.5867
▁circles	-13.5868
▁wr	-13.5869
▁interven	-13.5874
▁acclame	-13.5875
ArrÃat	-13.5878
▁sautille	-13.588
sa	-13.5881
elp	-13.5886
dye	-13.5892
guise	-13.5893
▁intim	-13.591
▁gÃan	-13.5919
▁gardiens	-13.5931
▁necks	-13.5937
rsen	-13.594
lls	-13.595
▁pat	-13.596
hom	-13.5966
▁mist	-13.5972
ians	-13.5991
ining	-13.6008
▁cach	-13.6008
ease	-13.6021
onic	-13.6047
rient	-13.606
trang	-13.6069
▁spinn	-13.607
▁Au	-13.6071
▁stain	-13.6077
▁grimp	-13.6083
▁rac	-13.6091
tti	-13.6093
▁pouf	-13.6096
▁balustrades	-13.6101
▁joke	-13.6111
gal	-13.6135
▁logger	-13.6136
lier	-13.6146
parents	-13.6153
cent	-13.6155
▁cons	-13.6168
▁pea	-13.6171
sks	-13.6172
odg	-13.6181
compens	-13.6184
▁recouvre	-13.6186
▁connu	-13.6187
hich	-13.6217
▁entry	-13.6234
▁tubula	-13.6234
▁drain	-13.6254
▁exag	-13.6254
▁sco	-13.6265
▁bad	-13.6273
ambul	-13.6302
rase	-13.6308
park	-13.6325
▁shap	-13.6341
▁decor	-13.6342
ath	-13.6355
▁cri	-13.6358
trer	-13.6364
▁sno	-13.6366
vri	-13.637
assent	-13.6372
▁wrapper	-13.6383
▁emp	-13.6383
▁bases	-13.6399
▁Chee	-13.6402
arc	-13.6405
▁Tor	-13.6414
▁terr	-13.6419
▁true	-13.6422
utilis	-13.6422
▁areas	-13.6427
▁sk	-13.6438
odu	-13.6439
▁manipula	-13.6445
▁communicate	-13.6463
niÃ	-13.6464
olution	-13.6467
▁seas	-13.6469
▁mod	-13.6492
▁flexi	-13.6508
▁transform	-13.6516
▁drawings	-13.6516
▁stumble	-13.6519
entrain	-13.6537
▁hide	-13.6541
▁plaqua	-13.6567
renc	-13.6575
▁assur	-13.6577
▁rollerblade	-13.659
nda	-13.659
▁moor	-13.6593
▁supporte	-13.6594
mple	-13.6621
gs	-13.6627
▁bust	-13.6639
▁Stor	-13.664
▁Dar	-13.6646
▁fences	-13.6659
ariachi	-13.6666
▁uniques	-13.6668
▁chine	-13.667
ulaire	-13.6671
rides	-13.6685
ubes	-13.6698
▁identit	-13.67
serv	-13.6704
otorcyclist	-13.6712
neurs	-13.6716
assey	-13.6724
▁sparkl	-13.6735
ends	-13.6738
row	-13.674
usqu	-13.6744
mit	-13.6792
▁playful	-13.6793
▁ouvri	-13.6811
upe	-13.6813
▁poi	-13.6832
▁rippl	-13.6835
icken	-13.6839
uto	-13.6843
rom	-13.6853
former	-13.6855
▁rece	-13.6857
abl	-13.6857
verser	-13.686
espÃ	-13.6867
▁lait	-13.6876
mul	-13.6898
▁improvise	-13.6903
▁ass	-13.6904
▁piment	-13.691
admir	-13.6922
▁ph	-13.6925
bleu	-13.6949
trapÃ	-13.6953
▁avions	-13.6955
▁bun	-13.6955
gens	-13.6968
tres	-13.6974
porteur	-13.6979
sts	-13.6983
bou	-13.6985
▁loves	-13.7011
▁objectif	-13.7012
ki	-13.7017
uvent	-13.7032
▁habi	-13.7041
▁retai	-13.7054
▁controll	-13.7069
server	-13.707
aintenance	-13.7075
▁massi	-13.7078
cing	-13.7081
ru	-13.7082
acky	-13.7101
▁malad	-13.7103
mputee	-13.7105
▁typi	-13.7114
▁motocycl	-13.7115
tanding	-13.7122
gr	-13.7131
issing	-13.7133
ancer	-13.7134
▁colon	-13.7138
rilling	-13.7161
ici	-13.7163
irant	-13.7166
▁vielle	-13.7171
▁el	-13.7173
cyclette	-13.7182
ienne	-13.7184
▁vig	-13.7184
▁enjamb	-13.7192
▁aig	-13.7193
▁rejoi	-13.7195
▁wav	-13.7206
▁allow	-13.7221
▁america	-13.7245
overing	-13.7248
▁remport	-13.7251
▁Bir	-13.7264
nge	-13.7273
▁knitt	-13.7275
▁cad	-13.7284
lush	-13.7292
▁comptoirs	-13.7296
sea	-13.7319
maine	-13.7324
ourse	-13.7326
rk	-13.7341
eries	-13.7342
aughter	-13.7345
ooker	-13.7347
sque	-13.7365
icker	-13.7373
▁Shel	-13.7395
▁bunn	-13.7401
▁Gre	-13.742
sti	-13.7423
▁suck	-13.7428
▁caritati	-13.7432
otic	-13.7436
fer	-13.7452
▁rapproche	-13.7453
▁stumbl	-13.7454
▁burni	-13.7471
women	-13.7486
▁mainten	-13.7505
install	-13.7513
rises	-13.7519
▁actions	-13.752
▁dire	-13.7528
▁ci	-13.7532
ront	-13.7533
av	-13.7535
▁podiums	-13.7536
▁rival	-13.7538
▁vois	-13.7563
sinant	-13.7573
▁dir	-13.7587
lake	-13.7591
▁hitt	-13.76
ncre	-13.7605
▁Wee	-13.7621
▁spec	-13.7646
calist	-13.7655
sentes	-13.7658
▁arches	-13.7666
oo	-13.7669
▁ripple	-13.7674
gon	-13.7692
derate	-13.7694
▁Go	-13.7707
ste	-13.7719
child	-13.7722
aders	-13.773
▁gir	-13.7731
▁platforms	-13.7741
ists	-13.7755
dail	-13.7772
▁slee	-13.7786
ventuel	-13.7799
rn	-13.7801
▁organise	-13.7809
▁coupl	-13.7812
scar	-13.7812
▁Ver	-13.7815
issue	-13.7819
cs	-13.7841
▁lois	-13.7841
AL	-13.7851
nnes	-13.7868
urious	-13.7886
▁essai	-13.7902
▁Hea	-13.7902
ved	-13.7913
▁fraie	-13.7934
llette	-13.7937
Italie	-13.7947
ussia	-13.7953
addy	-13.796
▁ax	-13.7967
rades	-13.7994
▁laisses	-13.8004
▁law	-13.801
angle	-13.8023
▁artisana	-13.8024
formes	-13.8032
van	-13.8034
▁barma	-13.8053
▁culturel	-13.8083
▁vendu	-13.8088
used	-13.8088
nail	-13.8096
ina	-13.8116
▁tiar	-13.8141
▁milli	-13.8142
attrapent	-13.8148
lled	-13.8168
▁im	-13.8175
▁reg	-13.8184
ender	-13.8187
ageuse	-13.8211
terr	-13.8221
ainsi	-13.8225
mpÃ	-13.8233
▁commen	-13.8245
emm	-13.8248
▁Nes	-13.8251
layer	-13.8255
▁conv	-13.8262
vÃatu	-13.8264
▁tuck	-13.8267
clette	-13.8271
▁Domin	-13.8278
ssi	-13.8284
gan	-13.8285
▁musicale	-13.8305
Sk	-13.8319
▁cultiva	-13.8323
gn	-13.8324
posant	-13.8329
▁nos	-13.8341
tron	-13.8355
atyl	-13.8358
chauffe	-13.8378
▁curv	-13.8384
campe	-13.8386
▁Solei	-13.8393
▁Ten	-13.8397
▁fri	-13.8407
agenouill	-13.8421
▁coul	-13.8421
▁Mor	-13.8426
loign	-13.8427
essent	-13.8446
▁vel	-13.8449
▁shell	-13.8454
ld	-13.8457
▁cycl	-13.8469
ik	-13.8478
▁joua	-13.8482
isation	-13.8508
fensi	-13.8514
evÃ	-13.8517
Two	-13.8521
person	-13.8522
limbs	-13.8525
spe	-13.8526
▁uns	-13.8526
using	-13.8529
kin	-13.8536
▁Cir	-13.854
boarding	-13.8543
▁Da	-13.8549
onze	-13.8553
chemise	-13.8564
▁attir	-13.8577
DO	-13.8583
two	-13.8596
Wh	-13.8596
▁falaises	-13.8608
▁assaisonn	-13.8619
ater	-13.8624
▁sunbathe	-13.8637
▁op	-13.8652
cell	-13.8657
▁peopl	-13.866
▁herbe	-13.8669
ich	-13.8676
▁humm	-13.8679
volent	-13.8712
▁acclam	-13.8719
▁tract	-13.8721
ades	-13.8749
nto	-13.8749
hing	-13.8774
alo	-13.8779
ities	-13.8787
cade	-13.8787
ouillante	-13.882
app	-13.882
alliance	-13.8835
eak	-13.8851
argo	-13.8854
building	-13.8858
▁sto	-13.8863
older	-13.8895
kay	-13.8896
net	-13.891
▁appar	-13.893
father	-13.8941
▁affect	-13.8942
▁fus	-13.8947
▁allait	-13.8953
rnali	-13.8958
▁juggl	-13.8958
porte	-13.896
▁vietnam	-13.8966
▁ouvertes	-13.8986
uant	-13.8991
▁populat	-13.9017
▁mes	-13.902
dehors	-13.9028
▁chaine	-13.9029
licit	-13.9034
nez	-13.9048
ungry	-13.907
leur	-13.9076
▁motoris	-13.9095
▁tel	-13.9104
ss	-13.9106
rons	-13.9116
ef	-13.912
tenue	-13.9123
onniers	-13.9124
eir	-13.9124
ows	-13.9127
arshmallow	-13.9137
riage	-13.9144
utch	-13.9152
▁neigeuse	-13.9159
blem	-13.9163
▁pourra	-13.9173
▁acco	-13.9176
▁alpa	-13.918
oming	-13.918
jacket	-13.9188
▁serv	-13.9191
another	-13.9194
inÃ	-13.9194
acks	-13.9194
▁communiqu	-13.92
▁harmonie	-13.92
▁obscur	-13.9222
douleur	-13.9224
ove	-13.9234
▁cong	-13.9247
▁qua	-13.9261
atching	-13.9263
aches	-13.9263
aises	-13.9274
agissa	-13.9289
▁nation	-13.9298
around	-13.9298
▁schools	-13.9303
▁beds	-13.9304
▁Esp	-13.9306
▁rapproch	-13.9315
tale	-13.9324
uchÃ	-13.9328
▁guerr	-13.933
appar	-13.9335
Th	-13.9354
▁religio	-13.9357
▁herb	-13.9358
eady	-13.9361
ims	-13.9363
naire	-13.9366
▁Shi	-13.9386
▁times	-13.9391
uisse	-13.9394
ube	-13.9399
▁ret	-13.9411
▁atta	-13.9413
▁convers	-13.9417
▁uni	-13.9419
▁esp	-13.9434
▁pil	-13.9456
itaine	-13.9469
atter	-13.9479
LL	-13.9479
sign	-13.9491
▁pebbl	-13.9502
▁transparente	-13.9514
people	-13.9534
ert	-13.9535
▁shots	-13.9561
▁riche	-13.9581
cer	-13.9584
▁ai	-13.9586
iffe	-13.9588
yp	-13.9593
▁reb	-13.9599
▁faci	-13.9603
nie	-13.9607
aires	-13.9618
[...]
