<unk>	0
<s>	0
</s>	0
.	-2.77146
▁a	-3.27208
▁Un	-3.78153
▁A	-3.91548
▁un	-3.96412
'	-4.05246
▁in	-4.0699
▁	-4.10505
▁de	-4.1397
▁une	-4.34649
▁the	-4.40375
▁en	-4.49228
s	-4.54326
e	-4.55741
,	-4.61443
▁d	-4.62942
▁on	-4.67712
▁dans	-4.6915
▁sur	-4.71094
▁homme	-4.74239
▁is	-4.7748
▁et	-4.78208
▁man	-4.78489
▁and	-4.78817
▁avec	-4.81549
▁of	-4.85901
▁with	-4.9587
▁des	-5.0513
▁la	-5.08715
à	-5.11063
ing	-5.19192
-	-5.24947
un	-5.27595
▁femme	-5.28431
▁l	-5.33061
▁woman	-5.44689
▁are	-5.47715
▁le	-5.59318
▁to	-5.6285
▁est	-5.63151
▁Two	-5.64918
ant	-5.67399
▁at	-5.7363
une	-5.76013
▁wearing	-5.8239
▁people	-5.85095
ux	-5.9279
▁white	-5.99142
▁se	-6.00753
▁shirt	-6.04591
▁young	-6.0561
▁t	-6.06314
▁De	-6.07106
▁debout	-6.09625
▁black	-6.09993
▁his	-6.10683
▁personnes	-6.122
▁sont	-6.12437
▁while	-6.12784
▁an	-6.14444
▁blue	-6.15829
▁jeune	-6.18246
▁devant	-6.20437
▁fille	-6.21109
▁au	-6.22042
▁red	-6.22939
▁sitting	-6.23242
▁du	-6.23411
▁assis	-6.25887
▁garçon	-6.26159
▁girl	-6.26235
▁groupe	-6.26841
▁dog	-6.2756
▁chien	-6.27972
▁T	-6.28732
▁boy	-6.28888
▁men	-6.29988
▁standing	-6.30964
▁Des	-6.32135
shirt	-6.32426
▁playing	-6.32807
▁hommes	-6.34203
▁son	-6.35822
▁group	-6.36256
is	-6.39819
▁rue	-6.40136
▁rouge	-6.40328
▁street	-6.41627
eux	-6.41963
▁les	-6.43678
▁qu	-6.45026
▁down	-6.45537
▁noir	-6.45812
▁walking	-6.4681
▁D	-6.47601
▁pour	-6.49048
▁blanc	-6.5019
portant	-6.51013
▁front	-6.52872
▁train	-6.53102
▁her	-6.53891
▁holding	-6.57569
nt	-6.59394
andis	-6.62661
▁gens	-6.66781
▁water	-6.70581
▁bleu	-6.71131
▁The	-6.71721
ed	-6.72944
▁by	-6.74319
▁fait	-6.74468
eau	-6.74884
▁par	-6.77431
▁petit	-6.78014
▁femmes	-6.78793
▁sa	-6.79988
▁table	-6.81744
▁enfant	-6.82911
▁qui	-6.83445
▁for	-6.83669
▁up	-6.8467
▁orange	-6.85511
▁green	-6.87131
▁women	-6.87208
▁s	-6.87275
▁côté	-6.87456
▁tient	-6.88829
▁An	-6.8991
▁regarde	-6.91934
▁outside	-6.92581
▁child	-6.92695
d	-6.94606
▁Thre	-6.94883
▁deux	-6.95001
▁que	-6.95048
▁large	-6.95108
▁little	-6.95772
▁enfants	-6.97287
looking	-6.97691
▁one	-6.98157
ir	-6.9876
▁joue	-6.98901
▁through	-6.99343
y	-7.00046
▁photo	-7.00585
▁près	-7.01275
▁brown	-7.03635
▁yellow	-7.04027
▁personne	-7.04294
▁two	-7.04927
▁vêtu	-7.06339
▁ball	-7.0856
▁jouant	-7.08783
▁hat	-7.09665
▁from	-7.10662
▁look	-7.123
▁person	-7.15231
▁over	-7.17456
▁jaune	-7.1874
▁chemise	-7.18867
▁children	-7.19017
▁other	-7.19287
▁Le	-7.19479
▁next	-7.19762
▁vélo	-7.21033
▁small	-7.21293
▁jeunes	-7.2319
▁dressed	-7.24339
▁football	-7.25727
▁out	-7.25851
▁Tro	-7.26342
▁as	-7.26605
▁jouent	-7.26833
▁petite	-7.27402
es	-7.27765
▁building	-7.28729
▁regardant	-7.28785
▁long	-7.29151
▁lors	-7.29214
▁tout	-7.29737
▁dehors	-7.3011
▁marche	-7.30416
▁bâtiment	-7.30569
▁porte	-7.31796
▁blanche	-7.32637
▁riding	-7.32647
▁running	-7.32982
▁lunettes	-7.33337
▁near	-7.33667
▁People	-7.33671
▁stand	-7.3465
▁tand	-7.3477
▁jacket	-7.35084
▁veste	-7.35357
▁be	-7.35897
▁couple	-7.36018
air	-7.36252
▁another	-7.36512
▁around	-7.36651
▁trottoir	-7.38313
▁court	-7.38516
r	-7.38968
▁saute	-7.39994
▁some	-7.40158
▁assise	-7.40549
▁regardent	-7.40729
▁air	-7.40846
▁field	-7.41133
▁beach	-7.4126
▁cheveux	-7.41436
▁sidewalk	-7.41453
t	-7.41969
▁foule	-7.42378
▁autre	-7.42586
▁ses	-7.42983
▁Man	-7.43039
▁arrière	-7.43088
▁vert	-7.44919
▁crowd	-7.4535
▁marchant	-7.45655
▁derrière	-7.4605
▁plage	-7.46617
ent	-7.48511
▁stands	-7.48663
▁pink	-7.4901
▁bleue	-7.49299
▁snow	-7.49512
▁jumping	-7.49558
▁behind	-7.50234
▁sits	-7.5025
▁face	-7.50456
▁grass	-7.53704
▁main	-7.54958
▁blond	-7.55487
▁neige	-7.55629
ly	-7.55848
▁ballon	-7.5624
▁background	-7.56358
into	-7.56758
plan	-7.5704
▁grand	-7.57298
▁quelque	-7.58357
▁rose	-7.58361
▁bike	-7.59169
▁girls	-7.60092
▁chose	-7.6041
il	-7.61219
re	-7.61698
▁brun	-7.61875
▁city	-7.62641
▁player	-7.63203
▁park	-7.64368
▁tenue	-7.65121
▁vers	-7.65286
dessus	-7.65348
▁fais	-7.65387
herbe	-7.65567
▁top	-7.66445
▁wall	-7.66512
▁off	-7.66769
▁filles	-7.67081
▁marchent	-7.67599
▁L	-7.6795
u	-7.68616
▁that	-7.69194
▁chapeau	-7.69585
▁robe	-7.6977
▁tennis	-7.70099
▁sous	-7.70429
▁dress	-7.70759
▁camera	-7.7106
▁mur	-7.71127
▁baseball	-7.7136
▁course	-7.71963
▁chiens	-7.7225
sieurs	-7.72926
er	-7.7327
▁costume	-7.73303
▁ville	-7.74291
▁dogs	-7.74649
▁restaurant	-7.74791
▁hold	-7.74895
▁short	-7.74972
▁talking	-7.75016
▁play	-7.75115
▁something	-7.75498
▁autour	-7.76028
▁skateboard	-7.76787
▁guitar	-7.77291
▁noire	-7.77311
▁older	-7.77396
▁hand	-7.77869
▁soleil	-7.78169
▁along	-7.78401
▁walks	-7.79231
▁soccer	-7.79247
▁hair	-7.79459
▁font	-7.79556
▁food	-7.79882
to	-7.80185
▁lady	-7.80385
▁together	-7.8062
▁balle	-7.80896
▁ten	-7.81218
▁working	-7.81393
▁guitare	-7.81534
▁parc	-7.8168
▁car	-7.8169
autre	-7.82273
"	-7.82467
▁sac	-7.82865
▁gray	-7.83145
▁match	-7.84768
▁bois	-7.85312
▁smiling	-7.85458
▁game	-7.85539
▁picture	-7.86376
▁garçons	-7.86578
▁has	-7.86958
▁assises	-7.87026
▁boys	-7.87118
▁marron	-7.87804
▁ensemble	-7.88433
▁scène	-7.89614
▁"	-7.89615
▁shorts	-7.89727
▁Asian	-7.90026
▁plays	-7.90436
▁terrain	-7.90547
▁terre	-7.90882
▁jean	-7.92116
▁walk	-7.93472
▁joueur	-7.93749
▁sit	-7.94226
▁Four	-7.94265
▁banc	-7.94685
▁maillot	-7.9498
▁gars	-7.95022
▁him	-7.95224
enant	-7.95282
▁road	-7.95284
▁haut	-7.9541
▁Quat	-7.95474
▁bench	-7.95719
▁leur	-7.96214
▁pants	-7.97225
▁glasses	-7.9726
▁stage	-7.98188
▁rock	-7.98231
▁asiatique	-7.98272
n	-7.98458
▁vêtue	-7.98695
▁dirt	-7.98903
▁carry	-7.99031
▁lui	-7.99197
▁head	-8.00187
▁Pl	-8.00998
▁it	-8.01167
▁them	-8.01346
▁pantalon	-8.0167
▁baby	-8.0186
▁bicycle	-8.02068
▁La	-8.02182
▁bus	-8.02296
▁voiture	-8.02353
▁tree	-8.02354
▁gris	-8.02437
▁tête	-8.02784
▁C	-8.03103
▁side	-8.03227
veral	-8.04534
▁bord	-8.04591
▁casque	-8.06249
▁très	-8.06427
▁pose	-8.06588
▁jeans	-8.07089
▁pool	-8.07191
▁race	-8.07266
▁old	-8.07338
▁casquette	-8.08095
each	-8.08226
▁dos	-8.08586
▁route	-8.09478
▁verte	-8.09869
▁back	-8.10666
▁doing	-8.11185
leurs	-8.11194
▁bébé	-8.119
▁cheval	-8.11929
▁pull	-8.12462
autres	-8.12987
▁watching	-8.1346
▁dark	-8.13576
▁grande	-8.13581
elle	-8.14175
▁y	-8.14251
▁male	-8.1431
▁middle	-8.15043
▁vêtements	-8.15273
▁gros	-8.15324
▁trois	-8.16064
▁boat	-8.16163
st	-8.16184
▁téléphone	-8.16254
▁area	-8.16421
▁bateau	-8.16633
▁who	-8.168
rois	-8.18082
▁jumps	-8.18431
▁suit	-8.1852
▁sautant	-8.1875
▁magasin	-8.18988
▁hands	-8.19137
▁pendant	-8.19571
▁piscine	-8.19854
▁ground	-8.20448
▁sand	-8.20499
▁sol	-8.20513
▁room	-8.20742
▁day	-8.20908
▁sable	-8.21161
▁nourriture	-8.21513
▁champ	-8.21535
▁performing	-8.21745
▁lit	-8.2222
▁female	-8.23155
▁prend	-8.23207
▁eating	-8.2335
▁milieu	-8.24046
▁guy	-8.24443
▁courant	-8.24605
▁rouges	-8.24856
▁sign	-8.24968
▁coat	-8.25033
▁Il	-8.26207
homme	-8.26886
a	-8.27008
▁construction	-8.27094
▁using	-8.27151
▁band	-8.27334
▁horse	-8.27375
▁sweat	-8.27572
▁under	-8.2771
▁mouth	-8.28048
▁watch	-8.28228
▁go	-8.28877
▁striped	-8.29013
▁microphone	-8.2935
▁store	-8.29409
▁f	-8.29725
▁purple	-8.29774
▁faire	-8.30413
▁parle	-8.31142
▁manteau	-8.3116
haired	-8.32162
l	-8.32274
▁passe	-8.32336
▁On	-8.3251
▁basketball	-8.33156
▁he	-8.33574
▁toward	-8.33679
▁contre	-8.3386
▁bras	-8.33871
▁S	-8.33946
▁gilet	-8.33993
▁enjoy	-8.34161
▁runs	-8.34499
▁public	-8.3454
▁Young	-8.3489
▁mountain	-8.35425
▁machine	-8.35438
▁journée	-8.35851
▁uniform	-8.35866
▁sunglasses	-8.36824
▁reading	-8.36892
ment	-8.36961
▁visage	-8.37435
▁âgé	-8.38075
▁three	-8.38356
▁clothing	-8.38362
▁blonde	-8.3869
▁bar	-8.38902
▁vieil	-8.39076
▁souriant	-8.39234
▁line	-8.39705
▁courent	-8.39881
▁There	-8.40092
▁noirs	-8.40417
▁players	-8.40721
▁hockey	-8.40785
▁travers	-8.41037
▁toy	-8.41321
▁ocean	-8.41805
▁tente	-8.41816
▁blancs	-8.42229
▁past	-8.4241
▁helmet	-8.42986
▁portable	-8.42992
▁watches	-8.43016
▁micro	-8.43541
▁Se	-8.43731
▁moto	-8.43748
▁its	-8.44022
▁climbing	-8.44525
▁kids	-8.44916
▁salle	-8.44955
▁work	-8.45168
▁sourit	-8.45457
▁again	-8.46027
▁window	-8.47247
▁or	-8.47514
▁elder	-8.47604
ve	-8.47702
▁arbre	-8.4799
▁dancing	-8.48183
▁show	-8.48386
▁basket	-8.48822
▁team	-8.48908
▁chemin	-8.49199
▁montagne	-8.49223
océan	-8.49511
▁chair	-8.49589
▁rides	-8.50567
▁throw	-8.51295
across	-8.51465
▁piste	-8.51692
▁mains	-8.52014
▁costumes	-8.52856
▁wooden	-8.53781
▁posing	-8.53838
▁outdoor	-8.54007
▁plus	-8.54404
▁fleurs	-8.54519
▁catch	-8.54718
▁about	-8.54825
▁trees	-8.55157
▁figure	-8.5528
▁jeu	-8.55397
▁statue	-8.55796
▁cuisine	-8.55835
▁travaille	-8.55877
▁covered	-8.5605
▁plein	-8.56205
▁o	-8.564
▁floor	-8.56416
▁all	-8.56782
▁waiting	-8.5685
▁âgée	-8.57113
▁swimming	-8.57267
▁jump	-8.58363
▁marché	-8.58479
▁bain	-8.58932
▁après	-8.60339
▁bag	-8.60892
▁very	-8.6097
▁workers	-8.6098
▁autres	-8.60989
▁nu	-8.61071
▁tan	-8.61615
▁ice	-8.61868
▁cap	-8.62058
▁colorful	-8.62113
▁busy	-8.62306
al	-8.62368
▁fence	-8.62379
▁instruments	-8.62455
é	-8.62598
extérieur	-8.62711
▁parlant	-8.62803
▁singing	-8.62871
▁hav	-8.6313
▁Woman	-8.63418
en	-8.63464
on	-8.63528
▁get	-8.63682
▁habillé	-8.64406
▁high	-8.64806
▁truck	-8.65184
▁hill	-8.65269
être	-8.65308
▁pren	-8.6553
▁base	-8.65606
▁plan	-8.66336
▁tenues	-8.665
▁bas	-8.66691
▁cart	-8.66776
▁torse	-8.66829
▁utilise	-8.67386
hommes	-8.67823
▁jouer	-8.67884
▁rayé	-8.68461
▁nuit	-8.6866
▁open	-8.68926
▁camion	-8.69076
▁book	-8.69151
▁travaillant	-8.69315
▁livre	-8.69628
▁ski	-8.6976
▁vêtus	-8.69819
▁ride	-8.69855
▁Men	-8.70016
▁jouet	-8.70043
▁point	-8.70474
▁joueurs	-8.70559
▁bright	-8.7062
▁planche	-8.71031
▁laying	-8.71138
▁beard	-8.71756
▁débardeur	-8.71836
▁cellphone	-8.71836
▁path	-8.72032
▁kitchen	-8.72033
▁market	-8.72042
▁inside	-8.72419
▁light	-8.72489
▁Seve	-8.72526
▁beige	-8.72532
▁structure	-8.72535
▁rampe	-8.72857
▁making	-8.73505
▁grassy	-8.73734
▁ou	-8.73863
▁polo	-8.73969
▁stick	-8.74277
▁pièce	-8.74658
▁brick	-8.74679
▁gueule	-8.74683
▁track	-8.74684
▁semble	-8.74861
▁clothes	-8.74879
▁big	-8.75206
▁prépare	-8.75321
▁place	-8.75344
▁umbrella	-8.75376
▁outfit	-8.75381
▁tak	-8.75503
▁metal	-8.75585
▁travaillent	-8.75732
▁hats	-8.75754
▁body	-8.75803
enfants	-8.75897
▁violet	-8.76061
▁motorcycle	-8.76112
▁others	-8.76172
▁rivière	-8.76274
▁perform	-8.76526
▁swing	-8.76529
▁concert	-8.77001
▁takes	-8.77036
▁full	-8.7748
▁rocher	-8.77575
▁night	-8.77787
▁shirts	-8.78375
▁musique	-8.78463
▁ouvriers	-8.78546
▁américain	-8.78798
▁paper	-8.79024
▁cigarette	-8.79053
▁river	-8.79245
▁ready	-8.79269
▁lean	-8.79399
▁fenêtre	-8.79804
▁instrument	-8.80002
▁p	-8.80045
nent	-8.80084
▁cycliste	-8.80106
▁montre	-8.80384
colored	-8.80618
▁blanches	-8.80811
▁maison	-8.81339
▁tire	-8.81342
▁chaise	-8.82096
▁pierre	-8.82158
▁police	-8.82216
▁tank	-8.82239
▁she	-8.83056
ils	-8.83123
▁trouve	-8.83266
uring	-8.83617
▁spectateurs	-8.83821
▁pont	-8.83839
▁bleus	-8.84226
▁sweater	-8.84522
▁hard	-8.84585
coup	-8.84659
▁foot	-8.85066
▁shop	-8.85187
▁shopping	-8.85353
▁piece	-8.85359
▁dessus	-8.85541
▁bowling	-8.85542
ne	-8.85557
ral	-8.85724
▁lac	-8.85889
▁trick	-8.86043
▁clôture	-8.86142
▁push	-8.86317
▁painting	-8.86392
▁lake	-8.86552
▁chante	-8.86636
inq	-8.86637
▁appareil	-8.86736
▁plu	-8.87024
it	-8.87319
▁vend	-8.87514
▁bonnet	-8.87662
▁above	-8.87733
▁pelouse	-8.87735
▁surround	-8.88317
▁dance	-8.88536
▁corde	-8.88548
▁volleyball	-8.88556
▁entre	-8.88614
▁run	-8.88802
▁vest	-8.89248
▁fête	-8.8948
objectif	-8.89617
▁tie	-8.89705
▁stone	-8.89784
▁wave	-8.9022
▁équipe	-8.90393
▁zone	-8.91122
▁sport	-8.91254
▁station	-8.91366
▁snowy	-8.91383
▁marches	-8.91459
▁lot	-8.91644
▁balançoire	-8.9187
▁combinaison	-8.9187
aking	-8.92463
▁music	-8.92582
▁beside	-8.92758
▁backpack	-8.92803
▁worker	-8.92817
▁board	-8.93084
▁Th	-8.93387
▁coup	-8.93494
▁just	-8.93517
▁glace	-8.93543
▁uniforms	-8.94291
▁vague	-8.94399
▁objet	-8.94557
▁pole	-8.9465
rying	-8.9495
▁manger	-8.95382
▁allongé	-8.95747
▁crowded	-8.95752
▁smiles	-8.95812
▁métro	-8.96154
▁many	-8.96384
▁house	-8.96446
shirts	-8.96513
▁posent	-8.96677
▁adultes	-8.96734
▁b	-8.96954
▁bikini	-8.97049
▁chariot	-8.97051
▁conversation	-8.97066
▁toddler	-8.97074
▁gear	-8.97089
▁outdoors	-8.97555
▁Fi	-8.9767
▁traverse	-8.97766
▁frisbee	-8.97956
▁graffiti	-8.97962
▁adults	-8.98067
▁four	-8.98167
le	-8.9827
▁drinking	-8.98283
ball	-8.98759
▁parking	-8.9886
▁couleur	-8.98865
▁kid	-8.98906
▁arm	-8.99286
▁phone	-8.99447
mi	-8.99644
in	-8.99683
▁regarder	-8.99708
▁famille	-8.99765
▁bâton	-8.99784
intérieur	-9.00293
▁fruits	-9.00367
▁kick	-9.00474
▁tena	-9.00527
▁saut	-9.0066
▁sacs	-9.0068
▁forêt	-9.00683
▁cowboy	-9.00712
▁sort	-9.00759
▁oranges	-9.00891
▁parlent	-9.00974
▁quai	-9.01545
▁gathered	-9.01661
▁briques	-9.01751
ur	-9.02284
▁pieds	-9.02361
▁event	-9.02569
▁photos	-9.0262
▁hanging	-9.02704
▁chaussures	-9.02724
hair	-9.02767
▁attend	-9.03099
▁subway	-9.03485
▁bridge	-9.03489
▁African	-9.03495
▁colline	-9.03532
▁P	-9.03808
▁arbres	-9.04301
ch	-9.04332
▁family	-9.0444
▁arms	-9.0474
▁elle	-9.04879
▁flowers	-9.05186
▁verre	-9.05499
▁fire	-9.05515
▁preparing	-9.05521
▁object	-9.05535
▁g	-9.05587
▁passent	-9.05779
▁peint	-9.0586
▁away	-9.06309
▁sorte	-9.06402
▁rope	-9.06563
▁set	-9.0718
▁attempt	-9.07351
▁carreaux	-9.07354
▁sleeping	-9.07387
▁fontaine	-9.0743
▁prendre	-9.07589
▁steps	-9.07614
▁utilis	-9.07651
▁forest	-9.0769
aisant	-9.07999
▁like	-9.08163
▁take	-9.08265
▁habillée	-9.08286
▁cow	-9.08322
▁fountain	-9.08422
▁canapé	-9.08441
▁after	-9.08456
▁vieux	-9.0852
▁does	-9.08632
▁grill	-9.08658
▁fishing	-9.08718
te	-9.08743
▁ce	-9.0876
▁adult	-9.09148
▁Children	-9.09342
▁parade	-9.09363
▁surf	-9.09473
▁enneigée	-9.09801
▁monte	-9.10092
▁beautiful	-9.10304
▁guys	-9.10415
▁clean	-9.10417
▁tent	-9.107
▁casques	-9.10909
lors	-9.11444
▁descend	-9.11448
▁pente	-9.11451
▁asian	-9.11464
▁sun	-9.11565
i	-9.11952
x	-9.12231
▁parapluie	-9.12541
▁longs	-9.12673
▁pass	-9.12845
▁appear	-9.13007
▁jaunes	-9.13292
▁prepare	-9.13451
▁stairs	-9.13564
nnent	-9.1361
▁extérieur	-9.13775
▁pousse	-9.14171
▁skate	-9.14249
▁su	-9.14469
▁tous	-9.14494
▁shoes	-9.14884
▁pile	-9.15107
▁met	-9.15134
▁asiatiques	-9.15239
▁quelqu	-9.15306
▁c	-9.15382
est	-9.15455
▁vif	-9.15559
▁graffitis	-9.15565
▁couch	-9.1557
▁ensoleillée	-9.15616
▁shirtless	-9.15631
▁selling	-9.15796
▁jupe	-9.15798
▁cour	-9.15837
▁essay	-9.16247
▁slide	-9.16366
▁bruns	-9.16445
▁travail	-9.16522
▁café	-9.16632
▁barbe	-9.16705
nny	-9.16796
▁papier	-9.16843
cross	-9.16923
▁setting	-9.17231
▁glass	-9.17639
▁Some	-9.17713
▁quatre	-9.17784
▁rempli	-9.17889
▁sommet	-9.17891
▁attendant	-9.18028
▁noires	-9.18155
▁American	-9.18592
▁ta	-9.18784
▁bouche	-9.18845
▁racing	-9.18871
▁flag	-9.19059
▁rocks	-9.19411
▁marathon	-9.1965
▁pêche	-9.19669
▁someone	-9.19971
▁corner	-9.1999
▁loin	-9.20049
▁party	-9.20239
▁grosse	-9.20513
▁bet	-9.20779
▁drink	-9.20898
ont	-9.20961
▁both	-9.21094
▁balance	-9.21114
▁attraper	-9.21115
▁feu	-9.2112
▁uniforme	-9.21142
▁numéro	-9.21235
▁tall	-9.21319
▁animal	-9.21594
▁chairs	-9.21724
▁escalier	-9.21849
▁whi	-9.21854
ween	-9.22182
▁béton	-9.22187
▁attendent	-9.22324
▁nombreux	-9.2238
▁F	-9.22439
▁flower	-9.22552
▁pied	-9.22584
▁nombreuse	-9.2262
▁view	-9.23106
▁putt	-9.23294
▁bleues	-9.23306
▁panneau	-9.23327
▁genoux	-9.2334
▁plastique	-9.23341
▁equipment	-9.23342
▁ladies	-9.23357
▁frapper	-9.23438
▁have	-9.23444
▁laughing	-9.23468
▁roller	-9.23503
▁ramp	-9.23503
▁beau	-9.23503
▁computer	-9.23594
▁clown	-9.23594
▁ouvrier	-9.23759
▁adulte	-9.23797
▁donne	-9.23932
▁fish	-9.24017
▁pleine	-9.24324
▁try	-9.24436
▁trail	-9.24448
▁bureau	-9.24495
▁toit	-9.24989
aged	-9.25006
▁poses	-9.25108
▁kayak	-9.25153
etting	-9.25551
arrière	-9.25601
▁proximité	-9.2568
▁arts	-9.25695
▁entouré	-9.25853
▁cyclistes	-9.25975
▁wood	-9.26101
▁nus	-9.26212
tting	-9.26242
▁sans	-9.26263
▁clair	-9.26295
▁passant	-9.26318
▁robes	-9.26372
▁sweatshirt	-9.26407
▁plastic	-9.26869
▁playground	-9.2688
▁dock	-9.27022
▁tas	-9.27159
âge	-9.27234
▁dansent	-9.27272
▁lance	-9.27554
▁bath	-9.27644
▁golf	-9.27706
▁woods	-9.27815
▁vêtues	-9.27849
▁concrete	-9.28075
▁cross	-9.28191
▁attire	-9.28242
▁ligne	-9.28415
▁scooter	-9.28465
▁reach	-9.28498
▁hit	-9.28997
▁journal	-9.29292
▁winter	-9.29293
▁yard	-9.29453
▁pictures	-9.29552
▁pancarte	-9.29621
▁vue	-9.29638
▁posant	-9.29799
an	-9.29987
▁lisant	-9.30006
▁rain	-9.30284
apprête	-9.30321
▁v	-9.30344
▁drapeau	-9.3053
▁midair	-9.30551
▁spectacle	-9.30607
▁distance	-9.30611
aux	-9.30696
▁feuilles	-9.30813
▁belle	-9.31284
▁but	-9.31502
o	-9.31978
▁number	-9.32021
▁rochers	-9.32051
▁skirt	-9.32148
▁airs	-9.32539
▁ciel	-9.32548
▁tables	-9.32645
▁Quelqu	-9.32648
▁mère	-9.33222
▁coin	-9.33252
▁No	-9.33324
▁microscope	-9.3341
▁métallique	-9.33417
hiver	-9.33827
▁montagnes	-9.33839
▁sautent	-9.34151
▁défilé	-9.34323
▁sécurité	-9.34325
ting	-9.34386
▁tien	-9.34598
▁fréquentée	-9.34681
▁dort	-9.3469
▁yeux	-9.35082
▁promène	-9.35479
▁no	-9.35585
▁tunnel	-9.35623
▁what	-9.35658
▁seated	-9.35696
w	-9.35753
▁lancer	-9.35802
▁mangeant	-9.35845
▁chaises	-9.35846
▁reads	-9.35986
▁repas	-9.3605
▁foncés	-9.36418
▁sauter	-9.36432
▁avant	-9.36494
king	-9.36571
▁chef	-9.36572
▁maillots	-9.36635
▁escalade	-9.36712
équipe	-9.36818
▁sourient	-9.36946
▁cream	-9.36952
▁left	-9.36955
▁tapis	-9.3697
▁barbu	-9.36973
▁sky	-9.36984
▁événement	-9.37118
▁écrit	-9.37229
▁vendeur	-9.37311
▁fauteuil	-9.37364
▁bière	-9.37369
▁nombre	-9.37623
▁beer	-9.37656
▁pilote	-9.37745
▁classe	-9.378
▁moyen	-9.37959
▁rodéo	-9.38269
▁motocross	-9.38295
▁bikes	-9.38322
▁chapeaux	-9.3835
▁cooking	-9.38414
ier	-9.3863
▁kneel	-9.38696
▁ordinateur	-9.38753
▁rider	-9.38927
▁do	-9.3895
▁vieille	-9.38963
▁works	-9.39335
ittle	-9.3936
▁wear	-9.3948
▁cliff	-9.3962
▁sentier	-9.39624
▁smoking	-9.39677
▁Boy	-9.39689
▁where	-9.39794
▁home	-9.39985
▁sculpture	-9.40081
▁fruit	-9.40087
c	-9.40189
puis	-9.40414
▁comme	-9.40819
▁B	-9.40907
ying	-9.40969
▁pick	-9.40983
▁blouse	-9.41249
▁vests	-9.41362
▁panier	-9.41471
▁school	-9.41487
▁ont	-9.41495
▁bags	-9.41524
▁glisse	-9.41712
▁bed	-9.41924
▁plate	-9.42293
▁box	-9.42361
▁Group	-9.42382
▁toboggan	-9.42382
▁compétition	-9.42384
▁edge	-9.42487
▁art	-9.42775
▁snowboarder	-9.42864
▁uniformes	-9.4292
▁plai	-9.42946
▁make	-9.43303
▁Frisbee	-9.43789
▁légumes	-9.43839
▁quelques	-9.43971
▁tablier	-9.44289
▁crossing	-9.4433
▁danse	-9.4441
▁frappe	-9.44442
▁voitures	-9.44608
▁gauche	-9.45079
▁scarf	-9.45232
▁paysage	-9.45306
▁right	-9.45699
▁jersey	-9.45757
▁cup	-9.46136
▁mountains	-9.46456
▁Women	-9.46665
▁trampoline	-9.46669
▁nearby	-9.46694
arbres	-9.46813
▁buildings	-9.47082
▁stop	-9.4711
▁apron	-9.47214
ers	-9.47324
▁snowboard	-9.47703
▁vélos	-9.47721
▁cutt	-9.47772
▁buvant	-9.48139
▁chantant	-9.48168
▁driving	-9.48211
▁brune	-9.48227
▁cours	-9.48335
▁jardin	-9.48624
▁skateur	-9.48724
▁fix	-9.48732
▁surfer	-9.48823
man	-9.49018
se	-9.49296
▁mother	-9.49669
▁leaves	-9.49676
▁pluie	-9.4974
▁barbecue	-9.49852
▁blonds	-9.49898
▁shore	-9.4993
ring	-9.50128
▁friends	-9.50162
▁bottle	-9.50237
▁display	-9.50267
▁smile	-9.50318
▁door	-9.50385
▁skateboarder	-9.50492
▁part	-9.50666
ement	-9.50691
▁filled	-9.50857
▁hot	-9.50975
▁prépar	-9.51101
▁morceau	-9.51129
▁couleurs	-9.51159
▁boots	-9.5116
▁bottes	-9.51195
▁bien	-9.51214
▁horses	-9.51246
▁star	-9.5125
▁côte	-9.51359
▁gants	-9.51403
▁parked	-9.51748
▁rocheuse	-9.51749
▁shovel	-9.51767
▁véhicule	-9.51772
▁doigt	-9.51773
▁vendor	-9.51775
▁net	-9.52216
▁Person	-9.52311
▁eux	-9.52312
▁artiste	-9.52603
▁dansant	-9.52613
▁goggles	-9.52695
▁drapeaux	-9.52756
▁battent	-9.52807
▁th	-9.5291
his	-9.53054
▁bowl	-9.53075
▁longue	-9.53098
▁falaise	-9.53245
▁caméra	-9.53298
▁vehicle	-9.53334
▁roulant	-9.53374
▁colorés	-9.53405
▁dame	-9.53556
▁bull	-9.54018
▁time	-9.54079
▁fe	-9.54157
▁peinture	-9.54255
▁poteau	-9.54305
▁painted	-9.54439
▁Si	-9.54615
boy	-9.54691
▁produits	-9.54742
▁drums	-9.54788
▁shot	-9.54894
▁talks	-9.5502
▁habillés	-9.55051
▁âgées	-9.55515
▁foncé	-9.55518
▁coffee	-9.55833
▁jogging	-9.55835
▁ballons	-9.55893
▁flying	-9.56076
id	-9.56103
▁rocky	-9.5625
▁rail	-9.56251
▁eyes	-9.56256
▁snowboardeur	-9.56481
▁newspaper	-9.56526
▁bouteille	-9.56534
▁grise	-9.56734
▁cars	-9.56871
▁dresses	-9.57208
▁carrie	-9.57225
▁safety	-9.57443
▁gentleman	-9.57446
▁bunch	-9.57455
▁paint	-9.57456
▁roof	-9.57459
▁membre	-9.57464
▁rassemblent	-9.57486
▁gather	-9.57568
▁surface	-9.57612
▁jeux	-9.57737
▁Old	-9.58142
▁surfeur	-9.58177
▁bucket	-9.5818
▁swinging	-9.58353
▁verts	-9.585
▁m	-9.58572
▁flags	-9.5875
attraper	-9.58998
▁couvert	-9.59014
▁sports	-9.5908
▁meal	-9.59107
▁waves	-9.59122
▁practicing	-9.59125
▁spectators	-9.5913
▁centre	-9.59197
▁martiaux	-9.59233
▁bicyclist	-9.59238
▁com	-9.59278
▁cake	-9.59351
▁mange	-9.59355
▁gloves	-9.59363
▁younger	-9.59426
▁essaie	-9.59732
▁ladder	-9.59788
▁policier	-9.59845
▁même	-9.59923
▁penche	-9.60028
▁break	-9.60053
out	-9.60087
age	-9.60146
▁il	-9.6016
▁tour	-9.60476
▁biker	-9.60596
▁giv	-9.60747
▁empty	-9.60748
▁competition	-9.60752
▁festival	-9.60752
▁different	-9.60765
▁listening	-9.60833
▁dur	-9.60939
▁temps	-9.60946
▁wait	-9.61004
▁examine	-9.61115
▁parler	-9.61127
▁musiciens	-9.61188
▁forme	-9.61201
art	-9.61211
▁blanket	-9.61526
▁masque	-9.6154
▁boule	-9.61559
▁vitrine	-9.61562
▁nage	-9.61595
▁turn	-9.61869
▁sale	-9.61962
▁canne	-9.62025
que	-9.62147
et	-9.62309
▁certain	-9.62444
▁chevaux	-9.62452
▁capuche	-9.62457
▁poussette	-9.62469
▁lève	-9.62529
▁scene	-9.62617
▁coupe	-9.62693
▁check	-9.62694
▁items	-9.62698
▁peu	-9.62744
▁can	-9.62922
uses	-9.63242
▁couverture	-9.63255
▁balloon	-9.63278
▁port	-9.63313
▁mask	-9.63338
▁M	-9.63342
ée	-9.63433
▁fils	-9.63588
▁seau	-9.63918
▁desk	-9.64118
▁audience	-9.64168
▁chantier	-9.64169
▁lawn	-9.64229
▁mangent	-9.64385
▁lire	-9.64586
▁ma	-9.64841
entre	-9.64855
▁pavée	-9.64895
▁afro	-9.65045
▁skateboarding	-9.65074
▁put	-9.65377
▁class	-9.65449
▁railing	-9.65493
▁pot	-9.65504
arious	-9.65608
▁jackets	-9.65824
▁rodeo	-9.65922
▁softball	-9.65924
▁Someone	-9.65932
▁Indian	-9.65951
▁onlookers	-9.65976
▁pause	-9.66022
▁among	-9.66064
▁père	-9.66117
▁étendue	-9.66176
▁bâtiments	-9.66233
▁leaps	-9.66607
▁bat	-9.66753
▁collier	-9.6677
▁Girl	-9.66788
▁traversant	-9.66819
▁filet	-9.6691
▁grands	-9.6695
▁longues	-9.66971
▁courses	-9.66979
▁Beau	-9.6706
▁cut	-9.67078
▁ouverte	-9.67113
▁joueuse	-9.67325
▁drinks	-9.67365
▁lieu	-9.67461
▁roses	-9.67664
▁mett	-9.67675
▁slid	-9.6772
▁espace	-9.67765
▁échelle	-9.67947
▁vegetables	-9.67968
▁chas	-9.68094
▁gathering	-9.68167
▁re	-9.68307
▁obstacle	-9.68312
▁flip	-9.68489
▁surfboard	-9.6856
▁saxophone	-9.68568
▁tattoo	-9.68612
▁skieur	-9.68657
▁pointing	-9.68761
▁bicycles	-9.68791
▁type	-9.69015
▁adolescent	-9.69255
▁petites	-9.69305
ieurs	-9.69331
▁New	-9.69463
▁premier	-9.69525
▁matériel	-9.69526
▁facing	-9.6961
▁feet	-9.6964
▁collar	-9.69772
▁wet	-9.69794
▁vertes	-9.69877
▁cement	-9.69878
fore	-9.69937
▁bulles	-9.69938
▁manches	-9.70121
▁platform	-9.70346
▁ge	-9.70399
▁new	-9.7047
▁poisson	-9.70479
de	-9.70493
▁help	-9.70494
▁bird	-9.70508
ix	-9.70875
▁photographe	-9.71024
▁silver	-9.71375
▁rivage	-9.71375
▁gold	-9.71377
▁tradition	-9.71377
▁wedding	-9.71381
▁batterie	-9.71385
▁competing	-9.71406
▁speaking	-9.71658
▁descendant	-9.71844
▁droite	-9.71989
▁laisse	-9.72049
▁skis	-9.7207
▁remplie	-9.72231
▁purse	-9.72392
▁business	-9.72432
▁sombre	-9.72481
▁martia	-9.7262
▁skier	-9.72711
▁âgés	-9.72994
tirant	-9.73021
▁pas	-9.73168
▁gâteau	-9.73247
▁piano	-9.7326
▁hula	-9.73262
▁camouflage	-9.73265
▁classroom	-9.73265
▁performance	-9.73269
▁salon	-9.73286
▁counter	-9.73294
▁différentes	-9.73304
▁discutent	-9.73305
▁bride	-9.73416
▁huge	-9.73573
▁rayée	-9.73577
▁suits	-9.73583
▁mer	-9.7363
▁country	-9.73706
▁wash	-9.73849
▁pompiers	-9.73859
▁podium	-9.74153
▁helmets	-9.74627
elles	-9.74833
ette	-9.74915
▁recouverte	-9.75104
▁vagues	-9.75253
▁rugby	-9.7555
▁students	-9.7557
▁lift	-9.75698
▁sings	-9.75767
▁taille	-9.75808
▁climbs	-9.75949
▁surfing	-9.76008
▁there	-9.76016
▁participe	-9.76077
▁hors	-9.76152
▁cascade	-9.76189
▁direction	-9.76266
▁violette	-9.76276
▁teams	-9.7639
çant	-9.76399
▁repose	-9.76413
▁immeuble	-9.76484
▁montr	-9.76606
▁allongée	-9.76803
▁peluche	-9.77137
▁mirror	-9.77145
▁foulard	-9.77147
▁military	-9.7715
▁alley	-9.77316
▁roll	-9.77339
▁kissing	-9.77392
▁jet	-9.77731
▁boissons	-9.78006
▁musical	-9.78088
▁inspect	-9.78131
▁stroller	-9.78228
▁équilibre	-9.78466
▁marcher	-9.78512
▁taureau	-9.79127
▁violon	-9.79139
▁terrasse	-9.79146
▁violin	-9.79147
▁walkway	-9.79165
▁nettoie	-9.79175
▁writing	-9.79193
▁moment	-9.79203
▁screen	-9.79238
▁coucher	-9.79281
▁cinq	-9.79293
▁six	-9.79391
▁écharpe	-9.79415
▁fighting	-9.7953
▁traverser	-9.79603
▁same	-9.79738
▁talk	-9.79759
▁leap	-9.79855
▁comptoir	-9.80142
▁observe	-9.80261
▁shoulder	-9.80279
▁animée	-9.80514
▁tape	-9.80514
▁elles	-9.80591
▁artist	-9.80903
▁position	-9.80966
▁lap	-9.81028
▁chauve	-9.81186
▁sunset	-9.81187
▁recouvert	-9.81277
▁Ce	-9.81395
▁boue	-9.81403
▁clients	-9.81455
▁tableau	-9.81515
▁pelle	-9.81577
▁amis	-9.81603
▁employé	-9.8202
▁electric	-9.82045
▁runner	-9.82357
▁boisson	-9.82414
▁waits	-9.82461
▁so	-9.82875
▁pre	-9.82934
▁h	-9.82966
▁attrape	-9.83051
▁coloré	-9.83158
▁roule	-9.83226
▁barefoot	-9.8327
▁mariage	-9.8327
▁affiche	-9.83284
up	-9.8329
▁waving	-9.83335
▁gym	-9.83381
▁tasse	-9.84224
▁policiers	-9.84416
▁écran	-9.84967
ans	-9.85132
▁close	-9.85204
▁randonnée	-9.85397
▁club	-9.85397
▁rousse	-9.85398
▁ciment	-9.85407
▁row	-9.85517
▁wheel	-9.85524
▁females	-9.85592
▁jette	-9.85898
▁spray	-9.85937
▁vole	-9.85998
▁mariée	-9.8617
escalade	-9.86189
top	-9.86404
▁profite	-9.86523
▁brandi	-9.86563
▁transport	-9.86639
▁cravate	-9.86675
▁avoir	-9.86711
▁officer	-9.86753
▁seul	-9.86786
▁conduit	-9.86935
▁In	-9.87299
▁gi	-9.87566
▁promenant	-9.87585
▁urban	-9.87631
▁father	-9.87644
▁volley	-9.87689
▁signs	-9.877
▁rassemblées	-9.87713
▁says	-9.87757
▁cordes	-9.87784
▁fond	-9.87821
▁blowing	-9.87894
▁voie	-9.87982
▁York	-9.88005
▁bubbles	-9.88024
▁Cet	-9.88043
▁outfits	-9.88106
▁équipes	-9.88202
▁effectu	-9.88242
▁touche	-9.8832
▁cuir	-9.88705
pom	-9.88759
▁U	-9.88819
▁électrique	-9.88848
▁coureur	-9.88902
▁va	-9.88969
▁sell	-9.89123
▁profit	-9.89318
▁dents	-9.89334
▁seen	-9.89415
▁bald	-9.89561
▁chemis	-9.89605
▁vive	-9.89757
▁garage	-9.89799
▁happy	-9.89807
▁leather	-9.89836
▁meat	-9.89856
▁life	-9.89879
▁hole	-9.89961
▁skating	-9.90238
▁couché	-9.90249
▁examin	-9.90285
▁surfe	-9.90447
▁coureurs	-9.90732
▁makes	-9.90747
▁trou	-9.90751
▁O	-9.90766
▁grimpe	-9.90922
▁balloons	-9.90966
▁leg	-9.90985
▁miroir	-9.91054
▁swim	-9.91117
▁rit	-9.91149
▁escalator	-9.91384
▁chat	-9.91487
board	-9.91579
▁métal	-9.91951
▁hang	-9.92026
▁passage	-9.92034
▁jockey	-9.92062
▁Construction	-9.92066
▁foreground	-9.92066
▁site	-9.92078
▁protection	-9.92113
ous	-9.92128
▁brightly	-9.92209
▁alone	-9.92286
▁five	-9.9242
▁desert	-9.92498
▁helping	-9.92545
▁musicians	-9.92559
▁paroi	-9.92708
▁lights	-9.92922
▁local	-9.93079
▁hoop	-9.9346
▁magazine	-9.93475
▁motard	-9.93476
▁effectue	-9.93747
▁streets	-9.93783
▁mud	-9.93879
▁image	-9.94207
▁surplomb	-9.94258
▁jus	-9.94348
▁monsieur	-9.94389
▁endormi	-9.9439
▁headphones	-9.94408
▁asleep	-9.9442
▁canoe	-9.94464
▁suspendu	-9.94475
▁goal	-9.94512
▁float	-9.94517
▁well	-9.9455
ive	-9.94571
▁oiseau	-9.94777
▁give	-9.9486
▁fume	-9.949
▁umbrellas	-9.94981
▁Quelque	-9.95116
ère	-9.9512
▁jouets	-9.95298
▁legs	-9.95325
▁rest	-9.95478
▁made	-9.95556
ter	-9.95564
m	-9.95702
▁wagon	-9.95761
▁n	-9.95926
▁bea	-9.96098
▁fl	-9.96498
▁photograph	-9.96596
▁avion	-9.96644
▁office	-9.96701
tries	-9.9673
▁prairie	-9.96768
▁stadium	-9.96768
▁viande	-9.96768
▁promenade	-9.9677
▁discutant	-9.96771
▁brush	-9.96777
▁doorway	-9.96788
▁écouteurs	-9.96812
▁sandals	-9.96865
▁stade	-9.96879
ng	-9.97096
▁leash	-9.97126
▁danseuse	-9.97163
▁drive	-9.97259
▁diving	-9.97453
▁équipement	-9.97524
▁pom	-9.97736
▁ne	-9.97764
▁bo	-9.97839
or	-9.98228
▁plant	-9.98528
▁manège	-9.99206
▁accordion	-9.99208
▁stuff	-9.99209
▁rangée	-9.99221
▁projet	-9.99223
▁video	-9.99251
▁profonde	-9.99268
▁sandales	-9.99286
▁multicolored	-9.99351
▁falling	-9.99578
▁sh	-9.99597
▁pierres	-9.99626
▁tube	-9.99646
▁swings	-9.99788
▁mat	-9.99872
▁sticks	-9.99882
▁souriante	-10.0003
▁officers	-10.0024
▁orchestre	-10.0031
▁oriental	-10.0052
▁désert	-10.0054
▁speak	-10.0065
▁laptop	-10.0079
▁drawing	-10.008
▁photographer	-10.0089
▁way	-10.0098
▁teenage	-10.016
▁kaki	-10.017
▁church	-10.0171
▁shallow	-10.0171
▁traffic	-10.0171
▁batte	-10.018
▁tourne	-10.0194
▁Worker	-10.0195
▁ruelle	-10.0203
petit	-10.0212
arbre	-10.0217
▁cat	-10.0235
▁épaules	-10.0235
▁faces	-10.0237
▁cou	-10.0249
▁w	-10.0253
▁ba	-10.0276
▁climb	-10.0302
ombre	-10.0302
▁cano	-10.0309
▁skiing	-10.0331
▁vide	-10.0335
▁fun	-10.0343
▁toys	-10.0374
▁plonge	-10.042
▁fa	-10.0423
▁digging	-10.0427
▁quartier	-10.0427
▁below	-10.0428
▁heads	-10.0438
▁pays	-10.0449
▁garden	-10.0468
▁sled	-10.0471
▁hammer	-10.0475
▁pond	-10.0478
▁plantes	-10.0479
▁barre	-10.0483
ayant	-10.0497
▁project	-10.0515
▁drum	-10.0545
▁brosse	-10.059
▁mouvement	-10.0598
▁raquette	-10.0598
ish	-10.06
▁signe	-10.0603
▁barrière	-10.0613
▁friend	-10.0625
▁action	-10.0642
▁entourée	-10.0653
▁vin	-10.0653
▁village	-10.069
▁silhouette	-10.069
▁laboratoire	-10.069
▁hoodie	-10.0691
▁hugging	-10.0692
aving	-10.0692
▁représentant	-10.0693
▁tuyau	-10.0697
▁upside	-10.0699
▁brunette	-10.0699
▁dreadlocks	-10.0701
▁van	-10.0701
▁taxi	-10.0708
▁relaxing	-10.0712
▁peut	-10.0716
▁vestes	-10.0725
▁réunis	-10.0733
▁pouss	-10.0749
▁mural	-10.0752
▁objets	-10.0758
qu	-10.0759
▁fans	-10.076
éloigne	-10.0774
au	-10.0814
▁penché	-10.0827
▁includ	-10.0857
▁divers	-10.0859
▁block	-10.0863
▁tronc	-10.0866
▁stunt	-10.0867
▁multicolore	-10.0868
▁participant	-10.0884
▁dé	-10.0885
ding	-10.0893
▁endroit	-10.0896
eurs	-10.0905
enfant	-10.0908
▁cloud	-10.0914
▁sandwich	-10.0944
▁BM	-10.0959
▁virage	-10.096
▁poubelle	-10.096
▁sauvetage	-10.096
▁Christmas	-10.096
▁télescope	-10.096
▁Chinese	-10.0961
▁combat	-10.0962
▁assiette	-10.0968
▁golden	-10.0971
▁tir	-10.0974
▁sweeping	-10.0977
▁sleeps	-10.0981
aide	-10.0983
▁énorme	-10.0985
▁courir	-10.099
▁move	-10.0998
k	-10.1005
▁start	-10.1029
▁dancers	-10.1032
▁cafe	-10.1035
▁ét	-10.1049
▁bordée	-10.1059
▁accroupi	-10.1065
▁males	-10.1067
hiking	-10.1115
A	-10.1138
▁singer	-10.1145
▁parachute	-10.1146
▁boîte	-10.1151
▁escalad	-10.1153
▁caisse	-10.1155
▁courts	-10.1165
▁daughter	-10.117
▁string	-10.1184
arts	-10.1193
▁blow	-10.1193
▁dessin	-10.1228
▁bâtons	-10.1231
▁Guy	-10.1237
▁karaté	-10.1238
▁sieste	-10.1238
▁telescope	-10.1238
▁teeth	-10.1238
▁tissu	-10.1239
▁patio	-10.1239
▁cadre	-10.1239
▁fumant	-10.124
▁flies	-10.1241
▁cérémonie	-10.1241
▁ruban	-10.1241
▁conversing	-10.1242
▁batteur	-10.1243
▁basketteur	-10.1246
▁hose	-10.1249
▁ruisseau	-10.125
▁vendre	-10.1254
ucoup	-10.1259
▁quad	-10.1272
▁trunks	-10.1273
▁nageant	-10.1281
▁travailler	-10.1288
▁resting	-10.1296
▁passes	-10.1297
▁colorée	-10.1302
▁points	-10.1321
ids	-10.1322
▁plants	-10.1336
▁allée	-10.1369
▁agent	-10.138
▁balustrade	-10.1415
▁produit	-10.1437
▁jambe	-10.1449
▁lone	-10.1466
▁ring	-10.147
▁adolescents	-10.1473
▁pique	-10.1498
▁pier	-10.1522
▁studio	-10.1523
▁Black	-10.1524
▁cricket	-10.1524
ty	-10.1524
▁nettoyant	-10.1524
▁underneath	-10.1524
▁karate	-10.1525
▁racket	-10.1525
▁façon	-10.1525
▁wrestling	-10.1526
▁cold	-10.1537
▁Voic	-10.154
▁splashing	-10.154
▁remorque	-10.154
▁intersection	-10.1543
▁town	-10.1555
▁promènent	-10.1556
▁held	-10.157
▁bol	-10.1575
ure	-10.1576
▁shoe	-10.158
ie	-10.1581
▁eat	-10.1626
ge	-10.1648
▁mid	-10.1678
▁étudiants	-10.1687
▁stack	-10.1701
▁En	-10.1724
▁how	-10.1728
américain	-10.1739
▁escaliers	-10.1757
▁vi	-10.1772
▁commercial	-10.179
ième	-10.1808
▁stroll	-10.1811
▁straw	-10.1812
▁picnic	-10.1818
▁soirée	-10.1818
▁campagne	-10.1818
▁solitaire	-10.1818
▁themselves	-10.1818
▁roulettes	-10.1818
▁curly	-10.1818
▁coats	-10.1818
▁dinner	-10.182
▁gymnase	-10.1822
▁paille	-10.1824
▁hall	-10.183
▁motifs	-10.1836
ez	-10.1838
▁enneigé	-10.186
▁gate	-10.186
▁cercle	-10.1867
▁cyclist	-10.1879
▁seem	-10.1888
▁balaie	-10.1893
▁rient	-10.1893
▁piétons	-10.1898
ation	-10.1913
▁cloth	-10.1915
▁card	-10.1915
lying	-10.194
▁seule	-10.1941
▁cane	-10.1946
▁voir	-10.1948
▁shoulders	-10.1951
▁style	-10.1969
▁G	-10.1972
▁partage	-10.1978
▁déplace	-10.1979
▁chinois	-10.1989
forme	-10.1992
▁tend	-10.2
▁gardien	-10.2011
▁lumière	-10.2029
▁hiker	-10.2034
▁vol	-10.204
▁roue	-10.2047
▁kiss	-10.2048
arrête	-10.207
▁toute	-10.2081
accordéon	-10.2096
▁dirige	-10.2104
▁stream	-10.2109
eaux	-10.2114
▁chase	-10.2118
ion	-10.212
▁façade	-10.2121
▁carnival	-10.2121
▁wetsuit	-10.2121
▁crosswalk	-10.2121
▁kind	-10.2121
▁fresque	-10.2122
▁produce	-10.2122
▁heavy	-10.2122
▁makeup	-10.2123
▁voit	-10.213
▁partie	-10.2139
appuie	-10.2139
▁crying	-10.214
▁nez	-10.2141
▁descendent	-10.2144
▁wooded	-10.2145
us	-10.2155
▁roux	-10.216
▁formal	-10.216
▁voile	-10.2161
▁co	-10.2161
▁couper	-10.2162
▁individuals	-10.2179
▁taken	-10.2198
▁deep	-10.2204
▁lumières	-10.2213
▁pla	-10.2215
▁riant	-10.2228
▁bondée	-10.2229
▁knee	-10.2229
▁colorées	-10.2242
▁not	-10.2247
▁gymnaste	-10.2267
▁infant	-10.2295
▁doigts	-10.2303
▁mix	-10.2319
ordinateur	-10.2321
▁marié	-10.2324
▁gonflable	-10.2338
▁parasol	-10.234
▁militaire	-10.2342
▁nose	-10.2353
th	-10.2362
▁performer	-10.2365
▁cherche	-10.2366
f	-10.2374
▁slope	-10.2377
▁E	-10.2393
▁aide	-10.2407
▁oppos	-10.2419
▁trash	-10.2433
▁jungle	-10.2433
eur	-10.2433
▁professional	-10.2434
▁center	-10.2434
▁discussion	-10.2435
▁nice	-10.2436
▁balanc	-10.2437
▁plat	-10.2438
▁lunch	-10.2456
▁sewing	-10.2458
▁roulent	-10.2465
▁covering	-10.2469
▁tricks	-10.2472
▁pigeons	-10.2473
▁queue	-10.2474
▁members	-10.2479
▁driver	-10.2481
▁fall	-10.2483
▁closed	-10.2483
▁bout	-10.2485
▁pe	-10.2486
▁Dog	-10.2503
▁finish	-10.2505
▁soldats	-10.2508
▁lab	-10.2513
▁chevauche	-10.2535
cette	-10.2546
at	-10.2547
▁mov	-10.256
▁nouveau	-10.2565
▁practice	-10.2579
▁têtes	-10.2603
▁ch	-10.2624
▁patient	-10.2639
▁balcon	-10.2641
▁bondé	-10.2642
▁urbain	-10.2642
▁button	-10.2647
▁gare	-10.2649
▁baskets	-10.2658
▁square	-10.2659
▁adverse	-10.2663
▁booth	-10.2664
▁pompier	-10.2665
▁randonneur	-10.2665
▁hauts	-10.2666
▁gun	-10.2669
▁circle	-10.2675
▁répare	-10.2677
▁log	-10.2684
tant	-10.2689
▁R	-10.269
▁patin	-10.2696
ndis	-10.2701
▁fight	-10.2709
▁pin	-10.2717
▁guitariste	-10.2723
▁gril	-10.2728
nique	-10.2738
▁écoute	-10.275
▁marteau	-10.2755
▁himself	-10.2756
▁third	-10.2756
▁achète	-10.2758
▁lanceur	-10.2761
▁derby	-10.2762
▁speed	-10.2764
▁balcony	-10.2764
▁manteaux	-10.2772
▁jetée	-10.2775
▁montent	-10.2804
▁dances	-10.2805
avant	-10.2808
▁souffle	-10.283
▁print	-10.2831
▁opening	-10.2838
▁randonneurs	-10.2848
▁église	-10.2855
▁jambes	-10.287
▁prêt	-10.2893
▁pois	-10.2895
▁ressemble	-10.2913
▁pavé	-10.2948
▁sourire	-10.2974
▁vache	-10.2993
▁hautes	-10.2997
▁athlete	-10.2997
▁device	-10.3005
▁neck	-10.3009
▁indoor	-10.3017
▁shav	-10.3031
▁eye	-10.3081
▁balls	-10.3081
▁intérieur	-10.3082
▁tabouret	-10.3089
▁staircase	-10.3089
▁monticule	-10.3089
▁travaux	-10.3089
▁supermarché	-10.3089
▁monde	-10.3089
▁bagages	-10.3091
▁rassemblés	-10.3096
▁parcours	-10.3096
▁poutre	-10.3099
▁écoutant	-10.31
▁langue	-10.31
ny	-10.3109
▁camping	-10.3127
▁chanteur	-10.3128
▁traditionnels	-10.3138
▁montant	-10.3139
▁deck	-10.3147
▁boxes	-10.3155
▁plateau	-10.316
▁cha	-10.3167
▁vie	-10.3167
▁indienne	-10.3186
onto	-10.3187
▁appuyé	-10.3196
▁frapp	-10.3217
▁most	-10.3221
▁repair	-10.3229
g	-10.3252
▁gymnast	-10.327
▁perche	-10.3278
▁pantalons	-10.3282
▁end	-10.3291
▁grind	-10.3293
onnant	-10.331
▁piéton	-10.3337
▁use	-10.3341
▁tatouage	-10.3342
▁poster	-10.3346
▁sheet	-10.335
▁musicien	-10.3352
▁chefs	-10.3375
▁produis	-10.3377
▁frame	-10.342
covered	-10.3423
▁film	-10.3433
▁salto	-10.3433
▁couloir	-10.3434
▁grocery	-10.3434
▁garb	-10.3434
▁publique	-10.3434
▁gentlemen	-10.3434
▁puddle	-10.3434
▁circulation	-10.3434
▁fresh	-10.3434
▁heureux	-10.3437
▁fallen	-10.3441
less	-10.3458
▁e	-10.3462
z	-10.3466
▁direct	-10.3472
▁overalls	-10.3475
semblent	-10.3476
▁couverte	-10.3488
▁chantent	-10.35
▁paved	-10.3528
▁bon	-10.3535
▁livres	-10.3546
▁blocks	-10.3549
▁couvre	-10.3549
▁swims	-10.3575
▁accroché	-10.3596
▁balai	-10.3598
▁J	-10.3615
▁pain	-10.3619
urs	-10.3656
▁porch	-10.3668
▁admir	-10.3668
▁arrêt	-10.367
▁post	-10.3676
▁waterfall	-10.3681
▁fair	-10.3682
▁pitcher	-10.3697
▁cavalier	-10.3698
▁guard	-10.3699
▁conduis	-10.3713
▁carton	-10.3734
réparer	-10.3739
▁dancer	-10.3756
ar	-10.3766
▁travel	-10.3767
▁I	-10.3771
mall	-10.3774
▁haute	-10.3775
▁épaule	-10.3782
▁steep	-10.3783
▁palm	-10.3788
▁curb	-10.3789
▁vidéo	-10.3789
▁laundry	-10.3791
▁salopette	-10.3791
▁coté	-10.3792
▁gamin	-10.3792
▁airplane	-10.3792
▁passerelle	-10.3793
affrontent	-10.3795
▁dorm	-10.3798
▁flight	-10.38
▁luge	-10.3803
▁ledge	-10.3806
▁cape	-10.3807
▁professionnelle	-10.3816
▁round	-10.3816
▁étang	-10.3817
▁stool	-10.3818
ight	-10.3827
▁load	-10.3832
▁customers	-10.3834
▁comment	-10.3837
▁opposi	-10.3843
▁fingers	-10.3846
▁marching	-10.385
▁climber	-10.3853
▁lay	-10.3855
▁pitch	-10.386
▁jour	-10.3874
ce	-10.3878
▁teenagers	-10.3881
▁militaires	-10.3896
▁hikers	-10.3898
▁tombe	-10.3901
▁books	-10.3916
▁peau	-10.3929
▁nature	-10.3963
▁birds	-10.3966
▁chain	-10.4003
▁kicks	-10.4008
▁foncée	-10.4021
▁mouillé	-10.404
▁plaque	-10.4049
men	-10.4062
▁khaki	-10.4066
▁rollers	-10.4076
▁ouvre	-10.4081
▁teenager	-10.4083
appareil	-10.409
▁chemises	-10.4092
▁athlète	-10.4093
▁volant	-10.4096
▁pipe	-10.4097
▁present	-10.4105
▁machines	-10.4106
▁parapluies	-10.4111
▁peign	-10.4125
▁clear	-10.413
▁câlin	-10.414
▁cadeau	-10.4158
▁VTT	-10.4159
▁pyjama	-10.4159
▁fabric	-10.4159
▁imposant	-10.4159
▁denim	-10.4159
▁bandana	-10.416
▁backyard	-10.416
▁chaussette	-10.416
▁flaque	-10.416
▁cuisinier	-10.4161
▁paddling	-10.4162
▁Here	-10.4165
▁humide	-10.4166
▁attached	-10.4168
amusent	-10.4169
▁éclaboussures	-10.4175
▁evening	-10.4175
▁pattes	-10.4179
▁touristes	-10.4192
▁shooting	-10.4198
▁arena	-10.4199
▁tee	-10.4215
▁tracks	-10.4249
▁bend	-10.4272
▁colors	-10.4278
▁tenir	-10.4278
▁pr	-10.4286
▁lies	-10.4289
ssant	-10.4294
▁jolie	-10.431
▁laugh	-10.4322
▁camp	-10.4332
és	-10.4344
sant	-10.4345
▁gliss	-10.4352
▁ship	-10.4356
▁crouche	-10.4357
▁shoot	-10.4365
▁nap	-10.4405
▁windows	-10.4407
▁raft	-10.4408
▁chevauch	-10.4431
▁lasso	-10.4435
▁tongue	-10.4437
▁mound	-10.4439
▁chambre	-10.444
▁keyboard	-10.444
▁rambarde	-10.4444
▁serviette	-10.4447
▁wheelchair	-10.4447
▁alimentaire	-10.4448
▁soldat	-10.4453
▁siège	-10.4455
▁cage	-10.4464
▁floral	-10.4465
▁ami	-10.4477
▁été	-10.4483
ts	-10.4497
▁éta	-10.4498
▁argent	-10.4499
▁attaché	-10.4517
▁plane	-10.4519
▁file	-10.4519
▁feuille	-10.4521
▁inflatable	-10.4544
▁soulève	-10.4544
▁attentivement	-10.4544
▁pavement	-10.4544
▁Child	-10.4544
▁Japan	-10.4544
▁luggage	-10.4545
▁rues	-10.4546
▁rayures	-10.4546
▁warm	-10.4549
▁chaîne	-10.455
▁balade	-10.4553
▁dîner	-10.4558
▁différents	-10.4559
▁poles	-10.4566
▁regard	-10.457
h	-10.4582
été	-10.4591
amusant	-10.4593
▁shade	-10.4596
▁cones	-10.4616
▁articles	-10.4616
▁V	-10.4621
la	-10.4626
▁fenced	-10.4632
▁live	-10.4641
▁arbitre	-10.4655
▁fer	-10.4665
▁tile	-10.4673
▁waters	-10.4673
▁agenouillé	-10.4679
▁wine	-10.4684
isant	-10.4691
▁directions	-10.4727
▁pointe	-10.4774
▁serre	-10.4776
▁ear	-10.4777
▁r	-10.4808
▁bandanna	-10.4832
▁fan	-10.4838
▁cook	-10.4838
▁hurdle	-10.484
▁container	-10.4842
▁motos	-10.4843
▁tricycle	-10.4847
▁bottom	-10.4848
▁portrait	-10.485
▁swimsuit	-10.4851
▁décor	-10.4878
▁tub	-10.4913
▁verres	-10.4913
oit	-10.4916
▁éclairée	-10.4937
▁record	-10.4937
▁radeau	-10.4943
▁monument	-10.4944
▁clavier	-10.4944
▁married	-10.4944
▁railroad	-10.4944
▁tractor	-10.4944
▁boivent	-10.4944
▁joyeusement	-10.4944
▁courtyard	-10.4945
▁goalie	-10.4945
▁rassemblement	-10.4945
▁Santa	-10.4945
▁model	-10.495
▁berger	-10.4951
▁sea	-10.4951
▁juggling	-10.4951
and	-10.4953
▁referee	-10.4954
▁fast	-10.4954
▁conférence	-10.4955
▁tracteur	-10.4958
▁landscape	-10.4965
▁H	-10.4965
▁boire	-10.4965
▁descendre	-10.4967
▁frisé	-10.497
tre	-10.4971
▁indien	-10.4972
▁nouvelle	-10.4975
▁buying	-10.4976
▁name	-10.4987
ian	-10.4997
▁chest	-10.5004
▁compete	-10.5007
atteindre	-10.501
C	-10.5011
▁seat	-10.5015
eign	-10.5015
▁branches	-10.5025
like	-10.5028
entrée	-10.5033
rs	-10.5045
▁laughs	-10.5045
▁nageur	-10.5053
▁passer	-10.5057
▁footballeurs	-10.5063
▁surfant	-10.5072
▁linge	-10.5086
▁outils	-10.5093
▁discuss	-10.5094
▁W	-10.5109
yant	-10.5112
▁mélange	-10.512
▁pit	-10.512
▁fill	-10.5129
▁déserte	-10.5132
talons	-10.5147
▁eats	-10.5148
▁appréci	-10.5237
▁fréquenté	-10.5245
▁pancartes	-10.5248
▁skirts	-10.5253
▁low	-10.5258
▁trottinette	-10.526
▁publicité	-10.5264
▁towel	-10.5266
▁soldier	-10.5269
▁musician	-10.5271
▁footballeur	-10.5283
▁rame	-10.5301
élèves	-10.5305
▁ha	-10.5312
▁bouquet	-10.5359
▁acousti	-10.536
▁allemand	-10.536
▁yoga	-10.536
▁banjo	-10.536
▁happily	-10.536
▁chaussée	-10.536
▁natation	-10.5361
▁adjust	-10.5361
▁casual	-10.5361
▁ceinture	-10.5361
▁camionnette	-10.5361
▁marketplace	-10.5361
▁poussière	-10.5361
▁chacun	-10.5361
▁carriage	-10.5361
▁garbage	-10.5361
▁acoustique	-10.5362
▁blouson	-10.5362
▁feed	-10.5362
▁coudre	-10.5362
▁carpet	-10.5363
▁ambulant	-10.5363
▁sapin	-10.5365
▁pajamas	-10.5367
▁bucking	-10.5368
▁socks	-10.5373
▁Male	-10.5376
▁fai	-10.5377
▁backwards	-10.538
▁scaffolding	-10.5381
▁fermés	-10.5384
▁cheering	-10.5385
▁bread	-10.5389
▁adversaire	-10.5389
▁touching	-10.5397
line	-10.5404
▁shape	-10.5404
merican	-10.5409
▁prise	-10.5413
▁lead	-10.5414
▁hay	-10.5416
▁alpiniste	-10.5419
ither	-10.5425
▁wind	-10.5427
▁goods	-10.5432
▁parents	-10.5435
▁tools	-10.545
▁vast	-10.545
▁soldiers	-10.5453
▁fly	-10.5454
▁step	-10.5459
▁motorcycles	-10.5467
▁you	-10.5473
▁caresse	-10.5481
▁shown	-10.549
apprêt	-10.5494
▁mustache	-10.5496
▁protecti	-10.5497
▁moves	-10.5514
side	-10.5523
▁support	-10.5527
▁magazines	-10.5528
▁pair	-10.5546
▁pratique	-10.5588
▁wrappe	-10.5595
S	-10.5611
skinn	-10.5619
▁mais	-10.5627
▁jerseys	-10.563
▁mo	-10.5648
▁riders	-10.5655
▁brillant	-10.5669
▁shin	-10.5679
▁rural	-10.568
▁béret	-10.5692
▁circuit	-10.5695
▁advertisement	-10.57
▁serr	-10.5702
▁kilt	-10.5703
ies	-10.5707
▁groom	-10.5707
▁bubble	-10.5709
▁unique	-10.5722
▁map	-10.5742
ic	-10.5743
▁sheep	-10.5793
▁German	-10.5795
▁athletic	-10.5795
▁corpulent	-10.5795
▁gradins	-10.5795
▁mannequin	-10.5795
▁turquoise	-10.5795
▁plaza	-10.5795
▁caught	-10.5796
▁rebord	-10.5796
▁White	-10.5796
▁stove	-10.5796
▁airport	-10.5797
▁pagaie	-10.5797
▁underwater	-10.5798
▁composé	-10.58
▁welding	-10.5801
▁discuter	-10.5802
sleeved	-10.5804
▁teacher	-10.5806
▁bassin	-10.5812
▁serving	-10.5812
▁pouce	-10.5816
▁mobile	-10.5817
▁buissons	-10.5818
▁harness	-10.582
▁peace	-10.5826
▁dining	-10.5828
▁battant	-10.5832
argent	-10.5834
▁raised	-10.5837
▁arène	-10.5839
▁foin	-10.5844
▁blocs	-10.5845
embrassant	-10.585
▁coach	-10.5855
▁living	-10.5859
▁mord	-10.5867
▁tirer	-10.5869
▁dry	-10.5875
▁repos	-10.5898
▁posé	-10.5905
volant	-10.5942
ping	-10.5951
way	-10.5967
▁vives	-10.5969
▁shak	-10.597
▁cartes	-10.5986
▁poissons	-10.6016
▁participat	-10.6034
amp	-10.6044
▁paints	-10.6069
▁poil	-10.6091
▁ajuste	-10.6101
▁i	-10.6126
fully	-10.6132
P	-10.6138
▁animals	-10.6153
▁turban	-10.6155
▁gobelet	-10.6156
▁student	-10.6158
▁échafaudage	-10.6171
ew	-10.6188
▁soude	-10.6192
▁étan	-10.6214
▁kiosque	-10.625
▁manifestation	-10.625
▁adossé	-10.625
▁polka	-10.625
▁plafond	-10.625
▁téléphonique	-10.625
▁haircut	-10.625
▁Street	-10.625
▁nettoyer	-10.625
▁native	-10.625
▁gravel	-10.6251
▁fluo	-10.6251
▁st	-10.6254
▁half	-10.626
▁tongs	-10.6261
▁operating	-10.6262
▁mom	-10.6262
▁identiques	-10.6265
▁bateaux	-10.6268
▁glaces	-10.6272
▁hooded	-10.6273
▁rire	-10.6274
▁backpacks	-10.6276
▁engage	-10.6281
▁marchandises	-10.6287
▁hood	-10.6287
▁pris	-10.63
▁graviss	-10.6307
▁pêcheur	-10.6339
▁boats	-10.6343
▁cabine	-10.6349
▁herbes	-10.6354
lays	-10.6366
▁ordures	-10.6375
adultes	-10.6376
▁arrive	-10.638
▁thrown	-10.6381
attractions	-10.6388
▁skateboards	-10.6398
▁ramass	-10.6399
▁ancien	-10.6406
▁colle	-10.6408
▁savoure	-10.641
▁multicolores	-10.6415
▁wa	-10.6424
▁grilling	-10.6429
▁runners	-10.6454
▁tiré	-10.6456
▁walls	-10.6472
▁éclairé	-10.6483
▁pro	-10.6495
▁ouvert	-10.6511
▁bouteilles	-10.6515
▁fin	-10.6532
uvre	-10.6533
▁murs	-10.6535
▁peer	-10.6541
vant	-10.6578
▁pack	-10.6579
▁droit	-10.6605
▁rang	-10.6609
▁routine	-10.6613
▁publicitaire	-10.6621
▁opponent	-10.6628
▁étranger	-10.663
▁magnifique	-10.663
▁visages	-10.6631
né	-10.6632
▁chaussure	-10.6633
▁ordinateurs	-10.6635
▁individual	-10.6636
▁bordé	-10.6649
▁flottant	-10.665
▁touch	-10.6655
▁wire	-10.6676
▁wi	-10.6693
▁protest	-10.6702
pt	-10.6711
▁pleure	-10.6722
▁ATV	-10.6726
▁auditorium	-10.6726
▁pizza	-10.6726
▁récipient	-10.6726
▁vitesse	-10.6726
▁discours	-10.6726
▁bathroom	-10.6726
▁headscarf	-10.6726
▁presentation	-10.6726
▁hallway	-10.6726
▁DJ	-10.6727
▁orchestra	-10.6727
▁youth	-10.6727
▁probabl	-10.6728
▁déjeuner	-10.6728
▁candy	-10.6729
▁gazon	-10.6729
▁ressemblant	-10.6729
▁cuisinant	-10.6731
▁danseurs	-10.6733
▁commence	-10.6734
▁lacrosse	-10.6735
▁dormir	-10.6736
▁redhead	-10.6736
ked	-10.6737
▁sink	-10.6737
▁heels	-10.6739
▁things	-10.6739
▁Europe	-10.6741
▁money	-10.6742
▁checkered	-10.6742
▁spread	-10.6744
▁charge	-10.6745
▁pedestrians	-10.6749
▁allongés	-10.6749
▁wide	-10.6749
▁toucher	-10.6751
arrow	-10.6754
▁tomber	-10.6757
▁passagers	-10.6762
▁farm	-10.6768
origine	-10.6779
me	-10.6785
▁approach	-10.6792
p	-10.6798
▁cônes	-10.6803
▁fleur	-10.6809
red	-10.6811
▁cover	-10.6812
▁jongle	-10.6822
▁frais	-10.6824
▁rafting	-10.683
▁menu	-10.6831
▁Sur	-10.6834
▁sièges	-10.6841
▁cartons	-10.6851
▁po	-10.6851
école	-10.6871
▁sleeve	-10.6874
▁dit	-10.6875
O	-10.6875
▁oiseaux	-10.6877
▁motards	-10.6918
▁cyclists	-10.6923
▁photographs	-10.6937
▁ca	-10.695
▁benches	-10.696
▁types	-10.6978
▁attrap	-10.6978
▁mudd	-10.6987
▁construis	-10.6994
▁aid	-10.7005
▁interact	-10.701
▁vehicles	-10.7013
▁fil	-10.7018
▁cone	-10.7037
down	-10.704
▁aire	-10.7049
▁pan	-10.7053
▁fauteuils	-10.7063
▁ramasse	-10.7073
▁danser	-10.7074
ufs	-10.7087
ped	-10.7099
▁drummer	-10.7113
issant	-10.7121
▁gant	-10.7126
▁jumpsuit	-10.7132
▁soda	-10.714
▁pré	-10.7148
▁design	-10.7149
▁ropes	-10.717
▁tool	-10.7182
▁craft	-10.7205
▁grab	-10.7206
▁heart	-10.7211
▁ballet	-10.7219
▁contrôle	-10.7226
▁harnais	-10.7226
▁lévrier	-10.7226
▁vététiste	-10.7226
▁télévision	-10.7226
▁blazer	-10.7226
▁speech	-10.7226
▁entrance	-10.7226
▁patinoire	-10.7226
▁Brown	-10.7226
▁racetrack	-10.7226
▁ceiling	-10.7226
▁légèrement	-10.7226
▁badge	-10.7227
▁récupérer	-10.7227
▁trompette	-10.7228
▁tatoué	-10.7228
▁machinery	-10.7229
▁grimpant	-10.7232
▁leaf	-10.7233
embrassent	-10.7234
▁pâte	-10.7235
▁puck	-10.7235
▁hospital	-10.7235
▁pattern	-10.7241
▁policeman	-10.7244
▁summer	-10.7246
▁chaude	-10.7257
américaine	-10.7266
▁aliments	-10.7273
▁relax	-10.7277
▁racer	-10.7284
▁travailleurs	-10.729
▁passengers	-10.7291
▁chanter	-10.7296
▁africains	-10.7305
▁pourchass	-10.7312
▁St	-10.7316
▁préparer	-10.7322
▁stra	-10.7341
▁grille	-10.7343
▁basse	-10.7354
▁guide	-10.7356
▁sword	-10.7362
▁sets	-10.7363
▁prêts	-10.7365
▁snowboarding	-10.7375
▁oreilles	-10.7395
▁animaux	-10.7401
▁planches	-10.7404
▁urbaine	-10.7407
équilibre	-10.7409
▁ears	-10.7411
▁tombé	-10.7422
▁pins	-10.7422
▁ho	-10.7429
▁casquettes	-10.7434
▁we	-10.7446
ate	-10.7456
▁suspende	-10.7457
▁inspecte	-10.7471
▁rests	-10.7475
▁filets	-10.7488
▁overlook	-10.7503
▁doré	-10.7517
voie	-10.7523
▁véhicules	-10.7533
▁sortant	-10.754
▁sha	-10.7547
▁carte	-10.756
▁tag	-10.7566
▁agenouillée	-10.7568
▁tops	-10.7573
▁bancs	-10.7584
▁branche	-10.7591
▁métalliques	-10.7596
▁read	-10.7598
▁si	-10.7608
▁tambour	-10.7618
▁raise	-10.7632
▁froid	-10.7636
▁étrange	-10.7636
▁gravier	-10.764
▁rowing	-10.7641
ful	-10.7643
▁répar	-10.7644
▁trumpet	-10.7648
▁automatique	-10.7651
les	-10.7654
▁beverage	-10.7659
▁formation	-10.7659
▁grimace	-10.766
▁pneu	-10.766
▁cleans	-10.7661
▁glove	-10.7662
▁good	-10.7664
▁visit	-10.7668
▁John	-10.7668
▁boisé	-10.767
▁smoke	-10.7674
▁beam	-10.7675
▁visible	-10.7679
▁tr	-10.7686
▁palet	-10.77
▁bow	-10.7714
▁bear	-10.7726
▁form	-10.7732
▁buy	-10.7734
▁voyage	-10.775
▁per	-10.775
▁détend	-10.7752
▁bibliothèque	-10.7752
▁museum	-10.7752
▁ornate	-10.7752
▁quarterback	-10.7752
▁Blond	-10.7752
▁donkey	-10.7752
▁alignés	-10.7752
▁Crowd	-10.7752
▁herself	-10.7752
▁chanson	-10.7752
▁crête	-10.7752
▁peindre	-10.7753
▁boardwalk	-10.7753
▁accident	-10.7753
▁rapidement	-10.7753
▁possibly	-10.7753
▁horseback	-10.7754
▁paix	-10.7755
▁spinning	-10.7755
▁hillside	-10.7755
▁stopped	-10.7756
▁lave	-10.7756
▁rais	-10.7756
▁aérienne	-10.7757
▁african	-10.7757
ll	-10.7758
▁achet	-10.776
▁boueuse	-10.776
▁bushes	-10.7762
▁musée	-10.7763
▁moteur	-10.7769
▁chanteuse	-10.7771
▁Red	-10.7773
ière	-10.7786
▁incendie	-10.7787
▁keep	-10.7794
▁nagent	-10.78
▁maman	-10.7811
▁wrestler	-10.7812
cuba	-10.782
▁bro	-10.7821
▁partielle	-10.7848
▁paddle	-10.7851
▁crosses	-10.7861
▁color	-10.7875
▁écriv	-10.7887
b	-10.7889
▁flipp	-10.7893
able	-10.7932
▁ballerine	-10.7943
ciel	-10.7948
amis	-10.797
▁serve	-10.7973
▁faux	-10.7974
▁batter	-10.7992
▁pots	-10.8022
▁balles	-10.8033
▁rough	-10.8062
▁géant	-10.8071
quel	-10.8072
▁bikers	-10.8076
▁rails	-10.8084
ry	-10.8105
▁install	-10.811
▁accroupie	-10.8126
ning	-10.8126
▁portables	-10.8144
▁song	-10.8145
▁choses	-10.8157
▁scooters	-10.8163
▁participate	-10.8177
▁tropical	-10.8186
uff	-10.8187
▁slides	-10.8191
pping	-10.8192
▁poitrine	-10.8194
▁couples	-10.8204
des	-10.8208
▁snack	-10.8213
▁motorcyclist	-10.8214
▁vêtement	-10.8218
che	-10.822
▁vitre	-10.8221
accroche	-10.8232
▁cône	-10.8235
▁dust	-10.8235
vent	-10.824
mment	-10.8242
▁cheer	-10.8247
▁moustache	-10.8259
▁réfléchissant	-10.8265
▁enseigne	-10.8274
ns	-10.8291
▁lampe	-10.8299
▁bijoux	-10.8308
▁nautique	-10.8308
▁billard	-10.8308
▁journaux	-10.8308
▁maroon	-10.8308
▁miniature	-10.8308
▁neighborhood	-10.8308
▁Moyen	-10.8308
▁atelier	-10.8308
▁coiffure	-10.8308
▁maquillage	-10.8308
▁tramway	-10.8308
▁carnaval	-10.8308
▁Coca	-10.8308
▁brouette	-10.8308
▁cobble	-10.8308
▁puppy	-10.8308
▁celebrating	-10.8309
▁collection	-10.8309
▁outstretched	-10.8309
▁Homme	-10.831
▁squatting	-10.831
▁sportif	-10.831
▁vu	-10.8311
▁africaine	-10.8311
▁firetruck	-10.8311
▁great	-10.8312
▁cabane	-10.8312
▁flanc	-10.8313
▁fencing	-10.8313
▁foire	-10.8314
▁talent	-10.8314
▁papa	-10.8316
▁panneaux	-10.8317
amuse	-10.8317
▁clay	-10.8319
▁dishes	-10.8323
rubber	-10.8326
▁expression	-10.8326
▁handstand	-10.8328
▁battre	-10.8329
▁mall	-10.8329
▁garde	-10.833
▁service	-10.8345
▁décontractée	-10.8347
▁scouts	-10.8354
▁al	-10.8363
▁entraîneur	-10.8366
▁Texas	-10.8372
▁côtés	-10.8381
▁plongeur	-10.8387
▁farmer	-10.8387
▁plancher	-10.8395
▁semi	-10.8437
▁enter	-10.8445
▁attention	-10.8448
▁creuse	-10.8451
▁seats	-10.8458
▁sculpt	-10.8458
▁converse	-10.8465
▁circule	-10.8487
▁pen	-10.8494
▁indoors	-10.8495
▁marine	-10.8504
▁levant	-10.851
▁dish	-10.8518
occupe	-10.852
▁arc	-10.8525
▁calm	-10.8527
▁ahead	-10.8556
▁Bo	-10.8562
corps	-10.8563
ard	-10.8585
▁bare	-10.86
▁penchée	-10.8601
▁drill	-10.8602
ées	-10.8607
▁américains	-10.8613
▁buckets	-10.8628
▁pa	-10.863
▁dessous	-10.863
▁decorate	-10.8635
▁guitarist	-10.8655
▁bottles	-10.8655
▁étudiant	-10.8657
ally	-10.8664
▁argenté	-10.8664
▁plates	-10.8706
▁dessine	-10.8722
▁mini	-10.8744
▁baril	-10.8752
▁sack	-10.8766
abri	-10.8778
▁couche	-10.8782
ries	-10.8783
▁heureuse	-10.8786
▁professionnel	-10.8789
▁papillon	-10.8791
▁ombrelle	-10.8798
▁fusil	-10.8798
▁doctor	-10.8799
▁storefront	-10.8801
▁cerf	-10.8803
▁swimmer	-10.8804
▁finger	-10.8805
▁chiot	-10.8807
▁broom	-10.8808
▁item	-10.8809
▁belt	-10.8811
▁wakeboard	-10.8818
tte	-10.8825
▁branch	-10.8829
▁br	-10.8835
▁brique	-10.8852
▁microphones	-10.8865
▁pet	-10.8869
▁paire	-10.8878
▁wrestle	-10.8879
▁agit	-10.8889
▁order	-10.8895
▁aquarium	-10.8896
▁montgolfière	-10.8896
▁patauge	-10.8896
▁Square	-10.8896
▁nacelle	-10.8896
▁pinata	-10.8896
▁victoire	-10.8896
▁conducteur	-10.8896
▁calf	-10.8896
▁gymnastique	-10.8896
▁wife	-10.8896
flops	-10.8897
▁scenery	-10.8897
▁chalk	-10.8898
▁admire	-10.8898
▁disput	-10.8901
▁canal	-10.8904
▁ballerina	-10.8905
▁rocheux	-10.8906
▁ventre	-10.8907
▁stretching	-10.8908
▁partout	-10.8908
▁newly	-10.891
▁carving	-10.8912
▁crew	-10.8912
▁tap	-10.8916
▁féminin	-10.892
▁fumée	-10.8921
▁château	-10.8922
▁crouching	-10.8926
▁agite	-10.893
▁odd	-10.8933
▁cheerleaders	-10.8934
▁first	-10.8935
▁choir	-10.8939
▁palmiers	-10.8939
▁space	-10.8942
▁cool	-10.8945
▁ro	-10.8945
go	-10.8947
▁iron	-10.8949
▁stones	-10.8954
▁stripes	-10.8954
▁sortie	-10.8957
▁vente	-10.8967
▁skates	-10.8971
▁stares	-10.8973
▁coloring	-10.8975
▁hugs	-10.8977
▁observent	-10.8978
▁kite	-10.8987
▁crafts	-10.8992
▁amid	-10.8997
▁smokes	-10.8999
▁rink	-10.9001
▁maisons	-10.9002
▁gas	-10.9005
▁hi	-10.9011
▁sing	-10.9025
▁receiv	-10.904
▁boisée	-10.9043
▁attachés	-10.9047
▁Asiatiques	-10.9057
▁tatouages	-10.9057
utiliser	-10.9064
▁boi	-10.9067
▁arme	-10.9074
▁boxing	-10.9078
born	-10.9078
▁roues	-10.9079
▁caisses	-10.9095
▁nav	-10.9096
▁crie	-10.9097
▁filme	-10.9103
▁barres	-10.9108
▁cla	-10.9116
ggy	-10.9125
▁bande	-10.9127
▁pilot	-10.9136
▁apartment	-10.9149
▁rase	-10.9154
▁découpe	-10.9171
as	-10.9175
arbitre	-10.9178
▁hoops	-10.9187
▁knit	-10.9194
▁splashe	-10.92
▁guitars	-10.92
▁tattoos	-10.9204
▁complet	-10.9213
▁images	-10.9216
▁scie	-10.9238
stone	-10.9238
aring	-10.925
▁bowls	-10.9268
▁bit	-10.9278
ue	-10.9295
▁bite	-10.9301
▁paniers	-10.9301
▁reflecti	-10.9305
▁liquid	-10.9309
▁wrap	-10.931
▁lamp	-10.9329
gets	-10.9331
chases	-10.9365
nding	-10.9371
embras	-10.9388
envers	-10.9394
ned	-10.9399
▁sofa	-10.9415
▁crâne	-10.9416
▁traditionnel	-10.9422
▁banderole	-10.9422
▁motorbike	-10.9423
▁individu	-10.9423
▁artistique	-10.9423
▁banner	-10.9426
▁free	-10.9428
▁canard	-10.9428
▁vegetable	-10.9429
▁sprinkler	-10.9432
▁boutique	-10.9434
▁barrel	-10.9442
▁member	-10.9449
▁medic	-10.9452
▁far	-10.9471
▁char	-10.9474
▁sweep	-10.9483
▁mop	-10.9484
▁écossaise	-10.9485
▁draw	-10.9487
▁traîneau	-10.952
pped	-10.952
▁duck	-10.952
honneur	-10.9521
▁caoutchouc	-10.9521
▁cornemuse	-10.9521
▁crépuscule	-10.9521
▁fanfare	-10.9521
▁gymnasium	-10.9521
▁xylophone	-10.9521
▁material	-10.9521
▁monocycle	-10.9521
▁baignoire	-10.9521
▁Middle	-10.9521
▁métier	-10.9521
▁stairway	-10.9521
▁receveur	-10.9521
▁caddie	-10.9521
▁furniture	-10.9521
▁second	-10.9521
▁conference	-10.9521
▁crème	-10.9521
▁dimly	-10.9521
▁greyhound	-10.9522
▁craie	-10.9522
▁jeep	-10.9522
▁partially	-10.9522
▁intently	-10.9522
▁laverie	-10.9522
▁buffet	-10.9522
▁nourrisson	-10.9522
▁nighttime	-10.9522
▁foraine	-10.9522
▁library	-10.9523
▁similar	-10.9523
▁angel	-10.9524
▁parquet	-10.9525
▁bouée	-10.9525
éloignant	-10.9526
▁castle	-10.9527
▁moped	-10.9528
▁poteaux	-10.9529
▁toge	-10.9529
▁crane	-10.953
▁marbre	-10.9531
▁lecture	-10.9534
▁logo	-10.9539
▁benne	-10.954
▁circulant	-10.954
▁flotte	-10.9541
▁tower	-10.9547
▁meeting	-10.9547
▁sèche	-10.9548
▁act	-10.9549
▁écoutent	-10.9551
irthday	-10.9552
arrivée	-10.9552
▁following	-10.9558
▁unicycle	-10.9559
▁immense	-10.9561
ling	-10.9562
▁double	-10.9564
▁bougies	-10.9567
▁clôturée	-10.9578
▁candles	-10.9578
▁déguisés	-10.9581
▁vaisselle	-10.9584
▁bonnets	-10.959
▁propos	-10.9594
▁listens	-10.9595
▁trailer	-10.9596
entraînant	-10.9599
use	-10.9601
Cola	-10.9603
▁muzzle	-10.961
ke	-10.9622
▁pieces	-10.9624
▁moderne	-10.9631
▁cr	-10.9639
▁barber	-10.9639
▁balding	-10.9642
▁toges	-10.9661
ient	-10.9667
▁tied	-10.9674
▁saisi	-10.9679
ncy	-10.968
ken	-10.9692
▁plante	-10.9695
U	-10.97
▁share	-10.9712
▁âne	-10.9712
▁tenu	-10.9732
▁liquide	-10.9737
▁retourne	-10.9744
▁N	-10.9747
▁individus	-10.9748
▁décoré	-10.9749
arge	-10.9749
▁surrounding	-10.9756
▁control	-10.9768
▁voies	-10.9808
▁cast	-10.9809
▁wheels	-10.9812
▁viewing	-10.9813
▁loung	-10.9813
escalier	-10.9825
▁motor	-10.9828
▁saw	-10.9828
▁amuse	-10.984
dessous	-10.9844
ept	-10.9855
▁Girls	-10.9855
▁cache	-10.9856
▁skieurs	-10.9862
▁tackle	-10.9873
illy	-10.9882
juste	-10.9883
▁bandeau	-10.9893
▁dames	-10.9894
▁lounge	-10.9897
our	-10.9908
folding	-10.9909
▁me	-10.9912
▁micros	-10.9936
▁allongées	-10.9944
▁thin	-10.9955
▁protect	-10.9956
▁africain	-10.9956
▁sales	-10.9972
so	-10.9974
▁creus	-10.9985
▁involv	-11.0013
▁doors	-11.0027
▁clowns	-11.0036
▁computers	-11.0038
▁tribal	-11.0049
sert	-11.0051
▁animé	-11.0054
▁gaz	-11.0067
tered	-11.0067
ou	-11.0068
▁seaux	-11.0071
▁modern	-11.0073
▁lampadaire	-11.0073
▁spoon	-11.0076
▁electronic	-11.0087
▁headband	-11.0088
▁elephant	-11.0089
▁scolaire	-11.009
▁poupée	-11.009
▁médecin	-11.0091
▁ribbon	-11.0091
▁valise	-11.0091
▁necklace	-11.0092
▁teammate	-11.0093
▁crayon	-11.0098
▁lines	-11.01
▁geste	-11.01
he	-11.0116
▁Ma	-11.0119
▁City	-11.012
▁col	-11.0126
▁horn	-11.0127
▁objects	-11.0132
▁camel	-11.0133
▁corn	-11.0151
▁chaud	-11.0152
dog	-11.0164
▁discute	-11.0165
ze	-11.017
▁cerceau	-11.0186
escrime	-11.0188
▁London	-11.0188
▁Walmart	-11.0188
▁advertising	-11.0188
▁badauds	-11.0188
▁fraîche	-11.0188
▁professeur	-11.0188
▁stomach	-11.0188
▁jewelry	-11.0188
▁senior	-11.0188
▁destination	-11.0188
▁applaudissent	-11.0188
▁billboard	-11.0188
▁rainbow	-11.0188
▁casino	-11.0188
▁poignée	-11.0188
▁écartés	-11.0188
▁steel	-11.0188
▁celui	-11.0188
▁pistolet	-11.0188
▁television	-11.0189
▁région	-11.0189
▁réunissent	-11.0189
▁voilier	-11.0189
▁return	-11.0189
▁forward	-11.019
▁consist	-11.0191
▁enveloppé	-11.0191
▁called	-11.0191
▁flute	-11.0192
▁trench	-11.0192
▁tombant	-11.0192
▁leggings	-11.0192
▁bundle	-11.0193
▁observing	-11.0194
▁marquer	-11.0195
▁détendent	-11.0197
▁bonbons	-11.0198
ooks	-11.0199
▁lèvres	-11.0199
▁reçoi	-11.0199
▁fireman	-11.0206
▁imperméable	-11.0208
▁électronique	-11.0208
▁huit	-11.0208
▁na	-11.0213
▁piercing	-11.0214
côté	-11.0219
▁Multip	-11.022
▁learn	-11.0226
▁tri	-11.0226
▁levés	-11.0229
▁étoffe	-11.0231
▁toile	-11.0232
▁doll	-11.0236
▁plumes	-11.0237
▁theater	-11.0237
▁exit	-11.0249
▁crée	-11.025
▁catcher	-11.0252
▁Elmo	-11.0254
▁kitesurf	-11.0258
embrasser	-11.027
▁follows	-11.0276
▁bordure	-11.0278
▁see	-11.028
▁crayons	-11.0282
ined	-11.0283
▁notes	-11.0287
▁non	-11.0302
▁laver	-11.0303
▁acheter	-11.0308
▁manche	-11.0319
égale	-11.0322
▁Whi	-11.0323
▁lutte	-11.0328
▁Je	-11.033
▁froide	-11.034
neath	-11.0344
▁assistant	-11.0347
▁shades	-11.0352
semblant	-11.0362
▁bars	-11.0374
sleeve	-11.0394
▁embrasse	-11.0404
▁documents	-11.0414
▁exposition	-11.0421
▁camions	-11.0422
▁athlètes	-11.0425
▁bi	-11.0431
▁peek	-11.0435
▁dead	-11.0441
▁land	-11.0443
▁guns	-11.045
▁présente	-11.0475
▁pu	-11.0479
▁Blu	-11.0483
▁coiffe	-11.0484
▁li	-11.0503
em	-11.0519
approche	-11.0527
▁turns	-11.0545
entraîne	-11.055
▁got	-11.0553
entraînement	-11.0555
horizon	-11.0563
▁verse	-11.0564
ill	-11.0565
aire	-11.0579
▁Time	-11.059
▁moi	-11.0594
▁shovels	-11.0605
▁pench	-11.0613
▁ju	-11.0617
▁pushe	-11.0621
car	-11.0627
▁nets	-11.0631
▁sculptures	-11.0657
▁client	-11.0666
▁bac	-11.0674
▁étal	-11.0676
▁whil	-11.0676
E	-11.0679
▁garé	-11.068
▁extérieure	-11.0681
▁pine	-11.0689
▁tirée	-11.0697
iers	-11.0702
▁passants	-11.0728
▁dive	-11.0745
▁vo	-11.0759
▁follow	-11.0766
▁claire	-11.0788
▁gift	-11.0798
tandi	-11.08
▁scientifique	-11.0801
▁McDonald	-11.0805
▁coéquipier	-11.0806
▁ferrée	-11.0807
▁pirate	-11.0808
▁pillow	-11.0809
▁document	-11.081
▁pigeon	-11.081
▁passenger	-11.081
▁trunk	-11.0811
T	-11.0826
▁attraction	-11.0873
▁dribble	-11.0874
▁El	-11.0884
▁navigue	-11.0888
ky	-11.0892
D	-11.0895
▁apple	-11.09
▁couteau	-11.0901
▁Caucasian	-11.0902
▁Cheerleaders	-11.0902
▁Jenga	-11.0902
▁bulldozer	-11.0902
▁dégarni	-11.0902
▁première	-11.0902
▁prochain	-11.0902
▁protège	-11.0902
▁rickshaw	-11.0902
▁répète	-11.0902
▁wheelbarrow	-11.0902
▁chorale	-11.0902
▁charrette	-11.0902
▁Sooner	-11.0902
▁cuisinière	-11.0902
▁glacier	-11.0902
▁présentation	-11.0902
▁ponytail	-11.0902
▁multiple	-11.0902
▁downtown	-11.0903
▁fisherman	-11.0903
▁slightly	-11.0903
▁poterie	-11.0903
▁job	-11.0904
▁drôle	-11.0904
▁airborne	-11.0904
▁pottery	-11.0904
▁temple	-11.0905
▁weaving	-11.0905
▁crawl	-11.0905
▁reflet	-11.0906
▁retournant	-11.0906
▁frère	-11.0906
▁aussi	-11.0906
▁binoculars	-11.0906
▁russes	-11.0907
▁pub	-11.0907
▁forestier	-11.0907
▁théâtre	-11.0908
▁closeup	-11.091
▁excited	-11.0911
▁bordeaux	-11.0913
▁State	-11.0913
▁grue	-11.0915
▁scoop	-11.0915
▁servant	-11.0917
▁nuageux	-11.0917
▁bikinis	-11.092
▁Students	-11.092
▁plongée	-11.0923
▁bracelet	-11.0923
▁cible	-11.0924
▁aisle	-11.0924
▁tug	-11.0926
▁péri	-11.0931
▁fo	-11.0932
nd	-11.0937
entraînent	-11.0937
▁science	-11.0943
▁poor	-11.0948
▁câbles	-11.0954
▁rapides	-11.0955
▁voler	-11.0958
▁protesting	-11.0964
▁gravit	-11.0968
▁patch	-11.0971
▁dough	-11.0973
occer	-11.0976
▁pellette	-11.0979
aspirateur	-11.098
▁rappel	-11.0981
of	-11.0987
▁tourists	-11.0987
▁volent	-11.0989
▁photographed	-11.0992
▁boueux	-11.0996
▁joy	-11.0996
▁gestes	-11.0999
▁garés	-11.1
▁gratte	-11.1002
▁vous	-11.1011
▁contain	-11.1013
▁size	-11.1017
uvres	-11.1021
▁dedans	-11.1023
▁funn	-11.1025
▁pneus	-11.103
ated	-11.1037
▁gra	-11.1042
lanç	-11.1054
▁tourné	-11.106
▁cherch	-11.1062
▁wild	-11.1079
▁portes	-11.1084
▁veau	-11.1086
▁amie	-11.1086
▁outil	-11.1096
▁repairs	-11.1097
dis	-11.1099
▁japonais	-11.1103
▁bulle	-11.1123
one	-11.1131
▁ouvr	-11.1134
▁papers	-11.1134
oir	-11.1135
▁hike	-11.1141
▁étudie	-11.1141
▁bass	-11.1141
▁test	-11.1156
▁raquettes	-11.1163
▁lion	-11.1172
▁engine	-11.1172
▁sta	-11.1176
attente	-11.1178
ville	-11.1198
▁backs	-11.1225
▁teach	-11.1227
▁ferme	-11.1227
▁mari	-11.1238
▁che	-11.1243
▁complete	-11.125
▁sari	-11.1252
▁gr	-11.126
uf	-11.1262
the	-11.1267
ance	-11.1281
▁orientale	-11.1289
com	-11.1289
arrosage	-11.1295
▁cuire	-11.1297
American	-11.13
▁fetch	-11.131
▁je	-11.1311
anniversaire	-11.1311
orchestre	-11.132
▁feather	-11.1321
automne	-11.1323
▁corps	-11.1329
▁engin	-11.1333
weight	-11.1338
▁ethnic	-11.1341
lu	-11.1355
partment	-11.1362
▁attache	-11.1365
▁tombée	-11.1375
▁hug	-11.1382
▁cop	-11.1399
▁joli	-11.1406
▁fonctionne	-11.142
▁fort	-11.1435
▁bin	-11.1451
girl	-11.1452
▁reste	-11.1454
▁bounc	-11.1456
▁ga	-11.1456
▁teen	-11.1467
▁aqua	-11.1484
▁mi	-11.1519
▁Bea	-11.1535
▁attachée	-11.1535
▁tentes	-11.1538
▁balay	-11.1548
pousse	-11.1554
▁rayon	-11.1555
▁cuillère	-11.1556
▁official	-11.1557
▁tea	-11.1565
▁sauvage	-11.157
▁barrier	-11.1575
▁tutu	-11.1576
▁acrobatie	-11.1577
▁shadow	-11.1579
▁customer	-11.1579
▁shake	-11.1582
▁descent	-11.1583
▁mug	-11.1592
▁shave	-11.1604
ture	-11.1606
▁skie	-11.1608
▁entertain	-11.1618
Un	-11.1622
▁engagé	-11.1641
▁cra	-11.1643
ence	-11.1653
▁cowboys	-11.1654
ème	-11.1667
▁Londres	-11.1671
▁abrupte	-11.1671
▁burgundy	-11.1671
▁espagnol	-11.1671
▁groceries	-11.1671
▁percussion	-11.1671
▁débris	-11.1671
▁perceuse	-11.1671
▁sniff	-11.1671
▁bannière	-11.1671
▁chainsaw	-11.1671
▁confetti	-11.1671
▁tondeuse	-11.1671
▁caniche	-11.1671
▁croix	-11.1672
▁mousse	-11.1672
▁debris	-11.1672
▁chèvre	-11.1672
▁Elder	-11.1672
▁pâle	-11.1672
▁process	-11.1672
▁départ	-11.1672
▁paquet	-11.1672
▁location	-11.1673
▁réunion	-11.1673
▁perron	-11.1673
▁wheelie	-11.1673
▁stylo	-11.1674
▁série	-11.1674
▁exhibit	-11.1675
▁ceremony	-11.1675
▁bleachers	-11.1676
▁sneakers	-11.1676
▁bretelles	-11.1676
▁coaster	-11.1676
▁spotted	-11.1676
▁messy	-11.1677
▁overhead	-11.1678
▁morceaux	-11.1679
▁studying	-11.168
▁officier	-11.1681
▁skater	-11.1682
▁dusk	-11.1682
▁loom	-11.1686
▁commencer	-11.1688
▁pratiquant	-11.1689
▁apprécie	-11.169
▁telephone	-11.1693
▁factory	-11.1695
▁waterway	-11.1695
▁écolier	-11.1696
▁waterfront	-11.1698
▁score	-11.1699
▁wings	-11.1703
▁porta	-11.1706
▁garée	-11.1709
▁rouler	-11.1712
▁oven	-11.1712
▁bombe	-11.1718
▁apprend	-11.1718
▁gestures	-11.1727
▁épée	-11.1728
▁eau	-11.1734
cal	-11.1736
▁eggs	-11.174
▁manifestants	-11.1742
▁houses	-11.1746
▁was	-11.1752
▁pomme	-11.1753
▁section	-11.1753
▁firefighters	-11.1753
▁tuba	-11.1754
▁moutons	-11.1757
▁flân	-11.1762
▁hauteur	-11.1767
▁tents	-11.1768
▁brillante	-11.1784
▁hache	-11.1789
▁chiots	-11.1791
▁swimmers	-11.1795
▁appareils	-11.1795
tirent	-11.1802
▁dunk	-11.1812
▁usine	-11.1813
▁shops	-11.182
▁movie	-11.1824
▁strap	-11.1824
▁pleurs	-11.1828
▁fenêtres	-11.1829
ident	-11.1835
▁pêcher	-11.1859
▁praying	-11.186
▁con	-11.1873
if	-11.1876
ooking	-11.1883
▁places	-11.1886
▁commande	-11.1889
vêtements	-11.1893
▁incline	-11.1897
▁bascule	-11.1898
▁violets	-11.1908
▁parasols	-11.1908
▁operate	-11.1911
▁protége	-11.1936
▁mouvements	-11.1954
▁hid	-11.1967
▁plac	-11.1969
▁laptops	-11.1969
▁aéroport	-11.1972
▁link	-11.1984
▁Orient	-11.1985
lit	-11.1989
▁dune	-11.1993
▁intérieure	-11.1997
avion	-11.1999
▁caps	-11.2016
▁observes	-11.2045
chef	-11.2059
▁landing	-11.2063
ire	-11.2088
▁races	-11.2092
▁Dan	-11.2093
▁flips	-11.2102
▁laine	-11.2112
▁fur	-11.2128
poids	-11.2138
▁cups	-11.2149
allée	-11.2153
étudiants	-11.2154
affaires	-11.2161
avoir	-11.2185
▁create	-11.2199
▁drap	-11.2201
accroupi	-11.2202
rie	-11.2202
ois	-11.222
▁exposé	-11.223
stern	-11.2237
▁careful	-11.2257
entretien	-11.2262
▁rassemble	-11.2262
made	-11.2267
▁tourist	-11.2272
ity	-11.2273
▁exécute	-11.2285
▁bik	-11.2293
▁explor	-11.2318
▁mal	-11.2321
▁super	-11.2323
▁slip	-11.2323
▁bound	-11.2324
▁pêch	-11.2326
nant	-11.2327
▁artistes	-11.2349
ci	-11.2355
▁bra	-11.2362
blement	-11.2362
▁bloc	-11.2366
▁listen	-11.2368
▁brows	-11.2378
▁smash	-11.2378
▁lane	-11.2382
▁exercise	-11.2388
▁rempliss	-11.2389
▁target	-11.239
▁snowsuit	-11.2394
▁boulder	-11.2403
▁chicken	-11.2403
▁suitcase	-11.2406
▁pay	-11.2422
▁begin	-11.2422
▁mouton	-11.2439
▁breakdance	-11.2445
▁presse	-11.2451
▁éléphant	-11.2459
▁scaffold	-11.2463
▁ours	-11.2472
part	-11.2474
▁peints	-11.2482
▁surveille	-11.2491
▁come	-11.2499
▁contrebas	-11.2502
▁matelas	-11.2503
▁automobile	-11.2505
▁badminton	-11.2505
▁bamboo	-11.2505
▁experiment	-11.2505
▁galerie	-11.2505
▁knife	-11.2505
▁merchandise	-11.2505
▁renifl	-11.2505
▁société	-11.2505
▁tronçonneuse	-11.2505
▁umpire	-11.2505
▁fourrure	-11.2505
▁poêle	-11.2505
▁Female	-11.2505
▁carrelage	-11.2505
▁China	-11.2505
▁celebration	-11.2505
▁casserole	-11.2505
▁NY	-11.2505
▁iPod	-11.2505
▁trolley	-11.2505
▁forehead	-11.2505
▁radio	-11.2505
▁juice	-11.2505
▁clapping	-11.2505
▁plongeoir	-11.2505
▁paperwork	-11.2506
▁hotel	-11.2506
▁sailboat	-11.2506
▁alleyway	-11.2506
▁blood	-11.2506
▁countryside	-11.2506
▁encombré	-11.2507
▁strange	-11.2507
▁stoop	-11.2507
▁emergency	-11.2507
▁médical	-11.2507
▁cheese	-11.2508
argile	-11.2508
étreignent	-11.2509
▁dragon	-11.2509
▁phase	-11.2509
▁retriever	-11.2509
▁motion	-11.251
▁pigtails	-11.251
▁soap	-11.251
▁brother	-11.251
▁croisés	-11.2511
▁brass	-11.2511
▁meet	-11.2512
▁firemen	-11.2515
▁mower	-11.2515
▁bureaux	-11.2516
▁jumelles	-11.2518
▁bystanders	-11.2518
▁lettres	-11.2518
▁chess	-11.2519
▁poodle	-11.252
arrêt	-11.252
orange	-11.252
▁TV	-11.2521
▁bouclés	-11.2525
▁Legos	-11.2526
▁world	-11.2527
▁dorment	-11.2527
▁glacée	-11.2529
tent	-11.253
▁catche	-11.2531
▁hockeyeurs	-11.2531
▁chips	-11.2531
▁gymnastics	-11.2534
▁baguettes	-11.2534
▁wares	-11.2535
▁featur	-11.2535
▁baissée	-11.254
▁teal	-11.2541
▁herbeux	-11.2541
▁bagpipes	-11.2542
▁mec	-11.2543
▁chewing	-11.2544
▁jo	-11.2546
▁forces	-11.2547
▁page	-11.2555
ary	-11.2557
▁punch	-11.2557
▁Police	-11.2558
▁thé	-11.2564
▁olympiques	-11.2567
▁canot	-11.2569
▁cu	-11.2572
▁eight	-11.2577
▁nuages	-11.2578
▁glisser	-11.2579
▁tournoi	-11.2582
▁étroite	-11.2582
▁pommes	-11.2583
▁patineurs	-11.2585
▁nager	-11.2601
▁dorée	-11.2603
▁shadows	-11.2606
▁essentielle	-11.2608
▁poste	-11.2613
▁pillows	-11.2615
▁It	-11.2621
▁garées	-11.2625
▁skaters	-11.2633
▁wires	-11.2647
tié	-11.2647
▁grimaces	-11.2655
▁beverages	-11.2657
▁comes	-11.2665
▁paddles	-11.2668
armée	-11.2673
▁creat	-11.2675
▁cigarettes	-11.2686
▁tray	-11.2687
▁ti	-11.2688
▁ré	-11.2698
▁backdrop	-11.2702
▁spike	-11.2711
I	-11.2721
▁vérifie	-11.2724
▁label	-11.273
▁intégrale	-11.274
▁tires	-11.2757
om	-11.2761
▁arcade	-11.2765
▁war	-11.2766
▁lick	-11.2767
▁performers	-11.278
▁bronze	-11.2806
▁porche	-11.2807
▁stare	-11.2808
lever	-11.2815
▁knees	-11.2816
écume	-11.283
▁tubes	-11.2869
▁tackl	-11.287
▁manipule	-11.2876
▁bains	-11.2903
▁donn	-11.2921
ady	-11.2923
▁news	-11.2926
▁sombres	-11.2939
▁aller	-11.2954
▁habit	-11.2955
▁case	-11.2971
▁couvertures	-11.2979
▁boules	-11.2985
▁blankets	-11.2985
oreille	-11.2994
▁verdoyante	-11.3001
▁decorat	-11.3003
▁newspapers	-11.3011
anie	-11.3023
▁spin	-11.3027
▁vendors	-11.3037
cour	-11.3039
tient	-11.3048
▁bal	-11.3048
Orient	-11.3056
▁termine	-11.306
dy	-11.3066
aéroport	-11.3067
▁appl	-11.3077
▁essaye	-11.3084
ons	-11.309
▁rust	-11.3111
tion	-11.3115
▁école	-11.3146
▁couvr	-11.3154
▁march	-11.3155
ted	-11.3156
rant	-11.317
▁lancé	-11.317
▁lignes	-11.3179
ateur	-11.3181
▁Hu	-11.319
▁chasse	-11.3191
ud	-11.3196
▁rod	-11.3215
▁rollerskat	-11.3222
▁entrée	-11.3232
▁fashion	-11.3238
▁conten	-11.3253
cking	-11.3258
▁papiers	-11.3262
▁délabré	-11.3265
▁remplis	-11.3268
▁marque	-11.3275
▁te	-11.3277
▁écossais	-11.3279
▁blessé	-11.3281
▁Jack	-11.3287
▁quitte	-11.3291
▁vent	-11.3297
▁bizarre	-11.3298
▁range	-11.3303
▁diver	-11.3309
▁enthousiaste	-11.332
▁traditionnelle	-11.332
▁firefighter	-11.332
▁bu	-11.3321
leading	-11.3323
▁aim	-11.3328
▁cheek	-11.3332
▁shower	-11.3334
▁pliante	-11.3336
▁torch	-11.3336
▁celebrate	-11.3341
▁Mia	-11.3344
▁mule	-11.3346
▁hut	-11.335
▁secou	-11.3354
ins	-11.3354
▁burn	-11.3361
▁boxer	-11.3367
▁é	-11.3367
▁fla	-11.3372
▁trip	-11.3374
▁étoile	-11.338
land	-11.3394
▁fell	-11.3401
▁weather	-11.3404
▁haie	-11.341
▁coast	-11.341
▁chorégraphie	-11.3414
affrontant	-11.3414
▁christmas	-11.3414
▁déchets	-11.3414
▁enthousiasme	-11.3414
▁laundromat	-11.3414
▁masculin	-11.3414
▁poussiéreux	-11.3414
▁Batman	-11.3414
▁Mohawk	-11.3414
▁technique	-11.3414
▁unusual	-11.3414
▁rapids	-11.3414
▁religieuse	-11.3414
▁surgery	-11.3414
▁Subway	-11.3414
▁medium	-11.3414
▁décharge	-11.3414
▁separate	-11.3414
▁tacheté	-11.3414
▁similaire	-11.3414
▁tripod	-11.3414
▁puppies	-11.3414
▁Couple	-11.3414
▁butcher	-11.3414
▁underwear	-11.3414
▁robot	-11.3414
▁staff	-11.3414
▁yarn	-11.3415
▁municipal	-11.3415
▁sunlight	-11.3415
▁homeless	-11.3415
▁distributeur	-11.3415
▁chameaux	-11.3415
▁chalkboard	-11.3415
▁shoreline	-11.3415
▁rollerblading	-11.3416
▁construire	-11.3416
▁suspenders	-11.3416
▁chargement	-11.3417
▁perdu	-11.3417
▁folded	-11.3418
▁highway	-11.3418
▁snap	-11.3418
▁handrail	-11.3418
▁combattant	-11.3418
▁ronde	-11.3418
▁observant	-11.3419
▁Runners	-11.3419
▁cello	-11.3419
▁supplies	-11.3419
▁tisser	-11.342
▁violoncelle	-11.3421
▁joie	-11.3425
▁juggle	-11.3425
▁screaming	-11.3427
still	-11.3427
▁alignées	-11.3428
ake	-11.3431
are	-11.3431
▁rive	-11.3431
▁Nik	-11.3432
▁découper	-11.3433
▁closely	-11.3434
▁chatting	-11.3434
▁natte	-11.3437
M	-11.3437
▁handle	-11.3437
▁joué	-11.3438
▁snowshoes	-11.3438
▁ramant	-11.3438
▁Apple	-11.3439
▁expérience	-11.3439
▁épaisse	-11.3442
▁America	-11.3444
▁single	-11.3446
▁rament	-11.3456
▁We	-11.3458
▁meubles	-11.3461
▁tond	-11.3461
▁colonnes	-11.3464
▁reposer	-11.3467
rimmed	-11.3474
▁stall	-11.3474
▁lifted	-11.3479
▁bush	-11.3484
▁bank	-11.3487
▁rice	-11.3489
▁tights	-11.349
▁chute	-11.3493
▁concentre	-11.3494
▁diverses	-11.3496
▁crossed	-11.3499
▁hotdogs	-11.35
▁prépara	-11.35
▁sortir	-11.3507
borne	-11.3507
war	-11.3508
▁enthousiastes	-11.3509
▁géante	-11.3513
▁fleurie	-11.3525
▁magasins	-11.3526
▁peintre	-11.3532
▁lighted	-11.3538
▁Car	-11.3539
▁sprinklers	-11.3554
▁nageuse	-11.3555
▁thumbs	-11.3556
▁nappe	-11.3562
homa	-11.3565
▁motorcyclists	-11.3572
▁harmonica	-11.3572
green	-11.3573
gging	-11.3585
nder	-11.3589
▁veston	-11.3589
os	-11.3597
unk	-11.3601
▁gobelets	-11.3608
▁huddle	-11.3619
▁bols	-11.3621
▁watched	-11.3627
▁swimsuits	-11.3635
sailing	-11.3636
▁arrange	-11.3639
▁bébés	-11.3653
▁khakis	-11.3653
▁pièces	-11.3657
▁bricks	-11.3663
▁cavaliers	-11.3663
ro	-11.3684
▁hind	-11.369
▁logs	-11.369
▁athletes	-11.3699
▁cameras	-11.3699
▁floats	-11.3706
lots	-11.373
▁poing	-11.3739
▁barrières	-11.3743
▁rayés	-11.3763
▁stir	-11.3779
▁suspendue	-11.3779
▁plats	-11.3781
▁trie	-11.3781
▁coll	-11.3783
▁aider	-11.3795
▁ra	-11.3797
ist	-11.3802
iste	-11.3803
▁comfort	-11.3818
▁argentée	-11.3822
el	-11.3834
▁picks	-11.3844
▁verdoyant	-11.3844
▁poche	-11.3847
▁flan	-11.3851
▁splash	-11.3854
▁training	-11.3854
▁fleuri	-11.386
L	-11.3865
▁violettes	-11.3875
▁environn	-11.3903
▁calme	-11.3908
▁skiers	-11.3912
sty	-11.3919
▁carts	-11.3926
▁douche	-11.3937
▁atterri	-11.3938
▁mis	-11.3943
▁retire	-11.3945
même	-11.396
té	-11.3968
▁gathers	-11.4019
embrasse	-11.4025
▁cir	-11.4035
ered	-11.404
ouvriers	-11.4041
V	-11.4042
▁cor	-11.4048
obstacle	-11.4048
▁stepp	-11.4058
▁cont	-11.4059
hôpital	-11.4063
cy	-11.4065
animaux	-11.4066
exposition	-11.4068
▁celle	-11.4068
round	-11.4078
adolescents	-11.408
▁appuyée	-11.4094
wood	-11.4112
▁microscopes	-11.4118
▁lo	-11.4127
▁personnel	-11.4129
▁ea	-11.4157
▁déguisé	-11.4177
▁squat	-11.4189
▁lens	-11.4193
aider	-11.4195
▁marchand	-11.4202
▁souffl	-11.4218
rench	-11.4229
iles	-11.4244
ses	-11.4247
▁dépla	-11.4273
▁rasé	-11.4274
▁arche	-11.4283
oire	-11.4293
▁triste	-11.4295
▁pupitre	-11.4298
▁rally	-11.43
B	-11.4301
▁focuse	-11.4307
▁leotard	-11.4307
▁bongo	-11.4313
▁citron	-11.4314
▁canette	-11.4318
▁mince	-11.4318
▁poulet	-11.4319
▁ticket	-11.4319
▁arrêté	-11.432
lot	-11.432
▁upward	-11.4321
▁thumb	-11.4321
▁hotdog	-11.4321
▁candle	-11.4321
▁patineur	-11.4324
▁manifestant	-11.4325
▁egg	-11.4326
▁patron	-11.4327
▁monitor	-11.4343
▁imprimé	-11.4343
▁travailleur	-11.4361
lle	-11.4365
▁goat	-11.4366
▁treat	-11.437
▁vacuum	-11.437
▁disque	-11.4372
ors	-11.4375
▁éclairage	-11.4379
▁contest	-11.4383
▁headdress	-11.4399
pectators	-11.4403
by	-11.4407
loseup	-11.441
▁carve	-11.4413
▁chameau	-11.4413
Obama	-11.4414
▁Monopoly	-11.4414
▁School	-11.4414
▁Speedo	-11.4414
▁agricole	-11.4414
▁bandoulière	-11.4414
▁caricatur	-11.4414
▁contraption	-11.4414
▁demoiselle	-11.4414
▁gagner	-11.4414
▁gallery	-11.4414
▁signalisation	-11.4414
▁universitaire	-11.4414
▁échasses	-11.4414
▁activity	-11.4414
▁canvas	-11.4414
▁parallèle	-11.4414
▁restauration	-11.4414
obscurité	-11.4414
▁earphones	-11.4414
▁vacances	-11.4414
▁frozen	-11.4414
▁lobby	-11.4414
▁châle	-11.4414
▁trashcan	-11.4414
▁valley	-11.4414
▁célèbre	-11.4414
▁champagne	-11.4414
▁passersby	-11.4414
▁adorable	-11.4414
▁monkey	-11.4414
▁dumpster	-11.4414
▁workshop	-11.4414
▁plaisir	-11.4414
▁peignoir	-11.4414
▁maintenance	-11.4414
▁sideways	-11.4414
▁lingerie	-11.4414
▁facility	-11.4414
▁navire	-11.4414
▁canyon	-11.4414
▁spotlight	-11.4414
▁driveway	-11.4415
▁sarcelle	-11.4415
▁vrai	-11.4415
▁lèche	-11.4415
▁transportation	-11.4415
▁securi	-11.4415
▁injured	-11.4415
▁quickly	-11.4415
▁stilts	-11.4416
▁fatigué	-11.4416
▁embracing	-11.4416
▁rooftop	-11.4417
▁highchair	-11.4417
▁gazonné	-11.4417
▁appelé	-11.4419
▁réunies	-11.4419
▁pedal	-11.4419
▁tranquille	-11.4419
▁Asia	-11.4421
▁olive	-11.4421
▁sportive	-11.4421
▁stores	-11.4422
▁pilier	-11.4423
▁classique	-11.4424
▁collie	-11.4425
▁intense	-11.4426
▁roadside	-11.4427
▁Brit	-11.4428
▁interesting	-11.4429
▁bonne	-11.443
▁concours	-11.4433
▁scarves	-11.4434
▁artwork	-11.4435
▁workout	-11.4437
▁mixer	-11.4437
▁Band	-11.4441
▁capot	-11.4441
▁nuageuse	-11.4441
▁étagère	-11.4441
▁épicerie	-11.4441
▁maneuver	-11.4441
▁enlève	-11.4443
▁flamme	-11.4445
▁célébr	-11.4446
▁libre	-11.4446
▁spa	-11.4448
rt	-11.445
▁hawa	-11.445
gue	-11.445
▁sprayed	-11.4452
wed	-11.4453
▁pauvre	-11.4455
▁Army	-11.4455
▁approaches	-11.4456
hepherd	-11.4458
▁genou	-11.4459
▁kimonos	-11.4459
▁even	-11.4461
▁soutien	-11.4461
▁sé	-11.4464
▁vari	-11.4465
▁faible	-11.4472
▁gaze	-11.4473
▁torches	-11.4476
▁Seattle	-11.4477
▁Easter	-11.4485
▁products	-11.4489
▁Olympics	-11.4489
▁Cafe	-11.4492
▁frappé	-11.4497
▁ponton	-11.4499
▁larger	-11.4504
▁Player	-11.4511
▁interagiss	-11.4512
▁propre	-11.4512
▁autumn	-11.4516
▁focus	-11.4522
▁lutteur	-11.4522
▁drag	-11.4527
▁gazes	-11.4531
▁washer	-11.4531
près	-11.4538
▁fromage	-11.4543
▁évier	-11.455
▁commun	-11.4554
▁soulev	-11.4554
▁chocolate	-11.4564
▁boards	-11.4566
▁fixes	-11.4569
▁painter	-11.457
▁belts	-11.4575
▁shar	-11.4579
▁trouver	-11.4582
▁mess	-11.4582
▁rond	-11.4585
▁dig	-11.459
▁jongl	-11.4594
▁venue	-11.46
▁cuisiner	-11.4617
ily	-11.4629
▁échafaudages	-11.463
▁racers	-11.4636
▁salu	-11.4636
fashioned	-11.4637
▁cré	-11.4645
▁content	-11.465
ota	-11.4658
▁heavi	-11.4658
corative	-11.4662
▁décolle	-11.4663
▁pale	-11.4675
▁oreille	-11.4678
ak	-11.4686
▁lan	-11.4695
▁Asie	-11.471
▁adverses	-11.4719
▁strike	-11.4721
▁boucle	-11.4728
▁rassembl	-11.4729
▁opération	-11.4737
▁Ra	-11.4744
agenouille	-11.4751
range	-11.4763
lleux	-11.477
▁boîtes	-11.4773
▁cards	-11.4774
▁padd	-11.479
▁accroupis	-11.4796
▁kayaking	-11.4797
▁classic	-11.4808
▁curve	-11.4821
▁trucks	-11.4827
▁installé	-11.4843
eignant	-11.4846
▁cans	-11.4847
▁particip	-11.4857
▁typ	-11.4859
▁Vu	-11.4866
bout	-11.4886
ving	-11.4908
▁angle	-11.491
▁pédale	-11.4911
▁apart	-11.4912
▁horizon	-11.4916
light	-11.4923
▁played	-11.4926
▁pince	-11.4938
vention	-11.4962
▁photographié	-11.4964
▁moin	-11.4967
▁cab	-11.4968
▁pl	-11.497
▁my	-11.4971
its	-11.4973
house	-11.499
rd	-11.4998
▁accompagné	-11.5015
▁retourné	-11.5017
▁dis	-11.5017
▁adolescente	-11.504
▁displays	-11.5042
▁arrose	-11.5046
▁baigne	-11.5056
▁allume	-11.5058
▁Lo	-11.5059
▁lighting	-11.506
image	-11.5068
▁He	-11.5083
attendre	-11.5087
▁orné	-11.5089
▁pi	-11.51
euse	-11.511
body	-11.5116
▁capture	-11.5124
striped	-11.5139
▁recev	-11.5144
nnel	-11.515
style	-11.5165
écrire	-11.5166
▁tail	-11.5168
▁crash	-11.5168
most	-11.517
église	-11.517
opération	-11.5175
oiseaux	-11.5181
arcade	-11.5184
v	-11.5191
nce	-11.5195
▁numbers	-11.5206
appuy	-11.5207
▁sculpte	-11.5217
▁situé	-11.5228
▁parent	-11.5233
▁navigate	-11.5272
ched	-11.5284
▁photographie	-11.5292
▁Mar	-11.5301
▁secur	-11.5317
▁bicycl	-11.5324
eusement	-11.5326
▁than	-11.5337
▁jailli	-11.5356
edestrians	-11.537
▁Hol	-11.5372
▁stor	-11.5375
▁transporte	-11.5376
▁moustach	-11.539
▁éventail	-11.5409
▁rifle	-11.5409
▁partition	-11.541
▁nuage	-11.5418
▁pumpkin	-11.5419
▁reflection	-11.5421
etty	-11.5422
▁perruque	-11.5423
▁diner	-11.5426
▁construit	-11.5427
▁tâche	-11.5428
▁texto	-11.5428
otted	-11.5432
▁marchandise	-11.5433
▁rug	-11.5439
▁proche	-11.544
▁task	-11.5442
▁wig	-11.5446
▁cute	-11.5447
kla	-11.5453
▁impliqu	-11.5464
ille	-11.547
▁dessert	-11.547
▁collines	-11.5471
▁Lot	-11.5474
▁smooth	-11.5496
▁Canad	-11.5502
H	-11.5507
▁games	-11.5511
resque	-11.5511
cked	-11.5514
▁tight	-11.5516
▁mechanic	-11.5525
Amérique	-11.5525
artifice	-11.5525
▁Skateboarder	-11.5525
▁Starbucks	-11.5525
▁afternoon	-11.5525
▁bambin	-11.5525
▁brouillard	-11.5525
▁calèche	-11.5525
▁caucasian	-11.5525
▁chopsticks	-11.5525
▁cockpit	-11.5525
▁emmitouflé	-11.5525
▁entrepôt	-11.5525
▁foliage	-11.5525
▁marmite	-11.5525
▁monospace	-11.5525
▁shawl	-11.5525
▁squeez	-11.5525
▁épouse	-11.5525
▁couvercle	-11.5525
▁gesturing	-11.5525
▁modèle	-11.5525
▁muselé	-11.5525
▁trépied	-11.5525
▁synchroniz	-11.5525
▁trombone	-11.5525
▁éjecté	-11.5525
▁Hockey	-11.5525
▁bathtub	-11.5525
▁revêtement	-11.5525
▁sparring	-11.5525
▁helicopter	-11.5525
▁accept	-11.5525
▁compris	-11.5525
▁baiser	-11.5525
▁butterfly	-11.5525
▁curieux	-11.5525
▁stump	-11.5525
▁bedroom	-11.5525
▁soyeux	-11.5526
▁pencil	-11.5526
▁raincoat	-11.5526
▁foyer	-11.5526
▁Disney	-11.5526
▁morning	-11.5526
▁cherry	-11.5526
▁sécher	-11.5526
▁collation	-11.5526
▁beret	-11.5527
▁pourpre	-11.5527
▁Shepherd	-11.5527
▁USA	-11.5527
▁Food	-11.5527
▁cannon	-11.5527
▁vallée	-11.5527
▁kickboxing	-11.5528
▁défilent	-11.5529
▁prix	-11.5529
▁suivant	-11.5529
▁pathway	-11.5529
▁every	-11.5529
midi	-11.553
▁breakdancing	-11.553
▁jardinage	-11.553
▁belongings	-11.5532
▁built	-11.5532
▁decorations	-11.5532
▁pretend	-11.5533
▁drop	-11.5533
▁Dark	-11.5533
▁serveur	-11.5534
▁gâteaux	-11.5534
▁fausse	-11.5534
▁officielle	-11.5534
▁rollerblades	-11.5535
▁servir	-11.5535
▁défend	-11.5536
nu	-11.5538
▁parasailing	-11.5538
▁kayakiste	-11.5538
▁unhappy	-11.5538
▁chariots	-11.5541
▁perles	-11.5541
▁checkers	-11.5541
▁cheminée	-11.5541
▁monk	-11.5542
▁décorations	-11.5542
▁digital	-11.5544
▁terrier	-11.5546
▁surveillent	-11.5547
▁vite	-11.5547
▁raser	-11.5548
▁illuminat	-11.5549
▁acrobatic	-11.5552
▁braid	-11.5553
▁obscure	-11.5553
▁pastèques	-11.5554
▁époux	-11.5555
▁cowgirl	-11.5555
▁convention	-11.5557
▁balanç	-11.5557
▁deuxième	-11.5562
▁chercher	-11.5564
▁steaks	-11.5564
▁letter	-11.5567
▁tendus	-11.5567
▁avance	-11.5568
▁marin	-11.5569
▁unload	-11.5569
▁zoo	-11.5573
▁fumer	-11.5574
▁tombent	-11.5575
uzz	-11.5576
▁suivi	-11.5577
▁writes	-11.5577
▁punching	-11.5577
ébroue	-11.5578
▁package	-11.558
▁jogs	-11.5581
▁crates	-11.5586
américains	-11.5587
sh	-11.559
wing	-11.5591
▁displayed	-11.5593
▁congregate	-11.5593
▁coff	-11.5594
▁échecs	-11.5595
▁brushes	-11.5596
▁plaqué	-11.5597
▁Park	-11.5599
▁riot	-11.5601
▁cuit	-11.5608
▁choisiss	-11.5611
▁proches	-11.5613
▁pads	-11.5614
ten	-11.5621
▁Toy	-11.5624
▁chinoises	-11.5624
ad	-11.5625
ble	-11.5626
▁begins	-11.565
▁jumper	-11.5666
▁monté	-11.5672
▁rag	-11.5674
▁pagay	-11.5675
▁ferrées	-11.5677
▁Bear	-11.5681
enlace	-11.5682
▁américaine	-11.5684
▁tags	-11.5684
ches	-11.569
▁waiter	-11.5691
▁fi	-11.5692
▁canards	-11.5699
▁fishes	-11.5699
▁mâche	-11.5702
▁peinte	-11.5709
▁scen	-11.5709
▁collect	-11.5713
▁measur	-11.5713
▁réception	-11.5719
▁designs	-11.5726
▁visibles	-11.5729
▁grasp	-11.573
▁ducks	-11.5738
▁locat	-11.5754
▁numer	-11.576
▁lower	-11.5763
▁faite	-11.5771
other	-11.5775
squ	-11.579
▁navigu	-11.5798
▁moyenne	-11.5801
▁portraits	-11.5801
▁rings	-11.5807
miling	-11.5807
▁Par	-11.5808
▁ru	-11.5809
▁plaqu	-11.581
ese	-11.5822
ma	-11.5825
▁située	-11.5837
▁cet	-11.5845
opcorn	-11.5853
▁soir	-11.5854
▁booths	-11.586
▁interview	-11.5868
▁maquille	-11.5876
▁plain	-11.5886
gle	-11.5888
▁appren	-11.5894
fro	-11.5898
▁clouds	-11.59
▁icy	-11.59
▁dad	-11.5902
▁ve	-11.5905
▁antique	-11.5907
▁fois	-11.5908
dress	-11.5921
▁flo	-11.5924
▁parachutes	-11.5927
▁participants	-11.5938
ique	-11.5945
▁fr	-11.595
▁ici	-11.5961
▁Re	-11.5961
lement	-11.5963
ut	-11.5966
▁banquet	-11.5969
▁win	-11.5979
▁lever	-11.598
▁Ba	-11.598
armi	-11.5987
▁armes	-11.599
led	-11.6013
▁sens	-11.6014
▁affaires	-11.6014
▁waist	-11.6048
▁manière	-11.6067
▁automne	-11.6067
ore	-11.6074
rize	-11.6091
venant	-11.6096
ick	-11.6104
▁solo	-11.6124
▁boxeur	-11.6134
ai	-11.6151
sing	-11.6163
▁immeubles	-11.6166
▁await	-11.6177
ail	-11.6178
▁Vi	-11.6192
▁cannes	-11.6205
▁complex	-11.6215
▁profond	-11.6226
issent	-11.624
di	-11.6242
▁roulants	-11.6243
▁spot	-11.6249
instrument	-11.6249
jo	-11.6255
▁k	-11.6256
▁think	-11.6267
▁photographes	-11.6277
▁chopp	-11.6279
▁aprons	-11.6286
▁cree	-11.6289
▁skateurs	-11.6295
ious	-11.6299
▁Hawa	-11.6299
coat	-11.6309
▁trace	-11.6313
▁arch	-11.6325
▁installée	-11.6326
ine	-11.6332
▁Qua	-11.6352
ven	-11.6352
▁patine	-11.6353
▁She	-11.6354
étire	-11.6356
▁scale	-11.6359
animal	-11.6378
be	-11.638
ial	-11.6383
cas	-11.6387
▁Nin	-11.6401
vert	-11.6403
aille	-11.6405
sses	-11.6405
▁dresse	-11.6406
instruments	-11.6406
▁rayées	-11.6414
cause	-11.6416
▁prepar	-11.6419
paved	-11.6419
ume	-11.6434
mount	-11.6435
▁bross	-11.6439
▁environ	-11.644
▁fabrique	-11.6441
size	-11.6444
▁vérifi	-11.6448
▁dinosaur	-11.6448
▁éclabouss	-11.6457
▁singe	-11.6459
▁power	-11.6464
▁cigar	-11.6467
▁wh	-11.6477
▁fu	-11.6485
leans	-11.6489
▁receive	-11.649
▁infirmière	-11.6516
▁aride	-11.6523
▁hook	-11.6525
environ	-11.6525
▁découp	-11.6536
▁fine	-11.654
▁diverti	-11.655
▁beat	-11.655
▁offer	-11.6551
▁carré	-11.6553
agent	-11.6563
▁chocolat	-11.6587
pong	-11.6588
▁Mexica	-11.6604
ort	-11.6611
▁pop	-11.6614
▁murale	-11.6621
ls	-11.6623
▁tu	-11.6623
▁Mark	-11.6629
▁musclé	-11.663
▁courbé	-11.663
lant	-11.6633
▁étendu	-11.6634
▁Fire	-11.6636
lé	-11.6639
▁renversé	-11.6643
▁sleep	-11.6646
▁Con	-11.6648
▁civil	-11.6651
▁pyramid	-11.6652
ours	-11.6653
▁clôturé	-11.6658
▁trouv	-11.6662
▁notebook	-11.6668
▁coussin	-11.6669
▁message	-11.6669
▁bambou	-11.667
▁pocket	-11.6671
▁muselière	-11.6673
▁brochure	-11.6673
▁survêtement	-11.6673
▁concentré	-11.6675
▁citrouille	-11.6677
▁ethnique	-11.6677
▁rapide	-11.6678
▁column	-11.6679
▁Olympic	-11.668
▁olympique	-11.6681
▁product	-11.6681
▁câble	-11.6681
▁bougie	-11.6682
▁gesture	-11.6682
▁coud	-11.6684
▁palmier	-11.6684
▁étroit	-11.6686
▁raide	-11.6692
épo	-11.6692
▁oreiller	-11.6694
▁speaker	-11.6697
▁gown	-11.67
▁plume	-11.6702
traînant	-11.6711
▁nail	-11.6717
vil	-11.6719
als	-11.6724
▁fini	-11.6726
▁j	-11.6736
laden	-11.674
▁passager	-11.674
▁savon	-11.6743
▁India	-11.6754
▁puzzle	-11.6756
ear	-11.6757
▁potato	-11.6757
▁caress	-11.6762
▁social	-11.6762
▁harvest	-11.6763
▁disc	-11.6765
▁Gym	-11.677
▁chic	-11.6772
▁lapin	-11.6775
itchenAid	-11.6775
▁Vegas	-11.6775
▁Vendor	-11.6775
▁Yamaha	-11.6775
▁bermuda	-11.6775
▁cardigan	-11.6775
▁déchiré	-11.6775
▁démonstration	-11.6775
▁elaborate	-11.6775
▁genouillères	-11.6775
▁laboratory	-11.6775
▁mascara	-11.6775
▁peuplé	-11.6775
▁pizzeria	-11.6775
▁possession	-11.6775
▁poussiéreuse	-11.6775
▁substance	-11.6775
▁toothbrush	-11.6775
▁treadmill	-11.6775
▁vibrant	-11.6775
▁warehouse	-11.6775
▁établissement	-11.6775
urgence	-11.6775
▁ATM	-11.6775
▁flamboyant	-11.6775
▁fourgonnette	-11.6775
▁hammock	-11.6775
▁trafic	-11.6775
▁Concert	-11.6775
▁Yellow	-11.6775
▁register	-11.6775
▁powder	-11.6775
▁remuant	-11.6775
▁hydrant	-11.6775
▁scrubs	-11.6775
▁turtle	-11.6775
▁easel	-11.6775
▁hamac	-11.6775
▁triangle	-11.6775
▁campfire	-11.6775
▁attelage	-11.6775
▁drainage	-11.6775
▁mutuellement	-11.6775
▁tuxedo	-11.6775
▁consult	-11.6775
▁establishment	-11.6775
▁favorite	-11.6775
▁religious	-11.6775
▁conductor	-11.6775
▁Mouse	-11.6775
▁Musician	-11.6775
▁emmène	-11.6775
quoise	-11.6775
▁historique	-11.6775
▁mohawk	-11.6775
▁victory	-11.6775
▁tarp	-11.6775
▁visière	-11.6775
▁chisel	-11.6775
▁marble	-11.6775
▁babies	-11.6776
▁abandoned	-11.6776
▁Spanish	-11.6776
▁pelleteuse	-11.6776
▁sample	-11.6776
▁Big	-11.6776
▁turkey	-11.6776
▁bowtie	-11.6777
▁sucette	-11.6777
▁messieurs	-11.6777
▁sumo	-11.6778
▁cerceaux	-11.6778
▁coiffeur	-11.6778
▁trouble	-11.6779
▁arrangement	-11.6779
▁projector	-11.6779
▁Chine	-11.678
▁tournament	-11.678
▁daytime	-11.678
▁terminal	-11.678
▁tracksuit	-11.6781
▁cadeaux	-11.6781
▁underground	-11.6781
▁company	-11.6781
▁sledding	-11.6782
▁plateforme	-11.6782
▁contenu	-11.6783
▁bib	-11.6783
▁nourrit	-11.6783
▁noix	-11.6783
▁maquette	-11.6783
▁bloquer	-11.6783
▁croisées	-11.6784
▁sombrero	-11.6785
▁pony	-11.6785
▁shoppers	-11.6786
boys	-11.6786
rédi	-11.6787
▁stretches	-11.6787
▁paintball	-11.6788
▁catcheur	-11.6788
▁cycling	-11.6788
itting	-11.6789
▁upset	-11.6791
▁photographier	-11.6792
▁saluent	-11.6795
▁scrap	-11.6796
▁nommé	-11.6797
▁revers	-11.6798
▁waterskiing	-11.6799
bbing	-11.6801
▁split	-11.6803
▁iro	-11.6803
▁cheerlead	-11.6804
▁indian	-11.6804
▁industri	-11.6806
▁beads	-11.6807
▁judges	-11.6807
▁transit	-11.6811
▁juges	-11.6811
▁épais	-11.6812
▁plaquer	-11.6813
▁instructions	-11.6815
▁conditions	-11.6817
▁tackled	-11.6817
étreign	-11.6821
▁crashing	-11.6822
▁creusent	-11.6823
▁owner	-11.6825
▁tomates	-11.6825
▁Deere	-11.6825
▁fortune	-11.6827
▁billets	-11.6829
▁cookies	-11.6831
▁flock	-11.6831
▁ongles	-11.6834
▁clut	-11.6834
▁déguisée	-11.6836
mon	-11.6836
del	-11.6838
▁salue	-11.6838
▁empilé	-11.6843
▁call	-11.6845
▁skills	-11.6847
▁quilles	-11.6849
▁assorti	-11.6849
▁filmant	-11.685
▁surélevée	-11.6853
▁nurses	-11.6854
▁entreprise	-11.6854
▁hélicoptère	-11.6855
▁stance	-11.6855
▁Green	-11.6855
▁carrier	-11.6862
▁riz	-11.6868
▁touriste	-11.6869
▁accordéon	-11.6871
▁columns	-11.6871
▁flou	-11.6874
▁boxe	-11.6875
▁cave	-11.6876
▁rencontre	-11.6879
▁find	-11.6884
ston	-11.6884
▁patrons	-11.689
▁lips	-11.6894
▁écart	-11.6897
ton	-11.6898
▁oreillers	-11.6905
▁inter	-11.6911
▁posées	-11.6913
▁instruct	-11.6922
▁di	-11.6924
▁cameraman	-11.6929
▁done	-11.693
▁rake	-11.6933
▁acrobaties	-11.6934
▁calmes	-11.6936
▁year	-11.6945
▁purchase	-11.6946
▁pirates	-11.6946
▁nous	-11.6948
▁gardening	-11.6955
▁int	-11.696
▁teammates	-11.6962
▁peers	-11.6966
▁cries	-11.6969
▁banners	-11.6974
▁ex	-11.6975
▁rack	-11.6976
aseball	-11.6979
▁brillantes	-11.6982
▁vitres	-11.6994
▁hôtel	-11.6999
▁services	-11.7001
▁posée	-11.7004
dans	-11.7004
cker	-11.7026
▁ador	-11.7031
▁mont	-11.7034
▁sides	-11.7039
ordre	-11.7042
▁rush	-11.7048
▁courte	-11.7061
▁kilts	-11.7061
▁ouverts	-11.7072
▁circula	-11.7078
▁cigare	-11.7092
▁US	-11.7112
▁dinosaure	-11.7112
ca	-11.7119
▁contrer	-11.7121
▁involve	-11.7123
▁hills	-11.7128
▁cuisinent	-11.7136
▁rurale	-11.7139
▁tow	-11.7146
▁battl	-11.7151
▁muret	-11.7153
▁structures	-11.7154
▁demande	-11.7155
▁entrer	-11.7156
all	-11.716
▁cellphones	-11.7165
▁débardeurs	-11.7165
▁cause	-11.7169
suit	-11.7198
uch	-11.7203
ded	-11.7217
▁dessins	-11.7223
▁transparent	-11.7236
▁ange	-11.7236
▁hôpital	-11.7237
▁sang	-11.7241
▁endroits	-11.7246
▁Mac	-11.7248
▁moine	-11.7253
▁hiver	-11.7262
ab	-11.7269
▁yell	-11.7275
▁lis	-11.7283
▁Br	-11.7295
▁gar	-11.7297
Y	-11.7301
ives	-11.7308
league	-11.7309
▁prête	-11.731
▁colorie	-11.7325
▁montagneux	-11.7327
▁sunbath	-11.7342
▁camper	-11.7353
▁skies	-11.7367
▁complexe	-11.7368
atterrir	-11.7371
▁inclu	-11.7373
▁remove	-11.7378
▁crouch	-11.7378
quelle	-11.7384
▁canoes	-11.7408
▁panel	-11.7409
▁flat	-11.7413
▁Gro	-11.7414
▁enclos	-11.7449
▁écrans	-11.7453
▁musta	-11.7453
▁purses	-11.7462
▁sw	-11.7466
ice	-11.7485
▁masks	-11.7491
son	-11.7491
▁plank	-11.7492
yo	-11.7499
▁installe	-11.7501
owing	-11.7506
▁napp	-11.7507
▁fouille	-11.7508
▁cott	-11.753
▁launch	-11.7534
▁garder	-11.7535
do	-11.7569
▁mor	-11.757
tif	-11.7571
▁Ste	-11.7572
▁expos	-11.7583
▁jou	-11.7589
▁Mi	-11.7593
▁bondi	-11.761
ddy	-11.7616
▁Co	-11.7617
G	-11.7628
emment	-11.765
▁entassé	-11.7653
ordures	-11.7657
▁mar	-11.7674
▁accompanie	-11.7675
▁tabliers	-11.7679
▁shout	-11.7685
▁pinceau	-11.7694
▁baie	-11.7698
op	-11.7699
▁multi	-11.7705
per	-11.7709
écran	-11.7711
ents	-11.7719
▁rid	-11.7721
▁bières	-11.7736
▁toast	-11.7736
ments	-11.7737
▁ballot	-11.7739
▁arrow	-11.7755
▁gri	-11.7762
▁maquillé	-11.7779
▁pic	-11.7794
▁chin	-11.7799
▁rebondi	-11.7804
▁Num	-11.7805
▁writ	-11.7817
▁toss	-11.7819
▁love	-11.7821
country	-11.7825
▁compan	-11.7834
ading	-11.7835
gorge	-11.7837
▁recouvr	-11.7837
attention	-11.7838
ait	-11.7839
Halloween	-11.7846
épaule	-11.785
service	-11.7852
Asiatiques	-11.7857
uniformes	-11.7858
▁dunes	-11.7859
ungle	-11.7861
▁ver	-11.7874
équipement	-11.7886
▁brand	-11.7901
escalader	-11.7916
objets	-11.7933
▁buri	-11.7952
right	-11.7952
venue	-11.7953
jupes	-11.7971
▁crosse	-11.7973
▁Qu	-11.7986
erous	-11.799
▁mort	-11.7991
oreilles	-11.7996
▁say	-11.8003
▁franchi	-11.8004
▁ras	-11.8016
▁flâne	-11.8032
hinese	-11.8049
▁barque	-11.8057
▁excité	-11.8059
▁text	-11.8077
▁fountains	-11.8081
▁mobylette	-11.8087
▁ravin	-11.8087
▁circulaire	-11.8088
alcool	-11.8088
▁mexicain	-11.8091
▁twirl	-11.8098
▁bâche	-11.8099
▁défenseur	-11.8102
▁defender	-11.8104
▁spectateur	-11.8105
▁human	-11.8106
▁character	-11.8107
▁collègue	-11.8107
▁étreint	-11.8107
▁employee	-11.8107
▁cupcake	-11.8107
rasant	-11.811
▁motif	-11.8111
▁nurse	-11.8116
▁cheerleader	-11.8117
▁signing	-11.8128
▁extrémité	-11.8134
▁rassemblée	-11.8152
▁tige	-11.8152
▁season	-11.8156
▁feature	-11.8174
▁fog	-11.8175
▁berge	-11.8183
▁weigh	-11.8186
▁stripe	-11.8186
▁though	-11.8189
▁déneige	-11.8193
▁mitt	-11.8196
▁industriel	-11.8198
ustomers	-11.8199
▁projecteur	-11.8199
▁mascot	-11.8201
▁elevat	-11.8202
athlétisme	-11.8203
▁Muslim	-11.8203
▁activities	-11.8203
▁cathedral	-11.8203
▁cathédrale	-11.8203
▁chirurgien	-11.8203
▁extreme	-11.8203
▁hispanique	-11.8203
▁inachevé	-11.8203
▁javelot	-11.8203
▁lumineux	-11.8203
▁meadow	-11.8203
▁musulman	-11.8203
▁numérique	-11.8203
▁propriétaire	-11.8203
▁puppet	-11.8203
▁récupère	-11.8203
▁toujours	-11.8203
▁trophy	-11.8203
▁trophée	-11.8203
▁wilderness	-11.8203
▁élévateur	-11.8203
▁exercising	-11.8203
▁harbor	-11.8203
▁échantillon	-11.8203
▁caravan	-11.8203
▁fedora	-11.8203
▁guichet	-11.8203
▁progress	-11.8203
▁littoral	-11.8203
▁soigneusement	-11.8203
▁supermarket	-11.8203
▁explosion	-11.8203
▁videotap	-11.8203
▁végétation	-11.8203
▁parallel	-11.8203
▁verdure	-11.8203
▁tigre	-11.8203
▁cygne	-11.8203
▁cellulaire	-11.8203
▁maybe	-11.8203
▁reception	-11.8203
▁chapiteau	-11.8204
▁défilant	-11.8204
▁arabe	-11.8204
▁citizen	-11.8204
▁slacks	-11.8204
▁galets	-11.8204
artisanat	-11.8204
autoroute	-11.8204
▁Island	-11.8204
▁rustic	-11.8204
▁seafood	-11.8204
▁fermier	-11.8204
▁aquatique	-11.8204
▁backseat	-11.8204
▁peloton	-11.8204
▁herbeuse	-11.8204
▁woodland	-11.8204
▁expans	-11.8204
▁resort	-11.8204
▁special	-11.8204
▁visor	-11.8204
▁husky	-11.8204
▁tournage	-11.8204
▁début	-11.8204
▁demonstration	-11.8205
▁facial	-11.8205
▁grotte	-11.8205
▁suivent	-11.8205
▁scientist	-11.8205
écrasant	-11.8205
▁tablecloth	-11.8205
▁buggy	-11.8206
▁mascotte	-11.8206
▁tendue	-11.8206
opard	-11.8206
▁impressionnant	-11.8206
▁compagn	-11.8207
▁textile	-11.8207
▁mattress	-11.8207
▁skyline	-11.8207
▁Ford	-11.8207
▁skydiving	-11.8207
▁roche	-11.8207
▁crops	-11.8207
▁relay	-11.8208
▁poney	-11.8208
▁somewhere	-11.8208
▁mounted	-11.8209
▁frire	-11.8209
▁starring	-11.8209
▁bodysuit	-11.821
▁violoniste	-11.821
Est	-11.821
▁muscula	-11.8211
▁web	-11.8211
élastique	-11.8212
▁baisse	-11.8212
▁Wall	-11.8212
▁sourcils	-11.8212
▁mitaines	-11.8212
▁réparations	-11.8212
▁tiger	-11.8213
▁applaudit	-11.8215
US	-11.8215
▁conducting	-11.8216
▁feutre	-11.8216
▁moulant	-11.8216
▁guerre	-11.8217
▁downhill	-11.8218
act	-11.8219
▁bicyclette	-11.822
▁rentrer	-11.822
eval	-11.8221
▁topless	-11.8221
▁marker	-11.8222
▁mu	-11.8222
ds	-11.8222
▁dryer	-11.8223
▁artificielle	-11.8223
▁brassard	-11.8224
▁cargo	-11.8225
▁sidelines	-11.8227
▁trop	-11.8227
▁terminé	-11.8229
▁niveau	-11.8231
amuser	-11.8233
▁historic	-11.8233
▁sunhat	-11.8234
▁clutch	-11.8237
▁mountaintop	-11.8238
▁crown	-11.8238
ical	-11.824
▁flottent	-11.824
▁autochtone	-11.8242
▁stationnement	-11.8242
▁lush	-11.8243
▁milk	-11.8244
▁broad	-11.8247
▁rollerskates	-11.8251
tôt	-11.8252
▁level	-11.8255
▁information	-11.8255
▁hamburgers	-11.8256
▁Inde	-11.8257
▁stock	-11.8257
▁trotting	-11.8258
▁greet	-11.826
▁quoi	-11.8263
▁vacuuming	-11.8267
▁flame	-11.8268
▁embrace	-11.8269
ened	-11.8269
▁watermelons	-11.8271
▁bananas	-11.8273
▁damage	-11.8276
▁chew	-11.8277
▁personnages	-11.8283
▁bananes	-11.8284
▁exhib	-11.8285
▁Tourists	-11.8286
tend	-11.8291
▁select	-11.8292
▁Washington	-11.8296
▁lanterns	-11.8297
▁employees	-11.8301
▁collègues	-11.8301
▁characters	-11.8301
▁cupcakes	-11.8301
▁lanternes	-11.8302
▁indiqu	-11.8303
▁appartement	-11.8306
▁enseignante	-11.8306
▁vocal	-11.8316
▁colorfully	-11.8317
▁bloque	-11.8322
▁touchent	-11.8326
▁skill	-11.8327
▁attracti	-11.833
serves	-11.8333
▁ordering	-11.8334
▁shooter	-11.8335
fin	-11.8337
▁ultim	-11.8345
▁monitors	-11.8346
oles	-11.8349
shape	-11.835
▁Indien	-11.8355
▁DS	-11.836
▁upwards	-11.8361
▁pliantes	-11.8364
▁shack	-11.8367
▁dolls	-11.838
▁para	-11.8381
▁rallye	-11.8381
▁chevalet	-11.8384
▁tutus	-11.8389
▁camels	-11.8395
ges	-11.8401
tats	-11.8403
▁coéquipiers	-11.8406
▁écouter	-11.8406
ogie	-11.8414
▁coco	-11.8416
hole	-11.8416
▁étudiante	-11.8417
▁fold	-11.8419
▁necklaces	-11.8421
▁prepared	-11.8422
▁jar	-11.8425
▁jailliss	-11.8428
▁border	-11.8431
▁barrels	-11.8434
ange	-11.8436
der	-11.8439
▁pêchent	-11.844
▁Walk	-11.8441
▁élève	-11.8441
▁anti	-11.8442
im	-11.8457
▁drawn	-11.8458
▁award	-11.8459
teindre	-11.8463
▁snacks	-11.8463
▁professionnels	-11.8466
▁amies	-11.8469
▁gay	-11.847
tory	-11.848
▁seating	-11.848
▁peaks	-11.8496
iversity	-11.8508
▁magnifiques	-11.8511
▁floue	-11.8512
▁brille	-11.8514
▁sold	-11.8527
let	-11.8528
▁armor	-11.8541
▁advertisements	-11.8541
▁fabriqu	-11.8546
▁need	-11.8549
infirmières	-11.8554
▁polos	-11.8567
▁Halloween	-11.8574
N	-11.8576
▁pleu	-11.8582
entourent	-11.8585
▁alimentaires	-11.8587
▁Nat	-11.86
▁organiz	-11.8605
embers	-11.8641
The	-11.8642
▁paw	-11.8646
▁tableaux	-11.8657
▁beiges	-11.8665
▁teint	-11.8667
ennis	-11.8669
▁strings	-11.8677
▁gonflables	-11.8677
▁élégant	-11.8682
▁balais	-11.8692
sur	-11.8693
▁peigne	-11.8702
▁trains	-11.8703
▁mouillée	-11.8704
▁bounce	-11.8724
dults	-11.8724
▁mic	-11.8729
sent	-11.8729
urry	-11.8738
ars	-11.8743
▁troncs	-11.8745
▁medi	-11.8755
▁perch	-11.8755
▁bump	-11.8756
▁gratt	-11.8761
▁stars	-11.8762
▁weight	-11.8764
▁pulvérise	-11.8767
▁guards	-11.8785
▁wrapp	-11.8797
▁dropp	-11.8815
▁str	-11.8821
errier	-11.8824
back	-11.8825
▁impliqué	-11.8825
▁trempé	-11.8847
agged	-11.8849
▁glissa	-11.8854
▁fat	-11.886
▁quitt	-11.887
▁électriques	-11.8874
▁prélass	-11.8878
camera	-11.8883
▁Shop	-11.8883
ients	-11.8899
▁quiet	-11.89
dressed	-11.8907
tes	-11.8918
▁poser	-11.8923
▁expose	-11.8928
▁jets	-11.8939
▁dump	-11.8949
▁symbol	-11.8971
▁pans	-11.8976
▁décorée	-11.8976
effor	-11.8978
▁artists	-11.8978
▁shi	-11.8982
▁mauvaise	-11.8987
▁scal	-11.8998
ler	-11.9006
▁sad	-11.9006
▁Protest	-11.9013
▁dot	-11.9016
F	-11.9018
▁Power	-11.902
▁harp	-11.9034
opping	-11.9043
oney	-11.9044
▁statues	-11.9052
ppy	-11.9053
▁railings	-11.9055
▁cats	-11.9062
ather	-11.9076
▁attach	-11.9081
▁impatie	-11.9082
▁eff	-11.9083
ose	-11.9086
▁accrochée	-11.9091
▁Long	-11.9091
▁slic	-11.9107
▁masques	-11.9108
yed	-11.9117
▁hour	-11.9126
▁polish	-11.9127
▁remov	-11.9128
cart	-11.9135
▁locale	-11.9141
erry	-11.9144
▁occupée	-11.9146
▁sc	-11.9152
ssing	-11.9153
ap	-11.9158
▁suspend	-11.9166
▁drape	-11.9167
▁crab	-11.9174
▁récolte	-11.9177
▁rocheuses	-11.918
▁élégante	-11.9205
▁own	-11.9212
▁us	-11.9234
▁auto	-11.9235
▁flow	-11.9236
▁desks	-11.9243
ack	-11.9256
▁passé	-11.926
ood	-11.9264
voyant	-11.9271
ché	-11.928
tête	-11.928
▁corne	-11.929
▁sip	-11.9295
▁protég	-11.9295
▁serveu	-11.9303
▁paresse	-11.9322
ress	-11.9364
▁souple	-11.9382
▁lin	-11.9383
▁tisse	-11.939
▁japonaise	-11.9394
▁marécage	-11.9397
amour	-11.9399
▁ri	-11.9411
andy	-11.9418
▁salad	-11.942
▁Ge	-11.9421
▁explore	-11.9422
▁comb	-11.9436
▁soup	-11.9436
▁concentrate	-11.9436
try	-11.9441
▁termin	-11.9446
▁attein	-11.9453
ively	-11.9457
▁build	-11.9464
▁recline	-11.947
▁manuel	-11.9474
▁souriants	-11.9477
▁pops	-11.9491
York	-11.9493
entourant	-11.9505
storm	-11.9507
documents	-11.9516
individus	-11.9516
épée	-11.9524
ging	-11.9529
allure	-11.9536
high	-11.9537
marine	-11.9551
▁pou	-11.956
filled	-11.956
▁oil	-11.956
▁spr	-11.9561
▁fro	-11.957
tendant	-11.9572
day	-11.9576
▁beers	-11.9584
née	-11.9586
▁mon	-11.9586
▁connecte	-11.9597
ver	-11.9598
ung	-11.9598
held	-11.9602
jour	-11.9602
▁shirted	-11.9606
▁release	-11.9606
▁serré	-11.9618
▁accroche	-11.9628
ri	-11.9629
her	-11.9636
▁wo	-11.9639
▁disposi	-11.9658
ête	-11.9666
▁fou	-11.9675
▁soulevé	-11.9684
gers	-11.9698
▁réalise	-11.9698
▁Wi	-11.9702
▁interagi	-11.9703
▁réfléchi	-11.9703
▁sail	-11.9706
▁bouc	-11.9716
▁kn	-11.9716
▁fontaines	-11.973
ctors	-11.9738
▁chargé	-11.9747
çon	-11.9747
▁cassé	-11.9748
▁briefcase	-11.9753
▁dossard	-11.9753
▁skull	-11.9754
▁handbag	-11.9755
▁brid	-11.9763
▁mode	-11.9764
▁fork	-11.9766
▁synchronisée	-11.9767
▁hutte	-11.9768
▁question	-11.9769
▁pillar	-11.977
▁bou	-11.977
▁friandise	-11.9771
▁weapon	-11.9771
▁activité	-11.9772
▁zombie	-11.9772
▁poncho	-11.9772
▁Tourist	-11.9773
▁banane	-11.9775
▁spik	-11.9776
▁buisson	-11.9777
▁tribu	-11.9777
▁colonne	-11.9778
▁temp	-11.9779
▁meuble	-11.9781
▁personnage	-11.9783
▁crate	-11.9786
▁porc	-11.9787
▁enseignant	-11.9796
▁sweet	-11.9802
▁patte	-11.981
irefighters	-11.9813
▁trim	-11.9813
▁dépasse	-11.9815
▁scout	-11.9822
▁via	-11.9827
▁cable	-11.9829
▁levé	-11.9831
▁serpent	-11.9831
▁note	-11.9841
▁too	-11.9843
▁dessinée	-11.9847
oddler	-11.9847
▁remett	-11.9849
▁tomato	-11.9855
▁regroupé	-11.9857
▁app	-11.986
▁zip	-11.986
den	-11.986
▁ceremon	-11.9861
▁clarinet	-11.9868
▁balaye	-11.9868
▁baton	-11.9869
▁fantaisi	-11.987
affichage	-11.987
▁Basketball	-11.987
▁Berlin	-11.987
▁Cowboy	-11.987
▁Pizza	-11.987
▁album	-11.987
▁alcohol	-11.987
▁brindle	-11.987
▁bronco	-11.987
▁caucasien	-11.987
▁concession	-11.987
▁crocodile	-11.987
▁encadré	-11.987
▁husband	-11.987
▁intitulé	-11.987
▁invisible	-11.987
▁kiosk	-11.987
▁liquor	-11.987
▁monopoly	-11.987
▁ninja	-11.987
▁opinion	-11.987
▁paisible	-11.987
▁perplexe	-11.987
▁physique	-11.987
▁pittoresque	-11.987
▁professor	-11.987
▁scissors	-11.987
▁spatula	-11.987
▁spatule	-11.987
▁sunshine	-11.987
▁trébuch	-11.987
▁télésiège	-11.987
▁zébré	-11.987
▁bouleversé	-11.987
▁fluorescent	-11.987
▁lipstick	-11.987
▁ornament	-11.987
▁patrouille	-11.987
▁razor	-11.987
▁Company	-11.987
▁antiémeute	-11.987
▁lycée	-11.987
▁léopard	-11.987
▁recreat	-11.987
▁Hotel	-11.987
▁maigre	-11.987
▁Angels	-11.987
▁crochet	-11.987
▁jazz	-11.987
▁situation	-11.987
▁Angeles	-11.987
▁détritus	-11.987
▁lavabo	-11.987
▁Surfer	-11.987
▁Certain	-11.987
▁rétro	-11.987
▁intensément	-11.987
▁navigable	-11.987
▁ciseaux	-11.987
▁tortue	-11.987
▁bardeaux	-11.987
▁system	-11.987
▁nightclub	-11.987
▁Volkswagen	-11.987
▁soudure	-11.987
▁boulangerie	-11.987
▁geisha	-11.987
▁Claus	-11.987
▁seesaw	-11.987
▁High	-11.987
▁secouriste	-11.987
▁tatoueur	-11.987
▁Life	-11.987
▁rustique	-11.987
▁rasoir	-11.987
▁archway	-11.987
▁BMW	-11.987
▁breath	-11.987
▁cuivre	-11.9871
▁propane	-11.9871
▁riverbank	-11.9871
▁compagnie	-11.9871
▁Lakers	-11.9871
▁typique	-11.9871
▁tunic	-11.9871
▁lourd	-11.9871
▁operation	-11.9871
▁médicaux	-11.9871
▁fitness	-11.9871
▁Spiderman	-11.9871
▁curious	-11.9871
▁wonder	-11.9872
▁dra	-11.9872
▁arbor	-11.9872
▁panda	-11.9872
▁ruade	-11.9872
▁hipster	-11.9872
▁projection	-11.9872
▁goatee	-11.9872
▁remue	-11.9873
▁relais	-11.9873
▁suburb	-11.9873
▁vieillard	-11.9873
▁sharp	-11.9873
▁index	-11.9873
▁Wii	-11.9873
▁crack	-11.9873
▁dirigé	-11.9874
▁socializing	-11.9874
OR	-11.9874
▁bloqué	-11.9875
▁forestière	-11.9875
▁wineglasses	-11.9875
▁constructed	-11.9875
▁clap	-11.9875
▁sauveteur	-11.9875
▁campement	-11.9875
▁audio	-11.9876
▁saddle	-11.9876
▁tunique	-11.9876
▁chunk	-11.9876
▁frown	-11.9877
▁radeaux	-11.9877
▁hairstyle	-11.9877
▁poker	-11.9877
five	-11.9877
▁Rod	-11.9878
▁glider	-11.9878
▁pédalant	-11.9879
▁Cyclist	-11.988
▁tuyaux	-11.988
▁saucisses	-11.9881
▁mittens	-11.9881
▁clos	-11.9881
▁session	-11.9881
▁sailor	-11.9881
▁assembled	-11.9881
▁fireworks	-11.9881
▁completely	-11.9881
▁Bikers	-11.9881
▁excitedly	-11.9881
▁parvien	-11.9883
▁knitting	-11.9883
▁cash	-11.9883
▁Ice	-11.9883
▁grillage	-11.9883
▁banlieue	-11.9884
▁enterré	-11.9885
▁surveillant	-11.9885
▁tomatoes	-11.9886
▁pride	-11.9886
▁joyeuse	-11.9886
▁puff	-11.9888
▁Colle	-11.9889
▁sauna	-11.9889
▁criant	-11.989
▁obten	-11.989
▁secours	-11.9891
▁barreaux	-11.9891
▁mosa	-11.9892
▁prient	-11.9896
▁flaming	-11.9896
▁priant	-11.9897
rows	-11.9897
▁ceris	-11.9897
▁souvenirs	-11.9898
▁poudre	-11.9898
▁belly	-11.9898
▁bridesmaids	-11.9899
▁policemen	-11.99
sse	-11.99
▁sueur	-11.9902
▁East	-11.9902
▁eager	-11.9904
▁roulé	-11.9905
▁yo	-11.9905
▁tresses	-11.9906
ièrement	-11.9908
▁bouton	-11.9908
▁Gray	-11.9909
▁sponsor	-11.991
▁menton	-11.991
▁Ho	-11.9911
▁words	-11.9912
▁pastel	-11.9912
▁trio	-11.9912
▁melons	-11.9913
▁exposées	-11.9915
▁Superman	-11.9915
▁equ	-11.9916
▁champs	-11.9916
▁ascend	-11.9917
▁enflammés	-11.9917
▁stay	-11.9919
▁texting	-11.992
▁plongeon	-11.992
▁Skier	-11.9924
anneaux	-11.9925
▁prêtre	-11.9926
▁rouillée	-11.9927
▁rondin	-11.9927
▁détourn	-11.9931
amily	-11.9931
▁mouettes	-11.9932
▁remet	-11.9932
▁Joe	-11.9937
acheteurs	-11.9937
▁tips	-11.9938
▁strik	-11.9938
▁inférieure	-11.9938
▁tumbling	-11.994
▁clothed	-11.994
▁dribbl	-11.9941
▁steer	-11.9941
▁Dirt	-11.9942
▁Sud	-11.9947
▁plonger	-11.9951
▁blower	-11.9952
▁marsh	-11.9952
▁éclaboussé	-11.9953
▁ollie	-11.9953
▁waterside	-11.9954
▁girlfriend	-11.9955
▁grimper	-11.9957
▁checked	-11.9962
▁scratch	-11.9962
▁loupe	-11.9963
▁mout	-11.9964
▁ponchos	-11.9969
▁zombies	-11.9969
▁signal	-11.9969
▁occup	-11.9971
▁surplombe	-11.9974
▁ancienne	-11.9976
▁talkie	-11.9977
▁enceinte	-11.9978
▁blurr	-11.9978
▁Bull	-11.9979
▁stair	-11.9981
▁South	-11.9982
▁essuie	-11.9983
▁approchant	-11.9983
▁ombres	-11.9986
▁framed	-11.9988
▁gowns	-11.9989
▁ascension	-11.9991
▁cassée	-11.9994
▁projecteurs	-11.9996
▁Hous	-12
▁nails	-12.0001
▁ethniques	-12.0005
▁citrouilles	-12.0005
▁swan	-12.0005
▁spots	-12.0008
▁cierge	-12.0008
▁poussé	-12.0011
ame	-12.0011
▁ravine	-12.0012
▁Day	-12.0012
▁snowball	-12.0013
▁vigo	-12.0017
▁lapins	-12.0018
▁vision	-12.0024
▁débarrasse	-12.0024
W	-12.003
▁personnels	-12.0032
▁déguisées	-12.0032
▁poulets	-12.0038
▁minces	-12.0039
▁pyramide	-12.0039
▁éclairages	-12.0041
▁festive	-12.0052
▁varie	-12.0053
▁construite	-12.0053
▁rugs	-12.0056
▁occupés	-12.0058
▁tâches	-12.0062
▁flood	-12.0065
▁decide	-12.0069
▁bonhomme	-12.0069
▁rondes	-12.0072
▁boxers	-12.0075
▁éléphants	-12.0077
▁Jew	-12.0079
▁exposés	-12.008
▁boa	-12.0084
écrase	-12.0088
▁ref	-12.0091
▁haul	-12.0092
▁want	-12.0093
▁barriers	-12.0094
▁chand	-12.0095
▁épées	-12.0096
▁brow	-12.0112
elve	-12.0112
▁McDonalds	-12.0112
▁étend	-12.0113
lly	-12.0119
▁projetée	-12.0122
ey	-12.0123
▁strip	-12.0126
▁attack	-12.0128
▁valises	-12.013
▁ribbons	-12.013
▁médecins	-12.013
▁poupées	-12.013
▁gonfle	-12.0137
▁u	-12.014
▁descente	-12.0144
▁ajust	-12.0144
▁brooms	-12.015
▁console	-12.015
▁ja	-12.0153
▁cerfs	-12.0155
tex	-12.0158
arde	-12.0158
Bo	-12.016
▁arriv	-12.0161
▁blocking	-12.017
set	-12.017
▁kit	-12.0171
▁beams	-12.0173
▁change	-12.0174
▁doctors	-12.0177
▁enseignes	-12.0184
ootball	-12.019
▁planter	-12.019
▁dots	-12.0191
▁swords	-12.0202
▁formations	-12.0205
Bron	-12.0206
▁wok	-12.0207
qui	-12.0212
▁jumpsuits	-12.0221
▁hearts	-12.0225
▁africaines	-12.0228
▁cl	-12.0229
▁allure	-12.0232
▁secure	-12.0239
▁marathonien	-12.0239
▁devanture	-12.0242
stretched	-12.0247
▁turbans	-12.0254
▁sound	-12.0257
ouche	-12.0268
▁tropicale	-12.0268
▁sleeves	-12.0273
ide	-12.0275
▁mots	-12.0277
▁Bill	-12.0277
▁flee	-12.0281
▁Loca	-12.0286
ta	-12.0292
hree	-12.0292
▁publicités	-12.0293
▁bows	-12.0304
▁cages	-12.0308
▁bottoms	-12.0308
▁péta	-12.0308
▁Mick	-12.031
ster	-12.031
▁tricycles	-12.031
▁skim	-12.0316
▁presents	-12.0318
▁acier	-12.0318
▁litter	-12.0319
▁drying	-12.0324
▁pipes	-12.0328
▁wheelchairs	-12.0329
▁serviettes	-12.0329
▁utili	-12.0332
ages	-12.0345
ssed	-12.0345
ères	-12.0346
▁Minne	-12.0348
aller	-12.0366
▁Sal	-12.0367
▁lands	-12.0367
▁assisting	-12.0376
▁pend	-12.038
ot	-12.038
▁plaine	-12.0393
▁devices	-12.0401
▁vaches	-12.0403
▁rafts	-12.0417
enne	-12.042
da	-12.0423
▁museau	-12.0432
▁raining	-12.0434
con	-12.044
got	-12.0441
▁slopes	-12.0445
wearing	-12.0456
▁noses	-12.0467
▁visite	-12.0482
▁soupe	-12.0488
lin	-12.0489
va	-12.0496
▁Ja	-12.05
▁escalader	-12.0519
▁stunts	-12.052
ugging	-12.0525
iens	-12.0532
▁vise	-12.0534
head	-12.0539
▁So	-12.0543
ummer	-12.0544
▁Mad	-12.0551
▁toilet	-12.0554
▁press	-12.0565
▁golfeur	-12.0567
tation	-12.0572
ponge	-12.058
▁stationnée	-12.0592
▁mise	-12.0595
▁trans	-12.0614
▁brunes	-12.0616
▁profondes	-12.0622
▁suspendus	-12.0641
▁crabe	-12.0646
ctur	-12.0649
▁chats	-12.066
▁Nou	-12.0664
▁plush	-12.0665
table	-12.0665
▁rapport	-12.0668
asse	-12.0679
▁lanes	-12.0688
ber	-12.069
▁vides	-12.0693
mo	-12.0701
ex	-12.0712
erçant	-12.0723
▁magnif	-12.0727
pose	-12.0734
▁suite	-12.0734
hat	-12.0751
▁hear	-12.076
eling	-12.0763
▁strollers	-12.0781
▁entraînement	-12.0782
▁approche	-12.0784
▁campeur	-12.0791
▁déroule	-12.08
hand	-12.0802
▁may	-12.0815
▁mow	-12.082
▁care	-12.0825
▁sp	-12.0839
cteur	-12.084
bo	-12.0855
io	-12.0871
ize	-12.0887
▁colliers	-12.0891
▁ferr	-12.0892
hose	-12.0905
ngry	-12.0905
▁pelles	-12.0908
time	-12.0913
ellow	-12.0935
▁Chi	-12.0936
posés	-12.0952
▁breaks	-12.0956
▁limb	-12.0963
wards	-12.0963
▁Grand	-12.0966
▁trous	-12.0966
▁vitrines	-12.0971
insi	-12.0974
ilitary	-12.0981
▁conveni	-12.0983
▁Tim	-12.0992
▁amus	-12.1001
▁surfeurs	-12.1003
robe	-12.1012
▁Met	-12.1016
▁savour	-12.1018
▁tambourin	-12.103
eautiful	-12.104
thing	-12.1041
▁peak	-12.1058
white	-12.106
▁axe	-12.1061
▁squa	-12.1065
▁stationné	-12.1083
tery	-12.1084
ément	-12.1086
mat	-12.109
short	-12.1093
▁Pe	-12.1096
mble	-12.1107
artial	-12.1111
▁diplômé	-12.1122
Unis	-12.1134
▁regardé	-12.1161
rious	-12.1164
▁Asians	-12.1166
rded	-12.1171
▁origin	-12.1178
skating	-12.1183
▁don	-12.12
lage	-12.1203
▁wade	-12.1212
iving	-12.123
échant	-12.124
piece	-12.1247
objet	-12.1264
▁rapporte	-12.1268
▁gen	-12.1278
▁incliné	-12.1288
▁illuminé	-12.1291
▁coiffé	-12.1291
▁stre	-12.1292
ok	-12.1292
pool	-12.1294
cast	-12.1295
▁cho	-12.13
woman	-12.1307
hoop	-12.131
▁principale	-12.1323
▁chip	-12.1352
ay	-12.136
▁flu	-12.1362
Le	-12.1376
▁assort	-12.1379
exercice	-12.1389
▁vertical	-12.1391
▁manipul	-12.1397
▁mark	-12.1408
▁search	-12.1408
corn	-12.1418
▁glid	-12.1422
égout	-12.1428
▁stretch	-12.1429
rest	-12.1429
▁demand	-12.1436
work	-12.1448
wheeler	-12.1451
▁cord	-12.1453
ka	-12.1458
évite	-12.147
ra	-12.1486
acier	-12.1487
uma	-12.1488
cercle	-12.1493
informatique	-12.1494
▁pie	-12.1494
Asie	-12.1496
▁frott	-12.15
articles	-12.1502
asphalte	-12.1504
▁trotte	-12.1509
harmonica	-12.1511
▁pourchasse	-12.1511
hôtel	-12.1514
acheter	-12.1515
break	-12.1518
▁canin	-12.1518
▁porté	-12.152
cteurs	-12.1521
tage	-12.154
artistes	-12.1547
▁clou	-12.1549
▁barbecu	-12.1549
▁tip	-12.1561
outils	-12.1564
▁entr	-12.1564
▁emerge	-12.1565
ctively	-12.1566
lic	-12.1571
cting	-12.1574
▁mouths	-12.1579
uds	-12.1581
▁Ca	-12.1597
ft	-12.1598
enlaçant	-12.1599
itty	-12.1613
▁submerge	-12.1613
▁major	-12.162
oiseau	-12.162
▁culture	-12.1629
aby	-12.1636
▁shad	-12.1644
▁bring	-12.1658
▁toque	-12.1658
▁pray	-12.167
▁hung	-12.1674
▁plow	-12.1679
mêmes	-12.168
▁déployé	-12.168
▁wipe	-12.1682
▁encl	-12.1705
▁truc	-12.1709
sion	-12.1717
▁multicolor	-12.1718
roll	-12.1719
▁choisi	-12.1725
▁demonstrat	-12.1731
▁allumé	-12.1735
teur	-12.1735
▁commerçant	-12.1736
▁légère	-12.174
chefs	-12.1741
▁important	-12.1744
▁final	-12.1746
▁asphalt	-12.1748
▁surélevé	-12.1749
▁engag	-12.175
▁nom	-12.1752
▁marionnette	-12.1753
▁flèche	-12.1753
▁arroseur	-12.1757
▁sister	-12.176
sol	-12.1761
▁cahier	-12.1763
▁chiffon	-12.1763
▁vitrée	-12.1764
▁canadien	-12.1764
▁jeté	-12.1766
▁concurrent	-12.1768
▁Bicyclist	-12.1768
▁inscription	-12.1769
▁maître	-12.1771
▁watermelon	-12.1773
▁fau	-12.1774
▁banana	-12.1775
▁kimono	-12.1775
▁jog	-12.1776
création	-12.1776
▁bagpipe	-12.1776
▁pedestrian	-12.1776
▁expert	-12.1778
▁backward	-12.1779
▁empil	-12.1782
▁billet	-12.1782
▁dinde	-12.1782
▁féminine	-12.1783
ional	-12.1784
▁télé	-12.1788
▁pig	-12.1788
▁cookie	-12.1789
▁struggl	-12.179
▁cooler	-12.179
▁rouleau	-12.1791
▁protester	-12.1794
haps	-12.1803
▁Work	-12.1806
ult	-12.1808
▁répét	-12.1817
ag	-12.1821
▁découpé	-12.1822
▁snorkel	-12.1824
▁kart	-12.1832
▁perd	-12.1838
▁compos	-12.1839
▁gu	-12.184
ité	-12.1843
ho	-12.1846
▁agita	-12.1847
▁Japon	-12.1849
▁know	-12.1853
▁européen	-12.1856
taille	-12.1857
▁sauce	-12.1859
▁percute	-12.1861
▁quat	-12.1862
▁competitive	-12.1864
▁soft	-12.1867
▁tram	-12.1869
▁rehears	-12.187
UNICEF	-12.187
▁Golden	-12.187
▁Hispani	-12.187
▁Photographer	-12.187
▁Renaissance	-12.187
▁apparatus	-12.187
▁autocollant	-12.187
▁blossom	-12.187
▁bookshelf	-12.187
▁britannique	-12.187
▁cafétéria	-12.187
▁cagoule	-12.187
▁camarade	-12.187
▁cimetière	-12.187
▁céréales	-12.187
▁dauphin	-12.187
▁discothèque	-12.187
▁disponibles	-12.187
▁dolphin	-12.187
▁désordonné	-12.187
▁javelin	-12.187
▁liberté	-12.187
▁lumineuse	-12.187
▁pacifier	-12.187
▁peacock	-12.187
▁renaissance	-12.187
▁rocailleux	-12.187
▁tyrolienne	-12.187
▁unknown	-12.187
▁watercraft	-12.187
▁zebra	-12.187
▁aérosol	-12.187
▁bétail	-12.187
▁décombres	-12.187
▁excitement	-12.187
▁gallop	-12.187
▁vegetation	-12.187
▁charbon	-12.187
▁dizaine	-12.187
▁elbow	-12.187
▁corniche	-12.187
▁déambulateur	-12.187
▁fingernail	-12.187
▁tightrope	-12.187
▁ukulele	-12.187
estrian	-12.187
▁carousel	-12.187
▁Gentlem	-12.187
▁Patrick	-12.187
▁hijab	-12.187
▁represent	-12.187
▁Rodeo	-12.187
▁squelette	-12.187
▁refresh	-12.187
▁nettoyage	-12.187
▁France	-12.187
▁fossé	-12.187
▁Dancers	-12.187
▁coloriage	-12.187
▁treilli	-12.187
▁Castro	-12.187
▁dominos	-12.187
▁fourneaux	-12.187
▁passionate	-12.187
▁campsite	-12.187
▁stylish	-12.187
▁représentation	-12.187
▁passionné	-12.187
▁shoeshine	-12.187
▁hippique	-12.187
▁community	-12.187
▁kitten	-12.187
▁nouilles	-12.187
▁applaudissant	-12.187
▁ordinaire	-12.187
▁rowboat	-12.187
▁sacoche	-12.187
▁vacation	-12.187
▁exciting	-12.187
▁malheureux	-12.187
▁remote	-12.187
▁curtain	-12.187
▁overhang	-12.1871
▁touristique	-12.1871
▁meilleur	-12.1871
▁identical	-12.1871
▁swamp	-12.1871
▁sponsorisé	-12.1871
▁cinder	-12.1871
▁fourchette	-12.1871
▁mignon	-12.1871
▁canopy	-12.1871
▁cartwheel	-12.1871
▁amarré	-12.1871
▁dragster	-12.1871
▁exhibition	-12.1871
▁fireplace	-12.1871
▁cartoon	-12.1871
▁Coffee	-12.1871
▁enroulé	-12.1871
▁tiara	-12.1871
▁blindfolded	-12.1871
▁escape	-12.1871
▁religieux	-12.1871
▁backstroke	-12.1871
▁york	-12.1871
▁extension	-12.1872
▁Singer	-12.1872
▁tricoté	-12.1872
▁shelves	-12.1872
▁retrouve	-12.1872
▁Hero	-12.1872
▁clock	-12.1872
▁earth	-12.1872
▁saleté	-12.1872
▁nibbl	-12.1872
▁dentaire	-12.1872
▁sifflet	-12.1872
▁Gap	-12.1872
▁neuf	-12.1872
▁drunk	-12.1872
autobus	-12.1873
▁Soldier	-12.1873
▁passerby	-12.1873
▁attentively	-12.1873
▁clarinette	-12.1873
▁California	-12.1873
▁eyeglasses	-12.1873
▁scantily	-12.1873
▁rubble	-12.1873
▁cattle	-12.1873
▁couture	-12.1873
▁promener	-12.1873
▁bakery	-12.1873
▁priest	-12.1873
▁randonneuse	-12.1873
▁démarrer	-12.1874
▁merchant	-12.1874
▁labrado	-12.1874
▁Story	-12.1874
▁honor	-12.1874
▁hanches	-12.1874
▁bringé	-12.1874
▁answer	-12.1875
▁mixage	-12.1875
▁gigant	-12.1875
▁parachuting	-12.1875
▁whistle	-12.1875
▁sweatsuit	-12.1876
▁bathrobe	-12.1876
▁aspergé	-12.1876
▁sketch	-12.1877
▁selection	-12.1877
▁slab	-12.1877
eep	-12.1877
▁greenery	-12.1877
▁daylight	-12.1878
▁confused	-12.1878
▁depict	-12.1879
▁lovely	-12.1879
apid	-12.1879
▁masqué	-12.188
▁clothesline	-12.188
▁contrebasse	-12.188
▁sujet	-12.188
▁Femme	-12.188
▁puits	-12.188
▁français	-12.188
▁Scout	-12.1882
▁produire	-12.1883
▁competitors	-12.1883
▁gratuits	-12.1883
▁ruins	-12.1883
▁observé	-12.1883
▁oversize	-12.1884
▁SU	-12.1885
▁deliver	-12.1886
▁rythme	-12.1887
▁Grouch	-12.1887
▁lacets	-12.1887
▁courbe	-12.1889
▁léger	-12.1889
▁snake	-12.189
▁encourageant	-12.189
▁grains	-12.1891
▁mâcher	-12.1893
▁lessive	-12.1893
▁steam	-12.1895
▁zoom	-12.1896
▁floaties	-12.1897
▁interviewed	-12.1898
▁ruines	-12.1904
▁Sports	-12.1904
▁bandés	-12.1904
▁figurines	-12.1904
▁Rollerblades	-12.1904
▁étage	-12.1908
▁nine	-12.1908
▁early	-12.191
▁collide	-12.1911
▁weave	-12.1912
▁karting	-12.1914
▁You	-12.1914
▁lama	-12.1914
▁cutout	-12.1915
▁struggles	-12.1917
▁headset	-12.1919
▁strawberr	-12.1919
▁cruis	-12.192
▁fashionabl	-12.192
▁flexible	-12.192
▁pleurer	-12.1921
▁agripp	-12.1921
▁tressés	-12.1921
▁audition	-12.1921
▁paysan	-12.1923
▁volunteer	-12.1924
▁earrings	-12.1926
▁assorties	-12.1926
▁fle	-12.1926
▁dalles	-12.1927
▁toilettes	-12.1927
▁jack	-12.1928
▁keys	-12.1932
▁upper	-12.1933
▁parachutist	-12.1933
▁levée	-12.1938
▁fairy	-12.1941
▁médiévale	-12.1941
▁envol	-12.1941
▁force	-12.1942
vi	-12.1944
▁étui	-12.1946
▁dramatic	-12.1946
▁inconnue	-12.1947
▁squirt	-12.1948
▁glacières	-12.1948
▁rien	-12.195
▁seagulls	-12.195
▁frite	-12.1952
▁shingles	-12.1956
▁courtes	-12.1957
▁chal	-12.1957
▁sprinte	-12.1959
▁morte	-12.1962
▁grave	-12.1962
▁crowns	-12.1964
▁cuve	-12.1964
ime	-12.1965
▁décide	-12.1966
▁sci	-12.1966
▁wool	-12.1967
▁handicapée	-12.1969
▁étages	-12.197
▁crib	-12.197
▁coolers	-12.1975
▁garment	-12.1975
▁served	-12.1976
▁breast	-12.1978
▁ambulanc	-12.1979
▁entertainer	-12.1982
▁chaton	-12.1987
▁weapons	-12.1992
▁flour	-12.1992
▁respond	-12.1993
▁friandises	-12.1993
▁marking	-12.1993
▁ça	-12.1994
▁poilu	-12.1995
▁hu	-12.2002
adresse	-12.2003
▁drapé	-12.2006
▁bones	-12.2011
mes	-12.2012
▁diplôme	-12.2012
▁fée	-12.2013
▁legged	-12.2014
▁cli	-12.2014
▁quille	-12.2016
ong	-12.2016
▁arrêtée	-12.2017
▁tribe	-12.2018
▁foam	-12.202
▁safe	-12.2022
▁barking	-12.2028
▁noms	-12.2029
éclabouss	-12.203
▁informal	-12.203
hirtless	-12.2033
▁matin	-12.2035
front	-12.2038
▁feathers	-12.2051
▁lost	-12.2054
▁cire	-12.2055
▁given	-12.2059
ig	-12.206
▁leashes	-12.2061
▁exercices	-12.2061
aillant	-12.2063
▁marins	-12.2065
▁nourriss	-12.2071
▁magici	-12.2073
▁dash	-12.2073
▁couette	-12.2074
▁carried	-12.2076
▁torche	-12.2076
▁trays	-12.2078
▁goats	-12.2078
▁contemplat	-12.2079
▁laveur	-12.2079
▁trot	-12.2079
▁civile	-12.2079
▁tickets	-12.2082
▁slop	-12.2083
▁agitée	-12.2089
▁canettes	-12.209
▁jug	-12.2093
▁medal	-12.2097
▁haies	-12.2098
▁encouragent	-12.2098
voir	-12.2102
▁ratisse	-12.2102
▁cheeks	-12.2104
long	-12.2105
mas	-12.2106
▁defens	-12.2107
▁canon	-12.211
▁appliqu	-12.2117
▁botte	-12.2122
▁suitcases	-12.2127
▁grin	-12.2128
▁recent	-12.213
▁troupe	-12.2131
▁spend	-12.2144
▁clearing	-12.2145
ucking	-12.2153
▁sight	-12.2159
▁engins	-12.2159
▁étoiles	-12.2159
yer	-12.2159
▁anno	-12.2163
▁completed	-12.2163
ueuses	-12.2166
▁géantes	-12.2168
▁smashe	-12.2169
cement	-12.2173
▁cornes	-12.2179
ants	-12.2181
▁emerg	-12.2186
ello	-12.2192
▁elephants	-12.2194
dies	-12.2195
▁dorées	-12.2196
▁Fisherm	-12.2197
▁taste	-12.2201
▁apples	-12.2202
TE	-12.2202
▁solder	-12.2204
▁activités	-12.2209
ward	-12.2213
▁handles	-12.2216
▁banderoles	-12.2216
▁motorbikes	-12.2216
▁artistiques	-12.2217
▁carri	-12.2218
▁anneau	-12.2229
▁sangle	-12.223
▁snowman	-12.223
▁fusils	-12.2238
▁storefronts	-12.2238
▁ombrelles	-12.2239
viron	-12.2255
▁sodas	-12.2257
▁mind	-12.2262
skier	-12.2266
▁construct	-12.2272
marqué	-12.2273
▁horns	-12.2273
▁applaudi	-12.2278
▁mène	-12.2281
▁domin	-12.2289
tch	-12.2297
▁Che	-12.2302
ried	-12.2311
▁cliente	-12.2314
▁chains	-12.2317
▁supports	-12.2319
▁dorés	-12.2323
iki	-12.2324
lender	-12.2325
phone	-12.2328
▁opponents	-12.2328
▁nun	-12.2331
èches	-12.2333
ador	-12.2341
enfonce	-12.2351
▁auvent	-12.2357
▁assemble	-12.2358
▁pursu	-12.236
▁storm	-12.236
pêcher	-12.2361
▁photographing	-12.2368
▁pense	-12.2368
▁asphalte	-12.2379
▁divertiss	-12.2382
pack	-12.2383
ank	-12.2386
▁verticale	-12.2386
▁quilt	-12.2386
uck	-12.2386
▁towels	-12.2388
▁coupé	-12.2391
▁longueur	-12.2392
▁bosse	-12.2405
ti	-12.2407
▁tra	-12.2412
▁parka	-12.2418
▁gosse	-12.2422
▁poke	-12.2427
▁Be	-12.2434
occup	-12.2435
▁vase	-12.244
▁gorge	-12.2444
▁av	-12.245
euses	-12.245
▁flash	-12.2453
▁rollerskater	-12.2458
series	-12.2467
▁patrol	-12.2472
▁ka	-12.248
▁Gr	-12.248
opsicle	-12.2481
▁salade	-12.2484
▁bel	-12.2498
▁adolescentes	-12.25
▁sheets	-12.2503
tter	-12.2504
▁paon	-12.2506
▁Pen	-12.2506
▁poursui	-12.252
▁horizontal	-12.252
âché	-12.2521
▁posters	-12.2521
▁déballe	-12.2521
▁posts	-12.2523
nnées	-12.2525
▁shoote	-12.2526
▁da	-12.2527
▁pump	-12.253
▁starts	-12.2531
▁tam	-12.2544
▁deli	-12.2545
▁communique	-12.2551
▁apprécia	-12.2554
ques	-12.2556
▁vien	-12.2561
ayer	-12.2567
endant	-12.2575
▁Race	-12.2581
ff	-12.259
▁écrire	-12.2601
▁guitaristes	-12.2626
▁gum	-12.2627
▁ob	-12.2636
tam	-12.264
ome	-12.2641
▁reflect	-12.2643
nake	-12.2648
▁retriev	-12.2659
▁concour	-12.2662
▁continue	-12.2664
iment	-12.2667
llant	-12.2667
nière	-12.2669
▁portée	-12.267
accroch	-12.2672
eye	-12.2675
▁fixe	-12.2685
rry	-12.2688
échauff	-12.2702
▁singers	-12.2703
▁carr	-12.2707
turn	-12.271
▁east	-12.272
▁entassée	-12.2725
bble	-12.2735
uffle	-12.2739
▁wheeler	-12.2743
▁bouch	-12.2745
lissant	-12.2763
ssent	-12.2764
▁Arabi	-12.2771
▁ornée	-12.2777
vin	-12.2777
équipes	-12.2778
runette	-12.278
take	-12.2781
▁photographiée	-12.2783
core	-12.2784
▁imit	-12.2786
▁guitares	-12.2789
▁sprinkle	-12.2812
▁tricote	-12.2816
▁océan	-12.2827
ck	-12.2827
py	-12.2827
▁cornet	-12.2838
ots	-12.2843
▁rampes	-12.2844
hoe	-12.2846
rowing	-12.2852
stle	-12.286
▁washe	-12.2864
litary	-12.2865
linge	-12.2873
▁Sma	-12.2876
urgical	-12.2882
▁oar	-12.2895
lad	-12.2902
▁tambourine	-12.2905
▁wor	-12.2909
▁bond	-12.2938
xy	-12.2953
▁handed	-12.2954
▁Adult	-12.2962
▁Bu	-12.2971
▁artisan	-12.2975
▁cloths	-12.2976
▁floors	-12.2977
▁Me	-12.2991
▁Ci	-12.2991
▁affiches	-12.2992
▁scra	-12.2997
bord	-12.2999
▁barbie	-12.3002
ise	-12.3006
▁cascades	-12.3007
▁pouv	-12.3008
▁flier	-12.3028
ltim	-12.3043
key	-12.3056
▁bake	-12.3064
Doo	-12.3083
▁galope	-12.3083
▁symbole	-12.3089
▁fighter	-12.3091
▁write	-12.3103
▁Neu	-12.3108
ul	-12.311
esque	-12.3118
lac	-12.3118
▁saxophones	-12.3121
▁tricot	-12.3123
iquement	-12.3134
▁vac	-12.3143
blade	-12.3144
superman	-12.3153
▁bung	-12.3156
ouverture	-12.3174
iz	-12.3178
▁saying	-12.3187
▁miss	-12.3189
ser	-12.3208
uor	-12.3213
▁cro	-12.3228
▁dev	-12.3239
ets	-12.3249
▁sirote	-12.3268
▁lutt	-12.3281
▁sprint	-12.3283
▁caméras	-12.3302
▁sprinkl	-12.3304
▁butt	-12.3306
▁mot	-12.3317
▁late	-12.3336
tan	-12.334
pa	-12.3341
taches	-12.3352
▁pistes	-12.3359
▁chant	-12.3368
RO	-12.3372
▁lie	-12.3373
▁amaz	-12.3375
ropped	-12.338
▁count	-12.3388
▁intern	-12.3407
od	-12.3416
rous	-12.342
aris	-12.3424
▁cueille	-12.3427
muff	-12.3433
imate	-12.3439
▁puiss	-12.3441
▁Pan	-12.3448
▁holes	-12.3452
▁parti	-12.3466
ied	-12.3484
▁surfers	-12.3484
chet	-12.3488
gum	-12.3496
▁footing	-12.3497
▁bark	-12.3503
ift	-12.351
▁placée	-12.3513
eek	-12.3523
mult	-12.3529
▁crois	-12.3533
▁skateboarders	-12.3539
▁cabin	-12.3541
▁Sp	-12.3554
vel	-12.356
▁command	-12.3562
R	-12.3579
quette	-12.3584
▁sl	-12.3588
dding	-12.3625
▁ac	-12.3639
▁déball	-12.3645
▁marke	-12.3646
▁communicat	-12.3652
▁tronçon	-12.3652
▁asperge	-12.3662
for	-12.3664
ties	-12.3666
▁Athlete	-12.3681
▁disposé	-12.3704
▁bandage	-12.3718
neck	-12.3721
▁accroch	-12.3722
▁Care	-12.3737
action	-12.3746
owered	-12.3753
▁bris	-12.376
▁déc	-12.3773
épice	-12.3783
▁rocker	-12.3787
ouvrier	-12.3789
▁trap	-12.3794
ignant	-12.3801
ements	-12.3804
immeuble	-12.3813
truck	-12.3816
▁mixe	-12.3827
▁tell	-12.3845
▁sweatshirts	-12.3846
▁numéros	-12.3858
apprêta	-12.3871
Guitar	-12.3874
▁shine	-12.3879
stand	-12.3888
golf	-12.3893
événement	-12.391
▁distribue	-12.3912
falls	-12.3916
Bien	-12.3919
▁quel	-12.3928
fille	-12.3928
where	-12.3938
▁ar	-12.3939
vous	-12.3941
▁dist	-12.3944
mant	-12.3947
échelle	-12.3951
▁pollu	-12.3953
écharpe	-12.3956
type	-12.3963
escalator	-12.3964
ike	-12.3965
zone	-12.3965
▁boss	-12.3967
ign	-12.3968
spect	-12.3972
▁audito	-12.3985
▁fit	-12.3985
▁fêt	-12.399
▁Na	-12.3991
observer	-12.3992
intéressant	-12.3992
éponge	-12.3993
alpiniste	-12.3994
opposé	-12.3998
▁embrass	-12.3998
estomac	-12.4001
drawn	-12.4005
box	-12.4009
▁thought	-12.4011
évier	-12.4013
mark	-12.4014
▁purchas	-12.4015
ave	-12.4016
deep	-12.4018
lk	-12.4019
guards	-12.4028
▁croise	-12.4035
▁cell	-12.4037
▁curren	-12.4039
nded	-12.4041
▁acc	-12.4045
Indien	-12.4046
▁sou	-12.4047
handed	-12.4049
mère	-12.4055
▁pagaye	-12.4056
pplies	-12.4058
blue	-12.4061
ancien	-12.4067
Américain	-12.4083
entrer	-12.4092
▁promoti	-12.4092
▁soin	-12.4095
▁différent	-12.4102
fter	-12.4102
gar	-12.4109
▁fermé	-12.411
ves	-12.4116
▁distribu	-12.4127
▁Side	-12.4137
anges	-12.4156
▁casse	-12.4161
▁hol	-12.4166
▁ombre	-12.4177
▁lantern	-12.4184
rice	-12.4191
levé	-12.4198
▁Teenage	-12.42
nds	-12.4202
iller	-12.4203
▁présent	-12.4203
▁Y	-12.4206
▁retiré	-12.4209
dish	-12.4212
▁clé	-12.4212
▁sandal	-12.4217
▁ensoleillé	-12.4227
▁tendu	-12.4228
▁Oh	-12.423
rmaid	-12.4237
▁lunette	-12.4238
▁officiel	-12.4238
▁organis	-12.4239
▁Amis	-12.4244
shake	-12.4244
▁gelé	-12.4245
uz	-12.4247
▁quatr	-12.4247
▁dessiné	-12.4249
▁agriculteur	-12.4253
images	-12.4253
▁instructor	-12.4254
▁patineuse	-12.4255
▁wrist	-12.4255
▁graduati	-12.426
▁lemon	-12.4262
▁holiday	-12.4263
keep	-12.4264
▁crêpe	-12.4264
▁magique	-12.4264
▁pancake	-12.4264
▁Garden	-12.4264
▁armure	-12.4267
▁sn	-12.4267
▁rabbit	-12.4268
électrici	-12.4268
▁kiddi	-12.427
▁mauve	-12.427
▁seagull	-12.427
▁légume	-12.4271
▁glacière	-12.4271
▁hamburger	-12.4273
▁mouette	-12.4276
▁steak	-12.4276
▁identique	-12.4276
▁baguette	-12.4276
▁gymnastic	-12.4278
▁tarte	-12.4279
nis	-12.4281
▁mats	-12.4289
sier	-12.4292
coal	-12.4292
▁am	-12.4296
▁tomate	-12.4299
▁accidenté	-12.4301
▁real	-12.4307
ces	-12.431
enseigne	-12.4315
▁exam	-12.4318
▁slam	-12.4319
▁vault	-12.4321
▁aime	-12.4322
▁enneigées	-12.4323
▁recycl	-12.4324
▁streetlight	-12.4325
▁stocking	-12.4327
mène	-12.4328
ple	-12.4334
▁bl	-12.4335
▁word	-12.4344
▁représent	-12.4344
▁artificiel	-12.4345
▁Bike	-12.4355
AM	-12.4357
▁artifici	-12.4358
▁occurr	-12.4359
mong	-12.436
▁extend	-12.4362
▁weld	-12.4363
▁tournoy	-12.4363
mergency	-12.4363
ution	-12.4364
xford	-12.4365
▁accél	-12.4367
▁Latin	-12.4367
▁douce	-12.4368
▁postal	-12.4369
same	-12.4369
▁enthusiast	-12.4369
hawk	-12.4369
▁éclabousse	-12.4369
▁Ocean	-12.437
olkswagen	-12.437
▁ébouriff	-12.437
▁zigzag	-12.437
empanadas	-12.437
enregistrement	-12.437
espèce	-12.437
immigration	-12.437
pproximate	-12.437
▁Challenge	-12.437
▁Chinois	-12.437
▁Circus	-12.437
▁Doberman	-12.437
▁Engine	-12.437
▁Heineken	-12.437
▁Individual	-12.437
▁Michigan	-12.437
▁Pokemon	-12.437
▁Ribbon	-12.437
▁SWAT	-12.437
▁Samsung	-12.437
▁Scooby	-12.437
▁Seahawks	-12.437
▁YMCA	-12.437
▁Yankee	-12.437
▁accueill	-12.437
▁aircraft	-12.437
▁anorak	-12.437
▁burqa	-12.437
▁bénévole	-12.437
▁cafeteria	-12.437
▁chubby	-12.437
▁clairsemé	-12.437
▁convertible	-12.437
▁crutches	-12.437
▁deltaplane	-12.437
▁diaporama	-12.437
▁didgeridoo	-12.437
▁difficile	-12.437
▁domicile	-12.437
▁délicieuse	-12.437
▁embarcation	-12.437
▁endommagé	-12.437
▁espresso	-12.437
▁fasciné	-12.437
▁frustrated	-12.437
▁goudron	-12.437
▁guirlande	-12.437
▁hirsute	-12.437
▁hispanic	-12.437
▁hopscotch	-12.437
▁horloge	-12.437
▁igloo	-12.437
▁institut	-12.437
▁lambeaux	-12.437
▁librairie	-12.437
▁megaphone	-12.437
▁minutieuse	-12.437
▁obèse	-12.437
▁octopus	-12.437
▁palissade	-12.437
▁piggyback	-12.437
▁pineapple	-12.437
▁pluvieuse	-12.437
▁poignard	-12.437
▁préféré	-12.437
▁screwdriver	-12.437
▁seaweed	-12.437
▁spaghetti	-12.437
▁synthétiseur	-12.437
▁séminaire	-12.437
▁technology	-12.437
▁teckel	-12.437
▁tortillas	-12.437
▁élévatrice	-12.437
▁émission	-12.437
▁éparpillés	-12.437
▁étincelles	-12.437
▁Brazil	-12.437
▁Earth	-12.437
▁carrefour	-12.437
▁menuisier	-12.437
▁poverty	-12.437
▁réduit	-12.437
▁satchel	-12.437
▁skeleton	-12.437
▁trompettiste	-12.437
awasaki	-12.437
▁Chinatown	-12.437
▁David	-12.437
▁Hopper	-12.437
▁burrito	-12.437
▁foundation	-12.437
▁health	-12.437
▁réfrigér	-12.437
▁sirène	-12.437
▁studies	-12.437
▁tourniquet	-12.437
▁bistro	-12.437
▁condiment	-12.437
▁Roller	-12.437
▁agréable	-12.437
▁dominoes	-12.437
▁flatbed	-12.437
▁mailbox	-12.437
▁postérieur	-12.437
▁stairwell	-12.437
▁consider	-12.437
▁occupations	-12.437
▁partenaire	-12.437
▁répond	-12.437
▁forgeron	-12.437
▁insolite	-12.437
▁Airways	-12.437
▁kettle	-12.437
noopy	-12.437
▁paintbrush	-12.437
▁collision	-12.437
▁décoratif	-12.437
▁recherche	-12.437
▁brief	-12.437
▁charcuterie	-12.437
▁panoramique	-12.437
▁corridor	-12.437
▁ficelle	-12.437
▁violence	-12.437
▁landmark	-12.437
▁Hiker	-12.437
▁source	-12.437
▁croisière	-12.437
▁gyro	-12.437
▁marcel	-12.437
▁metropoli	-12.437
▁particulier	-12.437
▁swimwear	-12.437
▁motorboat	-12.437
▁récemment	-12.437
▁spectaculaire	-12.437
▁napkin	-12.437
▁sunrise	-12.437
▁Picture	-12.437
▁MMA	-12.437
▁Block	-12.437
▁cluster	-12.437
▁freestyle	-12.437
▁plâtre	-12.437
▁victim	-12.437
▁James	-12.437
▁cuvette	-12.437
▁pieuvre	-12.437
ite	-12.437
▁bidon	-12.437
▁frolic	-12.437
ananas	-12.4371
▁rédige	-12.4371
▁terrace	-12.4371
▁mécanique	-12.4371
Afrique	-12.4371
▁diaper	-12.4371
▁Harlem	-12.4371
▁pressure	-12.4371
▁étrangère	-12.4371
▁eatery	-12.4371
▁matinée	-12.4371
▁raconte	-12.4371
▁carriole	-12.4371
▁footbridge	-12.4371
▁mermaid	-12.4371
▁mariachi	-12.4371
▁llama	-12.4371
▁prestation	-12.4371
▁coiffeuse	-12.4371
▁complètement	-12.4371
▁bétonnière	-12.4371
▁jewelery	-12.4371
▁Parade	-12.4371
▁Water	-12.4371
▁décorative	-12.4371
▁henné	-12.4371
▁bookbag	-12.4371
▁minivan	-12.4371
▁phare	-12.4371
▁Bank	-12.4371
▁boutonnée	-12.4371
▁notice	-12.4371
▁procession	-12.4371
▁western	-12.4371
▁memorial	-12.4371
▁cityscape	-12.4371
▁glissière	-12.4371
▁buoy	-12.4372
▁farine	-12.4372
▁weeds	-12.4372
▁miniskirt	-12.4372
▁protestation	-12.4372
▁spiral	-12.4372
essence	-12.4372
▁playpen	-12.4372
▁suspect	-12.4372
abeille	-12.4372
▁oxen	-12.4372
▁corgi	-12.4372
▁apparaît	-12.4372
▁View	-12.4372
▁bookstore	-12.4372
▁diable	-12.4372
▁moquette	-12.4372
▁guidon	-12.4372
orah	-12.4372
▁Jeep	-12.4372
▁Photo	-12.4373
▁bunker	-12.4373
▁partner	-12.4373
▁bavardent	-12.4373
▁balconies	-12.4373
▁trek	-12.4373
▁Marx	-12.4373
agility	-12.4373
▁pédalo	-12.4373
▁stationary	-12.4373
▁sunbathers	-12.4373
▁colère	-12.4373
▁télécommandé	-12.4373
▁workbench	-12.4373
▁Jackson	-12.4373
▁ginger	-12.4373
▁accélér	-12.4374
▁knock	-12.4374
ssenger	-12.4374
▁inhabituelle	-12.4374
▁winning	-12.4374
enthusiastically	-12.4374
▁Giant	-12.4374
▁hurlant	-12.4374
vious	-12.4374
▁coq	-12.4375
▁matelassé	-12.4375
▁beauté	-12.4375
▁isolé	-12.4375
▁drift	-12.4376
▁Snowboarder	-12.4376
▁corral	-12.4376
▁communication	-12.4376
▁boucherie	-12.4376
▁dealer	-12.4376
▁paperasse	-12.4376
▁unidentifi	-12.4377
▁skimboard	-12.4377
endort	-12.4377
▁spectate	-12.4377
▁mollet	-12.4377
▁fosse	-12.4377
▁Swimmer	-12.4377
▁stalks	-12.4377
▁santé	-12.4377
▁relevé	-12.4377
▁Station	-12.4377
▁campus	-12.4378
▁spear	-12.4378
▁slum	-12.4378
▁came	-12.4378
▁roadwork	-12.4378
▁apparel	-12.4378
▁scared	-12.4379
▁extended	-12.4379
▁outfielder	-12.4379
▁Heal	-12.4379
▁mesh	-12.438
▁except	-12.438
▁else	-12.438
▁déambulant	-12.438
▁runway	-12.438
▁déjeunent	-12.4381
▁traînent	-12.4381
▁violinist	-12.4381
▁metro	-12.4381
▁bondissant	-12.4382
▁enfon	-12.4382
▁conduire	-12.4382
▁montagneuse	-12.4382
▁percuter	-12.4382
▁plaisanc	-12.4382
▁Fast	-12.4382
Carol	-12.4382
▁Iz	-12.4383
▁tightly	-12.4383
▁elevator	-12.4384
▁guest	-12.4384
▁pastries	-12.4384
▁curling	-12.4385
panish	-12.4385
▁steal	-12.4385
▁puces	-12.4386
échauffent	-12.4386
▁Latino	-12.4386
▁pèse	-12.4386
▁tuiles	-12.4387
▁prizes	-12.4387
▁béquilles	-12.4387
▁Stones	-12.4387
▁sponge	-12.4387
▁Mom	-12.4388
▁ceme	-12.4388
▁mixte	-12.4389
▁placard	-12.4389
▁surgeons	-12.4389
▁Petit	-12.4389
▁Notre	-12.439
▁bloom	-12.439
▁manual	-12.4391
▁bassiste	-12.4392
▁gesticule	-12.4392
▁marelle	-12.4392
▁massage	-12.4392
▁sheepdog	-12.4393
UFC	-12.4393
▁humaine	-12.4393
▁countertop	-12.4394
▁mock	-12.4394
▁overcoat	-12.4395
▁known	-12.4395
▁roadway	-12.4397
▁contra	-12.4397
▁aérien	-12.4397
▁mime	-12.4397
rmy	-12.4398
▁attaqu	-12.4399
▁étir	-12.44
tted	-12.44
▁circus	-12.44
▁weathered	-12.44
▁archet	-12.4401
▁décoller	-12.4402
▁mountainside	-12.4402
▁gallon	-12.4402
▁saluer	-12.4403
▁explorer	-12.4404
▁invités	-12.4404
▁hairnet	-12.4404
▁déployées	-12.4408
usiness	-12.4409
extrême	-12.4409
▁Mc	-12.441
▁éclat	-12.441
▁cordon	-12.441
ados	-12.441
▁lanterne	-12.4411
▁sprinting	-12.4411
▁discover	-12.4412
▁exposed	-12.4413
▁frontale	-12.4413
▁vendus	-12.4414
▁troops	-12.4414
▁tasting	-12.4415
▁commander	-12.4415
▁acrobatiques	-12.4415
▁coconuts	-12.4415
▁sausages	-12.4415
▁allumée	-12.4416
▁hips	-12.4416
assi	-12.4417
▁loose	-12.4418
Spring	-12.4418
▁arrosé	-12.4418
▁element	-12.4419
▁Diner	-12.4421
▁topic	-12.4423
IS	-12.4424
appartements	-12.4424
▁designe	-12.4425
▁Nouve	-12.4426
▁luxuriante	-12.4427
▁master	-12.4428
▁snorkeling	-12.4429
▁Wal	-12.443
▁grown	-12.443
▁serpentin	-12.4431
▁pad	-12.4431
▁created	-12.4432
mmage	-12.4432
▁shield	-12.4434
▁orage	-12.4435
▁dressée	-12.4435
▁équipé	-12.4436
▁émerge	-12.4436
▁achats	-12.4436
▁shields	-12.4437
▁available	-12.4437
▁pompes	-12.4437
▁dozen	-12.4438
▁Happy	-12.4439
▁affection	-12.4439
▁ustensile	-12.4439
▁DI	-12.4439
▁ascenseur	-12.444
▁ondul	-12.444
sage	-12.4442
▁smell	-12.4443
▁pneumatiques	-12.4444
▁pâtisseries	-12.4444
▁locomotives	-12.4444
▁couronnes	-12.4444
▁aerial	-12.4446
▁voyageurs	-12.4447
▁Light	-12.4449
▁kayakers	-12.445
▁jongler	-12.4451
▁interest	-12.4452
▁vaporis	-12.4452
▁inflated	-12.4453
▁interior	-12.4453
▁seeds	-12.4454
▁ongle	-12.4456
▁pulley	-12.4456
université	-12.4456
▁spare	-12.4456
▁opposées	-12.4458
▁observers	-12.446
▁comfortable	-12.4462
▁washed	-12.4462
▁crue	-12.4462
▁Peter	-12.4463
▁ombragée	-12.4463
▁chirurgicale	-12.4464
▁cows	-12.4467
▁moque	-12.4469
fabriqué	-12.4471
▁barricades	-12.4473
▁rabbits	-12.4473
▁calling	-12.4473
▁stockings	-12.4473
▁lip	-12.4473
toire	-12.4474
▁partly	-12.4481
▁mordill	-12.4482
▁rideau	-12.4483
▁self	-12.4484
raw	-12.4484
▁ranch	-12.4485
▁latine	-12.4485
▁contestant	-12.4486
▁cler	-12.4487
▁danger	-12.4489
▁dropped	-12.4491
▁steers	-12.4491
▁cooked	-12.4494
pite	-12.4494
▁quick	-12.4495
▁thread	-12.4495
▁lemons	-12.4497
ndex	-12.4499
▁gelée	-12.4501
▁wigs	-12.4501
▁accompliss	-12.4502
▁concurrents	-12.4503
▁Bicyclists	-12.4503
▁Deli	-12.4504
▁cables	-12.4506
▁fronce	-12.451
▁boutons	-12.4511
▁flap	-12.4512
▁oeuvres	-12.4513
▁basement	-12.4513
ature	-12.4513
▁mortes	-12.4514
inspiration	-12.4516
ashore	-12.452
▁altitude	-12.4521
▁reli	-12.4521
▁San	-12.4523
actory	-12.4526
▁evil	-12.4528
▁Teen	-12.4529
▁pillars	-12.4529
▁levées	-12.4531
▁questions	-12.4531
▁burger	-12.4532
▁viewer	-12.4533
▁relaxant	-12.4536
▁idiot	-12.4537
▁grins	-12.4537
▁serrés	-12.4539
▁ponce	-12.454
▁récoltes	-12.4542
▁stride	-12.4542
▁astronaut	-12.4543
▁accord	-12.4543
▁hippie	-12.4544
▁sandwiches	-12.4547
▁tiges	-12.4553
▁Twister	-12.4553
▁piétonne	-12.4553
▁Jim	-12.4554
▁aube	-12.4554
▁prie	-12.4555
▁texts	-12.4555
▁closer	-12.4555
▁dalle	-12.4559
▁Colorful	-12.456
▁defenders	-12.4561
▁défenseurs	-12.4562
▁Run	-12.4564
▁pol	-12.457
▁fleuris	-12.4571
▁morts	-12.4572
▁appre	-12.4574
▁taller	-12.4576
▁jongleur	-12.4577
envole	-12.458
▁miner	-12.4582
▁Do	-12.4585
▁brochures	-12.4591
▁muselières	-12.4591
own	-12.4591
ker	-12.4594
▁formé	-12.4596
▁clous	-12.4597
▁graduate	-12.4607
ottery	-12.4609
▁Wo	-12.4613
avec	-12.4616
▁textos	-12.4617
▁tranche	-12.4618
▁desserts	-12.462
▁perruques	-12.462
▁douz	-12.4623
▁heure	-12.4626
ron	-12.4626
▁dépass	-12.4631
▁grises	-12.4631
layers	-12.4634
▁avoi	-12.4635
▁Thai	-12.4635
▁barricade	-12.4636
▁voient	-12.4641
▁citrons	-12.4645
▁cheminot	-12.4648
▁bongos	-12.4648
AH	-12.4648
▁venir	-12.465
▁poches	-12.465
▁sex	-12.4652
▁musicales	-12.4654
▁enregistre	-12.4659
▁provide	-12.4661
▁échappe	-12.4661
▁mine	-12.4662
▁sca	-12.4671
▁celebrates	-12.4671
▁rad	-12.4673
▁Look	-12.4677
▁aboie	-12.4679
▁boucher	-12.4683
▁traditionnelles	-12.4685
▁buff	-12.4697
riends	-12.4702
ney	-12.4703
▁artisanale	-12.4708
▁chickens	-12.4708
▁boulders	-12.4711
over	-12.4713
▁positionne	-12.4716
soin	-12.4716
co	-12.4717
▁henn	-12.4719
▁arid	-12.4726
▁gravi	-12.4726
▁cre	-12.4728
▁breakdancer	-12.4732
▁Pa	-12.4733
▁informations	-12.4736
▁bronz	-12.4738
▁sauvages	-12.4738
▁demonstrate	-12.474
▁bearer	-12.4741
▁siding	-12.4741
▁Chan	-12.4745
▁promo	-12.4747
▁pant	-12.475
▁estomac	-12.4753
▁cabinet	-12.4756
appare	-12.4756
▁align	-12.4759
ités	-12.476
▁éponge	-12.4763
▁mingl	-12.4764
tuck	-12.4767
▁scientifiques	-12.4768
▁bagarre	-12.4768
▁muni	-12.477
élance	-12.4771
exprime	-12.4785
teen	-12.4789
▁muzzles	-12.479
▁renvo	-12.4795
▁headbands	-12.4797
▁electronics	-12.4798
▁encourage	-12.4798
ordinateurs	-12.4801
▁fier	-12.4804
turne	-12.4808
ntage	-12.4811
▁kites	-12.4816
rait	-12.4816
▁rode	-12.4817
▁controls	-12.4818
lowly	-12.4824
ond	-12.483
examiner	-12.4833
▁surroundings	-12.4838
▁comprend	-12.4841
piqueur	-12.486
▁seeming	-12.486
roi	-12.4866
▁informatique	-12.4874
▁rounds	-12.4875
installe	-12.4883
▁lesquel	-12.4891
taught	-12.4894
▁emb	-12.4899
èle	-12.4909
▁géants	-12.4909
▁guitarists	-12.4912
▁Johns	-12.4915
▁Nav	-12.4916
▁automatiques	-12.4917
▁garni	-12.4919
▁sweaters	-12.4919
▁coude	-12.4919
▁fouill	-12.4926
▁Teenager	-12.4927
▁Pap	-12.4934
pe	-12.4938
ttes	-12.4941
ocal	-12.4947
▁Hand	-12.4948
abst	-12.495
▁moue	-12.4953
eam	-12.4955
clecti	-12.4956
▁fixé	-12.4956
du	-12.496
▁grooms	-12.4963
oussant	-12.4963
xcited	-12.4969
once	-12.4972
▁soil	-12.4974
builder	-12.4975
▁shapes	-12.4978
▁walker	-12.4979
▁hooping	-12.499
▁veil	-12.4996
▁sec	-12.5
▁copie	-12.5004
▁qua	-12.5008
tt	-12.5008
▁planté	-12.5011
▁Centr	-12.5014
▁films	-12.5019
▁parts	-12.5025
▁Mon	-12.5033
▁circuits	-12.5034
▁charg	-12.5039
lime	-12.5044
▁bullet	-12.5051
▁rear	-12.5061
▁spill	-12.5064
▁trottinettes	-12.5066
▁skinn	-12.507
▁hum	-12.5072
▁navigat	-12.5082
▁cale	-12.5093
▁atterrissa	-12.5095
▁react	-12.5095
▁traineau	-12.5096
▁mates	-12.5097
ac	-12.51
arathon	-12.5102
lée	-12.5105
▁canine	-12.5106
ssive	-12.511
▁impressi	-12.5116
EN	-12.5117
▁principal	-12.5118
zard	-12.5119
implement	-12.512
ignot	-12.5123
▁saxophoniste	-12.5124
▁rambardes	-12.5124
▁colla	-12.5125
▁montré	-12.5127
▁arbitres	-12.5131
urant	-12.5132
assure	-12.5141
▁pairs	-12.5142
▁médaille	-12.5144
dical	-12.5151
riod	-12.5152
▁challenge	-12.5158
▁trott	-12.5159
▁muscle	-12.5167
▁illuminée	-12.5172
▁coiffée	-12.5173
▁inclinée	-12.5175
▁peintes	-12.5178
▁voilée	-12.5179
▁peach	-12.5181
▁exécut	-12.5183
water	-12.5193
▁pitchers	-12.5199
ingham	-12.5199
ace	-12.5202
potted	-12.5204
chant	-12.521
▁règ	-12.5212
▁croque	-12.5222
▁mount	-12.5225
prints	-12.5233
▁tread	-12.5236
IN	-12.5239
▁parce	-12.5243
▁ivre	-12.5248
▁rise	-12.5251
overalls	-12.5253
pass	-12.5259
▁Ne	-12.5264
racas	-12.5264
▁loade	-12.5272
well	-12.5277
▁crashe	-12.5281
▁squares	-12.5283
▁Ski	-12.5296
alais	-12.5304
▁chart	-12.5308
rtial	-12.5313
umping	-12.5314
▁râteau	-12.5323
▁ampli	-12.5324
point	-12.5335
▁bur	-12.5335
aison	-12.5337
▁balcons	-12.5338
▁classeur	-12.5345
▁scar	-12.5345
ouvre	-12.5351
▁mill	-12.5352
boyant	-12.5354
▁battu	-12.5369
seen	-12.5371
reyhound	-12.5377
ham	-12.5378
▁buck	-12.5395
care	-12.5398
▁add	-12.5399
▁ties	-12.5403
▁reven	-12.5403
▁chinoise	-12.5404
powered	-12.5413
▁compt	-12.5417
▁cueill	-12.5417
▁daughters	-12.5426
▁insecte	-12.5431
▁statu	-12.5442
▁exc	-12.5443
▁prints	-12.5444
▁pounc	-12.5455
▁accompani	-12.5483
▁patiente	-12.5489
▁dirai	-12.5491
▁placé	-12.5497
temporary	-12.5502
▁occupé	-12.5512
▁expli	-12.5528
more	-12.5539
regnant	-12.554
par	-12.5544
ode	-12.5549
IG	-12.5549
filant	-12.5568
▁Ha	-12.5569
▁entraîne	-12.5586
ground	-12.5586
nches	-12.5587
essaye	-12.5587
▁detail	-12.5592
bic	-12.5598
▁sais	-12.5603
▁mesur	-12.5604
▁arros	-12.5606
mpact	-12.5612
nts	-12.5618
▁photographers	-12.5625
aid	-12.5626
rning	-12.5652
▁supervise	-12.5663
élé	-12.5666
▁escalators	-12.567
▁Cal	-12.5672
lent	-12.5675
▁sirot	-12.5687
▁poids	-12.5691
▁appearing	-12.5722
▁retournée	-12.5726
quet	-12.5727
▁circul	-12.5731
▁condition	-12.5735
▁pratiqu	-12.5736
▁appel	-12.5747
▁cravates	-12.5751
▁inondé	-12.5753
▁Ch	-12.5758
▁ways	-12.576
▁Fin	-12.5774
ley	-12.5794
▁accompagnée	-12.5802
tout	-12.5808
no	-12.5834
ates	-12.5841
▁anniversaire	-12.5852
▁voi	-12.5853
▁prov	-12.5857
▁pace	-12.587
▁scri	-12.5873
▁marti	-12.5877
▁pointu	-12.5878
lein	-12.5892
harpe	-12.5894
rit	-12.59
mar	-12.5903
▁Itali	-12.5903
ute	-12.5918
▁cer	-12.5936
▁adventur	-12.5958
orte	-12.5972
tuellement	-12.598
EL	-12.5985
▁leader	-12.6017
▁sticker	-12.6018
▁Divers	-12.6028
▁delic	-12.6029
emp	-12.6033
▁pein	-12.6035
face	-12.6042
eva	-12.6056
▁vienn	-12.6075
walk	-12.608
ain	-12.6088
ering	-12.6104
▁colo	-12.612
ord	-12.6127
▁Lad	-12.6134
neige	-12.6142
▁pellet	-12.6142
▁ladders	-12.6148
▁prélasse	-12.6152
▁trimm	-12.6171
▁pout	-12.6172
▁enfil	-12.6177
finishe	-12.6178
▁regardée	-12.6182
▁cle	-12.6217
▁Har	-12.6218
▁hun	-12.6235
▁organ	-12.6238
▁nues	-12.6252
eedle	-12.6263
▁snowboardeurs	-12.6268
with	-12.627
tienne	-12.6271
vice	-12.6275
▁ram	-12.6288
lapse	-12.6294
▁fields	-12.6294
▁buses	-12.6301
▁pictured	-12.6304
approchent	-12.6305
▁employée	-12.6329
▁dégust	-12.6342
▁mesure	-12.6345
▁selle	-12.6348
usement	-12.6348
Oh	-12.6352
zer	-12.6357
gical	-12.6367
▁surdimensionné	-12.6369
▁mus	-12.6374
▁tache	-12.6381
▁cata	-12.6385
▁insect	-12.6392
▁walkie	-12.6396
lette	-12.6401
venir	-12.6405
▁retrieve	-12.6414
▁tremp	-12.6438
▁impliquée	-12.6439
▁acrobat	-12.6442
▁natur	-12.6451
ouvri	-12.6457
ines	-12.6473
▁gl	-12.6473
mber	-12.6494
▁manifeste	-12.6497
▁shed	-12.6504
shed	-12.6509
enfile	-12.6529
nations	-12.6531
▁interviewe	-12.6531
essay	-12.6539
▁mustach	-12.655
uvr	-12.6563
appell	-12.6568
▁dés	-12.6572
▁confus	-12.6581
▁foods	-12.6582
ations	-12.6583
▁spark	-12.6584
ach	-12.6587
▁slalom	-12.6599
▁snowboarders	-12.6607
eeding	-12.6608
▁gro	-12.6609
itaine	-12.6612
ox	-12.6649
stop	-12.6655
tail	-12.6661
▁sipp	-12.668
elling	-12.6689
ttant	-12.6699
▁relaxe	-12.6703
▁orienta	-12.6705
▁solid	-12.6714
▁Tr	-12.6716
▁operat	-12.6717
ens	-12.6719
love	-12.6722
tric	-12.6724
oma	-12.6725
book	-12.6729
shes	-12.6736
▁organize	-12.6742
▁feel	-12.6743
▁appart	-12.6747
bras	-12.6758
▁suspens	-12.677
ances	-12.6784
▁solide	-12.6784
ndant	-12.6786
▁Rac	-12.6787
▁collecte	-12.6815
▁poul	-12.6832
train	-12.6833
bébé	-12.6835
ault	-12.6838
rouille	-12.6849
▁trai	-12.685
terior	-12.6851
▁princess	-12.6854
tournant	-12.6863
champ	-12.6869
gie	-12.6888
Book	-12.6889
▁em	-12.691
even	-12.6917
ass	-12.6925
ânes	-12.6932
▁hom	-12.6943
▁soar	-12.695
ssis	-12.6951
liste	-12.6956
▁déter	-12.697
▁address	-12.6974
ther	-12.6981
mer	-12.6983
▁Mo	-12.6992
ski	-12.6992
▁fraise	-12.6996
pressing	-12.6996
ultim	-12.7
affiche	-12.7016
shing	-12.7032
jump	-12.7042
Love	-12.7051
ks	-12.7061
▁broussaille	-12.7071
▁déambule	-12.7071
▁politi	-12.7081
▁pret	-12.7095
▁prevent	-12.7098
▁styl	-12.7098
rape	-12.7099
▁sommets	-12.711
duisant	-12.7113
view	-12.7116
llow	-12.7125
ellement	-12.7128
▁glanc	-12.713
marin	-12.7133
▁batt	-12.7137
après	-12.7139
▁furr	-12.714
▁rub	-12.7142
▁Fisher	-12.7145
▁ser	-12.7148
▁lea	-12.7154
cation	-12.7163
▁rop	-12.7164
tro	-12.7167
med	-12.7167
iné	-12.717
yard	-12.719
usine	-12.7203
▁pulle	-12.7208
information	-12.7219
orn	-12.7232
mur	-12.7234
état	-12.7234
▁Am	-12.7238
ook	-12.7241
pas	-12.7244
▁flic	-12.7244
friend	-12.7257
screen	-12.7259
align	-12.7263
lift	-12.7263
chase	-12.7264
uer	-12.7266
volley	-12.7274
▁projeté	-12.7278
aventure	-12.7283
daughter	-12.7289
▁excavat	-12.729
orangé	-12.7291
ast	-12.7293
endroit	-12.7293
ob	-12.7302
voix	-12.7304
Welcome	-12.7308
occasion	-12.7308
hood	-12.7311
échappe	-12.7312
circle	-12.7313
▁enregistr	-12.7314
▁nourri	-12.732
▁nou	-12.7323
vaisselle	-12.7326
arène	-12.7326
Texas	-12.7326
completed	-12.7328
utumn	-12.7329
fast	-12.733
activités	-12.7332
Elmo	-12.7333
hauteur	-12.7334
entraîneur	-12.7334
encouragent	-12.7334
Ex	-12.7337
écouter	-12.7341
▁brise	-12.7349
▁lock	-12.7351
raz	-12.7356
umber	-12.7357
arents	-12.7363
cool	-12.7365
écart	-12.7371
▁enroule	-12.7375
adolescentes	-12.7379
franc	-12.7379
▁enflammé	-12.7382
tial	-12.7387
▁blotti	-12.7394
we	-12.7397
▁Sm	-12.7397
▁appare	-12.7408
nché	-12.7408
▁décoll	-12.741
athlètes	-12.7412
cierge	-12.7412
▁mass	-12.7422
▁transporta	-12.7423
vage	-12.7425
▁Sou	-12.7429
▁poli	-12.7443
j	-12.745
ien	-12.7453
foam	-12.746
▁dressé	-12.7462
ues	-12.7463
▁loca	-12.7466
▁maille	-12.7472
show	-12.7473
ières	-12.7473
cific	-12.7473
rendre	-12.7476
▁grip	-12.7477
▁piétonn	-12.7494
▁ramps	-12.75
ntité	-12.7503
int	-12.7505
tty	-12.7505
▁réuni	-12.7516
▁surpris	-12.7522
▁accompli	-12.7522
▁butter	-12.7524
hoops	-12.7526
ède	-12.7531
▁arrivé	-12.7536
▁stri	-12.7545
▁déjeun	-12.7545
eintes	-12.7555
▁abandonné	-12.7556
▁retrait	-12.7558
▁volante	-12.7559
ump	-12.756
thnic	-12.7569
▁marie	-12.7569
ell	-12.757
▁contempl	-12.7571
▁dentist	-12.7572
▁ombragé	-12.7575
hui	-12.7576
▁chirurgical	-12.7576
▁inconnu	-12.7578
▁médiéval	-12.7578
▁waterski	-12.7578
▁photographi	-12.758
▁rouillé	-12.7581
Q	-12.7584
vote	-12.7584
▁euro	-12.7584
▁pingouin	-12.7586
▁jackhammer	-12.7586
▁secret	-12.7587
▁jogger	-12.7589
▁Farmer	-12.759
▁reporter	-12.7591
▁commerce	-12.7592
▁hedge	-12.7595
uit	-12.7595
▁Las	-12.7596
▁étiquette	-12.7597
▁noodle	-12.7597
▁tulip	-12.7597
▁feuillage	-12.7597
▁politique	-12.7598
▁blind	-12.7599
courent	-12.7599
▁sparkler	-12.76
▁locomotive	-12.7601
▁pneumatique	-12.7601
▁pâtisserie	-12.7601
▁mètre	-12.7602
▁oeuvre	-12.7602
▁onlooker	-12.7603
▁glacé	-12.7604
▁pastèque	-12.7607
▁judge	-12.7608
▁couronne	-12.7608
▁Student	-12.7608
▁snowshoe	-12.7609
▁flotteur	-12.7611
burgers	-12.7611
▁melon	-12.7613
▁earring	-12.7613
▁voyageur	-12.7618
onverse	-12.7619
stroke	-12.762
iques	-12.7621
▁toilette	-12.7628
▁Africa	-12.7628
issé	-12.7629
zing	-12.7629
hanne	-12.7632
▁tressé	-12.7633
ozen	-12.7635
▁Snow	-12.7638
▁vivant	-12.764
oker	-12.7642
▁Lego	-12.7651
▁jamb	-12.7651
forming	-12.7652
▁seve	-12.7657
wn	-12.7657
uscule	-12.7658
▁parasail	-12.7661
▁compren	-12.7661
▁study	-12.7662
▁bouclé	-12.7667
▁graffit	-12.7667
▁awning	-12.7667
oulever	-12.767
▁rentr	-12.7672
▁scream	-12.7675
énorme	-12.7678
▁program	-12.7679
▁élast	-12.7682
▁quotidien	-12.7684
▁alpin	-12.7689
▁pompe	-12.7692
▁ornement	-12.7692
some	-12.7693
lace	-12.7694
▁sock	-12.7694
▁défile	-12.7695
▁récupér	-12.7695
▁cavali	-12.7696
ever	-12.7696
▁attentive	-12.7697
▁compét	-12.7698
▁inhabituel	-12.7698
bab	-12.7698
▁piét	-12.7698
▁sparse	-12.7699
impression	-12.7699
▁proud	-12.77
▁déménage	-12.7701
▁rectangula	-12.7701
scope	-12.7701
▁primiti	-12.7702
▁spectacula	-12.7703
nitor	-12.7703
▁ukul	-12.7703
Mexique	-12.7703
alimentation	-12.7703
aluminium	-12.7703
avertissement	-12.7703
labradoodle	-12.7703
étudier	-12.7703
▁Commuter	-12.7703
▁Crocs	-12.7703
▁Employee	-12.7703
▁Express	-12.7703
▁Mustang	-12.7703
▁Swiffer	-12.7703
▁Victoria	-12.7703
▁Vêtu	-12.7703
▁adjacent	-12.7703
▁advantage	-12.7703
▁aluminum	-12.7703
▁arguing	-12.7703
▁attablé	-12.7703
▁beignets	-12.7703
▁bijouterie	-12.7703
▁cactus	-12.7703
▁caissière	-12.7703
▁camcorder	-12.7703
▁caméscope	-12.7703
▁cardiaque	-12.7703
▁conçu	-12.7703
▁cortège	-12.7703
▁crevettes	-12.7703
▁croupier	-12.7703
▁crystal	-12.7703
▁cushion	-12.7703
▁diagram	-12.7703
▁dishwasher	-12.7703
▁démêle	-12.7703
▁dépanneuse	-12.7703
▁déprimé	-12.7703
▁earbuds	-12.7703
▁enthusiasm	-12.7703
▁escabeau	-12.7703
▁execut	-12.7703
▁extravagant	-12.7703
▁ferroviaire	-12.7703
▁fingertips	-12.7703
▁fougères	-12.7703
▁fournitures	-12.7703
▁frustré	-12.7703
▁féroce	-12.7703
▁gypsy	-12.7703
▁géométrique	-12.7703
▁handkerchief	-12.7703
▁haricots	-12.7703
▁harnaché	-12.7703
▁heartbeat	-12.7703
▁humoristique	-12.7703
▁immergé	-12.7703
▁innertube	-12.7703
▁irrité	-12.7703
▁karaoké	-12.7703
▁liberty	-12.7703
▁livestock	-12.7703
▁lollipop	-12.7703
▁menuiserie	-12.7703
▁mushroom	-12.7703
▁mécanicien	-12.7703
▁médiévaux	-12.7703
▁mégaphone	-12.7703
▁nécessaire	-12.7703
▁opportunity	-12.7703
▁outstreached	-12.7703
▁palourdes	-12.7703
▁printemps	-12.7703
▁provisions	-12.7703
▁préservatif	-12.7703
▁pélican	-12.7703
▁reluctant	-12.7703
▁rembourré	-12.7703
▁réchaud	-12.7703
▁réconfortant	-12.7703
▁réconforte	-12.7703
▁sanitaires	-12.7703
▁seamstress	-12.7703
▁serpillière	-12.7703
▁shrimp	-12.7703
▁simultaneous	-12.7703
▁simultanément	-12.7703
▁sinistre	-12.7703
▁snowflake	-12.7703
▁stethoscope	-12.7703
▁stroboscopiques	-12.7703
▁stéthoscope	-12.7703
▁symphon	-12.7703
▁temporaire	-12.7703
▁tobacco	-12.7703
▁trapèze	-12.7703
▁témoin	-12.7703
▁vallonné	-12.7703
▁véranda	-12.7703
▁waterproof	-12.7703
▁échiquier	-12.7703
▁éparpillées	-12.7703
▁éprouvette	-12.7703
▁équestre	-12.7703
▁évènement	-12.7703
▁Pâques	-12.7703
▁dandelion	-12.7703
▁diabol	-12.7703
▁gambade	-12.7703
▁gaufre	-12.7703
▁percuté	-12.7703
▁pissenlit	-12.7703
▁reconstitu	-12.7703
▁turbulent	-12.7703
▁évacue	-12.7703
alphab	-12.7703
▁carabine	-12.7703
▁grimacing	-12.7703
▁halloween	-12.7703
▁lézard	-12.7703
▁mongol	-12.7703
▁pelican	-12.7703
▁précipit	-12.7703
▁shelter	-12.7703
▁smirking	-12.7703
▁emotion	-12.7703
▁graphique	-12.7703
▁wrangle	-12.7703
▁Forever	-12.7703
▁amicale	-12.7703
▁bobsle	-12.7703
▁bécher	-12.7703
▁déblaie	-12.7703
▁research	-12.7703
assoient	-12.7703
▁families	-12.7703
▁limousine	-12.7703
▁plastron	-12.7703
▁sleigh	-12.7703
▁varech	-12.7703
▁Chevrolet	-12.7703
▁Jockey	-12.7703
▁blacksmith	-12.7703
▁machete	-12.7703
▁condom	-12.7703
▁majeur	-12.7703
▁forklift	-12.7703
▁gondol	-12.7703
▁mouchoir	-12.7703
▁ritual	-12.7703
▁texas	-12.7703
▁trinket	-12.7703
▁baggage	-12.7703
▁dustpan	-12.7703
▁couturière	-12.7703
▁Eiffel	-12.7703
▁crampons	-12.7703
▁entrelacés	-12.7703
▁eyeliner	-12.7703
mpérial	-12.7703
▁Crouch	-12.7703
▁charriot	-12.7703
▁refuge	-12.7703
▁wildflowers	-12.7703
▁caillou	-12.7703
▁escrimeurs	-12.7703
▁prononc	-12.7703
▁pompons	-12.7703
▁ridicule	-12.7703
▁élément	-12.7703
▁Barbie	-12.7704
▁cereal	-12.7704
▁dugout	-12.7704
▁manicure	-12.7704
▁racquet	-12.7704
▁désordre	-12.7704
▁tournevis	-12.7704
▁affalé	-12.7704
EGO	-12.7704
▁Broadway	-12.7704
▁Francisco	-12.7704
▁procla	-12.7704
▁flashlight	-12.7704
▁mosquée	-12.7704
▁spirit	-12.7704
▁tranchée	-12.7704
▁Hulk	-12.7704
▁cruche	-12.7704
▁moniteur	-12.7704
▁séjour	-12.7704
▁bitume	-12.7704
▁inclinable	-12.7704
▁wristband	-12.7704
▁cyclable	-12.7704
▁london	-12.7704
▁vapeur	-12.7704
épluch	-12.7704
▁Flag	-12.7704
▁iPhone	-12.7704
▁sarong	-12.7704
▁specialize	-12.7704
▁graphic	-12.7704
▁fourgon	-12.7704
▁knives	-12.7704
▁shelf	-12.7704
▁tabac	-12.7704
▁beurre	-12.7704
▁dramatique	-12.7704
▁darkness	-12.7704
▁estrade	-12.7704
▁supervision	-12.7704
▁skewer	-12.7704
▁fierce	-12.7704
▁passagère	-12.7704
▁pavillon	-12.7704
▁éventuel	-12.7704
▁correctement	-12.7704
▁itself	-12.7704
▁europe	-12.7704
algues	-12.7704
▁government	-12.7704
▁confortablement	-12.7704
▁nursing	-12.7704
▁intéressé	-12.7704
▁tissage	-12.7704
▁salmon	-12.7704
▁Rider	-12.7704
▁beanbag	-12.7704
▁frosting	-12.7704
▁congrès	-12.7704
▁remember	-12.7704
▁soudage	-12.7704
▁canister	-12.7704
▁musculation	-12.7704
▁lizard	-12.7704
▁branchages	-12.7704
affronter	-12.7704
▁powerpoint	-12.7704
ACE	-12.7704
▁sablonneuse	-12.7704
▁loterie	-12.7704
▁squash	-12.7704
▁colonial	-12.7704
▁lodge	-12.7704
▁équipage	-12.7704
▁Pipe	-12.7704
▁toenail	-12.7704
▁franges	-12.7704
▁tribunes	-12.7704
▁Vietnam	-12.7704
▁captain	-12.7704
▁créatif	-12.7704
▁French	-12.7704
▁champignon	-12.7705
▁production	-12.7705
▁expérimenté	-12.7705
▁intrigué	-12.7705
▁rescu	-12.7705
▁sandpit	-12.7705
émeute	-12.7705
▁rituelle	-12.7705
▁primaire	-12.7705
▁freeway	-12.7705
▁cavern	-12.7705
▁tournesol	-12.7705
▁kickboxer	-12.7705
approchés	-12.7705
▁grandmother	-12.7705
▁become	-12.7705
▁tagué	-12.7705
▁loaf	-12.7705
▁présentateur	-12.7705
▁headgear	-12.7705
▁Saint	-12.7705
alligator	-12.7705
▁décolleté	-12.7705
▁rectangulaire	-12.7705
▁récupéré	-12.7706
▁junk	-12.7706
▁cutoff	-12.7706
▁attentif	-12.7706
ugby	-12.7706
▁souffre	-12.7706
▁valeur	-12.7706
▁swoop	-12.7706
▁bavarder	-12.7706
âtre	-12.7706
▁arrival	-12.7706
▁doucement	-12.7706
▁creative	-12.7706
observation	-12.7706
▁limo	-12.7706
▁animated	-12.7706
▁lentement	-12.7707
▁syst	-12.7707
aviateur	-12.7707
▁wheat	-12.7707
▁machette	-12.7707
▁culina	-12.7707
▁Astro	-12.7707
▁Coke	-12.7707
obs	-12.7707
▁judo	-12.7708
▁devoirs	-12.7708
▁smock	-12.7708
▁niveaux	-12.7708
▁déguiser	-12.7708
▁congregating	-12.7708
▁snowbank	-12.7708
▁tentative	-12.7708
▁brumeuse	-12.7708
▁cleats	-12.7708
▁Chef	-12.7708
▁proudly	-12.7708
▁Wood	-12.7708
▁assembly	-12.7708
▁positionné	-12.7709
▁patriotique	-12.7709
▁Justi	-12.7709
▁explain	-12.7709
▁pleasant	-12.7709
▁dalmatien	-12.7709
▁comique	-12.7709
▁graines	-12.7709
▁Mexico	-12.7709
▁waffle	-12.771
entrejambe	-12.771
▁dispers	-12.771
▁presum	-12.771
▁Domino	-12.771
▁forearm	-12.771
▁blurry	-12.771
▁oxford	-12.7711
▁silenc	-12.7711
rican	-12.7711
▁affronte	-12.7712
▁épinglé	-12.7712
▁Spain	-12.7712
▁yawning	-12.7712
▁glitter	-12.7712
▁decals	-12.7712
unisson	-12.7712
▁stylist	-12.7713
llowing	-12.7713
▁juif	-12.7713
pression	-12.7713
▁enchaîné	-12.7713
▁couteaux	-12.7713
▁uphill	-12.7714
planchiste	-12.7714
▁bushel	-12.7714
▁director	-12.7714
▁meditating	-12.7714
▁motoneige	-12.7714
▁SM	-12.7714
▁mendiant	-12.7714
▁désarçonner	-12.7714
▁entertainment	-12.7714
▁préparation	-12.7714
▁technologie	-12.7715
▁mouche	-12.7715
▁amateur	-12.7715
▁mixeur	-12.7715
▁huddling	-12.7715
▁smart	-12.7715
▁geese	-12.7716
ymnast	-12.7716
▁applied	-12.7716
▁Swan	-12.7716
▁Dieu	-12.7716
arbuste	-12.7716
▁fièrement	-12.7716
▁identifié	-12.7717
▁flashy	-12.7717
▁détail	-12.7717
▁woodworking	-12.7717
▁coincé	-12.7717
▁ankle	-12.7717
▁découvr	-12.7717
▁routier	-12.7717
▁nettoyé	-12.7717
▁parlor	-12.7717
▁fixture	-12.7717
▁installation	-12.7718
▁pleurant	-12.7718
Watch	-12.7718
▁bouquetière	-12.7718
olate	-12.7719
ison	-12.7719
▁retroussé	-12.7719
▁chauffeur	-12.7719
échauffer	-12.7719
▁sculpté	-12.772
▁tiroir	-12.7721
▁décider	-12.7721
▁bouclier	-12.7721
▁needed	-12.7722
▁latino	-12.7722
▁lointain	-12.7723
▁Artist	-12.7723
▁sledge	-12.7723
▁carnet	-12.7723
▁gitan	-12.7724
▁marteaux	-12.7724
▁price	-12.7725
nual	-12.7725
▁lakeside	-12.7725
▁passion	-12.7725
▁portière	-12.7726
▁playhouse	-12.7726
▁permanent	-12.7726
▁transformer	-12.7726
▁twigs	-12.7726
▁hangar	-12.7727
▁taillés	-12.7727
▁massues	-12.7728
▁utensils	-12.7728
▁déverse	-12.7728
▁brochettes	-12.7728
▁handlebars	-12.7728
scrib	-12.7728
▁poursuivi	-12.7728
▁donuts	-12.7729
▁Horse	-12.773
▁rig	-12.773
▁happening	-12.773
▁Dressed	-12.773
Center	-12.773
▁coton	-12.7731
▁braqué	-12.7731
▁underway	-12.7732
▁majestueuse	-12.7732
▁posture	-12.7733
▁tricoter	-12.7733
▁sau	-12.7733
▁fiddle	-12.7733
▁déneiger	-12.7733
▁touffue	-12.7734
▁pétrole	-12.7734
HO	-12.7734
▁recliner	-12.7734
▁désertique	-12.7736
▁découpage	-12.7736
▁envelopp	-12.7736
pérer	-12.7737
▁Camp	-12.7737
▁mosque	-12.7738
▁Regard	-12.7739
▁sunflower	-12.7739
▁soutenu	-12.7739
▁programme	-12.774
▁croc	-12.7741
▁Japonais	-12.7741
▁pelletée	-12.7741
▁maquiller	-12.7741
▁regroupées	-12.7741
▁cloche	-12.7742
▁folle	-12.7742
▁liesse	-12.7743
▁windsurfer	-12.7743
▁colorier	-12.7743
▁pulvérisé	-12.7743
▁sli	-12.7744
▁youngsters	-12.7744
ris	-12.7744
▁CD	-12.7744
▁hurry	-12.7745
tem	-12.7745
▁raté	-12.7746
▁opposée	-12.7746
▁Bug	-12.7749
▁Rock	-12.7749
▁digger	-12.7749
▁détendre	-12.7749
▁swerv	-12.775
ffel	-12.775
▁quasi	-12.7751
▁châtai	-12.7753
buster	-12.7753
▁affiché	-12.7754
▁pasteur	-12.7754
▁smasher	-12.7755
▁transpir	-12.7755
▁showcas	-12.7755
▁potatoes	-12.7756
Birthday	-12.7756
▁lifeguard	-12.7756
▁skin	-12.7756
▁rôle	-12.7757
▁entertained	-12.7757
habiller	-12.7757
▁bouncer	-12.7758
▁motocycliste	-12.7758
court	-12.776
▁promeneur	-12.776
▁technician	-12.7761
▁barbelés	-12.7761
▁defends	-12.7762
▁particulière	-12.7762
▁architectural	-12.7764
▁balancelle	-12.7764
▁clog	-12.7764
▁steeple	-12.7764
▁spout	-12.7765
▁fists	-12.7765
▁dollars	-12.7766
▁states	-12.7768
▁baigné	-12.7768
▁might	-12.7769
▁joggeurs	-12.7769
▁athlétiques	-12.7769
▁fléchettes	-12.7769
▁Glam	-12.7772
▁beaker	-12.7772
▁conserves	-12.7773
▁oversee	-12.7773
▁braces	-12.7774
▁timber	-12.7774
▁any	-12.7777
▁plaster	-12.7778
▁slamm	-12.7778
▁proper	-12.778
▁armés	-12.778
▁Canada	-12.7781
▁ditch	-12.7781
▁organisé	-12.7782
▁equip	-12.7783
▁Asiatique	-12.7784
▁vieillot	-12.7785
unning	-12.7786
▁effrayée	-12.7786
▁escarpée	-12.7786
▁hurt	-12.779
▁bowed	-12.779
▁Com	-12.779
▁baille	-12.779
▁Pelo	-12.7791
▁chili	-12.7791
▁loop	-12.7793
▁twi	-12.7793
▁pastor	-12.7795
▁Wait	-12.7795
▁campa	-12.7797
▁mènent	-12.7797
▁overall	-12.7797
▁gazeuse	-12.7798
cheron	-12.7799
▁échange	-12.78
▁interdit	-12.78
▁respective	-12.78
▁péni	-12.78
▁Road	-12.7801
▁Alaska	-12.7801
▁Atlanta	-12.7802
▁innocen	-12.7802
els	-12.7802
▁World	-12.7803
▁swa	-12.7803
▁Beach	-12.7805
▁chasseur	-12.7805
▁amoureux	-12.7806
▁Wheel	-12.7808
Skater	-12.7809
▁welder	-12.7809
▁bison	-12.7809
▁cracker	-12.7809
▁awnings	-12.7809
▁rentre	-12.7809
ards	-12.781
▁tulips	-12.7811
▁bronzé	-12.7811
▁feuillages	-12.7811
▁golfer	-12.7811
▁étiquettes	-12.7811
▁politiques	-12.7811
▁viking	-12.7811
▁apparaiss	-12.7812
▁sparklers	-12.7812
▁réagiss	-12.7812
▁our	-12.7813
▁assemblée	-12.7813
▁litera	-12.7813
▁cutter	-12.7815
▁flotteurs	-12.7815
▁Amérindien	-12.7815
▁masses	-12.7816
▁clasp	-12.7817
▁carpent	-12.7817
▁sandale	-12.7817
▁aliment	-12.7819
▁technici	-12.782
▁cry	-12.7824
▁alter	-12.7825
▁Ori	-12.7828
▁Tye	-12.7828
▁présenté	-12.783
▁shampooing	-12.7831
▁goof	-12.7833
tly	-12.7833
▁Profil	-12.7836
▁chape	-12.7837
▁media	-12.7837
amic	-12.7839
▁hoist	-12.7839
▁patches	-12.784
▁dentiste	-12.7841
bing	-12.7842
▁crier	-12.7847
▁juge	-12.7848
▁troupes	-12.7851
▁Tw	-12.7852
tyro	-12.7852
▁fist	-12.7853
▁Gardens	-12.7853
▁crêpes	-12.7853
▁magiques	-12.7853
▁pancakes	-12.7853
▁holidays	-12.7854
▁Hug	-12.7859
▁épi	-12.7859
▁officiels	-12.7862
▁examen	-12.7865
▁bagel	-12.7865
▁accessoires	-12.7867
igne	-12.7868
▁trough	-12.7868
▁remain	-12.7869
▁ki	-12.787
▁experts	-12.7871
▁nid	-12.7873
vement	-12.7877
▁region	-12.7878
▁streetlights	-12.7879
wan	-12.7881
▁hip	-12.7884
▁télévis	-12.7886
▁Mich	-12.7886
▁arrest	-12.7893
▁découpés	-12.7893
▁serrée	-12.7894
▁prop	-12.7895
▁mac	-12.7895
▁report	-12.7895
▁canadiens	-12.7895
▁dindes	-12.7896
▁chiffons	-12.7896
▁vitrées	-12.7896
▁cahiers	-12.7897
▁convi	-12.7898
▁chope	-12.7899
▁headlight	-12.7901
▁dreads	-12.7901
▁beautifully	-12.7902
▁savonne	-12.7903
▁solaire	-12.7905
▁pasture	-12.7905
▁noodles	-12.7907
▁Sco	-12.7909
▁noué	-12.791
▁protesters	-12.791
engagement	-12.7912
▁cork	-12.7913
▁glow	-12.7917
▁servis	-12.7917
▁Pat	-12.7918
▁possibl	-12.7918
▁marathoniens	-12.7919
▁débat	-12.7919
▁batons	-12.7923
▁récréati	-12.7924
▁casier	-12.7924
▁entretenu	-12.7927
▁burin	-12.793
▁mara	-12.793
▁porcs	-12.7934
▁fermée	-12.7935
▁blast	-12.7935
▁huttes	-12.7939
▁picker	-12.7941
▁latin	-12.7942
▁manuels	-12.7942
▁finale	-12.7942
▁contract	-12.7942
▁hôte	-12.7944
▁wal	-12.7944
▁importante	-12.7946
▁commerçante	-12.7947
▁flot	-12.7948
rge	-12.7948
scriptions	-12.795
▁pensive	-12.7951
▁écolière	-12.7952
▁savoureux	-12.7952
▁fouett	-12.7953
▁incroyable	-12.7956
dam	-12.7956
▁Cast	-12.7957
▁emballage	-12.796
ERR	-12.7962
▁pierc	-12.7965
itcher	-12.7967
▁dessinées	-12.7967
étend	-12.7969
ulent	-12.7969
▁bell	-12.7969
fuyant	-12.7971
▁secs	-12.7972
▁arrache	-12.7972
avantage	-12.7974
fringe	-12.7978
▁mart	-12.7978
▁dîne	-12.7978
▁bâches	-12.7978
▁tendues	-12.7979
▁twirls	-12.7981
hi	-12.7983
▁extrémités	-12.7983
▁kill	-12.7985
awing	-12.7985
▁Ru	-12.799
▁dumps	-12.799
verse	-12.7991
▁stupide	-12.7992
▁gère	-12.7993
pace	-12.7993
▁tissée	-12.7994
▁trucs	-12.7996
▁chargée	-12.7998
▁amused	-12.7998
▁Bus	-12.8002
▁engagée	-12.8003
▁tress	-12.8006
antiquités	-12.8006
▁élégants	-12.8007
▁touché	-12.8013
▁bug	-12.8015
▁trained	-12.8017
▁ignore	-12.8018
▁patinant	-12.802
▁bambous	-12.8021
▁pockets	-12.8021
▁Dad	-12.8021
▁assortis	-12.8021
▁concentrés	-12.8022
▁coussins	-12.8023
▁raides	-12.8023
▁marks	-12.8023
▁messages	-12.8025
▁notebooks	-12.8026
▁grid	-12.8027
▁moved	-12.8028
meute	-12.8029
▁tatt	-12.8031
▁numbered	-12.8031
▁juggler	-12.8033
▁rend	-12.8037
rou	-12.8039
▁toilets	-12.8039
▁tasks	-12.8041
acc	-12.8042
▁creusé	-12.8044
dle	-12.8045
▁speakers	-12.8051
▁Star	-12.8052
▁étreinte	-12.8055
tin	-12.8056
rubs	-12.8056
umeau	-12.8058
▁Pain	-12.806
▁creep	-12.806
▁treats	-12.8063
▁pumpkins	-12.8069
▁packages	-12.8069
▁ornements	-12.807
▁mad	-12.8075
ales	-12.8079
ea	-12.808
▁glob	-12.8083
▁commerciale	-12.8083
▁réalis	-12.8089
▁étals	-12.8093
ckey	-12.8093
▁mètres	-12.8099
shirted	-12.8101
▁opposé	-12.8103
▁Rica	-12.8104
▁photographiés	-12.8105
▁trips	-12.8105
▁renversée	-12.811
fs	-12.8112
▁disques	-12.8112
▁leotards	-12.8112
▁mineur	-12.8114
▁occasion	-12.8114
▁Welcome	-12.8115
▁stroke	-12.8116
▁pén	-12.8117
▁étire	-12.8118
▁dégage	-12.812
usée	-12.8124
▁cachée	-12.8128
▁blacktop	-12.8131
▁mugs	-12.8133
quent	-12.8133
rates	-12.8133
reeze	-12.8136
▁voix	-12.8137
▁mail	-12.8139
▁délabrée	-12.8139
Pad	-12.8142
▁majorit	-12.8143
▁Bal	-12.8144
▁orangé	-12.8149
▁bague	-12.815
race	-12.8153
▁unison	-12.8153
lass	-12.8161
▁dominate	-12.8166
▁acheté	-12.8167
Jump	-12.8183
ote	-12.8184
▁lancés	-12.8184
▁indi	-12.819
▁blottiss	-12.8192
vers	-12.8194
▁wield	-12.8201
▁huts	-12.8206
▁darkly	-12.8213
▁traîne	-12.8216
▁cords	-12.8216
▁pharmacie	-12.8217
▁spéciale	-12.8219
▁imprimée	-12.8222
▁poursuiv	-12.8228
▁combin	-12.8231
▁luxe	-12.8233
▁blown	-12.8236
tige	-12.8236
ators	-12.8239
uvant	-12.824
shir	-12.8241
li	-12.8243
onnée	-12.8245
▁swi	-12.8248
viewing	-12.8253
▁inner	-12.8253
▁blessée	-12.8272
▁comm	-12.8274
servent	-12.8275
▁clip	-12.8276
▁gifts	-12.8284
▁sizes	-12.8284
▁aidé	-12.8287
chés	-12.8297
▁exercice	-12.83
▁arcs	-12.8301
▁div	-12.8303
▁releas	-12.8304
▁sewer	-12.8305
▁kisse	-12.8306
▁hitch	-12.8306
▁lancée	-12.8307
▁hurle	-12.831
▁troll	-12.8312
▁bodyboard	-12.8314
▁exploit	-12.8315
▁contr	-12.8318
▁élaborée	-12.8318
accrocher	-12.8321
ortant	-12.8322
oyen	-12.8323
clés	-12.8328
▁cycle	-12.833
og	-12.8336
law	-12.8341
▁sax	-12.835
tée	-12.8351
▁thi	-12.8352
▁palette	-12.8357
laçant	-12.8361
▁parap	-12.8364
tically	-12.8367
▁crânes	-12.8371
▁boutiques	-12.8375
▁bead	-12.838
wall	-12.8381
▁GR	-12.8382
▁rods	-12.8394
nel	-12.8398
▁observer	-12.84
▁blé	-12.841
ools	-12.8411
▁papillons	-12.8416
▁ashore	-12.8417
▁meule	-12.8419
▁At	-12.8424
▁key	-12.8424
▁dense	-12.8425
platter	-12.8428
▁Ju	-12.8431
arching	-12.8435
dot	-12.8435
▁rebondiss	-12.8441
▁saupoudre	-12.8442
▁sew	-12.8448
LA	-12.8449
ug	-12.8453
wling	-12.8453
▁goe	-12.8454
▁pee	-12.8457
▁suspendues	-12.8461
ess	-12.8461
ntaines	-12.8465
ache	-12.8466
omeless	-12.8467
▁profil	-12.8469
▁fuit	-12.8473
incline	-12.848
ateurs	-12.8481
kly	-12.8482
riz	-12.8487
▁traje	-12.8487
▁braqu	-12.8489
▁transporté	-12.8496
▁colorant	-12.8501
▁trumpets	-12.8502
AGA	-12.8504
ences	-12.8509
addresses	-12.8516
tension	-12.8524
▁moustaches	-12.8528
▁tambours	-12.853
formé	-12.8532
▁calend	-12.8538
ams	-12.8539
▁état	-12.8539
▁maquillée	-12.8541
▁Husk	-12.8545
▁probl	-12.8559
▁guid	-12.856
▁cit	-12.8565
▁moon	-12.8568
▁spi	-12.8573
▁tribale	-12.8576
▁Bra	-12.8577
▁assure	-12.8579
▁publicitaires	-12.8592
▁blu	-12.8599
peron	-12.86
▁reclin	-12.8603
dre	-12.8606
▁étrangers	-12.8606
▁gueules	-12.8609
▁préparée	-12.8613
sus	-12.8615
▁princesse	-12.8631
▁wallet	-12.8634
▁aviat	-12.8637
tables	-12.8637
▁foo	-12.8638
tic	-12.8641
room	-12.8649
▁étranges	-12.8663
▁hér	-12.8671
▁bérets	-12.8675
scarves	-12.8675
▁Vir	-12.8683
vec	-12.869
▁tether	-12.869
▁soigne	-12.87
choir	-12.87
ora	-12.8705
▁slice	-12.8709
DE	-12.8709
▁dispos	-12.8714
▁campe	-12.8718
tics	-12.8719
buste	-12.8721
▁stru	-12.8722
▁conduct	-12.8725
ative	-12.8726
boos	-12.8729
rés	-12.8729
chette	-12.8732
▁Bur	-12.8734
Bell	-12.8738
mp	-12.8742
▁crush	-12.8744
▁bec	-12.8753
▁abs	-12.8756
▁chemi	-12.8757
▁pebble	-12.8764
▁hurdles	-12.8764
▁tre	-12.8765
▁beans	-12.8765
▁remporte	-12.8766
▁survêtements	-12.8767
énét	-12.877
cule	-12.8771
ami	-12.8781
▁containers	-12.8782
▁aquati	-12.8787
▁concentrat	-12.8788
▁mallet	-12.8789
boards	-12.879
hakes	-12.8793
▁dim	-12.8794
af	-12.8797
▁tatou	-12.8801
▁keyboards	-12.881
▁maintain	-12.881
▁chambres	-12.8813
lling	-12.8814
finish	-12.883
▁dévis	-12.8836
ossing	-12.8847
▁tongues	-12.885
hit	-12.8861
▁grenouill	-12.8865
▁moss	-12.8872
▁disposée	-12.8882
▁Personne	-12.889
▁tiles	-12.8893
mme	-12.8893
▁ros	-12.8901
ith	-12.8912
verte	-12.8916
année	-12.8924
omp	-12.8924
▁Vari	-12.8925
ction	-12.8932
rtan	-12.8933
▁camps	-12.8937
▁éclairées	-12.8937
▁frime	-12.8942
▁slalome	-12.8944
hot	-12.8947
▁appuy	-12.8947
ari	-12.8954
▁Russia	-12.8955
▁ajoute	-12.8957
▁chercheur	-12.8965
▁Sta	-12.8976
▁conduite	-12.8984
▁médit	-12.8993
lie	-12.8997
cations	-12.8998
▁rames	-12.9001
ade	-12.9006
acteur	-12.9008
lice	-12.901
ters	-12.9011
▁Africain	-12.9015
▁sortis	-12.9016
▁lives	-12.9016
vision	-12.9017
ger	-12.9019
tard	-12.9028
dant	-12.903
▁cheerful	-12.9033
équi	-12.9041
cap	-12.9045
vins	-12.905
▁éteign	-12.9068
hook	-12.9071
▁sorts	-12.9076
▁dég	-12.9108
▁récolt	-12.9123
▁comp	-12.9124
▁rampant	-12.9126
nes	-12.9145
▁peruse	-12.9153
vie	-12.9155
▁trait	-12.9164
▁Mr	-12.9168
ited	-12.9175
éri	-12.9181
▁popula	-12.9187
▁forte	-12.9189
▁berce	-12.9192
obes	-12.9194
gile	-12.9195
▁diplômée	-12.92
ailing	-12.9202
▁acrobate	-12.9203
▁figur	-12.9205
▁agressi	-12.9209
fait	-12.9215
▁embarque	-12.9226
▁emball	-12.9239
▁séch	-12.924
lliance	-12.9251
field	-12.9253
▁defend	-12.9254
arpente	-12.9263
éclabousser	-12.927
ol	-12.9271
allonge	-12.928
ating	-12.9282
▁réc	-12.9286
pour	-12.9286
▁dri	-12.9289
prendre	-12.9293
saw	-12.9298
▁sauve	-12.93
rette	-12.93
▁grav	-12.93
ressent	-12.9301
▁bret	-12.9307
ale	-12.9314
▁helper	-12.9319
formelle	-12.9319
▁sm	-12.9323
ender	-12.9324
▁sling	-12.9326
ON	-12.9327
▁Is	-12.9331
cycles	-12.9357
GA	-12.936
rader	-12.9366
▁retai	-12.9376
evil	-12.9376
▁marqu	-12.938
▁Wh	-12.9384
▁survole	-12.9392
▁enterr	-12.9393
roupeau	-12.9405
▁cal	-12.9408
ird	-12.9414
▁diverse	-12.9415
now	-12.9421
euil	-12.9422
cade	-12.9433
▁gla	-12.9439
▁Over	-12.9442
▁Su	-12.9448
rounding	-12.945
arche	-12.9451
blo	-12.9463
iant	-12.9467
hio	-12.9478
▁furi	-12.9479
obe	-12.948
ming	-12.9482
oster	-12.9486
closed	-12.9507
▁bean	-12.951
▁wagons	-12.9512
▁enneigés	-12.9519
▁patrioti	-12.9523
▁soi	-12.9529
▁cola	-12.9534
▁taill	-12.9539
▁rotati	-12.9558
▁res	-12.9569
bs	-12.9578
▁Fr	-12.9584
▁interacti	-12.9591
▁pours	-12.9597
▁cé	-12.9604
ps	-12.9608
▁trac	-12.9609
▁plaisant	-12.9609
▁élevé	-12.9613
▁miroirs	-12.9618
▁flora	-12.9635
▁blur	-12.9637
tive	-12.9637
▁repli	-12.9652
rain	-12.9655
east	-12.9659
femme	-12.9677
laying	-12.9685
▁ethnicit	-12.969
▁forge	-12.9699
▁Roo	-12.9717
▁Guitar	-12.972
él	-12.9727
▁danseur	-12.9731
terback	-12.974
▁Ga	-12.9747
teuse	-12.9752
aura	-12.9754
▁rejoin	-12.9756
présentant	-12.9768
▁strum	-12.9771
old	-12.9776
▁rénov	-12.9778
▁Bol	-12.9784
▁atteign	-12.9786
▁oriente	-12.9786
▁darts	-12.9792
LO	-12.9804
▁arrosage	-12.9807
▁viv	-12.9813
▁adventure	-12.9813
ètre	-12.9818
tw	-12.9823
lo	-12.9829
▁sash	-12.983
▁cultur	-12.9831
▁galop	-12.9831
▁carrée	-12.9832
sevel	-12.9864
angle	-12.9866
▁hoses	-12.987
yellow	-12.9871
▁masse	-12.9871
eezer	-12.9875
iretrucks	-12.991
▁ban	-12.9918
▁tondu	-12.9922
low	-12.994
▁mauvais	-12.9944
▁bats	-12.9945
▁ston	-12.9948
iding	-12.9948
bank	-12.9953
ree	-12.9956
▁duel	-12.9968
appel	-12.997
reign	-12.9979
adles	-12.9981
▁vis	-12.9998
▁animées	-13.0006
▁Petr	-13.0008
mming	-13.0031
▁grillé	-13.0031
levant	-13.0035
ugh	-13.0053
gains	-13.0071
▁jongla	-13.008
▁rouet	-13.0098
intéressantes	-13.0104
▁surfboards	-13.0105
▁écur	-13.011
anger	-13.0115
▁amusé	-13.0122
▁rin	-13.0123
▁Ship	-13.0127
▁Col	-13.0128
uve	-13.0128
▁fra	-13.0142
▁Motorcycl	-13.0157
▁descendu	-13.0166
▁infants	-13.0167
yan	-13.0172
▁Perform	-13.0174
▁dix	-13.0176
▁intéressante	-13.018
▁thre	-13.0183
aspire	-13.0188
sonne	-13.0189
▁clim	-13.0194
▁défie	-13.0214
enya	-13.022
▁era	-13.0235
hopping	-13.0238
praying	-13.025
▁cultive	-13.0252
ignent	-13.0257
nos	-13.0258
▁supervis	-13.0261
▁lungi	-13.0269
▁mâch	-13.0271
tique	-13.0271
capot	-13.0271
▁Color	-13.028
▁patriot	-13.0283
hoppers	-13.0291
horn	-13.0313
▁Buddh	-13.0315
ré	-13.0328
▁répara	-13.034
▁cos	-13.0353
▁ben	-13.0357
▁vine	-13.0359
bre	-13.0368
has	-13.0368
▁soud	-13.0373
ntaine	-13.0374
panes	-13.0381
off	-13.0383
verhead	-13.0385
élan	-13.0385
▁traction	-13.0394
owling	-13.0397
lowing	-13.0398
uss	-13.0429
end	-13.0429
▁capital	-13.0432
chut	-13.0432
▁carrel	-13.0435
▁once	-13.0447
oking	-13.0453
▁My	-13.0474
▁ferm	-13.048
ions	-13.0488
▁Arab	-13.0491
▁Vo	-13.0503
alie	-13.051
gent	-13.0518
tained	-13.0527
zz	-13.0528
ér	-13.0533
Pant	-13.0539
▁canes	-13.0547
bling	-13.0552
cheveux	-13.0553
inning	-13.0572
▁pulvéris	-13.0573
▁Nor	-13.0576
▁JA	-13.0596
ashes	-13.0602
▁awe	-13.0615
▁sick	-13.0615
▁embarqu	-13.0621
▁partag	-13.0628
▁stuc	-13.0647
▁cuis	-13.0648
▁spéci	-13.0648
▁pains	-13.065
ould	-13.0653
ator	-13.0654
ense	-13.0658
▁ag	-13.0662
▁tasses	-13.0666
bike	-13.0674
net	-13.068
frog	-13.0686
▁barbo	-13.0688
▁continu	-13.0695
▁grilla	-13.0704
dles	-13.0722
▁inspecteur	-13.0737
oggers	-13.0744
▁dip	-13.0754
na	-13.0758
▁claque	-13.0767
lus	-13.0799
▁restaurants	-13.0803
tle	-13.0821
lers	-13.0822
gon	-13.0827
▁speck	-13.0834
▁ste	-13.0837
training	-13.0856
OI	-13.0874
▁bulls	-13.0877
gée	-13.0878
ucks	-13.0879
pensive	-13.0884
▁printe	-13.0884
AN	-13.089
▁Out	-13.0901
▁util	-13.0914
▁bee	-13.0918
▁Cor	-13.0921
▁mold	-13.0925
▁basketballs	-13.0925
sable	-13.0926
▁dan	-13.0939
▁tourn	-13.0942
▁lei	-13.0944
▁mons	-13.0946
▁entrepreneur	-13.095
Po	-13.0955
▁sépare	-13.0958
▁rins	-13.096
▁essu	-13.0981
▁Cel	-13.0985
▁driv	-13.0986
▁express	-13.0989
fact	-13.0996
ama	-13.1
▁labour	-13.1
▁mate	-13.1014
▁wand	-13.1018
uzzled	-13.1018
▁ajout	-13.1023
▁Sun	-13.1028
dilla	-13.1032
lated	-13.1034
ities	-13.1034
ert	-13.104
▁finisse	-13.1047
▁polic	-13.1048
course	-13.1056
pens	-13.1063
▁Cher	-13.1077
▁boisseau	-13.1082
▁permet	-13.1097
▁active	-13.1098
lusi	-13.1102
▁intégral	-13.111
hold	-13.1111
▁challeng	-13.1111
▁chi	-13.1111
▁publics	-13.1114
bell	-13.1116
▁Vad	-13.1121
▁soon	-13.1126
▁Mach	-13.1126
▁remont	-13.1131
▁wr	-13.1131
étal	-13.1135
▁ad	-13.1141
ctive	-13.1141
▁pati	-13.1162
▁saxophonist	-13.1174
▁Pho	-13.1177
▁fern	-13.1188
rayola	-13.1196
terrain	-13.1211
▁Quarte	-13.1216
▁croqu	-13.1223
eating	-13.1235
▁Haw	-13.1249
▁fatigue	-13.1261
game	-13.1272
▁lise	-13.1288
LU	-13.1298
rid	-13.1299
rot	-13.1302
altim	-13.1327
ety	-13.1328
terre	-13.133
An	-13.1344
lume	-13.1348
▁ran	-13.1349
rov	-13.135
avy	-13.1352
nah	-13.1358
pac	-13.1365
agas	-13.1376
▁pouvo	-13.1388
▁rec	-13.1396
▁mét	-13.1396
aine	-13.1398
▁Bru	-13.1407
▁bouill	-13.1415
uyant	-13.1422
tine	-13.1426
att	-13.1426
▁fron	-13.1426
nviron	-13.1428
anging	-13.1429
▁navigua	-13.1454
▁oval	-13.1469
orce	-13.1469
▁chan	-13.1474
▁fac	-13.1477
bles	-13.1481
▁ceux	-13.1482
▁peddl	-13.1488
pants	-13.1509
RE	-13.1511
▁inclin	-13.1521
▁obstruct	-13.1525
tand	-13.1527
rgent	-13.1528
pente	-13.1535
▁crushe	-13.155
ored	-13.1554
foot	-13.1554
endo	-13.1565
▁revie	-13.1567
▁snowing	-13.1584
▁renverse	-13.1587
eads	-13.1588
cre	-13.1593
▁soake	-13.1597
lway	-13.1597
Read	-13.1614
▁tw	-13.1618
▁ping	-13.1622
urance	-13.1624
▁fir	-13.1624
ndy	-13.1628
am	-13.164
res	-13.1645
ène	-13.1649
fit	-13.1659
▁fourre	-13.1688
climbing	-13.1689
▁réceptionn	-13.1697
▁For	-13.1703
horse	-13.1706
▁state	-13.1707
▁immobili	-13.1718
ext	-13.1722
▁fre	-13.1729
▁measure	-13.173
▁simple	-13.173
cted	-13.1738
▁perc	-13.174
beater	-13.1749
mic	-13.1757
inted	-13.1767
rier	-13.1771
▁élaboré	-13.1772
interroge	-13.1777
▁gouverne	-13.1786
tier	-13.1788
ivre	-13.1788
doors	-13.179
col	-13.1798
very	-13.1803
▁cas	-13.1811
load	-13.1822
▁cendr	-13.1831
plein	-13.1832
▁dép	-13.1848
lique	-13.1856
pole	-13.1863
bli	-13.1863
risk	-13.1864
ridge	-13.1873
envoi	-13.1877
En	-13.1883
▁lava	-13.1891
▁préparé	-13.1897
▁grate	-13.19
quant	-13.1907
anneau	-13.1908
pierre	-13.1911
gg	-13.1916
formal	-13.1919
painting	-13.1931
worker	-13.1933
tical	-13.1935
nette	-13.1964
▁alo	-13.1973
vol	-13.1975
Arc	-13.1978
iting	-13.1979
burn	-13.1982
ears	-13.1982
lights	-13.1982
crowded	-13.1984
val	-13.1988
list	-13.1991
floor	-13.1997
▁artisanal	-13.2013
▁sorti	-13.2015
▁rac	-13.2016
▁pendu	-13.2016
▁pharmac	-13.202
Pop	-13.202
armes	-13.2033
jupe	-13.2033
sure	-13.2033
uniforme	-13.2037
loud	-13.2053
attraction	-13.2056
▁Mang	-13.207
▁lid	-13.207
▁bikin	-13.2072
scooter	-13.2072
distance	-13.2072
▁homm	-13.2076
▁enfoncé	-13.2087
bor	-13.2088
spectacle	-13.2093
▁parois	-13.2096
▁slow	-13.2098
mé	-13.2114
HL	-13.2115
▁simpl	-13.212
athlète	-13.2134
Live	-13.2144
painted	-13.2146
▁magic	-13.2147
umbling	-13.2148
▁tournoie	-13.215
droite	-13.2151
âne	-13.2152
▁servi	-13.2154
▁agité	-13.2155
bull	-13.2156
temps	-13.216
school	-13.2161
cake	-13.2162
tching	-13.2166
père	-13.2167
appartement	-13.2171
étoile	-13.2171
▁emprunt	-13.2173
uts	-13.2175
ands	-13.2178
▁decid	-13.2182
brise	-13.2183
▁pitche	-13.2184
onald	-13.219
accompagn	-13.219
class	-13.2193
▁handl	-13.2196
ole	-13.2196
flip	-13.2201
hammer	-13.2203
q	-13.2208
gne	-13.2209
oth	-13.221
▁spécial	-13.2213
asperge	-13.2217
▁caché	-13.2217
▁brill	-13.2222
écoute	-13.2223
fighting	-13.2226
mètres	-13.2231
intersection	-13.2236
block	-13.2238
▁flottante	-13.2238
appliqu	-13.2241
iling	-13.2242
remorque	-13.2243
kart	-13.2246
taxi	-13.225
Sub	-13.2251
topped	-13.2253
ision	-13.2261
away	-13.2261
endy	-13.2261
architecture	-13.2263
▁casqu	-13.2269
hippodrome	-13.2269
câlin	-13.227
Cyclone	-13.227
Paris	-13.2272
Iowa	-13.2273
adversaire	-13.2277
free	-13.2278
▁crow	-13.2278
ouz	-13.2279
étang	-13.2279
▁décontracté	-13.2279
pie	-13.228
oy	-13.2285
ascension	-13.2286
▁lavan	-13.2288
ste	-13.2289
bread	-13.2294
▁comic	-13.2295
aliments	-13.2297
peace	-13.2297
incendie	-13.2297
parents	-13.2299
igh	-13.2301
agite	-13.2302
emballage	-13.2303
nq	-13.2303
incroyable	-13.2304
raised	-13.2305
first	-13.2307
ornements	-13.2308
hôte	-13.2309
Jim	-13.2309
approchant	-13.2309
immense	-13.231
étoffe	-13.2311
écolière	-13.2311
▁sho	-13.2311
Police	-13.2315
Twister	-13.2316
ttracti	-13.2317
observent	-13.232
America	-13.2321
Seattle	-13.2321
astronaut	-13.2322
South	-13.2322
hélicoptère	-13.2323
Washington	-13.2323
éclairage	-13.2323
éléphant	-13.2324
échecs	-13.2324
imprimé	-13.2325
plaqué	-13.2325
thumbs	-13.2325
Cafe	-13.2327
atterrissa	-13.2327
Grand	-13.2327
Bull	-13.2327
entreprise	-13.2327
Green	-13.2328
oll	-13.2328
projecteur	-13.2329
enceinte	-13.2329
legged	-13.2329
occupés	-13.2331
ship	-13.2331
Easter	-13.2332
▁clea	-13.2333
gonflé	-13.2333
idiot	-13.2334
Je	-13.2335
pain	-13.2336
essuie	-13.2336
chu	-13.2336
exhib	-13.2339
can	-13.234
DS	-13.2341
épais	-13.2342
épi	-13.2344
Hous	-13.2346
color	-13.2351
shade	-13.2353
étage	-13.2353
▁respon	-13.2354
ctor	-13.2354
▁include	-13.2356
▁thr	-13.2357
science	-13.236
accord	-13.2363
▁hal	-13.2367
▁trave	-13.2371
▁shock	-13.2374
▁Workm	-13.2377
zoo	-13.2378
safe	-13.2378
mused	-13.2383
▁bru	-13.2387
stride	-13.2387
▁rassemblé	-13.2392
▁finishe	-13.2392
engin	-13.2394
duck	-13.2395
▁unwrap	-13.24
UE	-13.2405
battu	-13.241
▁ab	-13.241
▁baign	-13.2411
ely	-13.2411
▁Gra	-13.2411
mage	-13.2413
disque	-13.2416
▁technic	-13.2425
▁mobil	-13.2426
mates	-13.2429
auvent	-13.2431
notes	-13.2434
rena	-13.2438
horns	-13.244
▁thro	-13.244
▁arrang	-13.2444
step	-13.2448
▁leav	-13.2449
lons	-13.2451
bed	-13.2451
▁Jum	-13.2454
MC	-13.2459
êt	-13.2463
▁connect	-13.2466
pad	-13.247
case	-13.2474
udi	-13.2475
▁fumé	-13.2487
ph	-13.2492
cks	-13.2494
▁sauts	-13.2499
▁Fa	-13.2501
▁langu	-13.2504
informations	-13.2511
▁squir	-13.2511
▁disco	-13.2512
stairs	-13.2512
rès	-13.2514
uge	-13.2514
acing	-13.2514
iole	-13.252
bject	-13.2521
▁Q	-13.2523
▁conférenc	-13.2525
▁entour	-13.2526
quad	-13.2528
flated	-13.2529
▁réagi	-13.253
▁parachutis	-13.2531
▁pat	-13.2532
lante	-13.2535
genou	-13.2535
RR	-13.2542
▁masqu	-13.2543
glo	-13.2543
▁boît	-13.2544
bow	-13.2547
▁ornementa	-13.2548
▁désarçonn	-13.2554
met	-13.2554
oppos	-13.2555
ôme	-13.2555
▁verglacé	-13.2557
▁familial	-13.2557
▁entraîné	-13.2558
▁souterrain	-13.2559
▁fluid	-13.2563
▁retour	-13.2564
adio	-13.2566
▁pliant	-13.2569
▁effrayé	-13.257
▁escarpé	-13.257
▁buste	-13.2573
▁luxuriant	-13.2575
▁Dr	-13.2576
patience	-13.258
vélos	-13.2582
order	-13.2583
ashioned	-13.2584
purs	-13.2585
rine	-13.2586
▁cocktail	-13.2587
▁indigène	-13.2587
▁Outdoor	-13.2587
▁minijupe	-13.2587
▁poignet	-13.2588
▁Martin	-13.2591
▁poulie	-13.2592
▁pelucheuse	-13.2596
▁athlétique	-13.2597
▁fléchette	-13.2597
Terri	-13.2598
▁accessoire	-13.2598
berline	-13.2598
▁Well	-13.2599
▁locker	-13.26
▁troop	-13.26
igital	-13.26
▁reç	-13.2601
▁coconut	-13.2602
▁acrobatique	-13.2602
▁Tout	-13.2604
▁Rollerblade	-13.2604
▁joggeur	-13.2604
parleur	-13.2605
▁bridesmaid	-13.2605
▁souvenir	-13.2606
couvert	-13.2606
▁pajama	-13.2606
pris	-13.2606
▁article	-13.2607
▁bystander	-13.2608
uggling	-13.2609
grès	-13.2609
▁figurine	-13.2609
▁bonbon	-13.261
▁jumelle	-13.261
traînée	-13.2611
▁ess	-13.2612
▁décoration	-13.2613
▁dollar	-13.2614
dynami	-13.2616
▁collecti	-13.2617
▁promen	-13.262
▁Sport	-13.2622
▁consum	-13.2622
outil	-13.2622
▁soie	-13.2623
▁Flo	-13.2623
illes	-13.2626
▁brace	-13.2629
▁sweating	-13.2631
▁downward	-13.2633
▁lèvre	-13.2634
late	-13.2635
exercices	-13.2641
▁écouteur	-13.2646
pers	-13.2648
▁ethni	-13.2649
Rad	-13.265
immeubles	-13.265
▁windsurf	-13.2652
▁conserve	-13.2652
▁captiv	-13.2658
▁shampoo	-13.2659
ffleur	-13.2659
ologique	-13.2662
times	-13.2662
▁sushi	-13.2662
habit	-13.2663
▁ruine	-13.2663
▁drawer	-13.2665
▁happen	-13.2668
excit	-13.267
▁sideline	-13.267
▁difficult	-13.2671
▁lib	-13.2672
▁mémo	-13.2674
▁shingle	-13.2674
▁internationa	-13.2676
fight	-13.2677
▁chauffe	-13.2679
▁crus	-13.2679
▁glo	-13.268
ournament	-13.268
▁respect	-13.2682
èrement	-13.2684
▁mexica	-13.2686
▁cristal	-13.2687
▁wineglass	-13.2688
▁Even	-13.269
▁envelop	-13.269
▁intervie	-13.269
▁Jer	-13.269
▁improv	-13.2692
ggles	-13.2692
▁inflat	-13.2694
▁hydrauli	-13.2696
ketch	-13.2697
▁municipa	-13.2697
▁blank	-13.2697
ébé	-13.2697
▁handicap	-13.2697
▁should	-13.2698
▁volcan	-13.2698
▁concer	-13.2699
reakdance	-13.2699
ridesmaids	-13.2699
estival	-13.2699
polis	-13.27
postale	-13.27
▁infirmi	-13.27
onference	-13.27
▁Spider	-13.2701
ippie	-13.2701
▁expériment	-13.2701
▁intrigu	-13.2701
▁complète	-13.2701
férence	-13.2701
▁énergi	-13.2702
▁injur	-13.2702
bby	-13.2702
▁Music	-13.2702
▁commémorati	-13.2702
▁Prince	-13.2702
▁néglig	-13.2702
▁échafaud	-13.2703
▁boulanger	-13.2703
▁réfugi	-13.2703
▁oxyg	-13.2703
guar	-13.2703
▁Cyclo	-13.2703
raphic	-13.2703
▁confort	-13.2703
itness	-13.2703
▁végéta	-13.2703
▁neighbor	-13.2703
omorowski	-13.2703
▁kerchief	-13.2703
Novemb	-13.2703
ography	-13.2703
▁Bradford	-13.2703
▁Violin	-13.2703
▁autograph	-13.2703
▁awkward	-13.2703
▁calligraph	-13.2703
▁contorsionn	-13.2703
▁diploma	-13.2703
▁eccentric	-13.2703
▁intertwin	-13.2703
▁majestic	-13.2703
▁occidenta	-13.2703
▁pirogue	-13.2703
Gidday	-13.2703
Touchdown	-13.2703
embarcadère	-13.2703
ennington	-13.2703
ggressive	-13.2703
occinelle	-13.2703
ographed	-13.2703
omodo	-13.2703
réservé	-13.2703
tisserie	-13.2703
uthhoop	-13.2703
▁AVEDA	-13.2703
▁Ballerina	-13.2703
▁Birmingham	-13.2703
▁Budweiser	-13.2703
▁Capitol	-13.2703
▁Chiefs	-13.2703
▁Classic	-13.2703
▁Clippers	-13.2703
▁Cyranka	-13.2703
▁DVD	-13.2703
▁Dorado	-13.2703
▁Downtown	-13.2703
▁Ebay	-13.2703
▁Farmosa	-13.2703
▁Giorgio	-13.2703
▁Grizzles	-13.2703
▁HSBC	-13.2703
▁Hilfiger	-13.2703
▁Margarita	-13.2703
▁Marlins	-13.2703
▁Maruga	-13.2703
▁Mayores	-13.2703
▁McDo	-13.2703
▁Morgan	-13.2703
▁Mutual	-13.2703
▁NERF	-13.2703
▁NFL	-13.2703
▁Orchestr	-13.2703
▁PADDINGTON	-13.2703
▁Packers	-13.2703
▁Richardson	-13.2703
▁Seiko	-13.2703
▁ShoeGasm	-13.2703
▁Spartans	-13.2703
▁Sprite	-13.2703
▁Stanford	-13.2703
▁Stonehurst	-13.2703
▁Sugarland	-13.2703
▁Tannehill	-13.2703
▁Tartuffe	-13.2703
▁Transformer	-13.2703
▁Vehicle	-13.2703
▁Verizon	-13.2703
▁Veteran	-13.2703
▁Volvo	-13.2703
▁administrati	-13.2703
▁agrafe	-13.2703
▁alcoolisées	-13.2703
▁ambré	-13.2703
▁amphibi	-13.2703
▁amphithéâtre	-13.2703
▁amplifier	-13.2703
▁amputé	-13.2703
▁anticipati	-13.2703
▁artérielle	-13.2703
▁bazaar	-13.2703
▁beffroi	-13.2703
▁billiard	-13.2703
▁braderie	-13.2703
▁brancard	-13.2703
▁breuvage	-13.2703
▁brindille	-13.2703
▁broccoli	-13.2703
▁brocolis	-13.2703
▁broyeuse	-13.2703
▁brésilien	-13.2703
▁buanderie	-13.2703
▁budweiser	-13.2703
▁catacomb	-13.2703
▁centurion	-13.2703
▁charlotte	-13.2703
▁chinatown	-13.2703
▁choristes	-13.2703
▁cinéma	-13.2703
▁comestible	-13.2703
▁communautaire	-13.2703
▁compartiment	-13.2703
▁confiserie	-13.2703
▁conifère	-13.2703
▁conveyor	-13.2703
▁corbeille	-13.2703
▁coéquipière	-13.2703
▁crevasse	-13.2703
▁crustac	-13.2703
▁cuissardes	-13.2703
▁demolishe	-13.2703
▁diamond	-13.2703
▁dissimul	-13.2703
▁distinct	-13.2703
▁distracted	-13.2703
▁district	-13.2703
▁déchaînée	-13.2703
▁délimitée	-13.2703
▁déluge	-13.2703
▁dépotoir	-13.2703
▁désolé	-13.2703
▁déterminé	-13.2703
▁effrayant	-13.2703
▁embrumé	-13.2703
▁espadrilles	-13.2703
▁excentrique	-13.2703
▁expectant	-13.2703
▁extatiquement	-13.2703
▁extinguish	-13.2703
▁extraordina	-13.2703
▁eyebrow	-13.2703
▁fantasy	-13.2703
▁fermentation	-13.2703
▁fidèle	-13.2703
▁fundraiser	-13.2703
▁gastronomique	-13.2703
▁gerbil	-13.2703
▁glaçage	-13.2703
▁horrifié	-13.2703
▁iMac	-13.2703
▁irlandais	-13.2703
▁irritated	-13.2703
▁latérale	-13.2703
▁lettuce	-13.2703
▁loudspeaker	-13.2703
▁luminaires	-13.2703
▁manucure	-13.2703
▁masonry	-13.2703
▁mathématiques	-13.2703
▁maximi	-13.2703
▁memorabilia	-13.2703
▁mischievous	-13.2703
▁multimédia	-13.2703
▁niveler	-13.2703
▁néerlandais	-13.2703
▁pamphlet	-13.2703
▁panorama	-13.2703
▁parcmètre	-13.2703
▁pearls	-13.2703
▁polystyrène	-13.2703
▁pomeranian	-13.2703
▁poméranien	-13.2703
▁private	-13.2703
▁propriété	-13.2703
▁pylône	-13.2703
▁pâtissier	-13.2703
▁pâturage	-13.2703
▁pédestre	-13.2703
▁rembarde	-13.2703
▁rembourrage	-13.2703
▁renovat	-13.2703
▁respirer	-13.2703
▁ressources	-13.2703
▁restaraunt	-13.2703
▁rocailleuse	-13.2703
▁rockabilly	-13.2703
▁râp	-13.2703
▁réflexion	-13.2703
▁réservoir	-13.2703
▁résidentiel	-13.2703
▁réticent	-13.2703
▁safari	-13.2703
▁schizophr	-13.2703
▁snooze	-13.2703
▁snowdrift	-13.2703
▁somnolent	-13.2703
▁sphinx	-13.2703
▁splendid	-13.2703
▁success	-13.2703
▁succès	-13.2703
▁superior	-13.2703
▁supérieur	-13.2703
▁surchargé	-13.2703
▁syrup	-13.2703
▁thousands	-13.2703
▁trèfle	-13.2703
▁typewriter	-13.2703
▁tôle	-13.2703
▁urgentistes	-13.2703
▁vignoble	-13.2703
▁vétérans	-13.2703
▁égyptien	-13.2703
▁étiqueté	-13.2703
▁Gyro	-13.2703
▁Negro	-13.2703
▁bazar	-13.2703
▁citerne	-13.2703
▁grimaçant	-13.2703
▁peppers	-13.2703
▁respectifs	-13.2703
Thriller	-13.2703
cksmith	-13.2703
emplacement	-13.2703
intercept	-13.2703
▁Burberry	-13.2703
▁Fatigu	-13.2703
▁Harrod	-13.2703
▁Ikea	-13.2703
▁Mooring	-13.2703
▁Portland	-13.2703
▁bibelots	-13.2703
▁bouddhiste	-13.2703
▁conifer	-13.2703
▁costaud	-13.2703
▁cucumber	-13.2703
▁culotte	-13.2703
▁emporter	-13.2703
▁engrenage	-13.2703
▁exhaust	-13.2703
▁experienc	-13.2703
▁fissuré	-13.2703
▁geyser	-13.2703
▁humorous	-13.2703
▁kabob	-13.2703
▁négocie	-13.2703
▁raffiné	-13.2703
▁regrets	-13.2703
▁resource	-13.2703
▁scientific	-13.2703
▁shrubbery	-13.2703
▁slingshot	-13.2703
▁urinoir	-13.2703
nocide	-13.2703
élimin	-13.2703
▁Club	-13.2703
▁Libert	-13.2703
▁bitumé	-13.2703
▁exemplaire	-13.2703
▁festivités	-13.2703
▁refrigerat	-13.2703
▁shuttle	-13.2703
▁transluc	-13.2703
▁téléphérique	-13.2703
▁vampire	-13.2703
▁vessel	-13.2703
▁vocabula	-13.2703
▁Dorothy	-13.2703
▁appropriate	-13.2703
▁audaci	-13.2703
▁custody	-13.2703
▁cylind	-13.2703
▁grillagée	-13.2703
▁observateurs	-13.2703
▁recital	-13.2703
▁révise	-13.2703
▁seminar	-13.2703
▁sequence	-13.2703
▁vingtaine	-13.2703
▁assignment	-13.2703
▁sinueux	-13.2703
▁séquoia	-13.2703
▁tinsel	-13.2703
Angleterre	-13.2703
▁Costco	-13.2703
▁Cricket	-13.2703
▁Gateway	-13.2703
▁Orph	-13.2703
▁calcul	-13.2703
▁chiffre	-13.2703
▁dédica	-13.2703
▁flambeau	-13.2703
▁goulot	-13.2703
▁islamique	-13.2703
▁mousquet	-13.2703
▁réussi	-13.2703
▁somptueu	-13.2703
encadrement	-13.2703
▁astonish	-13.2703
▁karaoke	-13.2703
ICE	-13.2703
Info	-13.2703
▁Cream	-13.2703
▁Tissues	-13.2703
▁canalisation	-13.2703
▁congregation	-13.2703
▁fantaisistes	-13.2703
▁gladiat	-13.2703
▁remodel	-13.2703
▁worship	-13.2703
▁Acura	-13.2703
▁Jazz	-13.2703
▁Mellon	-13.2703
▁Stripe	-13.2703
▁Camel	-13.2703
▁Italy	-13.2703
▁ampoule	-13.2703
▁ecstatically	-13.2703
▁pétriss	-13.2703
▁tourbillon	-13.2703
séquence	-13.2703
▁Delwood	-13.2703
▁biberon	-13.2703
▁cochon	-13.2703
▁poivr	-13.2703
▁porcelet	-13.2703
▁skyscraper	-13.2703
▁tourisme	-13.2703
▁érigé	-13.2703
OME	-13.2703
dominant	-13.2703
parfum	-13.2703
sphère	-13.2703
▁meulage	-13.2703
▁établi	-13.2703
▁RVS	-13.2703
▁colporteur	-13.2703
▁coréen	-13.2703
▁gên	-13.2703
▁hitchhiking	-13.2703
▁incense	-13.2703
▁pompoms	-13.2703
▁réjoui	-13.2703
▁shoelaces	-13.2703
▁Pepper	-13.2703
▁fertili	-13.2703
▁gravats	-13.2703
grenier	-13.2704
oustiqu	-13.2704
▁aveugl	-13.2704
▁respiratoire	-13.2704
▁Russel	-13.2704
▁envahi	-13.2704
▁veteran	-13.2704
▁silverware	-13.2704
▁Blackberry	-13.2704
▁coulissante	-13.2704
▁déj	-13.2704
▁masterpiece	-13.2704
▁écrasée	-13.2704
▁Rouleur	-13.2704
▁manivelle	-13.2704
▁postcards	-13.2704
▁Stitch	-13.2704
▁fierté	-13.2704
▁démodé	-13.2704
▁hivernal	-13.2704
▁torii	-13.2704
argenterie	-13.2704
▁Playboy	-13.2704
▁Sunday	-13.2704
▁author	-13.2704
▁edible	-13.2704
▁protectrice	-13.2704
▁résille	-13.2704
mêlée	-13.2704
▁déchaîne	-13.2704
▁détrui	-13.2704
▁rafraîchiss	-13.2704
ustrali	-13.2704
▁déclar	-13.2704
▁fracture	-13.2704
▁starfish	-13.2704
▁repéré	-13.2704
▁martini	-13.2704
▁neatly	-13.2704
kraini	-13.2704
▁attirail	-13.2704
▁dilige	-13.2704
▁reenact	-13.2704
▁jumeaux	-13.2704
▁warrior	-13.2704
▁abondant	-13.2704
▁rafraîchissante	-13.2704
▁bonfire	-13.2704
▁composition	-13.2704
▁moelleux	-13.2704
▁racines	-13.2704
▁clipboard	-13.2704
▁percée	-13.2704
Easy	-13.2704
assoupi	-13.2704
blading	-13.2704
▁limonade	-13.2704
riomph	-13.2704
▁Pioneer	-13.2704
▁corsaire	-13.2704
▁réfugiés	-13.2704
▁spécialisé	-13.2704
▁renommé	-13.2704
ouisiana	-13.2704
▁Heavy	-13.2704
▁chimique	-13.2704
▁Fairway	-13.2704
▁chaperon	-13.2704
oxygène	-13.2704
▁Mignon	-13.2704
▁pioche	-13.2704
▁Ginger	-13.2704
▁repelling	-13.2704
▁residence	-13.2704
▁domaine	-13.2704
▁profane	-13.2704
▁indigo	-13.2704
▁slouch	-13.2704
▁perro	-13.2704
▁rugged	-13.2704
▁élagu	-13.2704
▁cadenas	-13.2704
▁escort	-13.2704
▁esquiv	-13.2704
▁requin	-13.2704
intimité	-13.2704
NE	-13.2704
érable	-13.2704
▁Olympiques	-13.2704
▁improvisé	-13.2704
▁poudreuse	-13.2704
▁perfume	-13.2704
▁residen	-13.2704
▁bulb	-13.2704
▁chandelles	-13.2704
▁pénombre	-13.2704
▁énergiquement	-13.2704
EF	-13.2704
▁reportage	-13.2704
▁yoyo	-13.2704
▁besace	-13.2704
kwon	-13.2704
▁knoll	-13.2704
▁abdomen	-13.2704
▁brigad	-13.2704
▁négligée	-13.2704
▁patriotism	-13.2704
▁ribs	-13.2704
▁grogne	-13.2704
▁hardware	-13.2704
▁récoltés	-13.2704
▁farmland	-13.2704
▁necktie	-13.2704
▁peanut	-13.2704
▁aspirations	-13.2704
▁créateur	-13.2704
▁exub	-13.2704
▁modeste	-13.2704
▁soucoupe	-13.2704
▁valve	-13.2704
▁infection	-13.2704
▁Israel	-13.2704
▁incredibl	-13.2704
egret	-13.2704
▁Iran	-13.2704
▁devises	-13.2704
▁Oceanside	-13.2704
▁batelier	-13.2704
▁management	-13.2704
SW	-13.2704
▁certifi	-13.2704
▁crisp	-13.2705
▁swirl	-13.2705
▁commémoratif	-13.2705
▁Schipper	-13.2705
▁soignée	-13.2705
▁Engl	-13.2705
▁function	-13.2705
▁Princess	-13.2705
▁pauvreté	-13.2705
▁Blanche	-13.2705
▁consomm	-13.2705
▁haltère	-13.2705
▁icicle	-13.2705
▁jagged	-13.2705
▁angoiss	-13.2705
▁concombre	-13.2705
▁kung	-13.2705
▁mulch	-13.2705
▁broché	-13.2705
▁intrave	-13.2705
▁médias	-13.2705
▁collaps	-13.2705
▁Baker	-13.2705
▁Buster	-13.2705
▁cornfield	-13.2705
iums	-13.2705
▁Every	-13.2705
▁fumier	-13.2705
▁propeller	-13.2705
ulture	-13.2705
▁Pit	-13.2705
▁côtière	-13.2705
▁laitue	-13.2705
▁twenty	-13.2705
▁Redhead	-13.2705
▁risque	-13.2705
▁wetland	-13.2705
▁hibou	-13.2705
▁récréatif	-13.2705
▁primitif	-13.2705
cago	-13.2705
▁atmosph	-13.2705
▁oculaire	-13.2705
Fish	-13.2705
▁mission	-13.2705
▁baleine	-13.2705
▁congé	-13.2706
▁cashier	-13.2706
espoir	-13.2706
▁Beatle	-13.2706
offee	-13.2706
▁Grill	-13.2706
▁rapprochant	-13.2706
▁urinal	-13.2706
▁commute	-13.2706
▁seashell	-13.2706
▁protectors	-13.2706
▁Morse	-13.2706
▁Hope	-13.2706
▁ovation	-13.2706
▁winks	-13.2706
▁riverbed	-13.2706
▁wounds	-13.2706
▁Miller	-13.2706
▁sucre	-13.2706
▁fonctionnaire	-13.2706
endorm	-13.2706
▁capuchon	-13.2706
ayaker	-13.2707
vêt	-13.2707
▁blindé	-13.2707
▁courrier	-13.2707
▁newscaster	-13.2707
▁baggie	-13.2707
▁présentoir	-13.2707
▁binette	-13.2707
▁stories	-13.2707
▁déménagement	-13.2707
▁grownup	-13.2707
▁cabanon	-13.2707
▁motorisé	-13.2707
▁carrosse	-13.2707
▁hunter	-13.2708
▁carotte	-13.2708
▁oignon	-13.2708
▁tilted	-13.2708
atican	-13.2708
▁Comment	-13.2708
▁Smoke	-13.2708
▁fairground	-13.2708
▁Broad	-13.2708
▁terminus	-13.2708
▁gorill	-13.2708
▁néon	-13.2708
▁halfway	-13.2708
▁conceal	-13.2708
▁candid	-13.2708
▁sinueuse	-13.2708
ilburn	-13.2708
▁central	-13.2709
▁slipper	-13.2709
▁foulée	-13.2709
▁declare	-13.2709
▁saluting	-13.2709
▁mortar	-13.2709
▁blankly	-13.2709
ébrouant	-13.271
▁witness	-13.271
▁exotique	-13.271
▁repel	-13.271
▁volcano	-13.271
▁plywood	-13.2711
▁Isla	-13.2711
▁hydraulique	-13.2711
▁reaction	-13.2711
▁brumeux	-13.2711
▁rapprocher	-13.2711
▁chevelu	-13.2711
▁roots	-13.2711
▁remorqué	-13.2711
▁ocre	-13.2711
▁reason	-13.2711
▁Sedan	-13.2711
▁scoring	-13.2711
▁grandparents	-13.2712
▁baladant	-13.2712
▁friser	-13.2712
▁EC	-13.2712
▁respectively	-13.2712
▁travelling	-13.2712
▁sparsely	-13.2712
▁quarter	-13.2712
▁défait	-13.2713
▁rigolote	-13.2713
▁Pink	-13.2713
▁scrubbing	-13.2713
▁decor	-13.2713
▁choc	-13.2713
▁Mud	-13.2713
▁illustration	-13.2713
▁comédie	-13.2713
▁juke	-13.2714
▁chaume	-13.2714
▁exchang	-13.2714
zine	-13.2714
▁sanglée	-13.2714
▁improvise	-13.2714
▁comporte	-13.2714
▁photographique	-13.2714
▁creation	-13.2714
▁verrière	-13.2715
▁drumstick	-13.2715
▁Noble	-13.2715
▁opère	-13.2715
oration	-13.2716
▁treatment	-13.2716
▁kang	-13.2716
ontiac	-13.2716
▁teeter	-13.2716
▁amérindienne	-13.2716
▁bugg	-13.2716
rtisan	-13.2716
▁assuré	-13.2717
▁dagger	-13.2717
▁orateur	-13.2717
▁justice	-13.2718
▁juive	-13.2718
▁chopped	-13.2718
▁tranquillement	-13.2718
▁snarling	-13.2719
bâille	-13.2719
▁wander	-13.2719
▁boulev	-13.2719
aneous	-13.2719
oscope	-13.2719
▁jac	-13.2719
▁jointes	-13.2719
▁univers	-13.2719
▁Oreo	-13.2719
▁competitively	-13.272
▁softly	-13.272
▁moussu	-13.272
▁pensée	-13.272
▁navetteur	-13.272
▁cristallin	-13.272
▁chatouill	-13.272
▁Nescaf	-13.2721
▁Human	-13.2721
▁gagné	-13.2721
ricate	-13.2722
▁pépi	-13.2722
▁keg	-13.2722
▁Firef	-13.2722
entendent	-13.2722
expressif	-13.2723
enj	-13.2723
▁équilibr	-13.2723
villon	-13.2723
▁alignée	-13.2724
gency	-13.2724
▁converge	-13.2724
▁repasser	-13.2724
▁voisin	-13.2724
▁pleas	-13.2724
tomic	-13.2725
▁trente	-13.2725
▁alarm	-13.2725
▁OU	-13.2725
ormal	-13.2726
▁Event	-13.2726
▁spher	-13.2726
▁alpinis	-13.2726
▁traîneaux	-13.2727
▁colorié	-13.2727
▁quietly	-13.2727
▁trudg	-13.2727
▁léché	-13.2727
▁Louis	-13.2728
achève	-13.2729
▁démarre	-13.2729
▁curry	-13.2729
▁occurred	-13.2729
▁brilla	-13.2729
▁attelle	-13.2729
▁tireuse	-13.273
▁handhold	-13.273
▁metalworking	-13.2731
▁weightlift	-13.2731
▁internationaux	-13.2731
▁serein	-13.2731
▁timid	-13.2732
▁chore	-13.2732
▁carcass	-13.2732
▁Chevro	-13.2732
▁motorist	-13.2732
iffin	-13.2732
creaming	-13.2732
▁advanc	-13.2732
ituée	-13.2732
▁bunk	-13.2732
▁spice	-13.2733
▁déroulant	-13.2733
▁camo	-13.2734
▁hops	-13.2734
▁moutain	-13.2734
▁chance	-13.2735
▁baker	-13.2735
▁moussant	-13.2736
▁difficulté	-13.2736
▁stabilise	-13.2736
▁ventilateur	-13.2737
dough	-13.2737
▁Pri	-13.2737
▁fourche	-13.2738
▁semelle	-13.2738
▁correct	-13.2738
▁fishnet	-13.2739
diction	-13.2739
▁zipp	-13.2739
▁majorette	-13.2739
▁démoli	-13.2739
▁kilom	-13.274
▁folders	-13.274
▁affairé	-13.274
▁saucer	-13.2741
▁Em	-13.2741
chipper	-13.2741
▁Buy	-13.2741
▁gothi	-13.2741
▁chevilles	-13.2742
▁thong	-13.2742
▁Pic	-13.2742
▁Pol	-13.2742
▁journaliste	-13.2742
▁cuisses	-13.2742
▁crag	-13.2743
arié	-13.2743
clipse	-13.2743
▁empr	-13.2744
▁bouchons	-13.2744
▁apprenti	-13.2744
▁recueilli	-13.2745
▁écartées	-13.2745
▁mob	-13.2746
▁industrielle	-13.2746
▁flocons	-13.2746
▁européenne	-13.2746
▁semblables	-13.2746
▁conseils	-13.2746
▁coquillages	-13.2747
▁noeuds	-13.2747
▁blessures	-13.2747
▁chamallows	-13.2747
▁biscuits	-13.2747
▁colleagues	-13.2747
▁olympics	-13.2747
▁dossiers	-13.2747
▁tin	-13.2747
▁budgets	-13.2747
▁joint	-13.2747
▁plaqueur	-13.2747
▁quotidiennes	-13.2747
▁copine	-13.2748
▁grisonnant	-13.2748
▁captivé	-13.2749
▁dachshund	-13.275
▁turf	-13.275
▁postales	-13.275
▁pastry	-13.2751
▁sliced	-13.2751
▁distribuer	-13.2751
▁immobiles	-13.2751
omm	-13.2751
▁Driver	-13.2752
▁snowmobiling	-13.2752
▁Theatre	-13.2752
▁slim	-13.2752
▁manquante	-13.2752
▁shark	-13.2752
▁contour	-13.2753
▁éclatant	-13.2753
▁cramp	-13.2753
▁mortier	-13.2753
▁penguin	-13.2753
▁portative	-13.2753
▁séparées	-13.2753
enlacer	-13.2753
▁crime	-13.2753
▁humains	-13.2754
▁Hind	-13.2754
▁peuple	-13.2754
▁taggée	-13.2755
▁aventur	-13.2755
résil	-13.2756
▁resembl	-13.2756
▁peddler	-13.2757
▁Sled	-13.2757
rags	-13.2757
▁libér	-13.2757
▁twins	-13.2758
▁curl	-13.2759
▁fâchée	-13.2759
▁pianiste	-13.2759
lywood	-13.2759
▁scintillante	-13.2759
▁émerveillée	-13.2759
▁harvested	-13.2759
▁terrorist	-13.276
▁lovers	-13.2761
▁exag	-13.2762
▁visiteurs	-13.2762
▁taureaux	-13.2763
▁remorqueur	-13.2763
gardée	-13.2763
▁fisherm	-13.2763
▁brutalit	-13.2765
ingbird	-13.2765
▁sausage	-13.2766
alcon	-13.2766
▁Vienn	-13.2767
ckab	-13.2767
wister	-13.2767
▁gorg	-13.2767
▁sushis	-13.2767
▁dalmatian	-13.2768
jarret	-13.2768
▁warmers	-13.2768
▁abdo	-13.2769
bies	-13.2769
▁glowing	-13.277
▁adopt	-13.277
▁furet	-13.277
▁stapl	-13.277
▁wreck	-13.2771
▁inhal	-13.2771
▁height	-13.2772
▁malheureu	-13.2772
▁looping	-13.2772
▁pagayer	-13.2772
▁bund	-13.2773
▁dernier	-13.2773
▁median	-13.2774
▁répand	-13.2774
MA	-13.2775
owl	-13.2775
▁champion	-13.2776
▁Harle	-13.2776
▁Lou	-13.2776
AT	-13.2778
▁bourgeo	-13.2778
▁privé	-13.2778
▁scanne	-13.2778
▁enflammées	-13.2778
▁mono	-13.278
▁streamers	-13.278
▁italien	-13.278
▁enthusiastic	-13.2782
anyon	-13.2782
▁oak	-13.2782
atory	-13.2784
▁fondation	-13.2784
▁humano	-13.2784
ague	-13.2785
▁incubat	-13.2785
licate	-13.2786
tilts	-13.2786
giste	-13.2788
▁tournoyant	-13.2788
▁restrain	-13.279
▁Rio	-13.279
▁Cure	-13.2793
ow	-13.2793
▁chores	-13.2794
▁fanny	-13.2794
▁prière	-13.2795
▁consume	-13.2796
ât	-13.2798
▁Vieil	-13.2798
▁costumée	-13.2799
▁rattraper	-13.2799
▁costumé	-13.2801
▁attaque	-13.2801
▁plomb	-13.2803
▁Hunt	-13.2803
▁folk	-13.2804
▁setup	-13.2805
lope	-13.2806
▁puzzled	-13.2806
▁examination	-13.2806
alcons	-13.2807
winn	-13.2808
étirent	-13.2809
▁recycling	-13.281
▁excepté	-13.281
▁potter	-13.2811
ha	-13.2812
▁vingt	-13.2812
quée	-13.2812
▁surveiller	-13.2814
▁suce	-13.2815
▁contemple	-13.2816
▁soulevées	-13.2816
habille	-13.2817
identifiable	-13.2817
▁Martins	-13.2818
▁recoil	-13.2818
▁chimi	-13.2818
▁tard	-13.2818
▁poulies	-13.2818
▁dispar	-13.2819
▁recorder	-13.2819
▁Wells	-13.2819
rel	-13.282
▁baptis	-13.2821
▁Outdoors	-13.2821
▁cocktails	-13.2821
▁indigènes	-13.2821
▁lubri	-13.2822
▁penguins	-13.2822
▁lockers	-13.2822
▁minijupes	-13.2823
▁journalistes	-13.2823
▁knead	-13.2824
▁jade	-13.2825
Pr	-13.2826
ignon	-13.2829
▁snowmobil	-13.283
▁headdresses	-13.2831
▁puissant	-13.2834
bine	-13.2834
▁cob	-13.2834
▁chim	-13.2835
riel	-13.2835
▁carol	-13.2836
▁dumb	-13.2836
▁désarçonne	-13.2837
▁drawers	-13.2838
▁pelucheuses	-13.2839
monade	-13.2839
▁pork	-13.2839
▁violent	-13.284
▁ado	-13.2842
▁Texa	-13.2842
héro	-13.2842
▁nerv	-13.2845
▁lettre	-13.2847
▁Row	-13.2847
▁marier	-13.2848
▁copilot	-13.2848
▁Indienne	-13.285
écou	-13.285
▁Patro	-13.285
écrans	-13.2851
▁souterraine	-13.2851
▁familiale	-13.2852
▁verglacée	-13.2852
▁physical	-13.2852
▁mécon	-13.2853
▁nationalit	-13.2853
▁fluide	-13.2854
volution	-13.2855
ile	-13.2856
entraîner	-13.2857
▁exoti	-13.2857
▁Farm	-13.286
▁molle	-13.2861
▁métropol	-13.2862
▁Mus	-13.2862
Bar	-13.2862
▁numéroté	-13.2862
▁retirées	-13.2865
▁fon	-13.2865
▁fencers	-13.2866
▁entreten	-13.2866
▁Euro	-13.2868
▁intention	-13.2872
▁labor	-13.2872
vette	-13.2873
▁ardoise	-13.2873
▁commandent	-13.2874
▁excitant	-13.2875
▁émotion	-13.2875
▁dapple	-13.2875
▁perle	-13.2875
parleurs	-13.2875
▁sauteur	-13.2875
▁straddl	-13.2876
ucho	-13.2876
▁horrible	-13.2876
▁Espagne	-13.2876
▁assistance	-13.2877
▁packe	-13.2877
▁blinds	-13.2877
▁sauf	-13.2878
▁laissé	-13.2878
▁organism	-13.2878
▁archaeologi	-13.2878
▁linens	-13.2879
arlo	-13.288
▁relaxed	-13.2881
▁trooper	-13.2882
▁visitor	-13.2884
▁commerces	-13.2888
▁biplan	-13.289
▁tackler	-13.2891
▁gig	-13.2892
▁moule	-13.2892
▁entoure	-13.2892
▁hedges	-13.2893
▁criss	-13.2893
▁crank	-13.2894
▁bruy	-13.2894
ouchement	-13.2894
ttent	-13.2896
▁secrets	-13.2896
▁joggers	-13.2896
▁jackhammers	-13.2898
▁pingouins	-13.2898
▁reporters	-13.2899
▁Farmers	-13.2899
▁cuisiné	-13.29
▁Newly	-13.2901
visibilit	-13.2903
fuient	-13.2903
illons	-13.2904
dgets	-13.2905
▁Tea	-13.2905
onniers	-13.2906
▁Bie	-13.2908
▁euros	-13.2908
▁started	-13.2908
▁parfait	-13.291
▁Moh	-13.2911
sia	-13.2911
unette	-13.2911
▁vivante	-13.2911
▁boating	-13.2914
uvré	-13.2914
▁scient	-13.2915
▁oies	-13.2916
ohio	-13.2916
▁devrai	-13.2917
▁archéolog	-13.2918
▁Ore	-13.2918
suite	-13.2918
▁myst	-13.2919
▁retirée	-13.2919
▁twin	-13.2922
dale	-13.2926
▁average	-13.2927
▁struggle	-13.2927
▁éclair	-13.2929
▁repasse	-13.2931
▁seasoning	-13.2936
usi	-13.2937
▁Sch	-13.2938
▁intervenant	-13.294
horts	-13.294
▁bored	-13.294
▁multit	-13.294
▁effe	-13.2941
▁volleyeuse	-13.2942
▁mauves	-13.2944
▁retraite	-13.2945
▁downwards	-13.2946
nergi	-13.2949
▁abandonnée	-13.2949
rodynami	-13.2949
▁Mur	-13.2954
▁significa	-13.2955
▁tartes	-13.2955
▁AMC	-13.2956
▁entraînée	-13.2957
▁intéressant	-13.2959
éré	-13.2962
walkie	-13.2968
rtons	-13.2968
▁serrées	-13.2971
▁prison	-13.2973
▁wrists	-13.2973
▁galo	-13.2974
▁joggeu	-13.2974
▁instructors	-13.2975
▁armures	-13.2976
▁Volley	-13.2976
▁patineuses	-13.298
▁tumble	-13.2982
▁ascends	-13.2985
▁golfers	-13.2987
▁sedan	-13.2992
▁vaulting	-13.2993
▁poignets	-13.2993
▁Gen	-13.2993
étonnant	-13.2999
▁scan	-13.3
▁dépli	-13.3001
naire	-13.3003
▁kayaker	-13.3005
▁May	-13.3005
▁rival	-13.301
▁dingy	-13.3012
▁désa	-13.3013
▁cul	-13.3013
▁fines	-13.3015
▁giggl	-13.3018
assis	-13.3019
▁cime	-13.3019
gling	-13.3024
▁carrot	-13.3027
▁métall	-13.3028
▁chie	-13.3028
▁délabrées	-13.303
▁whale	-13.303
rothy	-13.3031
▁Sub	-13.3031
▁allumées	-13.3031
▁tablette	-13.3033
gren	-13.3034
▁props	-13.3034
▁hides	-13.3035
ntal	-13.3036
▁talon	-13.3037
▁cong	-13.3037
▁mâ	-13.3038
▁tickl	-13.3038
gy	-13.3038
▁déplacé	-13.304
▁tricots	-13.3041
lées	-13.3046
▁sisters	-13.3047
▁unwrapp	-13.3049
▁flèches	-13.3052
▁marionnettes	-13.3052
tribute	-13.3055
▁accidentée	-13.3055
ajoute	-13.3057
▁maîtres	-13.3059
akes	-13.3059
▁arroseurs	-13.306
▁sweets	-13.306
▁démont	-13.3066
▁conviv	-13.3066
houses	-13.3067
▁screened	-13.3067
Ne	-13.3071
aute	-13.3073
spark	-13.3073
çons	-13.3074
eading	-13.3075
▁pelot	-13.308
Shi	-13.3081
▁barbelé	-13.3082
▁dressées	-13.3082
▁escar	-13.3082
déré	-13.3084
▁légères	-13.3085
rida	-13.3088
empt	-13.3088
▁bucks	-13.3093
▁Bills	-13.3096
▁manner	-13.3097
▁commen	-13.3098
▁confession	-13.31
▁dirigent	-13.3106
▁housse	-13.3106
▁movement	-13.3114
▁pigs	-13.3124
tude	-13.3124
▁skulls	-13.3128
rgis	-13.3128
mania	-13.3128
▁briefcases	-13.313
▁dossards	-13.3131
▁handbags	-13.3132
▁dodg	-13.3136
▁ni	-13.3137
▁synchronisées	-13.3138
▁Centre	-13.314
puc	-13.3141
ining	-13.3141
What	-13.3144
▁squ	-13.3146
▁Main	-13.3147
▁agriculteurs	-13.3149
înent	-13.3149
Conn	-13.315
▁divide	-13.3152
▁Iowa	-13.3153
▁hippodrome	-13.3157
quations	-13.3157
▁surprise	-13.3158
▁Chun	-13.3159
▁appr	-13.316
night	-13.3161
▁architecture	-13.3164
wheel	-13.3165
▁ép	-13.3169
▁Cyclone	-13.3169
▁assortie	-13.3169
agés	-13.3171
dash	-13.3175
▁nuts	-13.3177
▁arrêtées	-13.3178
▁Ex	-13.3178
▁urina	-13.3179
sinant	-13.3181
were	-13.3182
▁Grande	-13.3184
bodyless	-13.3187
▁hous	-13.3188
▁géran	-13.3197
▁riche	-13.3197
▁backg	-13.3199
▁butte	-13.3202
ombardier	-13.3202
▁teinté	-13.3204
ouer	-13.3206
▁mexicains	-13.3206
alcools	-13.3208
▁mobylettes	-13.3208
▁circulaires	-13.3209
▁humans	-13.3212
▁grain	-13.3222
liner	-13.3222
▁karts	-13.3222
thon	-13.3225
▁weights	-13.3235
iforme	-13.3237
gard	-13.3241
▁soak	-13.3241
si	-13.3245
Donald	-13.3247
ablement	-13.3247
otion	-13.3249
▁réfléchissante	-13.3249
▁maquillés	-13.3258
▁tamise	-13.3259
▁défense	-13.3263
▁scr	-13.3267
▁Cours	-13.327
▁raff	-13.3271
▁rebond	-13.3273
▁réfléchiss	-13.3275
tat	-13.3286
▁speci	-13.3288
▁fitting	-13.329
▁Paris	-13.3294
diant	-13.3295
▁présen	-13.3295
▁hugg	-13.3297
een	-13.3297
péré	-13.3299
▁appartien	-13.3301
▁coudes	-13.3301
usqu	-13.3306
▁génér	-13.3308
addle	-13.332
▁Bask	-13.3322
▁excitée	-13.3334
▁caged	-13.3336
▁récit	-13.3337
▁âge	-13.3342
▁quais	-13.3351
▁épar	-13.3352
rmi	-13.3352
▁rifles	-13.3362
refighters	-13.3362
▁partitions	-13.3362
nci	-13.3363
abell	-13.3364
▁éventails	-13.3364
▁reflections	-13.3368
▁Cri	-13.3375
▁aventure	-13.3376
sanglant	-13.338
▁lances	-13.338
rché	-13.3382
▁colon	-13.3384
▁écriteau	-13.3392
▁diners	-13.3393
▁vote	-13.3396
iège	-13.3399
▁jer	-13.34
▁Bright	-13.34
▁inspector	-13.3401
▁piloté	-13.3402
ounge	-13.3405
▁excavati	-13.3416
▁brutale	-13.3418
izer	-13.3419
cher	-13.342
Be	-13.3422
onne	-13.3426
orts	-13.3431
ske	-13.3433
▁emprunte	-13.3435
▁courbée	-13.3437
▁Or	-13.3437
▁musclée	-13.3442
▁pupitres	-13.3443
▁apparent	-13.3443
▁étudiantes	-13.3444
▁gaucher	-13.3446
▁generat	-13.3454
▁sécurise	-13.3455
ascar	-13.3455
▁polit	-13.3456
dimanch	-13.3457
▁reference	-13.3458
▁vais	-13.3458
▁Per	-13.346
illant	-13.3467
▁taped	-13.3469
▁frac	-13.347
▁flam	-13.3478
▁tristes	-13.348
▁Bag	-13.348
▁paraskie	-13.348
alo	-13.3482
rodé	-13.3488
cassette	-13.349
▁submerg	-13.3491
ici	-13.3491
▁faim	-13.3495
▁abat	-13.3497
▁neutr	-13.3507
▁goutte	-13.3508
cle	-13.3511
▁spinn	-13.3512
▁abstra	-13.3512
oven	-13.3512
yak	-13.3517
▁offert	-13.3517
▁fem	-13.3517
idewalk	-13.3519
▁Jud	-13.3522
▁bizarres	-13.3522
quaint	-13.3524
▁imma	-13.3524
oing	-13.3531
lbo	-13.3532
▁shoo	-13.3534
▁investigate	-13.3534
▁certificate	-13.3535
▁rép	-13.3535
[...]
