{
  "src_word2id": {
    "<pad>": 0,
    "<s>": 1,
    "</s>": 2,
    "<unk>": 3,
    "<en>": 4,
    "<fr>": 5,
    ".": 6,
    "\u2581a": 7,
    "\u2581Un": 8,
    "\u00a9": 9,
    "\u2581A": 10,
    "\u2581un": 11,
    "'": 12,
    "\u2581in": 13,
    "\u2581de": 14,
    "e": 15,
    "\u2581une": 16,
    "\u2581the": 17,
    "\u2581en": 18,
    "\u00c3": 19,
    "s": 20,
    "\u2581": 21,
    "\u2581d": 22,
    ",": 23,
    "\u2581on": 24,
    "\u2581dans": 25,
    "\u2581sur": 26,
    "\u2581homme": 27,
    "\u2581\u00c3": 28,
    "\u2581is": 29,
    "\u2581man": 30,
    "\u2581et": 31,
    "\u2581and": 32,
    "\u2581avec": 33,
    "\u2581of": 34,
    "\u2581with": 35,
    "\u2581des": 36,
    "\u2581la": 37,
    "ing": 38,
    "-": 39,
    "un": 40,
    "\u2581femme": 41,
    "\u2581l": 42,
    "\u2581woman": 43,
    "\u2581are": 44,
    "\u2581le": 45,
    "\u2581to": 46,
    "\u2581est": 47,
    "\u2581Two": 48,
    "ant": 49,
    "\u2581at": 50,
    "une": 51,
    "\u2581wearing": 52,
    "\u2581people": 53,
    "\u00a7": 54,
    "ux": 55,
    "\u2581white": 56,
    "\u2581se": 57,
    "\u2581shirt": 58,
    "\u2581t": 59,
    "\u2581gar\u00c3": 60,
    "\u2581young": 61,
    "\u2581De": 62,
    "on": 63,
    "\u2581debout": 64,
    "\u2581black": 65,
    "\u2581his": 66,
    "\u2581personnes": 67,
    "\u2581sont": 68,
    "\u2581while": 69,
    "\u2581an": 70,
    "\u2581blue": 71,
    "\u2581\u0308re": 72,
    "\u2581jeune": 73,
    "\u2581devant": 74,
    "\u2581fille": 75,
    "\u2581au": 76,
    "\u2581red": 77,
    "\u2581sitting": 78,
    "\u2581du": 79,
    "\u00a2": 80,
    "\u2581assis": 81,
    "\u2581girl": 82,
    "\u2581groupe": 83,
    "\u2581dog": 84,
    "\u2581chien": 85,
    "\u2581boy": 86,
    "\u2581T": 87,
    "\u2581men": 88,
    "\u2581standing": 89,
    "\u2581Des": 90,
    "\u2581playing": 91,
    "shirt": 92,
    "\u2581hommes": 93,
    "\u2581group": 94,
    "\u2581son": 95,
    "is": 96,
    "\u2581rue": 97,
    "\u2581rouge": 98,
    "\u2581street": 99,
    "eux": 100,
    "\u2581les": 101,
    "\u2581qu": 102,
    "\u2581down": 103,
    "\u2581noir": 104,
    "\u2581walking": 105,
    "\u2581D": 106,
    "\u2581pour": 107,
    "\u2581blanc": 108,
    "portant": 109,
    "\u2581front": 110,
    "\u2581train": 111,
    "\u2581her": 112,
    "\u2581\u0308s": 113,
    "\u2581holding": 114,
    "\u2581b\u00c3": 115,
    "andis": 116,
    "\u2581c\u00c3": 117,
    "\u2581pr\u00c3": 118,
    "\u2581gens": 119,
    "es": 120,
    "ed": 121,
    "\u2581water": 122,
    "\u2581bleu": 123,
    "\u2581The": 124,
    "\u2581by": 125,
    "\u2581fait": 126,
    "eau": 127,
    "nt": 128,
    "\u2581par": 129,
    "\u2581petit": 130,
    "\u2581femmes": 131,
    "\u2581d\u00c3": 132,
    "\u2581s": 133,
    "\u2581sa": 134,
    "\u2581\u0301t": 135,
    "\u2581table": 136,
    "\u2581enfant": 137,
    "\u2581for": 138,
    "\u2581qui": 139,
    "\u2581up": 140,
    "\u2581orange": 141,
    "\u2581green": 142,
    "\u2581women": 143,
    "\u2581tient": 144,
    "\u2581An": 145,
    "\u2581regarde": 146,
    "\u2581outside": 147,
    "\u2581child": 148,
    "\u2581deux": 149,
    "\u2581v\u00c3": 150,
    "d": 151,
    "\u2581Thre": 152,
    "\u2581large": 153,
    "\u2581que": 154,
    "\u2581little": 155,
    "\u2581enfants": 156,
    "ir": 157,
    "\u2581joue": 158,
    "looking": 159,
    "\u2581through": 160,
    "y": 161,
    "\u2581one": 162,
    "\u2581photo": 163,
    "\u2581brown": 164,
    "\u2581yellow": 165,
    "\u2581personne": 166,
    "\u2581two": 167,
    "\u2581v\u00c3atu": 168,
    "\u2581ball": 169,
    "\u2581jouant": 170,
    "\u2581hat": 171,
    "\u2581from": 172,
    "\u2581look": 173,
    "\u2581person": 174,
    "\u2581over": 175,
    "lo": 176,
    "\u2581jaune": 177,
    "\u2581chemise": 178,
    "\u2581children": 179,
    "\u2581other": 180,
    "ri\u00c3": 181,
    "\u2581next": 182,
    "\u2581Le": 183,
    "\u2581small": 184,
    "\u2581jeunes": 185,
    "\u2581dressed": 186,
    "l\u00c3": 187,
    "\u2581football": 188,
    "\u2581out": 189,
    "\u2581Tro": 190,
    "\u2581jouent": 191,
    "\u2581as": 192,
    "\u2581petite": 193,
    "\u2581building": 194,
    "\u2581regardant": 195,
    "\u2581long": 196,
    "\u2581lors": 197,
    "\u2581tout": 198,
    "\u2581dehors": 199,
    "timent": 200,
    "\u2581marche": 201,
    "\u2581porte": 202,
    "\u2581blanche": 203,
    "\u2581riding": 204,
    "\u2581running": 205,
    "\u2581lunettes": 206,
    "\u2581near": 207,
    "\u2581People": 208,
    "\u2581tand": 209,
    "\u2581stand": 210,
    "\u2581jacket": 211,
    "\u2581veste": 212,
    "g\u00c3": 213,
    "\u2581couple": 214,
    "\u2581another": 215,
    "\u2581be": 216,
    "\u2581around": 217,
    "air": 218,
    "\u2581trottoir": 219,
    "\u2581court": 220,
    "\u2581air": 221,
    "\u2581saute": 222,
    "\u2581some": 223,
    "r": 224,
    "\u2581regardent": 225,
    "\u2581assise": 226,
    "\u2581field": 227,
    "\u2581beach": 228,
    "\u2581cheveux": 229,
    "\u2581sidewalk": 230,
    "ent": 231,
    "\u2581autre": 232,
    "\u2581foule": 233,
    "\u2581Man": 234,
    "\u2581ses": 235,
    "t": 236,
    "\u2581vert": 237,
    "\u2581crowd": 238,
    "\u2581marchant": 239,
    "\u2581m\u00c3": 240,
    "\u2581plage": 241,
    "\u2581stands": 242,
    "\u2581pink": 243,
    "\u2581snow": 244,
    "\u2581jumping": 245,
    "\u2581bleue": 246,
    "\u2581behind": 247,
    "\u2581sits": 248,
    "\u2581face": 249,
    "\u2581arri": 250,
    "\u2581der": 251,
    "\u2581grass": 252,
    "\u2581main": 253,
    "ly": 254,
    "\u2581blond": 255,
    "\u2581\u0308ne": 256,
    "\u2581neige": 257,
    "\u2581background": 258,
    "\u2581ballon": 259,
    "\u2581grand": 260,
    "plan": 261,
    "\u2581rose": 262,
    "\u2581quelque": 263,
    "\u2581bike": 264,
    "\u2581girls": 265,
    "\u2581chose": 266,
    "il": 267,
    "\u2581brun": 268,
    "\u2581city": 269,
    "re": 270,
    "\u2581player": 271,
    "into": 272,
    "\u2581park": 273,
    "\u2581tenue": 274,
    "\u2581vers": 275,
    "\u2581r\u00c3": 276,
    "herbe": 277,
    "dessus": 278,
    "\u2581fais": 279,
    "\u2581top": 280,
    "\u2581L": 281,
    "\u2581wall": 282,
    "u": 283,
    "\u2581off": 284,
    "\u2581filles": 285,
    "\u2581marchent": 286,
    "\u2581dress": 287,
    "er": 288,
    "\u2581that": 289,
    "rieur": 290,
    "\u2581chapeau": 291,
    "\u2581robe": 292,
    "\u2581tennis": 293,
    "t\u00c3": 294,
    "\u2581sous": 295,
    "\u2581camera": 296,
    "\u2581mur": 297,
    "\u2581baseball": 298,
    "to": 299,
    "\u2581course": 300,
    "\u2581chiens": 301,
    "sieurs": 302,
    "\u2581costume": 303,
    "\u2581ville": 304,
    "\u2581dogs": 305,
    "\u2581restaurant": 306,
    "\u2581hold": 307,
    "\u2581short": 308,
    "\u2581talking": 309,
    "\u2581play": 310,
    "\u2581bois": 311,
    "\u2581something": 312,
    "\u2581autour": 313,
    "\u2581skateboard": 314,
    "\u2581guitar": 315,
    "\u2581older": 316,
    "\u2581hand": 317,
    "\u2581noire": 318,
    "\u2581along": 319,
    "\u2581soleil": 320,
    "\u2581walks": 321,
    "\u2581soccer": 322,
    "\u2581hair": 323,
    "\u2581font": 324,
    "\u2581ten": 325,
    "\u2581food": 326,
    "ons": 327,
    "\u2581lady": 328,
    "\u2581together": 329,
    "\u2581parc": 330,
    "\u2581balle": 331,
    "\u2581working": 332,
    "\u2581guitare": 333,
    "\u2581car": 334,
    "autre": 335,
    "\u2581sac": 336,
    "\"": 337,
    "\u2581gray": 338,
    "\u2581match": 339,
    "\u2581smiling": 340,
    "\u2581game": 341,
    "\u2581t\u00c3": 342,
    "\u2581bord": 343,
    "\u2581picture": 344,
    "\u2581has": 345,
    "\u2581boys": 346,
    "\u2581assises": 347,
    "\u2581marron": 348,
    "\u2581ensemble": 349,
    "\u2581\"": 350,
    "\u2581sc\u00c3": 351,
    "\u2581shorts": 352,
    "\u2581Asian": 353,
    "\u2581plays": 354,
    "\u2581terrain": 355,
    "\u2581terre": 356,
    "\u2581jean": 357,
    "\u2581leur": 358,
    "n": 359,
    "enant": 360,
    "\u2581habill": 361,
    "\u2581walk": 362,
    "\u2581joueur": 363,
    "\u2581sit": 364,
    "\u2581Four": 365,
    "i\u00c3": 366,
    "\u2581banc": 367,
    "\u2581maillot": 368,
    "\u2581gars": 369,
    "\u2581haut": 370,
    "\u2581him": 371,
    "\u2581road": 372,
    "\u2581bench": 373,
    "b\u00c3": 374,
    "\u2581Quat": 375,
    "\u2581pants": 376,
    "\u2581glasses": 377,
    "\u2581stage": 378,
    "\u2581rock": 379,
    "\u2581asiatique": 380,
    "\u2581dirt": 381,
    "\u2581carry": 382,
    "\u2581v\u00c3atue": 383,
    "\u2581lui": 384,
    "\u2581head": 385,
    "\u2581Pl": 386,
    "\u2581it": 387,
    "\u2581tr\u00c3": 388,
    "\u2581them": 389,
    "\u2581pantalon": 390,
    "\u2581baby": 391,
    "\u2581bicycle": 392,
    "\u2581La": 393,
    "\u2581gris": 394,
    "\u2581bus": 395,
    "\u2581voiture": 396,
    "\u2581tree": 397,
    "\u2581t\u00c3ate": 398,
    "\u2581side": 399,
    "veral": 400,
    "\u00ae": 401,
    "\u2581C": 402,
    "an": 403,
    "\u2581casque": 404,
    "\u2581pose": 405,
    "\u2581jeans": 406,
    "\u2581pool": 407,
    "\u2581race": 408,
    "\u2581old": 409,
    "\u2581casquette": 410,
    "each": 411,
    "\u2581dos": 412,
    "o": 413,
    "\u2581route": 414,
    "\u2581verte": 415,
    "\u2581back": 416,
    "\u2581doing": 417,
    "\u2581cheval": 418,
    "\u2581pull": 419,
    "\u2581y": 420,
    "\u2581watching": 421,
    "phone": 422,
    "autres": 423,
    "\u2581dark": 424,
    "\u2581grande": 425,
    "\u2581male": 426,
    "elle": 427,
    "\u2581middle": 428,
    "\u2581v\u00c3atements": 429,
    "\u2581gros": 430,
    "\u2581trois": 431,
    "\u2581boat": 432,
    "\u2581area": 433,
    "leurs": 434,
    "\u2581bateau": 435,
    "\u2581who": 436,
    "st": 437,
    "\u2581suit": 438,
    "\u2581jumps": 439,
    "a": 440,
    "\u2581sautant": 441,
    "rois": 442,
    "\u2581magasin": 443,
    "\u2581hands": 444,
    "\u2581pendant": 445,
    "\u2581piscine": 446,
    "\u2581band": 447,
    "\u2581ground": 448,
    "\u2581sol": 449,
    "\u2581sand": 450,
    "\u2581room": 451,
    "\u2581day": 452,
    "\u2581sable": 453,
    "\u2581nourriture": 454,
    "\u2581champ": 455,
    "\u2581performing": 456,
    "ton": 457,
    "\u2581lit": 458,
    "\u2581female": 459,
    "\u2581prend": 460,
    "\u2581eating": 461,
    "\u2581milieu": 462,
    "\u2581guy": 463,
    "\u2581sign": 464,
    "\u2581courant": 465,
    "\u2581rouges": 466,
    "\u2581coat": 467,
    "\u2581f": 468,
    "\u2581Il": 469,
    "\u2581pi\u00c3": 470,
    "\u2581construction": 471,
    "\u2581using": 472,
    "\u2581horse": 473,
    "l": 474,
    "\u2581sweat": 475,
    "homme": 476,
    "\u2581under": 477,
    "\u2581mouth": 478,
    "\u2581watch": 479,
    "\u2581bar": 480,
    "\u2581ray": 481,
    "\u2581striped": 482,
    "\u2581microphone": 483,
    "\u2581store": 484,
    "\u2581purple": 485,
    "\u2581faire": 486,
    "\u2581parle": 487,
    "\u2581manteau": 488,
    "haired": 489,
    "\u2581On": 490,
    "\u2581passe": 491,
    "ne": 492,
    "\u2581basketball": 493,
    "\u2581public": 494,
    "\u2581bras": 495,
    "\u2581toward": 496,
    "\u2581he": 497,
    "\u2581contre": 498,
    "\u2581S": 499,
    "\u2581gilet": 500,
    "\u2581enjoy": 501,
    "\u2581runs": 502,
    "\u2581Young": 503,
    "\u2581mountain": 504,
    "\u2581machine": 505,
    "\u2581uniform": 506,
    "\u2581journ": 507,
    "\u2581go": 508,
    "\u2581past": 509,
    "\u2581color": 510,
    "m\u00c3": 511,
    "\u2581sunglasses": 512,
    "\u2581reading": 513,
    "\u2581visage": 514,
    "\u2581clothing": 515,
    "\u2581three": 516,
    "\u2581allong": 517,
    "\u2581souriant": 518,
    "\u2581vieil": 519,
    "ment": 520,
    "\u2581blonde": 521,
    "\u2581line": 522,
    "\u2581courent": 523,
    "\u2581travers": 524,
    "\u2581There": 525,
    "1": 526,
    "\u2581noirs": 527,
    "\u2581players": 528,
    "\u2581hockey": 529,
    "\u2581toy": 530,
    "quipe": 531,
    "\u2581ocean": 532,
    "\u2581tente": 533,
    "\u2581blancs": 534,
    "\u2581helmet": 535,
    "\u2581portable": 536,
    "\u2581watches": 537,
    "\u2581micro": 538,
    "\u2581moto": 539,
    "\u2581its": 540,
    "\u2581Se": 541,
    "\u2581or": 542,
    "\u2581chemin": 543,
    "\u2581climbing": 544,
    "v\u00c3": 545,
    "\u2581kids": 546,
    "\u2581salle": 547,
    "\u2581work": 548,
    "\u2581sourit": 549,
    "\u2581again": 550,
    "\u2581l\u00c3": 551,
    "in": 552,
    "\u2581window": 553,
    "\u2581elder": 554,
    "\u2581arbre": 555,
    "\u2581dancing": 556,
    "\u2581all": 557,
    "\u2581show": 558,
    "\u2581basket": 559,
    "ve": 560,
    "\u2581team": 561,
    "\u2581montagne": 562,
    "\u2581march": 563,
    "\u2581chair": 564,
    "r\u00c3": 565,
    "\u2581rides": 566,
    "\u2581throw": 567,
    "en": 568,
    "\u2581piste": 569,
    "\u2581mains": 570,
    "\u2581costumes": 571,
    "nent": 572,
    "ricain": 573,
    "\u2581wooden": 574,
    "\u2581posing": 575,
    "\u2581catch": 576,
    "\u2581outdoor": 577,
    "\u2581fleurs": 578,
    "\u2581plus": 579,
    "\u2581about": 580,
    "\u2581trees": 581,
    "\u2581figure": 582,
    "\u2581jeu": 583,
    "\u2581statue": 584,
    "across": 585,
    "\u2581travaille": 586,
    "\u2581cuisine": 587,
    "\u2581plein": 588,
    "\u2581covered": 589,
    "\u2581floor": 590,
    "\u2581waiting": 591,
    "\u2581swimming": 592,
    "\u2581nu": 593,
    "\u2581fonc": 594,
    "\u2581jump": 595,
    "\u2581bain": 596,
    "te": 597,
    "\u2581p\u00c3": 598,
    "\u2581autres": 599,
    "\u2581bag": 600,
    "\u2581very": 601,
    "\u2581workers": 602,
    "\u2581tan": 603,
    "\u2581ice": 604,
    "\u2581colorful": 605,
    "ext": 606,
    "\u2581busy": 607,
    "\u2581cap": 608,
    "\u2581fence": 609,
    "\u2581instruments": 610,
    "\u2581parlant": 611,
    "\u2581singing": 612,
    "\u2581hav": 613,
    "pr\u00c3": 614,
    "\u2581Woman": 615,
    "\u2581get": 616,
    "\u2581plan": 617,
    "\u2581cl\u00c3": 618,
    "al": 619,
    "\u2581high": 620,
    "\u2581pren": 621,
    "\u2581truck": 622,
    "\u2581hill": 623,
    "\u2581b": 624,
    "\u2581base": 625,
    "\u2581bas": 626,
    "\u2581tenues": 627,
    "\u2581cart": 628,
    "\u2581torse": 629,
    "\u00c3atre": 630,
    "coup": 631,
    "p\u00c3": 632,
    "\u2581utilise": 633,
    "\u2581jouer": 634,
    "hommes": 635,
    "\u2581nuit": 636,
    "\u2581open": 637,
    "\u2581camion": 638,
    "\u2581book": 639,
    "\u2581point": 640,
    "le": 641,
    "\u2581travaillant": 642,
    "\u2581ski": 643,
    "\u2581livre": 644,
    "\u2581ride": 645,
    "\u2581v\u00c3atus": 646,
    "\u2581Men": 647,
    "\u2581jouet": 648,
    "\u2581joueurs": 649,
    "\u2581bright": 650,
    "\u2581laying": 651,
    "\u2581planche": 652,
    "\u2581beard": 653,
    "bardeur": 654,
    "\u2581cellphone": 655,
    "\u2581kitchen": 656,
    "\u2581path": 657,
    "\u2581market": 658,
    "\u2581inside": 659,
    "\u2581Seve": 660,
    "\u2581light": 661,
    "\u2581structure": 662,
    "\u2581beige": 663,
    "\u2581\u0308ce": 664,
    "\u2581rampe": 665,
    "\u2581making": 666,
    "\u2581grassy": 667,
    "\u2581ou": 668,
    "\u2581polo": 669,
    "\u2581stick": 670,
    "\u2581brick": 671,
    "\u2581gueule": 672,
    "\u2581track": 673,
    "\u2581semble": 674,
    "\u2581clothes": 675,
    "\u2581big": 676,
    "\u2581umbrella": 677,
    "\u2581outfit": 678,
    "\u2581metal": 679,
    "\u2581travaillent": 680,
    "\u2581body": 681,
    "\u2581hats": 682,
    "\u2581place": 683,
    "\u2581violet": 684,
    "\u2581tak": 685,
    "\u2581motorcycle": 686,
    "\u2581couch": 687,
    "\u2581others": 688,
    "enfants": 689,
    "\u2581swing": 690,
    "\u2581perform": 691,
    "\u2581o": 692,
    "\u2581p": 693,
    "\u2581concert": 694,
    "\u2581takes": 695,
    "\u2581full": 696,
    "\u2581rocher": 697,
    "\u2581night": 698,
    "\u2581shirts": 699,
    "\u2581musique": 700,
    "\u2581ouvriers": 701,
    "\u2581paper": 702,
    "\u2581cigarette": 703,
    "\u2581lean": 704,
    "\u2581ready": 705,
    "\u2581river": 706,
    "\u2581fen\u00c3atre": 707,
    "\u2581instrument": 708,
    "am\u00c3": 709,
    "\u2581cycliste": 710,
    "it": 711,
    "\u2581montre": 712,
    "\u2581blanches": 713,
    "\u2581s\u00c3": 714,
    "\u2581maison": 715,
    "\u2581entour": 716,
    "\u2581chaise": 717,
    "\u2581pierre": 718,
    "\u2581police": 719,
    "\u2581tank": 720,
    "oire": 721,
    "\u2581tire": 722,
    "\u2581she": 723,
    "uring": 724,
    "\u2581trouve": 725,
    "ils": 726,
    "\u2581pont": 727,
    "neig": 728,
    "\u2581spectateurs": 729,
    "\u2581dessus": 730,
    "colored": 731,
    "\u2581bleus": 732,
    "ral": 733,
    "\u2581sweater": 734,
    "\u2581hard": 735,
    "\u2581balan": 736,
    "\u2581push": 737,
    "\u2581foot": 738,
    "\u2581shop": 739,
    "\u2581piece": 740,
    "\u2581shopping": 741,
    "\u2581riv": 742,
    "\u2581bowling": 743,
    "\u2581c": 744,
    "\u2581lac": 745,
    "\u2581trick": 746,
    "tro": 747,
    "\u2581painting": 748,
    "\u2581\u0301ture": 749,
    "\u2581lake": 750,
    "\u2581appareil": 751,
    "\u2581chante": 752,
    "inq": 753,
    "\u2581plu": 754,
    "\u2581vend": 755,
    "\u2581bonnet": 756,
    "\u2581above": 757,
    "\u2581pelouse": 758,
    "\u2581entre": 759,
    "\u2581vest": 760,
    "\u2581surround": 761,
    "\u2581dance": 762,
    "\u2581corde": 763,
    "\u2581volleyball": 764,
    "pare": 765,
    "\u2581run": 766,
    "\u2581coup": 767,
    "\u2581f\u00c3ate": 768,
    "\u2581stone": 769,
    "objectif": 770,
    "\u2581wave": 771,
    "\u2581station": 772,
    "c\u00c3": 773,
    "\u2581fr\u00c3": 774,
    "\u2581lot": 775,
    "\u2581just": 776,
    "\u2581zone": 777,
    "\u2581sport": 778,
    "\u2581snowy": 779,
    "n\u00c3": 780,
    "\u2581marches": 781,
    "\u2581combinaison": 782,
    "aking": 783,
    "\u2581music": 784,
    "mi": 785,
    "\u2581\u0308res": 786,
    "\u2581board": 787,
    "\u2581beside": 788,
    "\u2581backpack": 789,
    "\u2581worker": 790,
    "\u2581Th": 791,
    "ge": 792,
    "tant": 793,
    "\u2581glace": 794,
    "\u2581uniforms": 795,
    "\u2581vague": 796,
    "\u2581ma": 797,
    "\u2581objet": 798,
    "\u2581pole": 799,
    "ball": 800,
    "\u2581arm": 801,
    "rying": 802,
    "\u2581tie": 803,
    "\u2581manger": 804,
    "\u2581crowded": 805,
    "\u2581smiles": 806,
    "\u2581many": 807,
    "ch": 808,
    "\u2581house": 809,
    "\u2581posent": 810,
    "\u2581adultes": 811,
    "oc": 812,
    "\u2581bikini": 813,
    "\u2581chariot": 814,
    "\u2581conversation": 815,
    "\u2581toddler": 816,
    "\u2581gear": 817,
    "shirts": 818,
    "\u2581Fi": 819,
    "\u2581outdoors": 820,
    "it\u00c3": 821,
    "\u2581prom": 822,
    "\u2581graffiti": 823,
    "\u2581frisbee": 824,
    "\u2581adults": 825,
    "\u2581four": 826,
    "\u2581drinking": 827,
    "\u2581parking": 828,
    "\u2581couleur": 829,
    "\u2581kid": 830,
    "\u2581traverse": 831,
    "\u2581famille": 832,
    "\u2581regarder": 833,
    "\u2581saut": 834,
    "\u2581sort": 835,
    "\u2581fruits": 836,
    "\u2581kick": 837,
    "nement": 838,
    "\u2581for\u00c3at": 839,
    "\u2581cowboy": 840,
    "\u2581sacs": 841,
    "\u2581parlent": 842,
    "\u2581oranges": 843,
    "i": 844,
    "\u2581quai": 845,
    "\u2581gathered": 846,
    "\u2581briques": 847,
    "\u2581pieds": 848,
    "\u2581event": 849,
    "\u2581hanging": 850,
    "\u2581photos": 851,
    "\u2581chaussures": 852,
    "ur": 853,
    "ro": 854,
    "\u2581attend": 855,
    "hair": 856,
    "\u2581subway": 857,
    "\u2581bridge": 858,
    "\u2581African": 859,
    "\u2581colline": 860,
    "\u2581elle": 861,
    "\u2581g": 862,
    "\u2581\u0308ve": 863,
    "\u2581arbres": 864,
    "\u2581forest": 865,
    "\u2581family": 866,
    "\u2581arms": 867,
    "aisant": 868,
    "\u2581utilis": 869,
    "\u2581flowers": 870,
    "\u2581verre": 871,
    "\u2581preparing": 872,
    "\u2581object": 873,
    "\u2581ext": 874,
    "\u2581fire": 875,
    "\u2581peint": 876,
    "\u2581passent": 877,
    "\u2581grill": 878,
    "\u2581away": 879,
    "\u2581phone": 880,
    "\u2581pass": 881,
    "\u2581rope": 882,
    "quent": 883,
    "\u2581sorte": 884,
    "\u2581set": 885,
    "\u2581attempt": 886,
    "\u2581carreaux": 887,
    "\u2581sleeping": 888,
    "\u2581fontaine": 889,
    "\u2581prendre": 890,
    "\u2581steps": 891,
    "\u2581num": 892,
    "\u2581like": 893,
    "\u2581cow": 894,
    "\u2581take": 895,
    "\u2581fountain": 896,
    "\u2581after": 897,
    "\u2581vieux": 898,
    "\u2581fishing": 899,
    "\u2581does": 900,
    "\u2581adult": 901,
    "\u2581cour": 902,
    "\u2581surf": 903,
    "\u2581Children": 904,
    "\u2581parade": 905,
    "cross": 906,
    "\u2581beautiful": 907,
    "\u2581guys": 908,
    "\u2581clean": 909,
    "\u2581tena": 910,
    "\u2581casques": 911,
    "\u2581ce": 912,
    "\u2581met": 913,
    "\u2581pente": 914,
    "\u2581descend": 915,
    "\u2581asian": 916,
    "\u2581caf": 917,
    "\u2581sun": 918,
    "lors": 919,
    "\u2581tent": 920,
    "\u2581barbe": 921,
    "\u2581su": 922,
    "\u2581monte": 923,
    "\u2581parapluie": 924,
    "soleil": 925,
    "\u2581rassembl": 926,
    "\u2581longs": 927,
    "\u2581appear": 928,
    "\u2581can": 929,
    "\u2581jaunes": 930,
    "ch\u00c3": 931,
    "\u2581stairs": 932,
    "\u2581skate": 933,
    "\u2581tous": 934,
    "\u2581prepare": 935,
    "\u2581pousse": 936,
    "\u2581jupe": 937,
    "\u2581shoes": 938,
    "\u2581quelqu": 939,
    "\u2581pile": 940,
    "\u2581asiatiques": 941,
    "\u2581vif": 942,
    "\u2581graffitis": 943,
    "\u2581shirtless": 944,
    "x": 945,
    "nny": 946,
    "\u2581selling": 947,
    "\u2581\u0308ge": 948,
    "\u2581g\u00c3": 949,
    "\u2581essay": 950,
    "\u2581ta": 951,
    "par": 952,
    "\u2581slide": 953,
    "\u2581bruns": 954,
    "\u2581travail": 955,
    "\u2581papier": 956,
    "est": 957,
    "\u2581setting": 958,
    "\u2581re": 959,
    "\u2581rempli": 960,
    "\u2581glass": 961,
    "\u2581Some": 962,
    "\u2581quatre": 963,
    "\u2581sommet": 964,
    "\u2581attendant": 965,
    "\u2581beau": 966,
    "\u2581American": 967,
    "\u2581noires": 968,
    "\u2581bouche": 969,
    "\u2581racing": 970,
    "\u2581flag": 971,
    "\u2581bo": 972,
    "\u2581rocks": 973,
    "\u2581cr\u00c3": 974,
    "\u2581marathon": 975,
    "\u2581p\u00c3ache": 976,
    "\u2581corner": 977,
    "\u2581someone": 978,
    "\u2581loin": 979,
    "\u2581party": 980,
    "\u2581grosse": 981,
    "\u2581attraper": 982,
    "\u2581bet": 983,
    "\u2581drink": 984,
    "\u2581both": 985,
    "\u2581feu": 986,
    "\u2581tall": 987,
    "\u2581uniforme": 988,
    "\u2581whi": 989,
    "\u2581animal": 990,
    "\u2581balance": 991,
    "\u2581escalier": 992,
    "\u2581chairs": 993,
    "ween": 994,
    "\u2581attendent": 995,
    "\u2581nombreux": 996,
    "\u2581flower": 997,
    "\u2581nombreuse": 998,
    "\u2581pied": 999,
    "\u2581view": 1000,
    "\u2581ramp": 1001,
    "\u2581panneau": 1002,
    "\u2581putt": 1003,
    "\u2581genoux": 1004,
    "\u2581equipment": 1005,
    "\u2581plastique": 1006,
    "\u2581ladies": 1007,
    "\u2581frapper": 1008,
    "\u2581laughing": 1009,
    "\u2581roller": 1010,
    "\u2581computer": 1011,
    "\u2581clown": 1012,
    "tting": 1013,
    "\u2581have": 1014,
    "\u2581ouvrier": 1015,
    "\u2581bleues": 1016,
    "nnent": 1017,
    "\u2581adulte": 1018,
    "\u2581fish": 1019,
    "ont": 1020,
    "\u2581F": 1021,
    "\u2581diff": 1022,
    "\u2581trail": 1023,
    "\u2581bureau": 1024,
    "\u2581v": 1025,
    "\u2581pleine": 1026,
    "\u2581toit": 1027,
    "\u2581kayak": 1028,
    "\u2581poses": 1029,
    "aged": 1030,
    "\u2581try": 1031,
    "\u2581arts": 1032,
    "\u2581tien": 1033,
    "etting": 1034,
    "c": 1035,
    "\u2581clair": 1036,
    "proxim": 1037,
    "\u2581bi": 1038,
    "\u2581cyclistes": 1039,
    "\u2581wood": 1040,
    "\u2581sans": 1041,
    "\u2581passant": 1042,
    "\u2581sweatshirt": 1043,
    "\u2581robes": 1044,
    "\u2581nus": 1045,
    "\u2581donne": 1046,
    "\u2581dansent": 1047,
    "\u2581tas": 1048,
    "\u2581plastic": 1049,
    "\u2581playground": 1050,
    "\u2581dock": 1051,
    "\u2581cross": 1052,
    "\u2581bath": 1053,
    "\u2581woods": 1054,
    "\u2581golf": 1055,
    "\u2581concrete": 1056,
    "\u2581rod": 1057,
    "\u2581v\u00c3atues": 1058,
    "\u2581attire": 1059,
    "\u2581ligne": 1060,
    "\u2581scooter": 1061,
    "\u2581reach": 1062,
    "\u2581lance": 1063,
    "\u2581hit": 1064,
    "\u2581Quelqu": 1065,
    "\u2581jet": 1066,
    "\u2581winter": 1067,
    "\u2581journal": 1068,
    "\u2581yard": 1069,
    "\u2581pictures": 1070,
    "\u2581coin": 1071,
    "\u2581pancarte": 1072,
    "\u2581vue": 1073,
    "\u2581posant": 1074,
    "\u2581do": 1075,
    "\u2581comp": 1076,
    "\u2581lisant": 1077,
    "\u2581rain": 1078,
    "\u2581drapeau": 1079,
    "\u2581midair": 1080,
    "\u2581spectacle": 1081,
    "\u2581distance": 1082,
    "appr\u00c3ate": 1083,
    "\u2581feuilles": 1084,
    "\u2581P": 1085,
    "\u2581belle": 1086,
    "\u2581but": 1087,
    "\u2581number": 1088,
    "\u2581rochers": 1089,
    "curit": 1090,
    "\u2581skirt": 1091,
    "\u2581ciel": 1092,
    "\u2581airs": 1093,
    "\u2581mat": 1094,
    "fil": 1095,
    "\u2581tables": 1096,
    "king": 1097,
    "tallique": 1098,
    "\u2581microscope": 1099,
    "\u2581montagnes": 1100,
    "\u2581No": 1101,
    "w": 1102,
    "\u2581sautent": 1103,
    "hiver": 1104,
    "\u2581no": 1105,
    "crit": 1106,
    "\u2581comme": 1107,
    "\u2581dort": 1108,
    "ting": 1109,
    "\u2581yeux": 1110,
    "\u2581port": 1111,
    "\u2581tunnel": 1112,
    "\u2581what": 1113,
    "\u2581seated": 1114,
    "\u2581lancer": 1115,
    "\u2581chaises": 1116,
    "\u2581mangeant": 1117,
    "\u2581reads": 1118,
    "\u2581repas": 1119,
    "\u2581avant": 1120,
    "\u2581chef": 1121,
    "\u2581sauter": 1122,
    "aux": 1123,
    "\u2581maillots": 1124,
    "\u2581escalade": 1125,
    "\u2581sourient": 1126,
    "\u2581cream": 1127,
    "\u2581left": 1128,
    "\u2581tapis": 1129,
    "\u2581barbu": 1130,
    "\u2581sky": 1131,
    "\u2581moyen": 1132,
    "\u2581\u0308te": 1133,
    "\u2581vendeur": 1134,
    "\u2581fauteuil": 1135,
    "\u2581beer": 1136,
    "\u2581nombre": 1137,
    "ying": 1138,
    "\u2581pilote": 1139,
    "\u2581classe": 1140,
    "puis": 1141,
    "\u2581motocross": 1142,
    "\u2581chapeaux": 1143,
    "\u2581bikes": 1144,
    "\u2581cooking": 1145,
    "\u2581ordinateur": 1146,
    "\u2581kneel": 1147,
    "\u2581rider": 1148,
    "\u2581vieille": 1149,
    "\u2581bond": 1150,
    "\u2581works": 1151,
    "ittle": 1152,
    "\u2581wear": 1153,
    "\u2581cliff": 1154,
    "\u2581sentier": 1155,
    "\u2581smoking": 1156,
    "\u2581Boy": 1157,
    "\u2581where": 1158,
    "\u2581sculpture": 1159,
    "\u2581fruit": 1160,
    "\u2581home": 1161,
    "\u2581ont": 1162,
    "\u2581pick": 1163,
    "\u2581art": 1164,
    "\u2581blouse": 1165,
    "tition": 1166,
    "\u2581vests": 1167,
    "\u2581panier": 1168,
    "\u2581school": 1169,
    "\u2581bags": 1170,
    "\u2581glisse": 1171,
    "\u2581bed": 1172,
    "\u2581box": 1173,
    "tons": 1174,
    "teau": 1175,
    "\u2581toboggan": 1176,
    "\u2581Group": 1177,
    "\u2581\u0308me": 1178,
    "\u2581edge": 1179,
    "\u2581plate": 1180,
    "\u2581snowboarder": 1181,
    "\u2581uniformes": 1182,
    "\u2581fix": 1183,
    "\u2581make": 1184,
    "los": 1185,
    "\u2581Frisbee": 1186,
    "gumes": 1187,
    "\u2581quelques": 1188,
    "\u2581B": 1189,
    "\u2581tablier": 1190,
    "\u2581crossing": 1191,
    "\u2581plai": 1192,
    "\u2581voitures": 1193,
    "\u2581gauche": 1194,
    "\u2581frappe": 1195,
    "\u2581scarf": 1196,
    "quilibre": 1197,
    "\u2581paysage": 1198,
    "\u2581eux": 1199,
    "ers": 1200,
    "\u2581right": 1201,
    "\u2581jersey": 1202,
    "\u2581tir": 1203,
    "\u2581cup": 1204,
    "\u2581mountains": 1205,
    "\u2581Women": 1206,
    "\u2581trampoline": 1207,
    "\u2581nearby": 1208,
    "\u2581stop": 1209,
    "\u2581buildings": 1210,
    "\u2581apron": 1211,
    "arbres": 1212,
    "\u2581snowboard": 1213,
    "\u2581cana": 1214,
    "\u2581cutt": 1215,
    "parent": 1216,
    "\u2581buvant": 1217,
    "\u2581chantant": 1218,
    "\u2581fa\u00c3": 1219,
    "\u2581pench": 1220,
    "\u2581driving": 1221,
    "ra": 1222,
    "\u2581cours": 1223,
    "\u2581th": 1224,
    "\u2581jardin": 1225,
    "\u2581skateur": 1226,
    "\u2581surfer": 1227,
    "ier": 1228,
    "\u2581brune": 1229,
    "\u2581mother": 1230,
    "\u2581leaves": 1231,
    "\u2581pluie": 1232,
    "\u2581barbecue": 1233,
    "\u2581shore": 1234,
    "\u2581blonds": 1235,
    "\u2581friends": 1236,
    "\u2581bottle": 1237,
    "\u2581display": 1238,
    "\u2581smile": 1239,
    "\u2581door": 1240,
    "\u2581skateboarder": 1241,
    "ement": 1242,
    "tal": 1243,
    "\u2581filled": 1244,
    "\u2581hot": 1245,
    "\u2581morceau": 1246,
    "\u2581boots": 1247,
    "\u2581attach": 1248,
    "\u2581couleurs": 1249,
    "\u2581bottes": 1250,
    "\u2581pav": 1251,
    "\u2581horses": 1252,
    "\u2581star": 1253,
    "\u2581Si": 1254,
    "\u2581bien": 1255,
    "\u2581gants": 1256,
    "\u2581dansant": 1257,
    "\u2581lumi": 1258,
    "\u2581parked": 1259,
    "hicule": 1260,
    "\u2581rocheuse": 1261,
    "\u2581shovel": 1262,
    "\u2581doigt": 1263,
    "\u2581vendor": 1264,
    "\u2581fe": 1265,
    "\u2581danse": 1266,
    "\u2581net": 1267,
    "\u2581Person": 1268,
    "\u2581goggles": 1269,
    "\u2581artiste": 1270,
    "\u2581drapeaux": 1271,
    "ring": 1272,
    "\u2581battent": 1273,
    "\u2581bowl": 1274,
    "\u2581longue": 1275,
    "\u2581part": 1276,
    "\u2581falaise": 1277,
    "\u2581vehicle": 1278,
    "\u2581roulant": 1279,
    "\u2581boule": 1280,
    "\u2581dame": 1281,
    "\u2581bull": 1282,
    "\u2581time": 1283,
    "\u2581sale": 1284,
    "\u2581anim": 1285,
    "ar": 1286,
    "\u2581peinture": 1287,
    "\u2581poteau": 1288,
    "his": 1289,
    "\u2581com": 1290,
    "\u2581painted": 1291,
    "arri": 1292,
    "\u2581produits": 1293,
    "\u2581drums": 1294,
    "\u2581shot": 1295,
    "id": 1296,
    "\u2581il": 1297,
    "\u2581talks": 1298,
    "boy": 1299,
    "\u2581coffee": 1300,
    "\u2581jogging": 1301,
    "\u2581flying": 1302,
    "tre": 1303,
    "\u2581rocky": 1304,
    "\u2581eyes": 1305,
    "\u2581rail": 1306,
    "\u2581ballons": 1307,
    "\u2581snowboardeur": 1308,
    "\u2581newspaper": 1309,
    "\u2581bouteille": 1310,
    "que": 1311,
    "\u2581ge": 1312,
    "sert": 1313,
    "\u2581cars": 1314,
    "\u2581safety": 1315,
    "\u2581gentleman": 1316,
    "\u2581bunch": 1317,
    "\u2581membre": 1318,
    "\u2581roof": 1319,
    "\u2581paint": 1320,
    "\u2581dresses": 1321,
    "\u2581grise": 1322,
    "\u2581gather": 1323,
    "\u2581rassemblent": 1324,
    "\u2581surface": 1325,
    "\u2581jeux": 1326,
    "se": 1327,
    "\u2581surfeur": 1328,
    "\u2581Old": 1329,
    "\u2581bucket": 1330,
    "\u2581swinging": 1331,
    "\u2581couvert": 1332,
    "man": 1333,
    "\u2581verts": 1334,
    "\u2581flags": 1335,
    "\u2581tour": 1336,
    "\u2581giv": 1337,
    "\u2581carrie": 1338,
    "\u2581sports": 1339,
    "\u2581meal": 1340,
    "\u2581practicing": 1341,
    "\u2581spectators": 1342,
    "\u2581waves": 1343,
    "\u2581martiaux": 1344,
    "\u2581centre": 1345,
    "\u2581bicyclist": 1346,
    "\u2581cake": 1347,
    "\u2581gloves": 1348,
    "\u2581ar": 1349,
    "\u2581younger": 1350,
    "attraper": 1351,
    "\u2581m\u00c3ame": 1352,
    "\u2581ladder": 1353,
    "\u2581essaie": 1354,
    "\u2581policier": 1355,
    "\u2581break": 1356,
    "\u2581mange": 1357,
    "\u2581biker": 1358,
    "\u2581empty": 1359,
    "\u2581competition": 1360,
    "\u2581festival": 1361,
    "\u2581different": 1362,
    "\u2581listening": 1363,
    "\u2581forme": 1364,
    "chelle": 1365,
    "\u2581temps": 1366,
    "\u2581wait": 1367,
    "\u2581parler": 1368,
    "\u2581musiciens": 1369,
    "\u2581blanket": 1370,
    "\u2581vitrine": 1371,
    "\u2581masque": 1372,
    "\u2581nage": 1373,
    "\u2581penche": 1374,
    "\u2581examine": 1375,
    "\u2581turn": 1376,
    "\u2581dur": 1377,
    "\u2581co": 1378,
    "\u2581canne": 1379,
    "\u2581certain": 1380,
    "\u2581chevaux": 1381,
    "\u2581capuche": 1382,
    "\u2581poussette": 1383,
    "\u2581peu": 1384,
    "tendue": 1385,
    "art": 1386,
    "\u2581scene": 1387,
    "\u2581check": 1388,
    "out": 1389,
    "\u2581items": 1390,
    "\u2581couverture": 1391,
    "de": 1392,
    "\u2581balloon": 1393,
    "\u2581mask": 1394,
    "\u2581cha": 1395,
    "\u2581fils": 1396,
    "\u2581M": 1397,
    "\u2581seau": 1398,
    "\u2581desk": 1399,
    "\u2581audience": 1400,
    "\u2581chantier": 1401,
    "\u2581lawn": 1402,
    "\u2581mangent": 1403,
    "\u2581coupe": 1404,
    "\u2581lire": 1405,
    "\u2581skateboarding": 1406,
    "age": 1407,
    "arious": 1408,
    "\u2581afro": 1409,
    "\u2581class": 1410,
    "\u2581Beau": 1411,
    "\u2581put": 1412,
    "\u2581railing": 1413,
    "entre": 1414,
    "riel": 1415,
    "et": 1416,
    "\u2581softball": 1417,
    "\u2581rodeo": 1418,
    "\u2581jackets": 1419,
    "\u2581Someone": 1420,
    "\u2581Indian": 1421,
    "\u2581onlookers": 1422,
    "\u2581among": 1423,
    "\u2581pause": 1424,
    "timents": 1425,
    "uses": 1426,
    "\u2581grands": 1427,
    "\u2581leaps": 1428,
    "\u2581collier": 1429,
    "\u2581traversant": 1430,
    "\u2581Girl": 1431,
    "\u2581cam": 1432,
    "\u2581filet": 1433,
    "\u2581longues": 1434,
    "\u2581cut": 1435,
    "\u2581courses": 1436,
    "\u2581ouverte": 1437,
    "\u2581joueuse": 1438,
    "\u2581drinks": 1439,
    "\u2581lieu": 1440,
    "\u2581slid": 1441,
    "\u2581espace": 1442,
    "\u2581roses": 1443,
    "\u2581vegetables": 1444,
    "\u2581gathering": 1445,
    "\u2581chas": 1446,
    "\u2581obstacle": 1447,
    "clair": 1448,
    "\u2581flip": 1449,
    "\u2581m": 1450,
    "\u2581surfboard": 1451,
    "\u2581saxophone": 1452,
    "\u2581tattoo": 1453,
    "\u2581skieur": 1454,
    "\u2581pointing": 1455,
    "\u2581\u0301te": 1456,
    "\u2581bicycles": 1457,
    "\u2581type": 1458,
    "\u2581adolescent": 1459,
    "tirant": 1460,
    "\u2581pot": 1461,
    "\u2581bat": 1462,
    "\u2581New": 1463,
    "\u2581premier": 1464,
    "\u2581facing": 1465,
    "\u2581feet": 1466,
    "\u2581collar": 1467,
    "\u2581wet": 1468,
    "\u2581cement": 1469,
    "ieurs": 1470,
    "\u2581bulles": 1471,
    "\u2581petites": 1472,
    "\u2581montr": 1473,
    "fore": 1474,
    "\u2581manches": 1475,
    "\u2581vertes": 1476,
    "\u2581platform": 1477,
    "cran": 1478,
    "charpe": 1479,
    "\u2581new": 1480,
    "\u2581poisson": 1481,
    "\u2581bird": 1482,
    "\u2581help": 1483,
    "\u2581argent": 1484,
    "\u2581photographe": 1485,
    "\u2581gold": 1486,
    "\u2581silver": 1487,
    "\u2581tradition": 1488,
    "\u2581wedding": 1489,
    "\u2581batterie": 1490,
    "\u2581rivage": 1491,
    "\u2581competing": 1492,
    "rentes": 1493,
    "ix": 1494,
    "\u2581speaking": 1495,
    "\u2581descendant": 1496,
    "\u2581droite": 1497,
    "\u2581skis": 1498,
    "\u2581purse": 1499,
    "\u2581sombre": 1500,
    "\u2581laisse": 1501,
    "\u2581skier": 1502,
    "\u2581remplie": 1503,
    "\u2581business": 1504,
    "\u2581wash": 1505,
    "\u2581martia": 1506,
    "\u2581piano": 1507,
    "\u2581hula": 1508,
    "\u2581camouflage": 1509,
    "\u2581classroom": 1510,
    "\u2581performance": 1511,
    "genouill\u00c3": 1512,
    "\u2581counter": 1513,
    "\u2581discutent": 1514,
    "\u2581salon": 1515,
    "\u2581pas": 1516,
    "\u2581bride": 1517,
    "\u2581huge": 1518,
    "\u2581suits": 1519,
    "\u2581country": 1520,
    "\u2581mer": 1521,
    "\u2581pompiers": 1522,
    "\u2581podium": 1523,
    "\u2581helmets": 1524,
    "\u2581employ": 1525,
    "elles": 1526,
    "\u2581vagues": 1527,
    "\u2581mett": 1528,
    "\u2581recouverte": 1529,
    "\u2581students": 1530,
    "\u2581rugby": 1531,
    "\u2581lift": 1532,
    "\u2581sings": 1533,
    "\u2581taille": 1534,
    "\u2581hors": 1535,
    "\u2581climbs": 1536,
    "\u2581surfing": 1537,
    "\u2581there": 1538,
    "\u2581cascade": 1539,
    "\u2581h": 1540,
    "\u2581direction": 1541,
    "\u2581violette": 1542,
    "\u2581immeuble": 1543,
    "\u2581teams": 1544,
    "\u2581peluche": 1545,
    "\u2581mirror": 1546,
    "\u2581foulard": 1547,
    "\u2581military": 1548,
    "\u2581repose": 1549,
    "\u2581participe": 1550,
    "che": 1551,
    "\u2581alley": 1552,
    "\u2581kissing": 1553,
    "parer": 1554,
    "\u2581roll": 1555,
    "\u2581musical": 1556,
    "\u2581boissons": 1557,
    "\u2581inspect": 1558,
    "\u2581dessin": 1559,
    "\u2581stroller": 1560,
    "\u2581fl\u00c3": 1561,
    "quipes": 1562,
    "\u2581position": 1563,
    "\u2581Cet": 1564,
    "\u2581marcher": 1565,
    "\u2581taureau": 1566,
    "\u2581terrasse": 1567,
    "\u2581violin": 1568,
    "\u2581violon": 1569,
    "\u2581walkway": 1570,
    "\u2581nettoie": 1571,
    "\u2581writing": 1572,
    "cor": 1573,
    "\u2581moment": 1574,
    "\u2581screen": 1575,
    "\u2581cinq": 1576,
    "\u2581transport": 1577,
    "\u2581coucher": 1578,
    "\u2581six": 1579,
    "\u2581projet": 1580,
    "\u2581pelle": 1581,
    "\u2581fighting": 1582,
    "\u2581traverser": 1583,
    "\u2581same": 1584,
    "\u2581talk": 1585,
    "\u2581leap": 1586,
    "\u2581elles": 1587,
    "\u2581comptoir": 1588,
    "\u2581shoulder": 1589,
    "\u2581tape": 1590,
    "\u2581observe": 1591,
    "nant": 1592,
    "\u2581recouvert": 1593,
    "\u2581lap": 1594,
    "\u2581chauve": 1595,
    "\u2581sunset": 1596,
    "\u2581artist": 1597,
    "quipement": 1598,
    "\u2581clients": 1599,
    "\u2581tableau": 1600,
    "\u2581amis": 1601,
    "\u2581boue": 1602,
    "\u2581randonn": 1603,
    "\u2581runner": 1604,
    "\u2581boisson": 1605,
    "\u2581waits": 1606,
    "m": 1607,
    "\u2581electric": 1608,
    "\u2581attrape": 1609,
    "\u2581barefoot": 1610,
    "\u2581mariage": 1611,
    "\u2581waving": 1612,
    "\u2581gym": 1613,
    "\u2581affiche": 1614,
    "up": 1615,
    "\u2581roule": 1616,
    "\u2581pa": 1617,
    "\u2581tasse": 1618,
    "ette": 1619,
    "\u2581policiers": 1620,
    "\u2581row": 1621,
    "\u2581n": 1622,
    "\u2581close": 1623,
    "\u2581club": 1624,
    "\u2581rousse": 1625,
    "\u2581ciment": 1626,
    "\u25811": 1627,
    "\u2581wheel": 1628,
    "\u2581Ce": 1629,
    "\u2581females": 1630,
    "\u2581so": 1631,
    "tudiants": 1632,
    "ans": 1633,
    "\u2581spray": 1634,
    "\u2581athl\u00c3": 1635,
    "\u2581jette": 1636,
    "\u2581vole": 1637,
    "\u2581seul": 1638,
    "\u2581pre": 1639,
    "\u2581avoir": 1640,
    "\u2581cravate": 1641,
    "\u2581sell": 1642,
    "\u2581conduit": 1643,
    "\u2581officer": 1644,
    "escalade": 1645,
    "top": 1646,
    "\u2581brandi": 1647,
    "\u2581In": 1648,
    "\u2581va": 1649,
    "entra": 1650,
    "\u2581urban": 1651,
    "\u2581father": 1652,
    "\u2581promenant": 1653,
    "\u2581volley": 1654,
    "\u2581profite": 1655,
    "\u2581effectu": 1656,
    "\u2581signs": 1657,
    "\u2581says": 1658,
    "\u2581cordes": 1659,
    "\u2581blowing": 1660,
    "\u2581York": 1661,
    "\u2581voie": 1662,
    "\u2581bubbles": 1663,
    "\u2581fond": 1664,
    "\u2581outfits": 1665,
    "\u2581arr\u00c3at": 1666,
    "\u2581profit": 1667,
    "\u2581cuir": 1668,
    "\u2581examin": 1669,
    "lectrique": 1670,
    "\u2581coureur": 1671,
    "\u2581gi": 1672,
    "\u2581touche": 1673,
    "pom": 1674,
    "\u2581dents": 1675,
    "\u2581jus": 1676,
    "\u2581O": 1677,
    "\u2581seen": 1678,
    "\u2581bald": 1679,
    "\u2581chemis": 1680,
    "\u2581garage": 1681,
    "\u2581happy": 1682,
    "\u2581leather": 1683,
    "\u2581meat": 1684,
    "\u2581life": 1685,
    "\u2581vive": 1686,
    "\u2581hole": 1687,
    "\u2581skating": 1688,
    "ter": 1689,
    "\u2581trou": 1690,
    "A": 1691,
    "o\u00c3": 1692,
    "\u2581makes": 1693,
    "\u2581coureurs": 1694,
    "\u2581leg": 1695,
    "\u2581photograph": 1696,
    "\u2581surfe": 1697,
    "\u2581balloons": 1698,
    "\u2581miroir": 1699,
    "\u2581grimpe": 1700,
    "\u2581swim": 1701,
    "\u2581escalator": 1702,
    "\u2581rit": 1703,
    "\u2581chat": 1704,
    "\u2581pouss": 1705,
    "\u2581jockey": 1706,
    "\u2581Construction": 1707,
    "\u2581hang": 1708,
    "\u2581foreground": 1709,
    "\u2581passage": 1710,
    "\u2581brightly": 1711,
    "board": 1712,
    "\u2581five": 1713,
    "\u2581alone": 1714,
    "\u2581protection": 1715,
    "\u2581helping": 1716,
    "\u2581musicians": 1717,
    "\u2581local": 1718,
    "\u2581paroi": 1719,
    "\u2581lights": 1720,
    "\u2581pos": 1721,
    "\u2581pom": 1722,
    "\u2581plant": 1723,
    "\u2581hoop": 1724,
    "\u2581magazine": 1725,
    "\u2581motard": 1726,
    "\u2581U": 1727,
    "\u2581mud": 1728,
    "\u2581mari": 1729,
    "\u2581desert": 1730,
    "\u2581surplomb": 1731,
    "\u2581image": 1732,
    "\u2581streets": 1733,
    "\u2581ca": 1734,
    "\u2581canoe": 1735,
    "\u2581suspendu": 1736,
    "\u2581effectue": 1737,
    "\u2581monsieur": 1738,
    "\u2581endormi": 1739,
    "\u2581headphones": 1740,
    "\u2581asleep": 1741,
    "\u2581poussi\u00c3": 1742,
    "\u2581goal": 1743,
    "\u2581well": 1744,
    "\u2581float": 1745,
    "\u2581site": 1746,
    "\u2581oiseau": 1747,
    "\u2581oppos": 1748,
    "sentant": 1749,
    "\u2581fa": 1750,
    "\u2581appuy": 1751,
    "\u2581umbrellas": 1752,
    "\u2581jouets": 1753,
    "\u2581legs": 1754,
    "or": 1755,
    "\u2581made": 1756,
    "\u2581wagon": 1757,
    "\u2581danseuse": 1758,
    "\u2581ne": 1759,
    "oit": 1760,
    "\u2581avion": 1761,
    "\u2581fume": 1762,
    "\u2581office": 1763,
    "ive": 1764,
    "\u2581brush": 1765,
    "\u2581prairie": 1766,
    "\u2581stadium": 1767,
    "\u2581viande": 1768,
    "\u2581promenade": 1769,
    "\u2581discutant": 1770,
    "couteurs": 1771,
    "\u2581doorway": 1772,
    "\u2581sandals": 1773,
    "qu": 1774,
    "\u2581stade": 1775,
    "\u2581leash": 1776,
    "\u2581rest": 1777,
    "\u2581diving": 1778,
    "apr\u00c3": 1779,
    "guis": 1780,
    "\u2581give": 1781,
    "\u2581drive": 1782,
    "rang\u00c3": 1783,
    "\u2581sh": 1784,
    "\u2581ch\u00c3": 1785,
    "\u2581accordion": 1786,
    "\u2581stuff": 1787,
    "ng": 1788,
    "\u2581video": 1789,
    "\u2581sandales": 1790,
    "\u2581profonde": 1791,
    "\u2581multicolored": 1792,
    "\u2581cou": 1793,
    "\u2581falling": 1794,
    "\u2581soir": 1795,
    "\u2581pierres": 1796,
    "\u2581tube": 1797,
    "\u2581swings": 1798,
    "\u2581sticks": 1799,
    "\u2581oriental": 1800,
    "\u2581orchestre": 1801,
    "\u2581officers": 1802,
    "\u2581w": 1803,
    "\u2581way": 1804,
    "\u2581speak": 1805,
    "\u2581vi": 1806,
    "\u2581laptop": 1807,
    "\u2581drawing": 1808,
    "\u2581\u0308che": 1809,
    "\u2581accroch": 1810,
    "\u2581photographer": 1811,
    "\u2581cat": 1812,
    "g": 1813,
    "tra\u00c3": 1814,
    "\u2581frapp": 1815,
    "\u2581teenage": 1816,
    "tries": 1817,
    "\u2581kaki": 1818,
    "\u2581church": 1819,
    "\u2581shallow": 1820,
    "\u2581traffic": 1821,
    "glise": 1822,
    "\u2581batte": 1823,
    "\u2581souriante": 1824,
    "\u2581Quelque": 1825,
    "norme": 1826,
    "\u2581Worker": 1827,
    "\u2581ruelle": 1828,
    "int": 1829,
    "paules": 1830,
    "\u2581faces": 1831,
    "arbre": 1832,
    "ous": 1833,
    "petit": 1834,
    "\u2581climb": 1835,
    "\u2581\u0308nent": 1836,
    "\u2581skiing": 1837,
    "ombre": 1838,
    "\u2581bea": 1839,
    "\u2581vin": 1840,
    "eurs": 1841,
    "\u2581toys": 1842,
    "\u2581fun": 1843,
    "able": 1844,
    "\u2581vide": 1845,
    "\u2581quartier": 1846,
    "\u2581digging": 1847,
    "\u2581below": 1848,
    "\u2581heads": 1849,
    "\u2581pays": 1850,
    "\u2581sled": 1851,
    "ade": 1852,
    "\u2581garden": 1853,
    "\u2581hammer": 1854,
    "\u2581plantes": 1855,
    "\u2581pond": 1856,
    "\u2581project": 1857,
    "\u2581plonge": 1858,
    "\u2581drum": 1859,
    "ish": 1860,
    "\u2581ba": 1861,
    "\u2581brosse": 1862,
    "\u2581\u0301le": 1863,
    "\u2581mouvement": 1864,
    "\u2581raquette": 1865,
    "\u2581barre": 1866,
    "\u2581friend": 1867,
    "\u2581action": 1868,
    "\u2581van": 1869,
    "\u2581village": 1870,
    "\u2581silhouette": 1871,
    "\u2581laboratoire": 1872,
    "\u2581hoodie": 1873,
    "\u2581hugging": 1874,
    "\u2581tuyau": 1875,
    "\u2581upside": 1876,
    "\u2581brunette": 1877,
    "\u2581dreadlocks": 1878,
    "\u2581taxi": 1879,
    "\u2581relaxing": 1880,
    "\u2581peut": 1881,
    "\u2581mural": 1882,
    "\u2581objets": 1883,
    "\u2581install": 1884,
    "\u2581vestes": 1885,
    "\u2581fans": 1886,
    "au": 1887,
    "ayant": 1888,
    "\u2581includ": 1889,
    "\u2581signe": 1890,
    "\u2581cano": 1891,
    "\u2581divers": 1892,
    "\u2581tourne": 1893,
    "\u2581block": 1894,
    "\u2581stunt": 1895,
    "\u2581tronc": 1896,
    "\u2581multicolore": 1897,
    "\u2581participant": 1898,
    "\u2581endroit": 1899,
    "\u2581cloud": 1900,
    "\u2581sandwich": 1901,
    "loigne": 1902,
    "aving": 1903,
    "lescope": 1904,
    "\u2581BM": 1905,
    "\u2581virage": 1906,
    "\u2581poubelle": 1907,
    "\u2581Christmas": 1908,
    "\u2581sauvetage": 1909,
    "\u2581Chinese": 1910,
    "\u2581combat": 1911,
    "\u2581assiette": 1912,
    "\u2581golden": 1913,
    "\u2581sweeping": 1914,
    "\u2581sleeps": 1915,
    "enfant": 1916,
    "\u2581courir": 1917,
    "\u2581move": 1918,
    "\u2581mont": 1919,
    "\u2581accroupi": 1920,
    "\u2581pla": 1921,
    "k": 1922,
    "\u2581start": 1923,
    "\u2581dancers": 1924,
    "aide": 1925,
    "\u2581serr": 1926,
    "ding": 1927,
    "\u2581escalad": 1928,
    "\u2581G": 1929,
    "\u2581males": 1930,
    "\u2581si": 1931,
    "\u2581singer": 1932,
    "\u2581parachute": 1933,
    "place": 1934,
    "\u2581caisse": 1935,
    "\u2581daughter": 1936,
    "\u2581string": 1937,
    "\u2581courts": 1938,
    "\u2581blow": 1939,
    "hiking": 1940,
    "\u2581ring": 1941,
    "\u2581karat": 1942,
    "\u2581hose": 1943,
    "\u2581Guy": 1944,
    "\u2581sieste": 1945,
    "\u2581teeth": 1946,
    "monie": 1947,
    "\u2581telescope": 1948,
    "\u2581patio": 1949,
    "\u2581cadre": 1950,
    "\u2581tissu": 1951,
    "\u2581flies": 1952,
    "\u2581ruban": 1953,
    "\u2581conversing": 1954,
    "\u2581batteur": 1955,
    "\u2581tomb": 1956,
    "\u2581basketteur": 1957,
    "\u2581fumant": 1958,
    "\u2581ruisseau": 1959,
    "\u2581vendre": 1960,
    "arts": 1961,
    "\u2581align": 1962,
    "\u2581quad": 1963,
    "\u2581trunks": 1964,
    "\u2581cafe": 1965,
    "\u2581nageant": 1966,
    "\u2581resting": 1967,
    "\u2581travailler": 1968,
    "\u2581mo": 1969,
    "\u2581passes": 1970,
    "\u2581points": 1971,
    "\u2581plants": 1972,
    "appr\u00c3": 1973,
    "\u2581agent": 1974,
    "at": 1975,
    "\u2581balustrade": 1976,
    "paule": 1977,
    "\u2581produit": 1978,
    "\u2581jambe": 1979,
    "\u2581En": 1980,
    "\u2581adolescents": 1981,
    "\u2581pique": 1982,
    "\u2581pier": 1983,
    "\u2581studio": 1984,
    "\u2581Black": 1985,
    "\u2581cricket": 1986,
    "\u2581underneath": 1987,
    "\u2581racket": 1988,
    "\u2581nettoyant": 1989,
    "\u2581wrestling": 1990,
    "\u2581Voic": 1991,
    "\u2581splashing": 1992,
    "\u2581intersection": 1993,
    "\u2581cold": 1994,
    "accord": 1995,
    "\u2581lone": 1996,
    "\u2581remorque": 1997,
    "\u2581town": 1998,
    "\u2581regard": 1999,
    "\u2581held": 2000,
    "\u2581eat": 2001,
    "\u2581ex": 2002,
    "f": 2003,
    "\u2581shoe": 2004,
    "cart": 2005,
    "\u2581bol": 2006,
    "\u2581karate": 2007,
    "\u2581mid": 2008,
    "\u2581stack": 2009,
    "\u2581how": 2010,
    "ap\u00c3": 2011,
    "\u2581ferm": 2012,
    "\u2581commercial": 2013,
    "\u2581escaliers": 2014,
    "\u2581tra\u00c3": 2015,
    "ids": 2016,
    "tang": 2017,
    "\u2581stroll": 2018,
    "\u2581straw": 2019,
    "\u2581picnic": 2020,
    "\u2581campagne": 2021,
    "\u2581solitaire": 2022,
    "\u2581themselves": 2023,
    "\u2581roulettes": 2024,
    "\u2581curly": 2025,
    "\u2581dinner": 2026,
    "\u2581gymnase": 2027,
    "\u2581coats": 2028,
    "\u2581paille": 2029,
    "\u2581hall": 2030,
    "\u2581motifs": 2031,
    "\u2581cyclist": 2032,
    "\u2581cercle": 2033,
    "\u2581chase": 2034,
    "\u2581seem": 2035,
    "\u2581gate": 2036,
    "\u2581rient": 2037,
    "th": 2038,
    "\u2581E": 2039,
    "\u2581cloth": 2040,
    "\u2581card": 2041,
    "ure": 2042,
    "\u2581balaie": 2043,
    "\u2581kiss": 2044,
    "\u2581shoulders": 2045,
    "\u2581style": 2046,
    "\u2581chinois": 2047,
    "\u2581vol": 2048,
    "lin": 2049,
    "\u2581gardien": 2050,
    "\u2581seule": 2051,
    "\u2581partage": 2052,
    "la": 2053,
    "\u2581hiker": 2054,
    "ation": 2055,
    "forme": 2056,
    "\u2581expos": 2057,
    "coute": 2058,
    "\u2581roue": 2059,
    "\u2581stream": 2060,
    "cup\u00c3": 2061,
    "\u2581pe": 2062,
    "\u2581carnival": 2063,
    "\u2581wetsuit": 2064,
    "\u2581crosswalk": 2065,
    "\u2581kind": 2066,
    "\u2581fresque": 2067,
    "\u2581heavy": 2068,
    "\u2581produce": 2069,
    "\u2581makeup": 2070,
    "\u2581dirige": 2071,
    "\u2581voit": 2072,
    "\u2581prot\u00c3": 2073,
    "\u2581nez": 2074,
    "\u2581crying": 2075,
    "\u2581descendent": 2076,
    "appuie": 2077,
    "\u2581wooded": 2078,
    "\u2581formal": 2079,
    "\u2581crois": 2080,
    "\u2581partie": 2081,
    "eaux": 2082,
    "\u2581individuals": 2083,
    "\u2581roux": 2084,
    "\u2581voile": 2085,
    "\u2581deep": 2086,
    "\u2581taken": 2087,
    "\u2581cane": 2088,
    "\u2581knee": 2089,
    "\u2581end": 2090,
    "\u2581voir": 2091,
    "\u2581riant": 2092,
    "\u2581couper": 2093,
    "arr\u00c3ate": 2094,
    "\u2581e": 2095,
    "\u2581mix": 2096,
    "\u2581infant": 2097,
    "\u2581gymnaste": 2098,
    "\u2581not": 2099,
    "\u2581doigts": 2100,
    "ner": 2101,
    "cole": 2102,
    "\u2581gonflable": 2103,
    "\u2581parasol": 2104,
    "\u2581militaire": 2105,
    "\u2581ch": 2106,
    "\u2581fall": 2107,
    "\u2581nose": 2108,
    "\u2581performer": 2109,
    "\u2581gliss": 2110,
    "ordinateur": 2111,
    "\u2581slope": 2112,
    "\u2581aide": 2113,
    "\u2581f\u00c3": 2114,
    "\u2581cherche": 2115,
    "\u2581balanc": 2116,
    "\u2581plat": 2117,
    "\u2581jungle": 2118,
    "\u2581trash": 2119,
    "\u2581professional": 2120,
    "\u2581center": 2121,
    "\u2581nice": 2122,
    "\u2581discussion": 2123,
    "ucoup": 2124,
    "ez": 2125,
    "\u2581lunch": 2126,
    "\u2581post": 2127,
    "\u2581sewing": 2128,
    "\u2581finish": 2129,
    "\u2581covering": 2130,
    "\u2581queue": 2131,
    "lying": 2132,
    "\u2581tend": 2133,
    "\u2581pigeons": 2134,
    "\u2581tricks": 2135,
    "\u2581closed": 2136,
    "\u2581members": 2137,
    "\u2581driver": 2138,
    "\u2581roulent": 2139,
    "\u2581bout": 2140,
    "\u2581Dog": 2141,
    "\u2581soldats": 2142,
    "or\u00c3": 2143,
    "\u2581\u0308rement": 2144,
    "z": 2145,
    "\u2581nouveau": 2146,
    "\u2581chevauche": 2147,
    "\u2581pin": 2148,
    "\u2581po": 2149,
    "\u2581lab": 2150,
    "\u2581practice": 2151,
    "\u2581t\u00c3ates": 2152,
    "\u2581patient": 2153,
    "\u2581urbain": 2154,
    "\u2581mov": 2155,
    "\u2581balcon": 2156,
    "\u2581patin": 2157,
    "\u2581button": 2158,
    "\u2581square": 2159,
    "\u2581adverse": 2160,
    "\u2581pompier": 2161,
    "\u2581booth": 2162,
    "\u2581randonneur": 2163,
    "\u2581baskets": 2164,
    "\u2581circle": 2165,
    "\u2581gun": 2166,
    "\u2581hauts": 2167,
    "\u2581log": 2168,
    "nique": 2169,
    "\u2581fight": 2170,
    "ndis": 2171,
    "\u2581gril": 2172,
    "ty": 2173,
    "\u2581toute": 2174,
    "ci": 2175,
    "\u2581guitariste": 2176,
    "\u2581gare": 2177,
    "coutant": 2178,
    "\u2581himself": 2179,
    "\u2581third": 2180,
    "\u2581marteau": 2181,
    "\u2581lanceur": 2182,
    "\u2581balcony": 2183,
    "\u2581speed": 2184,
    "\u2581derby": 2185,
    "\u2581gazon": 2186,
    "\u2581manteaux": 2187,
    "\u2581montent": 2188,
    "\u2581dances": 2189,
    "\u2581opening": 2190,
    "eur": 2191,
    "\u2581print": 2192,
    "ie": 2193,
    "\u2581film": 2194,
    "\u2581souffle": 2195,
    "\u2581randonneurs": 2196,
    "\u2581jambes": 2197,
    "\u2581use": 2198,
    "\u2581pois": 2199,
    "us": 2200,
    "cette": 2201,
    "\u2581ressemble": 2202,
    "\u2581pr\u00c3at": 2203,
    "\u2581sourire": 2204,
    "tend": 2205,
    "\u2581h\u00c3": 2206,
    "\u2581vache": 2207,
    "\u2581athlete": 2208,
    "\u2581neck": 2209,
    "onnant": 2210,
    "\u2581device": 2211,
    "\u2581indoor": 2212,
    "\u2581mouill": 2213,
    "\u2581shav": 2214,
    "ny": 2215,
    "\u2581hautes": 2216,
    "\u2581eye": 2217,
    "\u2581tabouret": 2218,
    "\u2581staircase": 2219,
    "\u2581monticule": 2220,
    "\u2581travaux": 2221,
    "\u2581supermar": 2222,
    "\u2581monde": 2223,
    "\u2581bagages": 2224,
    "\u2581parcours": 2225,
    "\u2581poutre": 2226,
    "\u2581langue": 2227,
    "\u2581balls": 2228,
    "\u2581camping": 2229,
    "\u2581chanteur": 2230,
    "fl\u00c3": 2231,
    "\u2581deck": 2232,
    "\u2581traditionnels": 2233,
    "\u2581fer": 2234,
    "\u2581montant": 2235,
    "\u2581boxes": 2236,
    "avant": 2237,
    "\u2581pr": 2238,
    "\u2581plateau": 2239,
    "\u2581most": 2240,
    "\u2581indienne": 2241,
    "\u2581repair": 2242,
    "\u2581gymnast": 2243,
    "ricains": 2244,
    "\u2581pantalons": 2245,
    "\u2581grind": 2246,
    "\u2581perche": 2247,
    "\u2581tatouage": 2248,
    "\u2581poster": 2249,
    "\u2581sheet": 2250,
    "\u2581musicien": 2251,
    "\u2581chefs": 2252,
    "\u2581frame": 2253,
    "\u2581grocery": 2254,
    "\u2581couloir": 2255,
    "\u2581publique": 2256,
    "\u2581gentlemen": 2257,
    "\u2581garb": 2258,
    "\u2581puddle": 2259,
    "\u2581circulation": 2260,
    "\u2581fresh": 2261,
    "\u2581salto": 2262,
    "\u2581heureux": 2263,
    "\u2581produis": 2264,
    "\u2581fallen": 2265,
    "\u2581lay": 2266,
    "\u2581direct": 2267,
    "\u2581compos": 2268,
    "\u2581overalls": 2269,
    "less": 2270,
    "covered": 2271,
    "\u2581chantent": 2272,
    "semblent": 2273,
    "\u2581paved": 2274,
    "\u2581blocks": 2275,
    "O": 2276,
    "\u2581livres": 2277,
    "\u2581balai": 2278,
    "\u2581J": 2279,
    "\u2581couvre": 2280,
    "\u2581swims": 2281,
    "\u2581r": 2282,
    "\u2581couverte": 2283,
    "\u2581admir": 2284,
    "\u2581jour": 2285,
    "\u2581pain": 2286,
    "\u2581porch": 2287,
    "\u2581fair": 2288,
    "\u2581bon": 2289,
    "rieure": 2290,
    "\u2581waterfall": 2291,
    "\u2581pitcher": 2292,
    "\u2581cavalier": 2293,
    "\u2581guard": 2294,
    "\u2581\u0308que": 2295,
    "\u2581round": 2296,
    "\u2581conduis": 2297,
    "all\u00c3": 2298,
    "\u2581I": 2299,
    "\u2581vid": 2300,
    "\u2581dancer": 2301,
    "ricaine": 2302,
    "\u2581travel": 2303,
    "\u2581steep": 2304,
    "\u2581palm": 2305,
    "\u2581curb": 2306,
    "\u2581laundry": 2307,
    "\u2581salopette": 2308,
    "claboussures": 2309,
    "\u2581airplane": 2310,
    "\u2581gamin": 2311,
    "\u2581passerelle": 2312,
    "\u2581conf": 2313,
    "affrontent": 2314,
    "\u2581flight": 2315,
    "\u2581dorm": 2316,
    "\u2581pitch": 2317,
    "\u2581ledge": 2318,
    "\u2581professionnelle": 2319,
    "\u2581stool": 2320,
    "\u2581luge": 2321,
    "urs": 2322,
    "ts": 2323,
    "\u2581customers": 2324,
    "\u2581comment": 2325,
    "ight": 2326,
    "\u2581fingers": 2327,
    "\u2581climber": 2328,
    "\u2581carton": 2329,
    "\u2581load": 2330,
    "\u2581teenagers": 2331,
    "\u2581militaires": 2332,
    "\u2581hikers": 2333,
    "\u2581books": 2334,
    "\u2581peau": 2335,
    "mall": 2336,
    "\u2581haute": 2337,
    "\u2581nature": 2338,
    "\u2581birds": 2339,
    "ping": 2340,
    "ssant": 2341,
    "\u2581kicks": 2342,
    "\u2581camp": 2343,
    "h": 2344,
    "\u2581volant": 2345,
    "\u2581barri": 2346,
    "\u2581chain": 2347,
    "\u2581cape": 2348,
    "ion": 2349,
    "\u2581khaki": 2350,
    "rents": 2351,
    "\u2581rollers": 2352,
    "\u2581teenager": 2353,
    "\u2581marching": 2354,
    "\u2581publicit": 2355,
    "\u2581ouvre": 2356,
    "\u2581pipe": 2357,
    "\u2581present": 2358,
    "\u2581machines": 2359,
    "\u2581parapluies": 2360,
    "\u2581chemises": 2361,
    "isant": 2362,
    "\u2581clear": 2363,
    "appareil": 2364,
    "\u2581cadeau": 2365,
    "\u2581VTT": 2366,
    "\u2581pyjama": 2367,
    "\u2581fabric": 2368,
    "\u2581bandana": 2369,
    "\u2581flaque": 2370,
    "\u2581bouquet": 2371,
    "\u2581imposant": 2372,
    "\u2581denim": 2373,
    "\u2581backyard": 2374,
    "\u2581paddling": 2375,
    "\u2581Here": 2376,
    "amusent": 2377,
    "\u2581humide": 2378,
    "\u2581chaussette": 2379,
    "\u2581cuisinier": 2380,
    "\u2581evening": 2381,
    "\u2581V": 2382,
    "\u2581pattes": 2383,
    "\u2581attached": 2384,
    "\u2581opposi": 2385,
    "\u2581touristes": 2386,
    "\u2581shooting": 2387,
    "\u2581arena": 2388,
    "\u2581rang": 2389,
    "\u2581tombe": 2390,
    "\u2581tracks": 2391,
    "\u2581tenir": 2392,
    "\u2581bend": 2393,
    "\u2581lies": 2394,
    "\u2581ferr": 2395,
    "unis": 2396,
    "\u2581laugh": 2397,
    "\u2581tee": 2398,
    "\u2581jolie": 2399,
    "\u2581ship": 2400,
    "\u2581shoot": 2401,
    "\u2581pro": 2402,
    "\u2581chevauch": 2403,
    "\u2581nap": 2404,
    "\u2581plaque": 2405,
    "yant": 2406,
    "\u2581raft": 2407,
    "\u2581st": 2408,
    "\u2581windows": 2409,
    "rence": 2410,
    "\u2581lasso": 2411,
    "\u2581tongue": 2412,
    "\u2581mound": 2413,
    "\u2581chambre": 2414,
    "\u2581keyboard": 2415,
    "\u2581floral": 2416,
    "\u2581rambarde": 2417,
    "\u2581serviette": 2418,
    "\u2581wheelchair": 2419,
    "\u2581alimentaire": 2420,
    "\u2581soldat": 2421,
    "ce": 2422,
    "\u2581ami": 2423,
    "sant": 2424,
    "\u2581crouche": 2425,
    "\u2581repr": 2426,
    "p": 2427,
    "\u2581feuille": 2428,
    "\u2581cage": 2429,
    "h\u00c3": 2430,
    "\u2581Child": 2431,
    "\u2581Japan": 2432,
    "\u2581pavement": 2433,
    "\u2581luggage": 2434,
    "\u2581inflatable": 2435,
    "\u2581attentivement": 2436,
    "\u2581rayures": 2437,
    "\u2581warm": 2438,
    "\u2581balade": 2439,
    "\u2581poles": 2440,
    "\u2581agit": 2441,
    "\u2581shade": 2442,
    "\u2581articles": 2443,
    "\u2581vie": 2444,
    "\u2581rues": 2445,
    "\u2581P\u00c3": 2446,
    "part": 2447,
    "\u2581arbitre": 2448,
    "amusant": 2449,
    "\u2581fenced": 2450,
    "\u2581cones": 2451,
    "\u2581live": 2452,
    "onto": 2453,
    "rs": 2454,
    "\u2581file": 2455,
    "\u2581tile": 2456,
    "\u2581wine": 2457,
    "\u2581waters": 2458,
    "\u2581plane": 2459,
    "men": 2460,
    "\u2581engag": 2461,
    "\u2581directions": 2462,
    "\u2581ear": 2463,
    "\u2581fan": 2464,
    "rie": 2465,
    "\u2581colors": 2466,
    "\u2581peign": 2467,
    "\u2581bandanna": 2468,
    "\u2581hurdle": 2469,
    "\u2581container": 2470,
    "and": 2471,
    "\u2581tricycle": 2472,
    "\u2581bottom": 2473,
    "\u2581portrait": 2474,
    "\u2581swimsuit": 2475,
    "\u2581motos": 2476,
    "\u2581cook": 2477,
    "\u2581\u0308ves": 2478,
    "\u2581th\u00c3": 2479,
    "\u2581tub": 2480,
    "\u2581verres": 2481,
    "\u2581fast": 2482,
    "\u2581record": 2483,
    "\u2581radeau": 2484,
    "\u2581monument": 2485,
    "\u2581clavier": 2486,
    "\u2581railroad": 2487,
    "\u2581married": 2488,
    "\u2581tractor": 2489,
    "\u2581joyeusement": 2490,
    "\u2581boivent": 2491,
    "\u2581courtyard": 2492,
    "\u2581goalie": 2493,
    "\u2581Santa": 2494,
    "\u2581rassemblement": 2495,
    "\u2581model": 2496,
    "\u2581berger": 2497,
    "\u2581juggling": 2498,
    "\u2581accident": 2499,
    "\u2581tracteur": 2500,
    "\u2581referee": 2501,
    "\u2581landscape": 2502,
    "\u2581descendre": 2503,
    "\u2581sea": 2504,
    "\u2581buying": 2505,
    "\u2581name": 2506,
    "\u2581ha": 2507,
    "\u2581pointe": 2508,
    "\u2581fris": 2509,
    "\u2581boire": 2510,
    "\u2581nouvelle": 2511,
    "\u2581chest": 2512,
    "\u2581compete": 2513,
    "\u2581branches": 2514,
    "\u2581seat": 2515,
    "\u2581nageur": 2516,
    "\u2581laughs": 2517,
    "\u2581footballeurs": 2518,
    "\u2581surfant": 2519,
    "like": 2520,
    "\u2581outils": 2521,
    "\u2581linge": 2522,
    "\u2581bou": 2523,
    "\u2581fill": 2524,
    "\u2581passer": 2525,
    "\u2581discuss": 2526,
    "atteindre": 2527,
    "talons": 2528,
    "eign": 2529,
    "\u2581serre": 2530,
    "\u2581eats": 2531,
    "serte": 2532,
    "\u2581indien": 2533,
    "appr\u00c3at": 2534,
    "\u2581low": 2535,
    "\u2581mus": 2536,
    "\u2581pit": 2537,
    "\u2581pancartes": 2538,
    "\u2581skirts": 2539,
    "\u2581trottinette": 2540,
    "\u2581towel": 2541,
    "\u2581soldier": 2542,
    "\u2581musician": 2543,
    "\u2581lead": 2544,
    "\u2581pou": 2545,
    "ian": 2546,
    "\u2581footballeur": 2547,
    "\u2581\u0301tur": 2548,
    "\u2581rame": 2549,
    "\u2581chauss": 2550,
    "\u2581H": 2551,
    "\u2581acousti": 2552,
    "\u2581allemand": 2553,
    "\u2581happily": 2554,
    "\u2581banjo": 2555,
    "\u2581yoga": 2556,
    "\u2581adjust": 2557,
    "\u2581natation": 2558,
    "\u2581casual": 2559,
    "\u2581ceinture": 2560,
    "\u2581camionnette": 2561,
    "\u2581chacun": 2562,
    "\u2581carriage": 2563,
    "\u2581garbage": 2564,
    "roport": 2565,
    "\u2581acoustique": 2566,
    "\u2581coudre": 2567,
    "\u2581marketplace": 2568,
    "\u2581carpet": 2569,
    "\u2581sapin": 2570,
    "\u2581pajamas": 2571,
    "\u2581bucking": 2572,
    "\u2581blouson": 2573,
    "\u2581socks": 2574,
    "\u2581Male": 2575,
    "\u2581scaffolding": 2576,
    "\u2581backwards": 2577,
    "\u2581cheering": 2578,
    "\u2581adversaire": 2579,
    "\u2581bread": 2580,
    "\u2581shape": 2581,
    "\u2581touching": 2582,
    "\u2581feed": 2583,
    "rer": 2584,
    "\u2581ambulant": 2585,
    "\u2581alpiniste": 2586,
    "\u2581hay": 2587,
    "\u2581you": 2588,
    "\u2581wind": 2589,
    "ither": 2590,
    "C": 2591,
    "\u2581ro": 2592,
    "\u2581goods": 2593,
    "\u2581protecti": 2594,
    "\u2581step": 2595,
    "merican": 2596,
    "\u2581parents": 2597,
    "\u2581fly": 2598,
    "\u2581touch": 2599,
    "\u2581fai": 2600,
    "\u2581tools": 2601,
    "\u2581vast": 2602,
    "\u2581soldiers": 2603,
    "vant": 2604,
    "\u2581motorcycles": 2605,
    "\u2581shown": 2606,
    "\u2581mustache": 2607,
    "\u2581prise": 2608,
    "\u2581caresse": 2609,
    "\u2581moves": 2610,
    "ies": 2611,
    "\u2581support": 2612,
    "\u2581magazines": 2613,
    "\u2581pair": 2614,
    "\u2581shin": 2615,
    "\u2581wrappe": 2616,
    "side": 2617,
    "\u2581W": 2618,
    "\u2581jerseys": 2619,
    "\u2581brillant": 2620,
    "skinn": 2621,
    "argent": 2622,
    "\u2581riders": 2623,
    "\u2581rural": 2624,
    "\u2581unique": 2625,
    "\u2581mais": 2626,
    "\u2581pratique": 2627,
    "\u2581circuit": 2628,
    "\u2581advertisement": 2629,
    "line": 2630,
    "chafaudage": 2631,
    "\u2581kilt": 2632,
    "\u2581groom": 2633,
    "\u2581bubble": 2634,
    "\u2581shak": 2635,
    "ret": 2636,
    "\u2581co\u00c3": 2637,
    "\u2581sheep": 2638,
    "\u2581German": 2639,
    "\u2581athletic": 2640,
    "\u2581corpulent": 2641,
    "\u2581gradins": 2642,
    "\u2581mannequin": 2643,
    "\u2581turquoise": 2644,
    "\u2581plaza": 2645,
    "\u2581caught": 2646,
    "\u2581rebord": 2647,
    "\u2581stove": 2648,
    "\u2581White": 2649,
    "\u2581underwater": 2650,
    "\u2581pagaie": 2651,
    "\u2581airport": 2652,
    "\u2581welding": 2653,
    "\u2581discuter": 2654,
    "sleeved": 2655,
    "\u2581teacher": 2656,
    "\u2581tatou": 2657,
    "\u2581bassin": 2658,
    "\u2581serving": 2659,
    "\u2581map": 2660,
    "\u2581harness": 2661,
    "\u2581buissons": 2662,
    "\u2581mobile": 2663,
    "\u2581pouce": 2664,
    "\u2581peace": 2665,
    "\u2581dining": 2666,
    "\u2581raised": 2667,
    "\u2581battant": 2668,
    "\u2581blocs": 2669,
    "vision": 2670,
    "\u2581foin": 2671,
    "\u2581coach": 2672,
    "\u2581living": 2673,
    "embrassant": 2674,
    "\u2581repos": 2675,
    "\u2581dry": 2676,
    "\u2581tirer": 2677,
    "\u2581mord": 2678,
    "\u2581ma\u00c3": 2679,
    "cher": 2680,
    "b": 2681,
    "ger": 2682,
    "S": 2683,
    "issant": 2684,
    "tier": 2685,
    "\u2581participat": 2686,
    "\u2581vives": 2687,
    "volant": 2688,
    "\u2581cartes": 2689,
    "\u2581poissons": 2690,
    "\u2581paints": 2691,
    "\u2581ajuste": 2692,
    "way": 2693,
    "\u2581poil": 2694,
    "amp": 2695,
    "\u2581tag": 2696,
    "fully": 2697,
    "\u2581pris": 2698,
    "\u2581turban": 2699,
    "\u2581gobelet": 2700,
    "\u2581student": 2701,
    "\u2581animals": 2702,
    "\u2581tr": 2703,
    "\u2581aid": 2704,
    "\u2581i": 2705,
    "\u2581kiosque": 2706,
    "\u2581manifestation": 2707,
    "\u2581polka": 2708,
    "\u2581plafond": 2709,
    "phonique": 2710,
    "\u2581Street": 2711,
    "\u2581haircut": 2712,
    "\u2581nettoyer": 2713,
    "\u2581native": 2714,
    "\u2581gravel": 2715,
    "\u2581fluo": 2716,
    "\u2581half": 2717,
    "\u2581tongs": 2718,
    "\u2581operating": 2719,
    "\u2581identiques": 2720,
    "\u2581bateaux": 2721,
    "\u2581mom": 2722,
    "\u2581hooded": 2723,
    "\u2581occup": 2724,
    "\u2581hood": 2725,
    "\u2581backpacks": 2726,
    "\u2581rire": 2727,
    "\u2581marchandises": 2728,
    "\u2581glaces": 2729,
    "\u2581graviss": 2730,
    "\u2581p\u00c3acheur": 2731,
    "\u2581\u0301nes": 2732,
    "\u2581soude": 2733,
    "\u2581herbes": 2734,
    "\u2581ramass": 2735,
    "\u2581boats": 2736,
    "\u2581ordures": 2737,
    "\u2581cabine": 2738,
    "\u2581thrown": 2739,
    "P": 2740,
    "\u2581achet": 2741,
    "ic": 2742,
    "\u2581multicolores": 2743,
    "\u2581skateboards": 2744,
    "\u2581grilling": 2745,
    "attractions": 2746,
    "ked": 2747,
    "adultes": 2748,
    "\u2581wa": 2749,
    "\u2581runners": 2750,
    "\u2581savoure": 2751,
    "\u2581ouvert": 2752,
    "\u2581walls": 2753,
    "s\u00c3": 2754,
    "\u2581bouteilles": 2755,
    "\u2581form": 2756,
    "uvre": 2757,
    "\u2581fin": 2758,
    "\u2581murs": 2759,
    "\u2581per": 2760,
    "\u2581droit": 2761,
    "\u2581colle": 2762,
    "\u2581flottant": 2763,
    "\u2581fum": 2764,
    "\u2581peer": 2765,
    "\u2581routine": 2766,
    "\u2581publicitaire": 2767,
    "\u2581opponent": 2768,
    "\u2581ordinateurs": 2769,
    "tranger": 2770,
    "\u2581magnifique": 2771,
    "\u2581chaussure": 2772,
    "\u2581individual": 2773,
    "\u2581visages": 2774,
    "ew": 2775,
    "\u2581sculpt": 2776,
    "\u2581wire": 2777,
    "\u2581protest": 2778,
    "\u2581danseurs": 2779,
    "\u2581pleure": 2780,
    "pt": 2781,
    "\u2581wi": 2782,
    "lange": 2783,
    "\u2581ATV": 2784,
    "\u2581auditorium": 2785,
    "\u2581pizza": 2786,
    "\u2581vitesse": 2787,
    "\u2581bathroom": 2788,
    "\u2581discours": 2789,
    "\u2581headscarf": 2790,
    "\u2581hallway": 2791,
    "cipient": 2792,
    "\u2581DJ": 2793,
    "\u2581orchestra": 2794,
    "\u2581presentation": 2795,
    "\u2581youth": 2796,
    "\u2581probabl": 2797,
    "\u2581ressemblant": 2798,
    "\u2581candy": 2799,
    "\u2581dormir": 2800,
    "\u2581lacrosse": 2801,
    "\u2581commence": 2802,
    "\u2581redhead": 2803,
    "\u2581sink": 2804,
    "\u2581heels": 2805,
    "\u2581things": 2806,
    "\u2581Europe": 2807,
    "\u2581cuisinant": 2808,
    "\u2581money": 2809,
    "\u2581checkered": 2810,
    "\u2581spread": 2811,
    "\u2581contr\u00c3": 2812,
    "\u2581pedestrians": 2813,
    "\u2581wide": 2814,
    "\u2581toucher": 2815,
    "\u2581arrive": 2816,
    "\u2581passagers": 2817,
    "\u2581tomber": 2818,
    "\u2581farm": 2819,
    "\u2581menu": 2820,
    "ration": 2821,
    "\u2581approach": 2822,
    "\u2581frais": 2823,
    "jeuner": 2824,
    "arrow": 2825,
    "\u2581rafting": 2826,
    "\u2581Sur": 2827,
    "\u2581sleeve": 2828,
    "\u2581jongle": 2829,
    "\u2581pack": 2830,
    "ches": 2831,
    "\u2581bro": 2832,
    "\u2581oiseaux": 2833,
    "\u2581musel": 2834,
    "\u2581fleur": 2835,
    "origine": 2836,
    "\u2581fl": 2837,
    "\u2581cartons": 2838,
    "\u2581cover": 2839,
    "d\u00c3": 2840,
    "\u2581motards": 2841,
    "\u2581cyclists": 2842,
    "lays": 2843,
    "red": 2844,
    "\u2581attrap": 2845,
    "\u2581photographs": 2846,
    "\u2581types": 2847,
    "\u2581mudd": 2848,
    "\u2581dit": 2849,
    "contract": 2850,
    "\u2581construis": 2851,
    "\u2581vehicles": 2852,
    "\u2581benches": 2853,
    "\u2581interact": 2854,
    "\u2581fauteuils": 2855,
    "ufs": 2856,
    "\u2581pan": 2857,
    "tiste": 2858,
    "\u2581fil": 2859,
    "\u2581drummer": 2860,
    "\u2581relax": 2861,
    "\u2581ramasse": 2862,
    "\u2581jumpsuit": 2863,
    "\u2581soda": 2864,
    "\u2581\u0308ges": 2865,
    "down": 2866,
    "ate": 2867,
    "\u2581design": 2868,
    "\u2581ropes": 2869,
    "me": 2870,
    "\u2581tool": 2871,
    "\u2581gant": 2872,
    "\u2581grab": 2873,
    "\u2581danser": 2874,
    "\u2581heart": 2875,
    "\u2581\u0301ne": 2876,
    "\u2581craft": 2877,
    "\u2581ballet": 2878,
    "\u2581blazer": 2879,
    "\u2581speech": 2880,
    "\u2581Brown": 2881,
    "\u2581ceiling": 2882,
    "\u2581racetrack": 2883,
    "\u2581entrance": 2884,
    "\u2581badge": 2885,
    "\u2581harnais": 2886,
    "\u2581patinoire": 2887,
    "\u2581trompette": 2888,
    "\u2581int": 2889,
    "\u2581machinery": 2890,
    "\u2581grimpant": 2891,
    "embrassent": 2892,
    "\u2581leaf": 2893,
    "\u2581hospital": 2894,
    "\u2581puck": 2895,
    "\u2581pattern": 2896,
    "\u2581cone": 2897,
    "\u2581policeman": 2898,
    "\u2581summer": 2899,
    "\u2581aliments": 2900,
    "\u2581pourchass": 2901,
    "\u2581travailleurs": 2902,
    "\u2581passengers": 2903,
    "\u2581soulev": 2904,
    "\u2581St": 2905,
    "\u2581racer": 2906,
    "\u2581chaude": 2907,
    "\u2581chanter": 2908,
    "\u2581africains": 2909,
    "\u2581grille": 2910,
    "\u2581sword": 2911,
    "\u2581snowboarding": 2912,
    "\u2581guide": 2913,
    "\u2581sets": 2914,
    "\u2581pr\u00c3ats": 2915,
    "\u2581basse": 2916,
    "\u2581oreilles": 2917,
    "\u2581animaux": 2918,
    "\u2581ears": 2919,
    "rique": 2920,
    "\u2581planches": 2921,
    "\u2581pins": 2922,
    "\u2581charge": 2923,
    "\u2581ras": 2924,
    "\u2581urbaine": 2925,
    "\u2581rais": 2926,
    "\u2581photographi": 2927,
    "\u2581casquettes": 2928,
    "\u2581aire": 2929,
    "\u2581we": 2930,
    "\u2581suspende": 2931,
    "\u2581rests": 2932,
    "\u2581filets": 2933,
    "\u2581overlook": 2934,
    "\u2581situ": 2935,
    "\u2581sortant": 2936,
    "\u2581mar": 2937,
    "hicules": 2938,
    "voie": 2939,
    "\u2581sha": 2940,
    "oth": 2941,
    "criv": 2942,
    "\u2581rowing": 2943,
    "\u2581tops": 2944,
    "\u2581read": 2945,
    "\u2581ancien": 2946,
    "talliques": 2947,
    "\u2581bancs": 2948,
    "\u2581tambour": 2949,
    "\u2581froid": 2950,
    "\u2581stra": 2951,
    "\u2581branche": 2952,
    "\u2581gravier": 2953,
    "\u2581inspecte": 2954,
    "si\u00c3": 2955,
    "\u2581trumpet": 2956,
    "\u2581automatique": 2957,
    "ped": 2958,
    "\u2581formation": 2959,
    "ful": 2960,
    "\u2581beverage": 2961,
    "\u2581grimace": 2962,
    "\u2581pneu": 2963,
    "\u2581glove": 2964,
    "\u2581good": 2965,
    "\u2581John": 2966,
    "\u2581cleans": 2967,
    "\u2581smoke": 2968,
    "\u2581beam": 2969,
    "\u2581palet": 2970,
    "trange": 2971,
    "\u2581visible": 2972,
    "neur": 2973,
    "dical": 2974,
    "\u2581carte": 2975,
    "\u2581tourn": 2976,
    "vent": 2977,
    "\u2581bow": 2978,
    "\u2581buy": 2979,
    "\u2581enter": 2980,
    "\u2581bear": 2981,
    "\u2581voyage": 2982,
    "\u2581museum": 2983,
    "\u2581quarterback": 2984,
    "\u2581Blond": 2985,
    "\u2581impliqu": 2986,
    "\u2581peindre": 2987,
    "\u2581ornate": 2988,
    "sentation": 2989,
    "\u2581Crowd": 2990,
    "\u2581herself": 2991,
    "\u2581donkey": 2992,
    "\u2581chanson": 2993,
    "\u2581boardwalk": 2994,
    "\u2581rapidement": 2995,
    "\u2581possibly": 2996,
    "\u2581horseback": 2997,
    "\u2581cr\u00c3ate": 2998,
    "\u2581spinning": 2999,
    "\u2581hillside": 3000,
    "\u2581stopped": 3001,
    "\u2581paix": 3002,
    "\u2581african": 3003,
    "\u2581boueuse": 3004,
    "\u2581bushes": 3005,
    "clabouss": 3006,
    "\u2581moteur": 3007,
    "\u2581chanteuse": 3008,
    "\u2581ho": 3009,
    "\u2581branch": 3010,
    "\u2581incendie": 3011,
    "\u2581keep": 3012,
    "\u2581visit": 3013,
    "\u2581\u0308vres": 3014,
    "\u2581nagent": 3015,
    "\u2581wrestler": 3016,
    "cuba": 3017,
    "\u2581maman": 3018,
    "\u2581partielle": 3019,
    "\u2581paddle": 3020,
    "rienne": 3021,
    "\u2581jou": 3022,
    "\u2581crosses": 3023,
    "\u2581raise": 3024,
    "\u2581flipp": 3025,
    "\u2581plac": 3026,
    "\u2581pilot": 3027,
    "\u2581faux": 3028,
    "\u2581je": 3029,
    "\u2581ballerine": 3030,
    "\u2581batter": 3031,
    "\u2581serve": 3032,
    "ciel": 3033,
    "\u2581pen": 3034,
    "\u2581rough": 3035,
    "\u2581pots": 3036,
    "\u2581lave": 3037,
    "\u2581me": 3038,
    "amis": 3039,
    "\u2581\u0308tes": 3040,
    "\u2581plaqu": 3041,
    "\u2581bikers": 3042,
    "\u2581rails": 3043,
    "\u2581creus": 3044,
    "quel": 3045,
    "ll": 3046,
    "\u2581portables": 3047,
    "\u2581tropical": 3048,
    "\u2581scooters": 3049,
    "\u2581exp": 3050,
    "\u2581choses": 3051,
    "\u2581accroupie": 3052,
    "\u2581poitrine": 3053,
    "\u2581balles": 3054,
    "\u2581slides": 3055,
    "\u2581snack": 3056,
    "\u2581motorcyclist": 3057,
    "\u2581v\u00c3atement": 3058,
    "\u2581song": 3059,
    "\u2581garde": 3060,
    "\u2581couples": 3061,
    "\u2581cheer": 3062,
    "\u2581vitre": 3063,
    "\u2581participate": 3064,
    "\u2581enseigne": 3065,
    "\u2581moustache": 3066,
    "ally": 3067,
    "\u2581bijoux": 3068,
    "\u2581nautique": 3069,
    "\u2581\u0301pital": 3070,
    "\u2581billard": 3071,
    "\u2581neighborhood": 3072,
    "\u2581miniature": 3073,
    "\u2581Moyen": 3074,
    "\u2581tramway": 3075,
    "\u2581atelier": 3076,
    "\u2581carnaval": 3077,
    "\u2581maroon": 3078,
    "\u2581brouette": 3079,
    "\u2581Coca": 3080,
    "\u2581coiffure": 3081,
    "\u2581puppy": 3082,
    "\u2581cobble": 3083,
    "\u2581maquillage": 3084,
    "\u2581celebrating": 3085,
    "\u2581outstretched": 3086,
    "\u2581Homme": 3087,
    "\u2581squatting": 3088,
    "\u2581sportif": 3089,
    "\u2581firetruck": 3090,
    "\u2581great": 3091,
    "\u2581vu": 3092,
    "\u2581fencing": 3093,
    "\u2581collection": 3094,
    "\u2581cabane": 3095,
    "\u2581flanc": 3096,
    "\u2581lampe": 3097,
    "\u2581panneaux": 3098,
    "\u2581clay": 3099,
    "\u2581papa": 3100,
    "\u2581service": 3101,
    "\u2581dishes": 3102,
    "\u2581mall": 3103,
    "\u2581africaine": 3104,
    "\u2581handstand": 3105,
    "\u2581battre": 3106,
    "\u2581talent": 3107,
    "rubber": 3108,
    "\u2581expression": 3109,
    "\u2581envelopp": 3110,
    "\u2581journaux": 3111,
    "\u2581foire": 3112,
    "\u2581scouts": 3113,
    "pped": 3114,
    "\u2581Texas": 3115,
    "\u2581dust": 3116,
    "\u2581farmer": 3117,
    "accroche": 3118,
    "pping": 3119,
    "\u2581plancher": 3120,
    "\u2581plongeur": 3121,
    "\u2581attention": 3122,
    "\u2581semi": 3123,
    "rant": 3124,
    "\u2581seats": 3125,
    "amuse": 3126,
    "\u2581converse": 3127,
    "\u2581indoors": 3128,
    "\u2581dish": 3129,
    "\u2581calm": 3130,
    "ry": 3131,
    "\u2581Bo": 3132,
    "\u2581marine": 3133,
    "\u2581levant": 3134,
    "\u2581drap": 3135,
    "\u2581creuse": 3136,
    "chissant": 3137,
    "ning": 3138,
    "\u2581ahead": 3139,
    "\u2581soul": 3140,
    "\u2581arc": 3141,
    "\u2581dessous": 3142,
    "\u2581al": 3143,
    "ou": 3144,
    "\u2581circule": 3145,
    "mment": 3146,
    "corps": 3147,
    "tudiant": 3148,
    "uff": 3149,
    "\u2581guitarist": 3150,
    "\u2581buckets": 3151,
    "\u2581drill": 3152,
    "\u2581decorate": 3153,
    "\u2581bottles": 3154,
    "\u2581engage": 3155,
    "\u2581plates": 3156,
    "TM": 3157,
    "ble": 3158,
    "\u2581sack": 3159,
    "\u2581fra": 3160,
    "\u2581mini": 3161,
    "\u2581baril": 3162,
    "ling": 3163,
    "\u2581sing": 3164,
    "\u2581heureuse": 3165,
    "\u2581professionnel": 3166,
    "\u2581papillon": 3167,
    "\u2581ombrelle": 3168,
    "\u2581fusil": 3169,
    "\u2581doctor": 3170,
    "\u2581storefront": 3171,
    "\u2581cerf": 3172,
    "\u2581swimmer": 3173,
    "\u2581finger": 3174,
    "\u2581chiot": 3175,
    "\u2581broom": 3176,
    "\u2581\u0301": 3177,
    "\u2581item": 3178,
    "\u2581belt": 3179,
    "\u2581wakeboard": 3180,
    "minin": 3181,
    "car": 3182,
    "tendant": 3183,
    "ill\u00c3": 3184,
    "\u2581brique": 3185,
    "\u2581microphones": 3186,
    "abri": 3187,
    "\u2581wrestle": 3188,
    "\u2581order": 3189,
    "\u2581Square": 3190,
    "\u2581aquarium": 3191,
    "\u2581patauge": 3192,
    "\u2581nacelle": 3193,
    "\u2581pinata": 3194,
    "\u2581victoire": 3195,
    "\u2581conducteur": 3196,
    "\u2581calf": 3197,
    "\u2581gymnastique": 3198,
    "flops": 3199,
    "\u2581wife": 3200,
    "\u2581scenery": 3201,
    "\u2581chalk": 3202,
    "\u2581hi": 3203,
    "\u2581disput": 3204,
    "ig\u00c3": 3205,
    "\u2581ballerina": 3206,
    "\u2581rocheux": 3207,
    "\u2581ventre": 3208,
    "\u2581stretching": 3209,
    "\u2581partout": 3210,
    "\u2581newly": 3211,
    "\u2581crew": 3212,
    "occupe": 3213,
    "\u2581carving": 3214,
    "\u2581crouching": 3215,
    "\u2581odd": 3216,
    "\u2581first": 3217,
    "\u2581paire": 3218,
    "\u2581canal": 3219,
    "\u2581cheerleaders": 3220,
    "\u2581receiv": 3221,
    "\u2581cool": 3222,
    "\u2581palmiers": 3223,
    "\u2581space": 3224,
    "\u2581tache": 3225,
    "\u2581choir": 3226,
    "\u2581stripes": 3227,
    "\u2581stones": 3228,
    "\u2581sortie": 3229,
    "toffe": 3230,
    "\u2581observent": 3231,
    "\u2581coll\u00c3": 3232,
    "\u2581hugs": 3233,
    "\u2581vente": 3234,
    "\u2581stares": 3235,
    "\u2581skates": 3236,
    "\u2581lanc": 3237,
    "\u2581rink": 3238,
    "\u2581crafts": 3239,
    "\u2581kite": 3240,
    "\u2581amid": 3241,
    "\u2581smokes": 3242,
    "\u2581char": 3243,
    "\u2581tap": 3244,
    "\u2581maisons": 3245,
    "\u2581gas": 3246,
    "\u2581Asiatiques": 3247,
    "\u2581iron": 3248,
    "\u2581admire": 3249,
    "\u2581tatouages": 3250,
    "ard": 3251,
    "\u2581boxing": 3252,
    "\u2581bare": 3253,
    "born": 3254,
    "\u2581nav": 3255,
    "\u2581roues": 3256,
    "\u2581caisses": 3257,
    "\u2581barres": 3258,
    "ggy": 3259,
    "\u2581filme": 3260,
    "\u2581apartment": 3261,
    "\u2581complet": 3262,
    "E": 3263,
    "\u2581crie": 3264,
    "\u2581hoops": 3265,
    "\u2581knit": 3266,
    "aring": 3267,
    "\u2581images": 3268,
    "\u2581tattoos": 3269,
    "des": 3270,
    "bles": 3271,
    "\u2581guitars": 3272,
    "arbitre": 3273,
    "\u2581arme": 3274,
    "nding": 3275,
    "les": 3276,
    "\u2581ra": 3277,
    "\u2581reflecti": 3278,
    "\u2581liquid": 3279,
    "\u2581bowls": 3280,
    "\u2581dessine": 3281,
    "tte": 3282,
    "\u2581lamp": 3283,
    "\u2581paniers": 3284,
    "\u2581wrap": 3285,
    "\u2581coloring": 3286,
    "\u2581couche": 3287,
    "lement": 3288,
    "\u2581glac": 3289,
    "\u2581agite": 3290,
    "as": 3291,
    "\u2581rase": 3292,
    "stone": 3293,
    "f\u00c3": 3294,
    "embras": 3295,
    "\u2581sofa": 3296,
    "\u2581traditionnel": 3297,
    "\u2581banderole": 3298,
    "\u2581motorbike": 3299,
    "\u2581individu": 3300,
    "\u2581artistique": 3301,
    "\u2581banner": 3302,
    "\u2581vegetable": 3303,
    "\u2581canard": 3304,
    "\u2581boutique": 3305,
    "\u2581sprinkler": 3306,
    "\u2581barrel": 3307,
    "\u2581ri": 3308,
    "\u2581member": 3309,
    "\u2581bite": 3310,
    "\u2581scie": 3311,
    "golfi": 3312,
    "\u2581splashe": 3313,
    "\u2581free": 3314,
    "\u2581draw": 3315,
    "\u2581sweep": 3316,
    "\u2581mop": 3317,
    "envers": 3318,
    "ned": 3319,
    "cossaise": 3320,
    "\u2581cla": 3321,
    "go": 3322,
    "\u2581duck": 3323,
    "\u2581far": 3324,
    "\u2581N": 3325,
    "honneur": 3326,
    "lectronique": 3327,
    "\u2581caoutchouc": 3328,
    "\u2581cornemuse": 3329,
    "\u2581fanfare": 3330,
    "\u2581gymnasium": 3331,
    "\u2581xylophone": 3332,
    "\u2581monocycle": 3333,
    "\u2581material": 3334,
    "\u2581Middle": 3335,
    "\u2581stairway": 3336,
    "puscule": 3337,
    "\u2581matelas": 3338,
    "\u2581receveur": 3339,
    "\u2581caddie": 3340,
    "\u2581furniture": 3341,
    "\u2581second": 3342,
    "\u2581conference": 3343,
    "\u2581dimly": 3344,
    "\u2581greyhound": 3345,
    "\u2581baignoire": 3346,
    "\u2581craie": 3347,
    "\u2581partially": 3348,
    "\u2581jeep": 3349,
    "\u2581intently": 3350,
    "\u2581buffet": 3351,
    "\u2581laverie": 3352,
    "\u2581foraine": 3353,
    "\u2581nighttime": 3354,
    "\u2581library": 3355,
    "\u2581similar": 3356,
    "\u2581angel": 3357,
    "\u2581parquet": 3358,
    "\u2581nourrisson": 3359,
    "\u2581castle": 3360,
    "\u2581moped": 3361,
    "tendent": 3362,
    "\u2581poteaux": 3363,
    "\u2581marbre": 3364,
    "cient": 3365,
    "loignant": 3366,
    "\u2581lecture": 3367,
    "\u2581circulant": 3368,
    "\u2581li": 3369,
    "\u2581crane": 3370,
    "\u2581flotte": 3371,
    "\u2581meeting": 3372,
    "\u2581logo": 3373,
    "\u2581tower": 3374,
    "coutent": 3375,
    "\u2581benne": 3376,
    "\u2581immense": 3377,
    "\u2581infirmi": 3378,
    "unissent": 3379,
    "\u2581following": 3380,
    "\u2581unicycle": 3381,
    "ke": 3382,
    "\u2581bougies": 3383,
    "utiliser": 3384,
    "\u2581double": 3385,
    "\u2581vaisselle": 3386,
    "irthday": 3387,
    "\u2581candles": 3388,
    "\u2581bande": 3389,
    "ries": 3390,
    "\u2581trailer": 3391,
    "ncy": 3392,
    "\u2581listens": 3393,
    "\u2581bonnets": 3394,
    "ll\u00c3": 3395,
    "\u2581muzzle": 3396,
    "Cola": 3397,
    "\u2581propos": 3398,
    "\u2581pieces": 3399,
    "\u2581act": 3400,
    "\u2581balding": 3401,
    "\u2581moderne": 3402,
    "\u2581barber": 3403,
    "\u2581saisi": 3404,
    "\u2581toge": 3405,
    "\u2581toges": 3406,
    "\u2581tied": 3407,
    "\u2581tenu": 3408,
    "\u2581\u0308le": 3409,
    "ken": 3410,
    "\u2581share": 3411,
    "\u2581individus": 3412,
    "\u2581surrounding": 3413,
    "\u2581loung": 3414,
    "\u2581fo": 3415,
    "\u2581control": 3416,
    "\u2581baiss": 3417,
    "\u2581liquide": 3418,
    "\u2581thin": 3419,
    "\u2581viewing": 3420,
    "\u2581plante": 3421,
    "\u2581wheels": 3422,
    "\u2581tron": 3423,
    "\u2581voies": 3424,
    "\u2581go\u00c3": 3425,
    "\u2581saw": 3426,
    "imper": 3427,
    "\u2581motor": 3428,
    "\u2581ti": 3429,
    "tirent": 3430,
    "\u2581Girls": 3431,
    "ept": 3432,
    "\u2581skieurs": 3433,
    "escalier": 3434,
    "\u2581dames": 3435,
    "dessous": 3436,
    "\u2581bandeau": 3437,
    "arge": 3438,
    "sent": 3439,
    "\u2581africain": 3440,
    "\u2581tackle": 3441,
    "\u2581micros": 3442,
    "\u2581con": 3443,
    "\u2581tribal": 3444,
    "\u2581lounge": 3445,
    "tered": 3446,
    "\u2581protect": 3447,
    "\u2581involv": 3448,
    "\u2581Ma": 3449,
    "\u2581cast": 3450,
    "tent": 3451,
    "\u2581sales": 3452,
    "\u2581doors": 3453,
    "\u2581gaz": 3454,
    "illy": 3455,
    "\u2581clowns": 3456,
    "\u2581seaux": 3457,
    "\u2581computers": 3458,
    "\u2581modern": 3459,
    "\u2581boucl": 3460,
    "sente": 3461,
    "\u2581lampadaire": 3462,
    "\u2581spoon": 3463,
    "\u2581electronic": 3464,
    "\u2581headband": 3465,
    "\u2581elephant": 3466,
    "\u2581scolaire": 3467,
    "\u2581ribbon": 3468,
    "\u2581valise": 3469,
    "\u2581necklace": 3470,
    "\u2581teammate": 3471,
    "\u2581crayon": 3472,
    "decin": 3473,
    "\u2581geste": 3474,
    "folding": 3475,
    "\u2581City": 3476,
    "\u2581corn": 3477,
    "\u2581lines": 3478,
    "\u2581horn": 3479,
    "\u2581objects": 3480,
    "ze": 3481,
    "\u2581chaud": 3482,
    "\u2581camel": 3483,
    "em": 3484,
    "\u2581discute": 3485,
    "\u2581poign": 3486,
    "\u2581cerceau": 3487,
    "bris": 3488,
    "\u2581Walmart": 3489,
    "\u2581advertising": 3490,
    "\u2581badauds": 3491,
    "\u2581professeur": 3492,
    "\u2581stomach": 3493,
    "\u2581London": 3494,
    "\u2581jewelry": 3495,
    "\u2581destination": 3496,
    "\u2581senior": 3497,
    "escrime": 3498,
    "\u2581applaudissent": 3499,
    "\u2581billboard": 3500,
    "\u2581rainbow": 3501,
    "\u2581casino": 3502,
    "\u2581steel": 3503,
    "\u2581celui": 3504,
    "\u2581pistolet": 3505,
    "\u2581television": 3506,
    "\u2581return": 3507,
    "\u2581forward": 3508,
    "\u2581voilier": 3509,
    "\u2581called": 3510,
    "\u2581trench": 3511,
    "\u2581consist": 3512,
    "\u2581leggings": 3513,
    "\u2581flute": 3514,
    "\u2581bundle": 3515,
    "phant": 3516,
    "\u2581pet": 3517,
    "\u2581marquer": 3518,
    "\u2581bonbons": 3519,
    "\u2581huit": 3520,
    "chant": 3521,
    "\u2581fireman": 3522,
    "\u2581observing": 3523,
    "\u2581piercing": 3524,
    "\u2581Multip": 3525,
    "di": 3526,
    "tes": 3527,
    "\u2581Whi": 3528,
    "\u2581learn": 3529,
    "\u2581plumes": 3530,
    "\u2581theater": 3531,
    "\u2581Elmo": 3532,
    "\u2581termin": 3533,
    "\u2581tombant": 3534,
    "\u2581catcher": 3535,
    "\u2581kitesurf": 3536,
    "\u2581doll": 3537,
    "\u2581follows": 3538,
    "\u2581crayons": 3539,
    "\u2581notes": 3540,
    "\u2581bordure": 3541,
    "\u2581acheter": 3542,
    "embrasser": 3543,
    "\u2581laver": 3544,
    "\u2581cr": 3545,
    "ue": 3546,
    "U": 3547,
    "neath": 3548,
    "dog": 3549,
    "\u2581embrasse": 3550,
    "\u2581shades": 3551,
    "\u2581tri": 3552,
    "garni": 3553,
    "\u2581froide": 3554,
    "\u2581lutte": 3555,
    "\u2581exposition": 3556,
    "ri": 3557,
    "ill": 3558,
    "\u2581Je": 3559,
    "\u2581documents": 3560,
    "\u2581exit": 3561,
    "use": 3562,
    "\u2581retourn": 3563,
    "\u2581land": 3564,
    "\u2581assistant": 3565,
    "\u2581camions": 3566,
    "\u2581guns": 3567,
    "\u2581peek": 3568,
    "sleeve": 3569,
    "\u2581dead": 3570,
    "gion": 3571,
    "\u2581Blu": 3572,
    "\u2581plong": 3573,
    "\u2581cache": 3574,
    "semblant": 3575,
    "\u2581toile": 3576,
    "\u2581na": 3577,
    "\u2581pu": 3578,
    "\u2581got": 3579,
    "\u2581manche": 3580,
    "\u2581bars": 3581,
    "ges": 3582,
    "ated": 3583,
    "\u2581turns": 3584,
    "ibli": 3585,
    "vier": 3586,
    "chases": 3587,
    "\u2581bit": 3588,
    "approche": 3589,
    "ient": 3590,
    "\u2581shovels": 3591,
    "horizon": 3592,
    "ooks": 3593,
    "\u2581whil": 3594,
    "\u2581nets": 3595,
    "\u2581client": 3596,
    "union": 3597,
    "\u2581eau": 3598,
    "\u2581dive": 3599,
    "\u2581sculptures": 3600,
    "ined": 3601,
    "\u2581retourne": 3602,
    "coupe": 3603,
    "\u2581maquill": 3604,
    "\u2581passants": 3605,
    "gets": 3606,
    "iers": 3607,
    "\u2581pine": 3608,
    "\u2581follow": 3609,
    "our": 3610,
    "\u2581gift": 3611,
    "\u2581scientifique": 3612,
    "so": 3613,
    "\u2581McDonald": 3614,
    "quipier": 3615,
    "ky": 3616,
    "\u2581pirate": 3617,
    "\u2581pillow": 3618,
    "\u2581document": 3619,
    "\u2581pigeon": 3620,
    "\u2581passenger": 3621,
    "\u2581trunk": 3622,
    "\u2581Time": 3623,
    "\u2581ver": 3624,
    "\u2581gra": 3625,
    "\u2581attraction": 3626,
    "\u2581bac": 3627,
    "\u2581premi": 3628,
    "\u2581non": 3629,
    "\u2581Caucasian": 3630,
    "\u2581Cheerleaders": 3631,
    "\u2581Jenga": 3632,
    "\u2581bulldozer": 3633,
    "\u2581prochain": 3634,
    "\u2581rickshaw": 3635,
    "\u2581wheelbarrow": 3636,
    "\u2581charrette": 3637,
    "\u2581chorale": 3638,
    "\u2581Sooner": 3639,
    "\u2581multiple": 3640,
    "\u2581ponytail": 3641,
    "\u2581downtown": 3642,
    "\u2581slightly": 3643,
    "\u2581fisherman": 3644,
    "\u2581poterie": 3645,
    "\u2581airborne": 3646,
    "\u2581job": 3647,
    "\u2581pottery": 3648,
    "\u2581temple": 3649,
    "\u2581glacier": 3650,
    "\u2581weaving": 3651,
    "\u2581couteau": 3652,
    "\u2581reflet": 3653,
    "\u2581binoculars": 3654,
    "\u2581crawl": 3655,
    "\u2581russes": 3656,
    "crire": 3657,
    "\u2581pub": 3658,
    "\u2581forestier": 3659,
    "tage": 3660,
    "\u2581closeup": 3661,
    "\u2581bordeaux": 3662,
    "\u2581excited": 3663,
    "\u2581apple": 3664,
    "\u2581grue": 3665,
    "\u2581State": 3666,
    "\u2581nuageux": 3667,
    "\u2581servant": 3668,
    "\u2581scoop": 3669,
    "\u2581bracelet": 3670,
    "\u2581Students": 3671,
    "\u2581aisle": 3672,
    "\u2581tug": 3673,
    "\u2581retournant": 3674,
    "\u2581bikinis": 3675,
    "\u2581cible": 3676,
    "\u2581navigue": 3677,
    "\u2581dribble": 3678,
    "\u2581allum": 3679,
    "\u2581science": 3680,
    "\u2581imprim": 3681,
    "\u2581poor": 3682,
    "\u2581gravit": 3683,
    "\u2581rapides": 3684,
    "\u2581accompagn": 3685,
    "\u2581protesting": 3686,
    "\u2581voler": 3687,
    "\u2581dough": 3688,
    "T": 3689,
    "\u2581volent": 3690,
    "occer": 3691,
    "\u2581patch": 3692,
    "\u2581rappel": 3693,
    "\u2581size": 3694,
    "neau": 3695,
    "D": 3696,
    "\u2581tourists": 3697,
    "aspirateur": 3698,
    "colier": 3699,
    "\u2581joy": 3700,
    "\u2581photographed": 3701,
    "corative": 3702,
    "\u2581aussi": 3703,
    "\u2581vous": 3704,
    "\u2581claire": 3705,
    "\u2581gratte": 3706,
    "\u2581gestes": 3707,
    "\u2581verse": 3708,
    "\u2581dedans": 3709,
    "\u2581boueux": 3710,
    "\u2581pellette": 3711,
    "\u2581cherch": 3712,
    "\u2581japonais": 3713,
    "cal": 3714,
    "uvres": 3715,
    "\u2581pneus": 3716,
    "\u2581renvers": 3717,
    "\u2581contain": 3718,
    "\u2581bless": 3719,
    "ooking": 3720,
    "\u2581outil": 3721,
    "\u2581veau": 3722,
    "ponge": 3723,
    "\u2581wild": 3724,
    "\u2581repairs": 3725,
    "dis": 3726,
    "\u2581test": 3727,
    "\u2581amuse": 3728,
    "\u2581amie": 3729,
    "\u2581see": 3730,
    "\u2581bass": 3731,
    "\u2581teach": 3732,
    "tudie": 3733,
    "\u2581papers": 3734,
    "\u2581El": 3735,
    "\u2581raquettes": 3736,
    "\u2581bulle": 3737,
    "\u2581hike": 3738,
    "\u2581engine": 3739,
    "\u2581portes": 3740,
    "\u2581mi": 3741,
    "labr": 3742,
    "\u2581gr": 3743,
    "ance": 3744,
    "\u2581cor": 3745,
    "\u2581backs": 3746,
    "\u2581coiffe": 3747,
    "\u2581corps": 3748,
    "ville": 3749,
    "attente": 3750,
    "\u2581funn": 3751,
    "toile": 3752,
    "\u2581environ": 3753,
    "com": 3754,
    "\u2581engin": 3755,
    "\u2581complete": 3756,
    "\u2581fetch": 3757,
    "\u2581appel": 3758,
    "\u2581joli": 3759,
    "\u2581feather": 3760,
    "arrosage": 3761,
    "\u2581ethnic": 3762,
    "\u2581lion": 3763,
    "\u2581hug": 3764,
    "American": 3765,
    "\u2581cuire": 3766,
    "anniversaire": 3767,
    "orchestre": 3768,
    "automne": 3769,
    "weight": 3770,
    "\u2581bounc": 3771,
    "\u2581fonctionne": 3772,
    "partment": 3773,
    "onneuse": 3774,
    "\u2581cu": 3775,
    "\u2581cuisini": 3776,
    "\u2581fort": 3777,
    "of": 3778,
    "\u2581orientale": 3779,
    "\u2581sari": 3780,
    "\u2581che": 3781,
    "\u2581aqua": 3782,
    "colle": 3783,
    "\u2581teen": 3784,
    "\u2581sta": 3785,
    "\u2581medic": 3786,
    "\u2581official": 3787,
    "\u2581cop": 3788,
    "\u2581sauvage": 3789,
    "\u2581tea": 3790,
    "\u2581descent": 3791,
    "\u2581tutu": 3792,
    "\u2581acrobatie": 3793,
    "\u2581shadow": 3794,
    "\u2581customer": 3795,
    "\u2581tentes": 3796,
    "\u2581barrier": 3797,
    "ois": 3798,
    "\u2581mug": 3799,
    "\u2581vo": 3800,
    "girl": 3801,
    "\u2581reste": 3802,
    "\u2581entertain": 3803,
    "\u2581pul": 3804,
    "\u2581shave": 3805,
    "the": 3806,
    "\u2581fi": 3807,
    "\u2581ouvr": 3808,
    "\u2581cra": 3809,
    "tire": 3810,
    "aire": 3811,
    "\u2581cowboys": 3812,
    "lit": 3813,
    "\u2581abrupte": 3814,
    "\u2581burgundy": 3815,
    "\u2581espagnol": 3816,
    "\u2581groceries": 3817,
    "\u2581percussion": 3818,
    "\u2581Londres": 3819,
    "\u2581perceuse": 3820,
    "\u2581sniff": 3821,
    "\u2581chainsaw": 3822,
    "\u2581confetti": 3823,
    "\u2581tondeuse": 3824,
    "\u2581caniche": 3825,
    "\u2581mousse": 3826,
    "\u2581croix": 3827,
    "\u2581process": 3828,
    "\u2581Elder": 3829,
    "\u2581paquet": 3830,
    "\u2581encombr": 3831,
    "opard": 3832,
    "\u2581location": 3833,
    "\u2581perron": 3834,
    "\u2581wheelie": 3835,
    "\u2581exhibit": 3836,
    "\u2581ceremony": 3837,
    "\u2581stylo": 3838,
    "\u2581bleachers": 3839,
    "\u2581sneakers": 3840,
    "\u2581spotted": 3841,
    "\u2581bretelles": 3842,
    "\u2581coaster": 3843,
    "\u2581messy": 3844,
    "\u2581overhead": 3845,
    "\u2581morceaux": 3846,
    "\u2581studying": 3847,
    "\u2581empil": 3848,
    "\u2581officier": 3849,
    "\u2581dusk": 3850,
    "\u2581pratiquant": 3851,
    "\u2581telephone": 3852,
    "\u2581commencer": 3853,
    "\u2581factory": 3854,
    "\u2581loom": 3855,
    "\u2581skater": 3856,
    "\u2581waterway": 3857,
    "\u2581waterfront": 3858,
    "\u2581porta": 3859,
    "\u2581wings": 3860,
    "ploy": 3861,
    "\u2581score": 3862,
    "\u2581oven": 3863,
    "\u2581was": 3864,
    "\u2581rouler": 3865,
    "\u2581apprend": 3866,
    "\u2581bombe": 3867,
    "\u2581ju": 3868,
    "\u2581entass": 3869,
    "\u2581gestures": 3870,
    "sty": 3871,
    "\u2581\u0301tel": 3872,
    "tation": 3873,
    "\u2581strap": 3874,
    "\u2581eggs": 3875,
    "\u2581manifestants": 3876,
    "\u2581section": 3877,
    "\u2581houses": 3878,
    "\u2581charg": 3879,
    "\u2581tuba": 3880,
    "\u2581hauteur": 3881,
    "\u2581firefighters": 3882,
    "\u2581pomme": 3883,
    "\u2581moutons": 3884,
    "\u2581skie": 3885,
    "\u2581dunk": 3886,
    "pousse": 3887,
    "\u2581tents": 3888,
    "cume": 3889,
    "\u2581chiots": 3890,
    "tandi": 3891,
    "\u2581swimmers": 3892,
    "\u2581usine": 3893,
    "\u2581debris": 3894,
    "\u2581appareils": 3895,
    "\u2581brillante": 3896,
    "oir": 3897,
    "\u2581praying": 3898,
    "\u2581shops": 3899,
    "\u2581pushe": 3900,
    "\u2581pleurs": 3901,
    "\u2581fen\u00c3atres": 3902,
    "\u2581fur": 3903,
    "\u2581p\u00c3acher": 3904,
    "\u2581dune": 3905,
    "\u2581movie": 3906,
    "ident": 3907,
    "\u2581bascule": 3908,
    "nd": 3909,
    "\u2581dipl": 3910,
    "\u2581shake": 3911,
    "\u2581places": 3912,
    "\u2581parasols": 3913,
    "\u2581violets": 3914,
    "\u2581Orient": 3915,
    "\u2581op\u00c3": 3916,
    "\u2581mouvements": 3917,
    "\u2581col": 3918,
    "v\u00c3atements": 3919,
    "\u2581commande": 3920,
    "\u2581laptops": 3921,
    "\u2581concentr": 3922,
    "\u2581hache": 3923,
    "\u2581link": 3924,
    "he": 3925,
    "\u2581boi": 3926,
    "\u2581caps": 3927,
    "\u2581landing": 3928,
    "\u2581hid": 3929,
    "eignant": 3930,
    "avion": 3931,
    "\u2581observes": 3932,
    "\u2581balay": 3933,
    "\u2581operate": 3934,
    "\u2581bann": 3935,
    "uf": 3936,
    "nes": 3937,
    "\u2581bin": 3938,
    "\u2581flips": 3939,
    "chef": 3940,
    "\u2581races": 3941,
    "\u2581Dan": 3942,
    "\u2581laine": 3943,
    "avoir": 3944,
    "\u2581cups": 3945,
    "\u2581ga": 3946,
    "arr\u00c3at": 3947,
    "\u2581te": 3948,
    "poids": 3949,
    "athl\u00c3": 3950,
    "affaires": 3951,
    "ta": 3952,
    "\u2581tourist": 3953,
    "\u2581fatigu": 3954,
    "accroupi": 3955,
    "ence": 3956,
    "\u2581careful": 3957,
    "entretien": 3958,
    "\u2581slip": 3959,
    "\u2581super": 3960,
    "\u2581create": 3961,
    "made": 3962,
    "stern": 3963,
    "\u2581Bea": 3964,
    "\u2581featur": 3965,
    "ss\u00c3": 3966,
    "\u2581p\u00c3ach": 3967,
    "\u2581artistes": 3968,
    "juste": 3969,
    "\u2581smash": 3970,
    "\u2581brows": 3971,
    "\u2581bloc": 3972,
    "\u2581ours": 3973,
    "\u2581listen": 3974,
    "\u2581rayon": 3975,
    "\u2581exercise": 3976,
    "\u2581target": 3977,
    "\u2581snowsuit": 3978,
    "\u2581boulder": 3979,
    "\u2581chicken": 3980,
    "\u2581suitcase": 3981,
    "clairage": 3982,
    "\u2581begin": 3983,
    "\u2581incline": 3984,
    "\u2581bra": 3985,
    "\u2581explor": 3986,
    "\u2581mouton": 3987,
    "\u2581accord": 3988,
    "\u2581breakdance": 3989,
    "th\u00c3": 3990,
    "blement": 3991,
    "\u2581scaffold": 3992,
    "ns": 3993,
    "a\u00c3": 3994,
    "flamm": 3995,
    "\u2581peints": 3996,
    "\u2581surveille": 3997,
    "\u2581contrebas": 3998,
    "\u2581automobile": 3999,
    "\u2581badminton": 4000,
    "\u2581bamboo": 4001,
    "\u2581experiment": 4002,
    "\u2581galerie": 4003,
    "\u2581knife": 4004,
    "\u2581merchandise": 4005,
    "\u2581renifl": 4006,
    "\u2581umpire": 4007,
    "\u2581fourrure": 4008,
    "\u2581Female": 4009,
    "\u2581celebration": 4010,
    "\u2581China": 4011,
    "\u2581carrelage": 4012,
    "\u2581casserole": 4013,
    "\u2581NY": 4014,
    "\u2581iPod": 4015,
    "\u2581forehead": 4016,
    "\u2581trolley": 4017,
    "\u2581juice": 4018,
    "\u2581clapping": 4019,
    "\u2581po\u00c3ale": 4020,
    "\u2581radio": 4021,
    "\u2581bal": 4022,
    "\u2581plongeoir": 4023,
    "\u2581paperwork": 4024,
    "\u2581sailboat": 4025,
    "\u2581hotel": 4026,
    "\u2581alleyway": 4027,
    "\u2581blood": 4028,
    "\u2581countryside": 4029,
    "treignent": 4030,
    "\u2581stoop": 4031,
    "\u2581emergency": 4032,
    "\u2581cheese": 4033,
    "\u2581brother": 4034,
    "\u2581phase": 4035,
    "\u2581pigtails": 4036,
    "\u2581retriever": 4037,
    "\u2581soap": 4038,
    "rience": 4039,
    "\u2581firemen": 4040,
    "\u2581meet": 4041,
    "\u2581bureaux": 4042,
    "\u2581mower": 4043,
    "argile": 4044,
    "meute": 4045,
    "\u2581jumelles": 4046,
    "\u2581bystanders": 4047,
    "\u2581lettres": 4048,
    "ille": 4049,
    "\u2581poodle": 4050,
    "\u2581TV": 4051,
    "\u2581dragon": 4052,
    "\u2581chess": 4053,
    "\u2581world": 4054,
    "\u2581Legos": 4055,
    "\u2581dorment": 4056,
    "\u2581hockeyeurs": 4057,
    "\u2581chips": 4058,
    "\u2581wares": 4059,
    "\u2581gymnastics": 4060,
    "\u2581baguettes": 4061,
    "\u2581herbeux": 4062,
    "\u2581chewing": 4063,
    "\u2581strange": 4064,
    "\u2581bagpipes": 4065,
    "\u2581teal": 4066,
    "\u2581punch": 4067,
    "\u2581forces": 4068,
    "\u2581canot": 4069,
    "\u2581tournoi": 4070,
    "\u2581pauvre": 4071,
    "\u2581mec": 4072,
    "\u2581Police": 4073,
    "\u2581ferme": 4074,
    "\u2581olympiques": 4075,
    "\u2581rempliss": 4076,
    "\u2581eight": 4077,
    "\u2581nuages": 4078,
    "\u2581pommes": 4079,
    "\u2581patineurs": 4080,
    "\u2581glisser": 4081,
    "\u2581creat": 4082,
    "\u2581motion": 4083,
    "lu": 4084,
    "troite": 4085,
    "\u2581shadows": 4086,
    "\u2581bound": 4087,
    "\u2581presse": 4088,
    "\u2581pillows": 4089,
    "\u2581It": 4090,
    "\u2581tremp": 4091,
    "ary": 4092,
    "\u2581skaters": 4093,
    "iti\u00c3": 4094,
    "\u2581nom": 4095,
    "\u2581wires": 4096,
    "\u2581inclin": 4097,
    "orange": 4098,
    "\u2581grimaces": 4099,
    "\u2581nager": 4100,
    "\u2581beverages": 4101,
    "\u2581donn": 4102,
    "I": 4103,
    "\u2581paddles": 4104,
    "\u2581jo": 4105,
    "\u2581interview": 4106,
    "\u2581essentielle": 4107,
    "issent": 4108,
    "\u2581cigarettes": 4109,
    "\u2581backdrop": 4110,
    "\u2581comes": 4111,
    "\u2581lick": 4112,
    "\u2581ados": 4113,
    "\u2581arcade": 4114,
    "\u2581tray": 4115,
    "\u2581lane": 4116,
    "\u2581war": 4117,
    "\u2581label": 4118,
    "\u2581poste": 4119,
    "\u2581tackl": 4120,
    "\u2581spike": 4121,
    "\u2581mal": 4122,
    "\u2581come": 4123,
    "\u2581\u0308ces": 4124,
    "if": 4125,
    "\u2581pay": 4126,
    "\u2581performers": 4127,
    "erous": 4128,
    "\u2581spin": 4129,
    "arriv": 4130,
    "\u2581tires": 4131,
    "rifie": 4132,
    "grale": 4133,
    "cking": 4134,
    "\u2581knees": 4135,
    "\u2581porche": 4136,
    "\u2581stare": 4137,
    "\u2581br\u00c3": 4138,
    "\u2581tubes": 4139,
    "\u2581manipule": 4140,
    "tag\u00c3": 4141,
    "\u2581page": 4142,
    "\u2581bains": 4143,
    "di\u00c3": 4144,
    "br\u00c3": 4145,
    "\u2581news": 4146,
    "\u2581aller": 4147,
    "\u2581sombres": 4148,
    "ity": 4149,
    "ture": 4150,
    "dy": 4151,
    "\u2581coiff": 4152,
    "ma": 4153,
    "\u2581couvertures": 4154,
    "\u2581blankets": 4155,
    "\u2581fla": 4156,
    "os": 4157,
    "teaux": 4158,
    "\u2581newspapers": 4159,
    "\u2581bronze": 4160,
    "\u2581boules": 4161,
    "tail": 4162,
    "\u2581decorat": 4163,
    "\u2581vendors": 4164,
    "oreille": 4165,
    "\u2581aim": 4166,
    "filant": 4167,
    "\u2581carr\u00c3": 4168,
    "\u2581Hu": 4169,
    "\u2581muscl": 4170,
    "\u2581trie": 4171,
    "ud": 4172,
    "\u2581verdoyante": 4173,
    "cour": 4174,
    "Orient": 4175,
    "\u2581bu": 4176,
    "tient": 4177,
    "lever": 4178,
    "\u2581rust": 4179,
    "paisse": 4180,
    "\u2581couvr": 4181,
    "\u2581remplis": 4182,
    "\u2581lignes": 4183,
    "\u2581fashion": 4184,
    "\u2581brass": 4185,
    "couper": 4186,
    "\u2581pl": 4187,
    "\u2581tress": 4188,
    "\u2581rollerskat": 4189,
    "\u2581essaye": 4190,
    "\u2581case": 4191,
    "cossais": 4192,
    "\u2581Mia": 4193,
    "\u2581papiers": 4194,
    "\u2581sou": 4195,
    "\u2581vent": 4196,
    "\u2581Jack": 4197,
    "om": 4198,
    "\u2581diver": 4199,
    "\u2581bizarre": 4200,
    "\u2581conten": 4201,
    "\u2581torch": 4202,
    "\u2581enthousiaste": 4203,
    "\u2581firefighter": 4204,
    "\u2581traditionnelle": 4205,
    "\u2581shower": 4206,
    "\u2581\u0308vre": 4207,
    "\u2581cheek": 4208,
    "\u2581pliante": 4209,
    "\u2581celebrate": 4210,
    "ted": 4211,
    "\u2581hut": 4212,
    "\u2581chasse": 4213,
    "ar\u00c3": 4214,
    "\u2581secou": 4215,
    "\u2581mule": 4216,
    "\u2581burn": 4217,
    "\u2581trip": 4218,
    "\u2581boxer": 4219,
    "pla\u00c3": 4220,
    "\u2581Qua": 4221,
    "\u2581quitte": 4222,
    "cked": 4223,
    "\u2581weather": 4224,
    "\u2581fell": 4225,
    "\u2581coast": 4226,
    "affrontant": 4227,
    "\u2581christmas": 4228,
    "\u2581enthousiasme": 4229,
    "\u2581laundromat": 4230,
    "\u2581masculin": 4231,
    "\u2581Batman": 4232,
    "\u2581Mohawk": 4233,
    "\u2581technique": 4234,
    "\u2581unusual": 4235,
    "\u2581Subway": 4236,
    "\u2581rapids": 4237,
    "\u2581religieuse": 4238,
    "\u2581medium": 4239,
    "picerie": 4240,
    "\u2581similaire": 4241,
    "\u2581surgery": 4242,
    "\u2581tripod": 4243,
    "\u2581puppies": 4244,
    "\u2581Couple": 4245,
    "\u2581\u0308bre": 4246,
    "\u2581underwear": 4247,
    "\u2581separate": 4248,
    "ait": 4249,
    "\u2581robot": 4250,
    "\u2581staff": 4251,
    "\u2581yarn": 4252,
    "\u2581municipal": 4253,
    "\u2581sunlight": 4254,
    "\u2581homeless": 4255,
    "\u2581distributeur": 4256,
    "\u2581chameaux": 4257,
    "\u2581chalkboard": 4258,
    "\u2581shoreline": 4259,
    "\u2581rollerblading": 4260,
    "\u2581We": 4261,
    "\u2581construire": 4262,
    "\u2581butcher": 4263,
    "checs": 4264,
    "\u2581suspenders": 4265,
    "\u2581perdu": 4266,
    "\u2581highway": 4267,
    "\u2581chargement": 4268,
    "\u2581folded": 4269,
    "\u2581handrail": 4270,
    "\u2581snap": 4271,
    "\u2581supplies": 4272,
    "\u2581combattant": 4273,
    "unners": 4274,
    "\u2581tisser": 4275,
    "\u2581violoncelle": 4276,
    "\u2581haie": 4277,
    "\u2581cello": 4278,
    "\u2581joie": 4279,
    "\u2581screaming": 4280,
    "\u2581handle": 4281,
    "\u2581ronde": 4282,
    "\u2581observant": 4283,
    "\u2581Nik": 4284,
    "\u2581closely": 4285,
    "\u2581America": 4286,
    "\u2581sponsor": 4287,
    "\u2581Apple": 4288,
    "\u2581natte": 4289,
    "\u2581chatting": 4290,
    "\u2581ramant": 4291,
    "\u2581snowshoes": 4292,
    "\u2581single": 4293,
    "\u2581splash": 4294,
    "\u2581range": 4295,
    "\u2581rament": 4296,
    "chets": 4297,
    "\u2581meubles": 4298,
    "\u2581colonnes": 4299,
    "\u2581reposer": 4300,
    "\u2581bank": 4301,
    "\u2581lifted": 4302,
    "\u2581bush": 4303,
    "\u2581stall": 4304,
    "rimmed": 4305,
    "\u2581rice": 4306,
    "\u2581chute": 4307,
    "\u2581activit": 4308,
    "vriers": 4309,
    "\u2581tights": 4310,
    "\u2581crossed": 4311,
    "\u2581soci": 4312,
    "\u2581hotdogs": 4313,
    "\u2581sortir": 4314,
    "\u2581stationn": 4315,
    "\u2581tond": 4316,
    "\u2581diverses": 4317,
    "\u2581enthousiastes": 4318,
    "ake": 4319,
    "gging": 4320,
    "\u2581peintre": 4321,
    "\u2581lighted": 4322,
    "\u2581fleurie": 4323,
    "\u2581harmonica": 4324,
    "\u2581nageuse": 4325,
    "\u2581thumbs": 4326,
    "\u2581magasins": 4327,
    "\u2581sprinklers": 4328,
    "war": 4329,
    "unk": 4330,
    "\u2581habit": 4331,
    "\u2581Car": 4332,
    "\u2581appl": 4333,
    "\u2581motorcyclists": 4334,
    "co": 4335,
    "der": 4336,
    "\u2581gobelets": 4337,
    "\u2581watched": 4338,
    "\u2581huddle": 4339,
    "\u2581bols": 4340,
    "homa": 4341,
    "still": 4342,
    "\u2581swimsuits": 4343,
    "ients": 4344,
    "\u2581juggle": 4345,
    "\u2581nappe": 4346,
    "ti\u00c3": 4347,
    "\u2581hind": 4348,
    "\u2581khakis": 4349,
    "L": 4350,
    "Un": 4351,
    "\u2581cavaliers": 4352,
    "\u2581bricks": 4353,
    "\u2581training": 4354,
    "\u2581prop": 4355,
    "\u2581logs": 4356,
    "green": 4357,
    "\u2581athletes": 4358,
    "\u2581arrange": 4359,
    "\u2581bik": 4360,
    "land": 4361,
    "\u2581floats": 4362,
    "anie": 4363,
    "ception": 4364,
    "\u2581cameras": 4365,
    "\u2581verdoyant": 4366,
    "ady": 4367,
    "pais": 4368,
    "\u2581retir": 4369,
    "\u2581stir": 4370,
    "\u2581plats": 4371,
    "venant": 4372,
    "ins": 4373,
    "\u2581aider": 4374,
    "leading": 4375,
    "\u2581poing": 4376,
    "\u2581comfort": 4377,
    "\u2581flan": 4378,
    "ving": 4379,
    "\u2581picks": 4380,
    "\u2581atterri": 4381,
    "\u2581suspendue": 4382,
    "sailing": 4383,
    "ject": 4384,
    "\u2581violettes": 4385,
    "\u2581fleuri": 4386,
    "\u2581skiers": 4387,
    "\u2581douche": 4388,
    "one": 4389,
    "\u2581carts": 4390,
    "charge": 4391,
    "\u2581calme": 4392,
    "\u2581marque": 4393,
    "\u2581poche": 4394,
    "\u2581concentre": 4395,
    "ist": 4396,
    "tion": 4397,
    "m\u00c3ame": 4398,
    "\u2581gathers": 4399,
    "\u2581cab": 4400,
    "\u2581rassemble": 4401,
    "ses": 4402,
    "v": 4403,
    "V": 4404,
    "embrasse": 4405,
    "ga": 4406,
    "\u2581stepp": 4407,
    "obstacle": 4408,
    "ouvriers": 4409,
    "animaux": 4410,
    "exposition": 4411,
    "\u2581catche": 4412,
    "\u2581microscopes": 4413,
    "adolescents": 4414,
    "\u2581bring": 4415,
    "\u2581celle": 4416,
    "ered": 4417,
    "\u2581souffl": 4418,
    "wood": 4419,
    "\u2581illumin": 4420,
    "tr\u00c3": 4421,
    "\u2581squat": 4422,
    "\u2581personnel": 4423,
    "unies": 4424,
    "\u2581particip": 4425,
    "graphie": 4426,
    "\u2581marchand": 4427,
    "\u2581cir": 4428,
    "\u2581cont": 4429,
    "\u2581rally": 4430,
    "\u2581lens": 4431,
    "el": 4432,
    "borne": 4433,
    "\u2581triste": 4434,
    "\u2581pupitre": 4435,
    "\u2581faible": 4436,
    "\u2581leotard": 4437,
    "\u2581bongo": 4438,
    "\u2581citron": 4439,
    "\u2581mince": 4440,
    "\u2581poulet": 4441,
    "\u2581ticket": 4442,
    "\u2581canette": 4443,
    "\u2581upward": 4444,
    "\u2581thumb": 4445,
    "\u2581hotdog": 4446,
    "\u2581candle": 4447,
    "\u2581patineur": 4448,
    "\u2581manifestant": 4449,
    "\u2581egg": 4450,
    "\u2581patron": 4451,
    "round": 4452,
    "\u2581monitor": 4453,
    "\u2581ea": 4454,
    "\u2581travailleur": 4455,
    "\u2581disque": 4456,
    "\u2581goat": 4457,
    "\u2581focuse": 4458,
    "\u2581arche": 4459,
    "\u2581vacuum": 4460,
    "\u2581treat": 4461,
    "lle": 4462,
    "\u2581contest": 4463,
    "\u2581carve": 4464,
    "euse": 4465,
    "\u2581headdress": 4466,
    "pectators": 4467,
    "licopt": 4468,
    "loseup": 4469,
    "\u2581chameau": 4470,
    "Obama": 4471,
    "\u2581Monopoly": 4472,
    "\u2581School": 4473,
    "\u2581Speedo": 4474,
    "\u2581agricole": 4475,
    "\u2581caricatur": 4476,
    "\u2581contraption": 4477,
    "\u2581demoiselle": 4478,
    "\u2581gallery": 4479,
    "\u2581signalisation": 4480,
    "\u2581canvas": 4481,
    "\u2581restauration": 4482,
    "\u2581vacances": 4483,
    "\u2581frozen": 4484,
    "\u2581universitaire": 4485,
    "\u2581lobby": 4486,
    "\u2581earphones": 4487,
    "\u2581trashcan": 4488,
    "wed": 4489,
    "\u2581champagne": 4490,
    "\u2581valley": 4491,
    "\u2581dumpster": 4492,
    "\u2581passersby": 4493,
    "\u2581monkey": 4494,
    "\u2581workshop": 4495,
    "\u2581plaisir": 4496,
    "\u2581sideways": 4497,
    "\u2581facility": 4498,
    "\u2581maintenance": 4499,
    "\u2581navire": 4500,
    "\u2581peignoir": 4501,
    "\u2581adorable": 4502,
    "\u2581spotlight": 4503,
    "\u2581canyon": 4504,
    "\u2581driveway": 4505,
    "\u2581lingerie": 4506,
    "\u2581sarcelle": 4507,
    "\u2581gagner": 4508,
    "\u2581quickly": 4509,
    "\u2581injured": 4510,
    "\u2581transportation": 4511,
    "\u2581vrai": 4512,
    "\u2581stilts": 4513,
    "\u2581embracing": 4514,
    "\u2581rooftop": 4515,
    "\u2581highchair": 4516,
    "\u2581Asia": 4517,
    "\u2581pedal": 4518,
    "\u2581sportive": 4519,
    "rench": 4520,
    "\u2581regroup": 4521,
    "\u2581tranquille": 4522,
    "\u2581olive": 4523,
    "gue": 4524,
    "\u2581activity": 4525,
    "\u2581classique": 4526,
    "chasses": 4527,
    "\u2581roadside": 4528,
    "\u2581collie": 4529,
    "\u2581pilier": 4530,
    "B": 4531,
    "\u2581interesting": 4532,
    "\u2581scarves": 4533,
    "\u2581Brit": 4534,
    "\u2581concours": 4535,
    "\u2581artwork": 4536,
    "\u2581mis": 4537,
    "\u2581workout": 4538,
    "\u2581nuageuse": 4539,
    "\u2581maneuver": 4540,
    "\u2581mixer": 4541,
    "\u2581Band": 4542,
    "\u2581libre": 4543,
    "\u2581hawa": 4544,
    "\u2581even": 4545,
    "\u2581genou": 4546,
    "\u2581sprayed": 4547,
    "\u2581Army": 4548,
    "\u2581stores": 4549,
    "\u2581bonne": 4550,
    "hepherd": 4551,
    "couter": 4552,
    "ors": 4553,
    "\u2581focus": 4554,
    "\u2581kimonos": 4555,
    "\u2581approaches": 4556,
    "\u2581Seattle": 4557,
    "poux": 4558,
    "\u2581Easter": 4559,
    "\u2581extr\u00c3": 4560,
    "\u2581soutien": 4561,
    "\u2581torches": 4562,
    "\u2581dispos": 4563,
    "\u2581products": 4564,
    "\u2581Olympics": 4565,
    "\u2581flamme": 4566,
    "\u2581Player": 4567,
    "\u2581Cafe": 4568,
    "\u2581gaze": 4569,
    "cy": 4570,
    "\u2581autumn": 4571,
    "\u2581capot": 4572,
    "\u2581lutteur": 4573,
    "\u2581rive": 4574,
    "\u2581mod\u00c3": 4575,
    "\u2581intense": 4576,
    "\u2581interagiss": 4577,
    "\u2581fabriqu": 4578,
    "\u2581washer": 4579,
    "\u2581amus": 4580,
    "\u2581gazes": 4581,
    "iles": 4582,
    "\u2581fromage": 4583,
    "\u2581mess": 4584,
    "\u2581chocolate": 4585,
    "\u2581boards": 4586,
    "\u2581jongl": 4587,
    "\u2581veston": 4588,
    "\u2581painter": 4589,
    "\u2581attache": 4590,
    "\u2581venue": 4591,
    "\u2581belts": 4592,
    "\u2581shar": 4593,
    "\u2581rond": 4594,
    "by": 4595,
    "\u2581trouver": 4596,
    "\u2581fixes": 4597,
    "\u2581termine": 4598,
    "ven": 4599,
    "\u2581dig": 4600,
    "\u2581oreille": 4601,
    "\u2581salu": 4602,
    "\u2581commun": 4603,
    "\u2581spa": 4604,
    "\u2581larger": 4605,
    "\u2581racers": 4606,
    "chafaudages": 4607,
    "\u2581cuisiner": 4608,
    "\u2581heavi": 4609,
    "\u2581content": 4610,
    "ily": 4611,
    "bout": 4612,
    "fashioned": 4613,
    "\u2581tricot": 4614,
    "\u2581Asie": 4615,
    "op\u00c3": 4616,
    "\u2581drag": 4617,
    "\u2581sp": 4618,
    "\u2581adverses": 4619,
    "\u2581ponton": 4620,
    "nder": 4621,
    "\u2581strike": 4622,
    "\u2581cards": 4623,
    "ach\u00c3": 4624,
    "\u2581kayaking": 4625,
    "\u2581bib": 4626,
    "lot": 4627,
    "agenouille": 4628,
    "\u2581accroupis": 4629,
    "vention": 4630,
    "\u2581pale": 4631,
    "aider": 4632,
    "\u2581classic": 4633,
    "led": 4634,
    "sing": 4635,
    "\u2581He": 4636,
    "etty": 4637,
    "\u2581curve": 4638,
    "\u2581propre": 4639,
    "\u2581horizon": 4640,
    "\u2581trucks": 4641,
    "\u2581Br": 4642,
    "\u2581typ": 4643,
    "\u2581angle": 4644,
    "\u2581padd": 4645,
    "\u2581dis": 4646,
    "\u2581played": 4647,
    "\u2581Vu": 4648,
    "\u2581retire": 4649,
    "ota": 4650,
    "lots": 4651,
    "\u2581tail": 4652,
    "dale": 4653,
    "M": 4654,
    "crans": 4655,
    "\u2581pince": 4656,
    "ak": 4657,
    "ail": 4658,
    "range": 4659,
    "oss\u00c3": 4660,
    "reux": 4661,
    "\u2581moin": 4662,
    "\u2581my": 4663,
    "light": 4664,
    "is\u00c3": 4665,
    "\u2581lighting": 4666,
    "\u2581recev": 4667,
    "\u2581crash": 4668,
    "enne": 4669,
    "\u2581displays": 4670,
    "house": 4671,
    "eusement": 4672,
    "\u2581Mar": 4673,
    "\u2581vari": 4674,
    "col": 4675,
    "ateur": 4676,
    "\u2581fou": 4677,
    "image": 4678,
    "\u2581adolescente": 4679,
    "\u2581capture": 4680,
    "body": 4681,
    "\u2581fu": 4682,
    "lant": 4683,
    "\u2581vall": 4684,
    "striped": 4685,
    "\u2581numbers": 4686,
    "ched": 4687,
    "ad": 4688,
    "style": 4689,
    "nce": 4690,
    "most": 4691,
    "oiseaux": 4692,
    "appuy": 4693,
    "arcade": 4694,
    "nnel": 4695,
    "attendre": 4696,
    "\u2581ve": 4697,
    "\u2581arch": 4698,
    "\u2581perch": 4699,
    "\u2581bicycl": 4700,
    "pied": 4701,
    "\u2581Lo": 4702,
    "\u2581jailli": 4703,
    "\u2581Hol": 4704,
    "jour": 4705,
    "\u2581moustach": 4706,
    "\u2581apart": 4707,
    "\u2581stor": 4708,
    "corations": 4709,
    "otted": 4710,
    "\u2581rifle": 4711,
    "ventail": 4712,
    "\u2581construit": 4713,
    "alcool": 4714,
    "\u2581pumpkin": 4715,
    "\u2581nuage": 4716,
    "uill\u00c3": 4717,
    "\u2581perruque": 4718,
    "ca": 4719,
    "\u2581Lot": 4720,
    "\u2581diner": 4721,
    "vrier": 4722,
    "\u2581texto": 4723,
    "\u2581marchandise": 4724,
    "\u2581task": 4725,
    "its": 4726,
    "\u2581rug": 4727,
    "\u2581proche": 4728,
    "kla": 4729,
    "\u2581wig": 4730,
    "\u2581reflection": 4731,
    "troit": 4732,
    "fend": 4733,
    "\u2581navigate": 4734,
    "\u2581arrose": 4735,
    "cutent": 4736,
    "are": 4737,
    "\u2581collines": 4738,
    "\u2581navigu": 4739,
    "\u2581partition": 4740,
    "\u2581Canad": 4741,
    "\u2581drop": 4742,
    "\u2581tight": 4743,
    "\u2581smooth": 4744,
    "\u2581synchroni": 4745,
    "\u2581mechanic": 4746,
    "artifice": 4747,
    "\u2581Skateboarder": 4748,
    "\u2581Starbucks": 4749,
    "\u2581afternoon": 4750,
    "\u2581bambin": 4751,
    "\u2581brouillard": 4752,
    "\u2581caucasian": 4753,
    "\u2581chopsticks": 4754,
    "\u2581cockpit": 4755,
    "\u2581foliage": 4756,
    "\u2581monospace": 4757,
    "\u2581shawl": 4758,
    "\u2581squeez": 4759,
    "\u2581couvercle": 4760,
    "\u2581gesturing": 4761,
    "\u2581marmite": 4762,
    "\u2581trombone": 4763,
    "\u2581Hockey": 4764,
    "\u2581bathtub": 4765,
    "\u2581rev\u00c3atement": 4766,
    "\u2581helicopter": 4767,
    "\u2581accept": 4768,
    "\u2581sparring": 4769,
    "\u2581butterfly": 4770,
    "\u2581stump": 4771,
    "\u2581bedroom": 4772,
    "\u2581baiser": 4773,
    "\u2581raincoat": 4774,
    "\u2581soyeux": 4775,
    "\u2581Disney": 4776,
    "\u2581foyer": 4777,
    "\u2581morning": 4778,
    "\u2581cherry": 4779,
    "\u2581collation": 4780,
    "\u2581pencil": 4781,
    "\u2581curieux": 4782,
    "\u2581compris": 4783,
    "\u2581synchroniz": 4784,
    "\u2581Shepherd": 4785,
    "\u2581pourpre": 4786,
    "\u2581Food": 4787,
    "\u2581USA": 4788,
    "broue": 4789,
    "\u2581kickboxing": 4790,
    "\u2581pathway": 4791,
    "edestrians": 4792,
    "\u2581suivant": 4793,
    "\u2581every": 4794,
    "\u2581prix": 4795,
    "\u2581breakdancing": 4796,
    "\u2581jardinage": 4797,
    "\u2581excit": 4798,
    "\u2581belongings": 4799,
    "\u2581built": 4800,
    "\u2581Dark": 4801,
    "midi": 4802,
    "\u2581fausse": 4803,
    "\u2581pretend": 4804,
    "\u2581serveur": 4805,
    "\u2581officielle": 4806,
    "\u2581servir": 4807,
    "\u2581rollerblades": 4808,
    "\u2581parasailing": 4809,
    "\u2581kayakiste": 4810,
    "\u2581beret": 4811,
    "\u2581cannon": 4812,
    "\u2581unhappy": 4813,
    "\u2581checkers": 4814,
    "\u2581perles": 4815,
    "\u2581digital": 4816,
    "\u2581monk": 4817,
    "\u2581surveillent": 4818,
    "obscuri": 4819,
    "\u2581terrier": 4820,
    "treint": 4821,
    "\u2581acrobatic": 4822,
    "H": 4823,
    "\u2581braid": 4824,
    "\u2581cowgirl": 4825,
    "\u2581chariots": 4826,
    "\u2581raser": 4827,
    "pouse": 4828,
    "\u2581games": 4829,
    "\u2581avance": 4830,
    "\u2581zoo": 4831,
    "\u2581letter": 4832,
    "\u2581steaks": 4833,
    "wing": 4834,
    "\u2581chercher": 4835,
    "\u2581transporte": 4836,
    "\u2581punching": 4837,
    "\u2581suivi": 4838,
    "\u2581obscure": 4839,
    "\u2581package": 4840,
    "\u2581writes": 4841,
    "\u2581jogs": 4842,
    "\u2581crates": 4843,
    "uzz": 4844,
    "cha": 4845,
    "\u2581displayed": 4846,
    "\u2581fumer": 4847,
    "\u2581tendus": 4848,
    "\u2581tombent": 4849,
    "\u2581riot": 4850,
    "\u2581congregate": 4851,
    "\u258111": 4852,
    "nu": 4853,
    "\u2581Park": 4854,
    "\u2581unload": 4855,
    "filent": 4856,
    "\u2581acc\u00c3": 4857,
    "\u2581rid": 4858,
    "\u2581coff": 4859,
    "\u2581brushes": 4860,
    "\u2581pads": 4861,
    "\u2581proches": 4862,
    "\u2581convention": 4863,
    "\u2581choisiss": 4864,
    "\u2581cuit": 4865,
    "\u2581rag": 4866,
    "\u2581Toy": 4867,
    "\u2581vite": 4868,
    "\u2581chinoises": 4869,
    "ress": 4870,
    "\u2581begins": 4871,
    "\u2581sculpte": 4872,
    "ire": 4873,
    "\u2581pagay": 4874,
    "\u2581Bear": 4875,
    "\u2581marin": 4876,
    "\u2581matin": 4877,
    "\u2581jumper": 4878,
    "\u2581waiter": 4879,
    "\u2581decorations": 4880,
    "\u2581tags": 4881,
    "\u2581canards": 4882,
    "\u2581scen": 4883,
    "vers": 4884,
    "\u2581measur": 4885,
    "ten": 4886,
    "\u2581peupl": 4887,
    "\u2581dessert": 4888,
    "\u2581illuminat": 4889,
    "\u2581designs": 4890,
    "\u2581visibles": 4891,
    "\u2581ducks": 4892,
    "\u2581lower": 4893,
    "\u2581fishes": 4894,
    "\u2581than": 4895,
    "\u2581collect": 4896,
    "\u2581grasp": 4897,
    "\u2581locat": 4898,
    "\u2581cans": 4899,
    "\u2581flo": 4900,
    "resque": 4901,
    "ace": 4902,
    "\u2581teint": 4903,
    "\u2581rings": 4904,
    "miling": 4905,
    "\u2581pi": 4906,
    "\u2581portraits": 4907,
    "sh": 4908,
    "ens": 4909,
    "\u2581gar": 4910,
    "\u2581tu": 4911,
    "\u2581cet": 4912,
    "\u2581cute": 4913,
    "\u2581\u0308ques": 4914,
    "\u2581icy": 4915,
    "ex": 4916,
    "opcorn": 4917,
    "neige": 4918,
    "\u2581booths": 4919,
    "armi": 4920,
    "ore": 4921,
    "\u2581Nin": 4922,
    "\u2581plain": 4923,
    "\u2581clouds": 4924,
    "enlace": 4925,
    "\u2581ici": 4926,
    "\u2581fois": 4927,
    "\u2581peinte": 4928,
    "ut": 4929,
    "\u2581parachutes": 4930,
    "\u2581win": 4931,
    "\u2581affaires": 4932,
    "ls": 4933,
    "\u2581participants": 4934,
    "\u2581Ba": 4935,
    "other": 4936,
    "\u2581dad": 4937,
    "\u2581lever": 4938,
    "\u2581automne": 4939,
    "\u2581k": 4940,
    "\u2581appren": 4941,
    "\u2581anti": 4942,
    "ort": 4943,
    "\u2581waist": 4944,
    "\u2581banquet": 4945,
    "\u2581armes": 4946,
    "\u2581boucle": 4947,
    "\u2581sens": 4948,
    "\u2581boxeur": 4949,
    "be": 4950,
    "F": 4951,
    "\u2581complex": 4952,
    "sur": 4953,
    "\u2581entra": 4954,
    "ick": 4955,
    "\u2581await": 4956,
    "\u2581immeubles": 4957,
    "\u2581baigne": 4958,
    "\u2581fini": 4959,
    "jo": 4960,
    "\u2581profond": 4961,
    "\u2581cannes": 4962,
    "\u2581entr": 4963,
    "\u2581antique": 4964,
    "\u2581roulants": 4965,
    "\u2581spot": 4966,
    "\u2581cree": 4967,
    "\u2581think": 4968,
    "\u2581Par": 4969,
    "rize": 4970,
    "aille": 4971,
    "reuse": 4972,
    "\u2581am": 4973,
    "\u2581aprons": 4974,
    "\u2581skateurs": 4975,
    "instrument": 4976,
    "\u2581photographes": 4977,
    "iste": 4978,
    "\u2581She": 4979,
    "\u2581Hawa": 4980,
    "ious": 4981,
    "\u2581cho": 4982,
    "po": 4983,
    "ai": 4984,
    "\u2581Vi": 4985,
    "\u2581dinosaur": 4986,
    "\u2581prepar": 4987,
    "\u2581cigar": 4988,
    "\u2581power": 4989,
    "\u2581secur": 4990,
    "environ": 4991,
    "\u2581di": 4992,
    "ial": 4993,
    "animal": 4994,
    "coat": 4995,
    "\u2581trace": 4996,
    "gle": 4997,
    "cause": 4998,
    "paved": 4999,
    "instruments": 5000,
    "\u2581ru": 5001,
    "mount": 5002,
    "\u2581scale": 5003,
    "\u2581hook": 5004,
    "rifi": 5005,
    "size": 5006,
    "\u2581bross": 5007,
    "ales": 5008,
    "\u2581wh": 5009,
    "pong": 5010,
    "\u2581aride": 5011,
    "\u2581offer": 5012,
    "itting": 5013,
    "onne": 5014,
    "\u2581diverti": 5015,
    "vert": 5016,
    "\u2581lo": 5017,
    "\u2581securi": 5018,
    "ouill\u00c3": 5019,
    "ments": 5020,
    "\u2581Mark": 5021,
    "\u2581singe": 5022,
    "cas": 5023,
    "\u2581solo": 5024,
    "\u2581chocolat": 5025,
    "monstration": 5026,
    "dress": 5027,
    "\u2581Fire": 5028,
    "\u2581civil": 5029,
    "\u2581pyramid": 5030,
    "\u2581sleep": 5031,
    "\u2581disc": 5032,
    "\u2581pop": 5033,
    "\u2581Co": 5034,
    "\u2581trouv": 5035,
    "\u2581patine": 5036,
    "\u2581notebook": 5037,
    "\u2581scrap": 5038,
    "\u2581fabrique": 5039,
    "\u2581message": 5040,
    "\u2581coussin": 5041,
    "\u2581bambou": 5042,
    "\u2581pocket": 5043,
    "\u2581brochure": 5044,
    "\u2581surv\u00c3atement": 5045,
    "\u2581citrouille": 5046,
    "\u2581ethnique": 5047,
    "\u2581moyenne": 5048,
    "\u2581rapide": 5049,
    "\u2581column": 5050,
    "\u2581Olympic": 5051,
    "\u2581olympique": 5052,
    "\u2581product": 5053,
    "\u2581bougie": 5054,
    "\u2581gesture": 5055,
    "\u2581palmier": 5056,
    "vil": 5057,
    "\u2581raide": 5058,
    "\u2581oreiller": 5059,
    "\u2581\u0308tre": 5060,
    "\u2581speaker": 5061,
    "\u2581visi": 5062,
    "\u2581gown": 5063,
    "\u2581plume": 5064,
    "ume": 5065,
    "\u2581receive": 5066,
    "\u2581nail": 5067,
    "all": 5068,
    "\u2581faite": 5069,
    "\u2581flou": 5070,
    "\u2581orn": 5071,
    "\u2581savon": 5072,
    "\u2581passager": 5073,
    "\u2581potato": 5074,
    "\u2581India": 5075,
    "\u2581puzzle": 5076,
    "\u2581harvest": 5077,
    "\u2581social": 5078,
    "\u2581Gym": 5079,
    "tat": 5080,
    "itchenAid": 5081,
    "tablissement": 5082,
    "\u2581Vegas": 5083,
    "\u2581Vendor": 5084,
    "\u2581Yamaha": 5085,
    "\u2581bermuda": 5086,
    "\u2581cardigan": 5087,
    "\u2581elaborate": 5088,
    "\u2581laboratory": 5089,
    "\u2581mascara": 5090,
    "\u2581pizzeria": 5091,
    "\u2581possession": 5092,
    "\u2581substance": 5093,
    "\u2581toothbrush": 5094,
    "\u2581treadmill": 5095,
    "\u2581warehouse": 5096,
    "urgence": 5097,
    "\u2581flamboyant": 5098,
    "\u2581fourgonnette": 5099,
    "\u2581hammock": 5100,
    "\u2581trafic": 5101,
    "\u2581Concert": 5102,
    "\u2581Yellow": 5103,
    "\u2581register": 5104,
    "\u2581hydrant": 5105,
    "\u2581powder": 5106,
    "\u2581remuant": 5107,
    "\u2581turtle": 5108,
    "\u2581scrubs": 5109,
    "\u2581easel": 5110,
    "\u2581hamac": 5111,
    "\u2581triangle": 5112,
    "\u2581campfire": 5113,
    "\u2581drainage": 5114,
    "\u2581attelage": 5115,
    "\u2581tuxedo": 5116,
    "\u2581establishment": 5117,
    "\u2581consult": 5118,
    "\u2581mutuellement": 5119,
    "\u2581favorite": 5120,
    "\u2581conductor": 5121,
    "\u2581vibrant": 5122,
    "\u2581Musician": 5123,
    "\u2581handicap": 5124,
    "\u2581religious": 5125,
    "\u2581Mouse": 5126,
    "\u2581mohawk": 5127,
    "\u2581victory": 5128,
    "quoise": 5129,
    "\u2581historique": 5130,
    "\u2581tarp": 5131,
    "\u2581chisel": 5132,
    "\u2581babies": 5133,
    "\u2581Spanish": 5134,
    "\u2581sample": 5135,
    "\u2581chic": 5136,
    "\u2581bowtie": 5137,
    "\u2581pelleteuse": 5138,
    "\u2581abandoned": 5139,
    "\u2581Big": 5140,
    "\u2581turkey": 5141,
    "\u2581multi": 5142,
    "\u2581marble": 5143,
    "\u2581sucette": 5144,
    "\u2581messieurs": 5145,
    "\u2581cerceaux": 5146,
    "\u2581ombrag": 5147,
    "\u2581sumo": 5148,
    "\u2581coiffeur": 5149,
    "\u2581tournament": 5150,
    "\u2581projector": 5151,
    "\u2581arrangement": 5152,
    "\u2581Chine": 5153,
    "\u2581daytime": 5154,
    "\u2581cadeaux": 5155,
    "\u2581tracksuit": 5156,
    "\u2581underground": 5157,
    "\u2581mor": 5158,
    "\u2581company": 5159,
    "\u2581sledding": 5160,
    "\u2581plateforme": 5161,
    "\u2581dresse": 5162,
    "\u2581lapin": 5163,
    "\u2581contenu": 5164,
    "\u2581noix": 5165,
    "\u2581nourrit": 5166,
    "\u2581terminal": 5167,
    "\u2581murale": 5168,
    "\u2581shoppers": 5169,
    "\u2581maquette": 5170,
    "\u2581pony": 5171,
    "\u2581stretches": 5172,
    "\u2581cycling": 5173,
    "\u2581paintball": 5174,
    "\u2581catcheur": 5175,
    "\u2581bloquer": 5176,
    "\u2581upset": 5177,
    "\u2581trouble": 5178,
    "\u2581saluent": 5179,
    "\u2581waterskiing": 5180,
    "\u2581passion": 5181,
    "\u2581photographier": 5182,
    "\u2581split": 5183,
    "\u2581cheerlead": 5184,
    "\u2581transit": 5185,
    "\u2581industri": 5186,
    "\u2581sombrero": 5187,
    "\u2581beads": 5188,
    "\u2581judges": 5189,
    "\u2581revers": 5190,
    "\u2581instructions": 5191,
    "\u2581indian": 5192,
    "\u2581juges": 5193,
    "\u2581beat": 5194,
    "\u2581tackled": 5195,
    "\u2581conditions": 5196,
    "\u2581crashing": 5197,
    "\u2581creusent": 5198,
    "\u2581owner": 5199,
    "bbing": 5200,
    "\u2581plaquer": 5201,
    "\u2581fortune": 5202,
    "\u2581tomates": 5203,
    "\u2581billets": 5204,
    "\u2581ongles": 5205,
    "\u2581cookies": 5206,
    "\u2581Deere": 5207,
    "\u2581flock": 5208,
    "\u2581hiver": 5209,
    "\u2581entreprise": 5210,
    "\u2581Green": 5211,
    "\u2581entrep": 5212,
    "\u2581allume": 5213,
    "\u2581filmant": 5214,
    "\u2581skills": 5215,
    "\u2581crouch": 5216,
    "\u2581clut": 5217,
    "\u2581stance": 5218,
    "\u2581salue": 5219,
    "\u2581rack": 5220,
    "\u2581nurses": 5221,
    "\u2581riz": 5222,
    "ver": 5223,
    "\u2581henn": 5224,
    "\u2581fine": 5225,
    "\u2581carrier": 5226,
    "\u2581columns": 5227,
    "but": 5228,
    "boys": 5229,
    "\u2581lips": 5230,
    "\u2581find": 5231,
    "\u2581call": 5232,
    "\u2581rencontre": 5233,
    "\u2581patrons": 5234,
    "\u2581touriste": 5235,
    "\u2581oreillers": 5236,
    "\u2581arros": 5237,
    "\u2581iro": 5238,
    "\u2581cameraman": 5239,
    "\u2581instruct": 5240,
    "\u2581year": 5241,
    "\u2581acrobaties": 5242,
    "\u2581coud": 5243,
    "\u2581gardening": 5244,
    "ordre": 5245,
    "\u2581calmes": 5246,
    "\u2581cave": 5247,
    "\u2581pirates": 5248,
    "\u2581\u0308les": 5249,
    "\u2581Mexica": 5250,
    "\u2581chopp": 5251,
    "vi": 5252,
    "\u2581rake": 5253,
    "\u2581teammates": 5254,
    "\u2581peers": 5255,
    "\u2581nous": 5256,
    "\u2581battl": 5257,
    "\u2581assorti": 5258,
    "\u2581cries": 5259,
    "\u2581banners": 5260,
    "cker": 5261,
    "\u2581purchase": 5262,
    "aseball": 5263,
    "\u2581parent": 5264,
    "\u2581brillantes": 5265,
    "\u2581quilles": 5266,
    "\u2581services": 5267,
    "\u2581vitres": 5268,
    "\u2581fr": 5269,
    "ded": 5270,
    "\u2581caress": 5271,
    "\u2581boxe": 5272,
    "\u2581us": 5273,
    "\u2581rush": 5274,
    "\u2581sang": 5275,
    "rd": 5276,
    "laden": 5277,
    "\u2581US": 5278,
    "\u2581kilts": 5279,
    "\u2581ouverts": 5280,
    "\u2581Con": 5281,
    "\u2581ador": 5282,
    "\u2581maquille": 5283,
    "\u2581cuisinent": 5284,
    "\u2581tow": 5285,
    "opping": 5286,
    "\u2581j": 5287,
    "tif": 5288,
    "\u2581sides": 5289,
    "op": 5290,
    "ddy": 5291,
    "\u2581hills": 5292,
    "\u2581transparent": 5293,
    "\u2581muret": 5294,
    "\u2581cigare": 5295,
    "\u2581contrer": 5296,
    "\u2581entrer": 5297,
    "\u2581vitr": 5298,
    "\u2581cause": 5299,
    "\u2581dinosaure": 5300,
    "\u2581structures": 5301,
    "\u2581ATM": 5302,
    "\u2581cott": 5303,
    "bardeurs": 5304,
    "\u2581cellphones": 5305,
    "\u2581demande": 5306,
    "\u2581involve": 5307,
    "\u2581rurale": 5308,
    "fro": 5309,
    "ir\u00c3": 5310,
    "\u2581Mac": 5311,
    "\u2581endroits": 5312,
    "\u2581sunbath": 5313,
    "\u2581glaci": 5314,
    "rri": 5315,
    "\u2581yell": 5316,
    "\u2581\u0308ches": 5317,
    "\u2581montagneux": 5318,
    "gant": 5319,
    "cage": 5320,
    "\u2581launch": 5321,
    "\u2581flat": 5322,
    "tendu": 5323,
    "\u2581moine": 5324,
    "omm": 5325,
    "\u2581enterr": 5326,
    "\u2581cass": 5327,
    "\u2581camper": 5328,
    "\u2581inter": 5329,
    "ques": 5330,
    "\u2581dessins": 5331,
    "\u2581canoes": 5332,
    "Y": 5333,
    "\u2581quat": 5334,
    "\u2581inclu": 5335,
    "\u2581brand": 5336,
    "\u2581panel": 5337,
    "suit": 5338,
    "\u2581napp": 5339,
    "league": 5340,
    "mon": 5341,
    "\u2581enclos": 5342,
    "\u2581skies": 5343,
    "\u2581purses": 5344,
    "\u2581photographie": 5345,
    "\u2581plank": 5346,
    "cr\u00c3": 5347,
    "\u2581complexe": 5348,
    "\u2581remove": 5349,
    "\u2581Gro": 5350,
    "nt\u00c3": 5351,
    "emment": 5352,
    "\u2581masks": 5353,
    "owing": 5354,
    "quelle": 5355,
    "ading": 5356,
    "\u2581Qu": 5357,
    "atterrir": 5358,
    "\u2581organis": 5359,
    "\u2581fouille": 5360,
    "\u2581chor": 5361,
    "sses": 5362,
    "\u2581bloqu": 5363,
    "\u2581mani\u00c3": 5364,
    "pi": 5365,
    "\u2581sw": 5366,
    "ives": 5367,
    "\u2581colo": 5368,
    "\u2581rebondi": 5369,
    "\u2581lis": 5370,
    "\u2581arrow": 5371,
    "per": 5372,
    "\u2581Ste": 5373,
    "\u2581toss": 5374,
    "\u2581done": 5375,
    "\u2581ange": 5376,
    "\u2581tabliers": 5377,
    "\u2581pinceau": 5378,
    "\u2581pr\u00c3ate": 5379,
    "\u2581shout": 5380,
    "teindre": 5381,
    "\u2581toast": 5382,
    "ordures": 5383,
    "qui": 5384,
    "\u2581gri": 5385,
    "\u2581Mi": 5386,
    "\u2581ballot": 5387,
    "\u2581accompanie": 5388,
    "\u2581circula": 5389,
    "\u2581garder": 5390,
    "\u2581bouc": 5391,
    "ours": 5392,
    "\u2581chin": 5393,
    "ine": 5394,
    "G": 5395,
    "\u2581courte": 5396,
    "\u2581recouvr": 5397,
    "\u2581writ": 5398,
    "\u2581Num": 5399,
    "\u2581love": 5400,
    "country": 5401,
    "emm\u00c3": 5402,
    "rise": 5403,
    "gorge": 5404,
    "\u2581bronz": 5405,
    "ressant": 5406,
    "Halloween": 5407,
    "ungle": 5408,
    "attention": 5409,
    "service": 5410,
    "\u2581dunes": 5411,
    "Asiatiques": 5412,
    "uniformes": 5413,
    "\u2581buri": 5414,
    "hinese": 5415,
    "occup": 5416,
    "\u2581say": 5417,
    "\u2581mort": 5418,
    "dans": 5419,
    "\u2581baie": 5420,
    "escalader": 5421,
    "\u2581franchi": 5422,
    "objets": 5423,
    "venue": 5424,
    "ra\u00c3": 5425,
    "ice": 5426,
    "rivi": 5427,
    "\u2581mu": 5428,
    "\u2581human": 5429,
    "uch": 5430,
    "oreilles": 5431,
    "\u2581signing": 5432,
    "\u2581masqu": 5433,
    "\u2581ravin": 5434,
    "od": 5435,
    "ante": 5436,
    "\u2581barque": 5437,
    "\u2581mobylette": 5438,
    "\u2581circulaire": 5439,
    "\u2581pic": 5440,
    "\u2581mexicain": 5441,
    "\u2581europ": 5442,
    "\u2581twirl": 5443,
    "yo": 5444,
    "pa": 5445,
    "right": 5446,
    "\u2581fountains": 5447,
    "fenseur": 5448,
    "\u2581defender": 5449,
    "\u2581spectateur": 5450,
    "\u2581character": 5451,
    "\u2581cupcake": 5452,
    "leans": 5453,
    "\u2581\u0308gue": 5454,
    "\u2581motif": 5455,
    "\u2581nurse": 5456,
    "\u2581cheerleader": 5457,
    "\u2581employee": 5458,
    "\u2581fold": 5459,
    "ab": 5460,
    "\u2581tige": 5461,
    "do": 5462,
    "\u2581z": 5463,
    "\u2581disco": 5464,
    "\u2581crosse": 5465,
    "\u2581trop": 5466,
    "\u2581season": 5467,
    "\u2581berge": 5468,
    "\u2581projecteur": 5469,
    "\u2581weigh": 5470,
    "\u2581though": 5471,
    "\u2581marqu": 5472,
    "\u2581fog": 5473,
    "\u2581mitt": 5474,
    "\u2581industriel": 5475,
    "ustomers": 5476,
    "lastique": 5477,
    "\u2581stripe": 5478,
    "\u2581mascot": 5479,
    "\u2581elevat": 5480,
    "tritus": 5481,
    "\u2581Muslim": 5482,
    "\u2581chirurgien": 5483,
    "\u2581hispanique": 5484,
    "\u2581javelot": 5485,
    "\u2581meadow": 5486,
    "\u2581musulman": 5487,
    "\u2581puppet": 5488,
    "\u2581toujours": 5489,
    "\u2581wilderness": 5490,
    "\u2581cathedral": 5491,
    "\u2581exercising": 5492,
    "\u2581fedora": 5493,
    "\u2581harbor": 5494,
    "\u2581extreme": 5495,
    "\u2581littoral": 5496,
    "\u2581caravan": 5497,
    "\u2581verdure": 5498,
    "\u2581cygne": 5499,
    "\u2581soigneusement": 5500,
    "\u2581explosion": 5501,
    "\u2581progress": 5502,
    "\u2581videotap": 5503,
    "\u2581cellulaire": 5504,
    "\u2581maybe": 5505,
    "\u2581tigre": 5506,
    "\u2581special": 5507,
    "\u2581supermarket": 5508,
    "\u2581chapiteau": 5509,
    "\u2581slacks": 5510,
    "\u2581galets": 5511,
    "\u2581citizen": 5512,
    "artisanat": 5513,
    "\u2581Island": 5514,
    "\u2581rustic": 5515,
    "autoroute": 5516,
    "\u2581seafood": 5517,
    "\u2581backseat": 5518,
    "\u2581activities": 5519,
    "vateur": 5520,
    "\u2581herbeuse": 5521,
    "\u2581lumineux": 5522,
    "\u2581arabe": 5523,
    "\u2581aquatique": 5524,
    "\u2581woodland": 5525,
    "tisme": 5526,
    "\u2581husky": 5527,
    "\u2581resort": 5528,
    "chantillon": 5529,
    "\u2581parallel": 5530,
    "\u2581visor": 5531,
    "\u2581guichet": 5532,
    "\u2581grotte": 5533,
    "\u2581scientist": 5534,
    "\u2581suivent": 5535,
    "\u2581peloton": 5536,
    "\u2581tablecloth": 5537,
    "\u2581buggy": 5538,
    "\u2581facial": 5539,
    "\u2581tournage": 5540,
    "\u2581mascotte": 5541,
    "\u2581reception": 5542,
    "\u2581fermier": 5543,
    "\u2581textile": 5544,
    "\u2581impressionnant": 5545,
    "\u2581skydiving": 5546,
    "\u2581skyline": 5547,
    "\u2581Ford": 5548,
    "\u2581mattress": 5549,
    "\u2581crops": 5550,
    "\u2581somewhere": 5551,
    "\u2581poney": 5552,
    "\u2581mounted": 5553,
    "\u2581relay": 5554,
    "\u2581expans": 5555,
    "\u2581starring": 5556,
    "\u2581bodysuit": 5557,
    "\u2581violoniste": 5558,
    "\u2581trophy": 5559,
    "\u2581frire": 5560,
    "Est": 5561,
    "drale": 5562,
    "\u2581compagn": 5563,
    "chappe": 5564,
    "\u2581sourcils": 5565,
    "\u2581mitaines": 5566,
    "\u2581Wall": 5567,
    "crasant": 5568,
    "\u2581web": 5569,
    "\u2581applaudit": 5570,
    "\u2581conducting": 5571,
    "\u2581tiger": 5572,
    "\u2581downhill": 5573,
    "\u2581moulant": 5574,
    "\u2581bicyclette": 5575,
    "\u2581topless": 5576,
    "\u2581guerre": 5577,
    "\u2581feutre": 5578,
    "\u2581intens": 5579,
    "\u2581brassard": 5580,
    "\u2581cargo": 5581,
    "\u2581artificielle": 5582,
    "\u2581marker": 5583,
    "\u2581dryer": 5584,
    "\u2581niveau": 5585,
    "\u2581asperg": 5586,
    "\u2581sidelines": 5587,
    "\u2581information": 5588,
    "\u2581cime": 5589,
    "\u2581sunhat": 5590,
    "\u2581historic": 5591,
    "\u2581flottent": 5592,
    "\u2581autochtone": 5593,
    "\u2581mountaintop": 5594,
    "amuser": 5595,
    "\u2581clutch": 5596,
    "\u2581lush": 5597,
    "\u2581crown": 5598,
    "\u2581rentrer": 5599,
    "\u2581muscula": 5600,
    "mo": 5601,
    "\u2581milk": 5602,
    "\u2581broad": 5603,
    "da": 5604,
    "\u2581level": 5605,
    "\u2581stationnement": 5606,
    "\u2581hamburgers": 5607,
    "\u2581roche": 5608,
    "\u2581rollerskates": 5609,
    "\u2581trotting": 5610,
    "\u2581Inde": 5611,
    "\u2581vocal": 5612,
    "\u2581troph": 5613,
    "parations": 5614,
    "\u2581vacuuming": 5615,
    "\u2581cuill": 5616,
    "\u2581stock": 5617,
    "US": 5618,
    "\u2581exhib": 5619,
    "\u2581watermelons": 5620,
    "\u2581bananas": 5621,
    "\u2581quoi": 5622,
    "\u2581damage": 5623,
    "\u2581chew": 5624,
    "\u2581Washington": 5625,
    "arm": 5626,
    "\u2581personnages": 5627,
    "\u2581embrace": 5628,
    "squ": 5629,
    "\u2581bananes": 5630,
    "\u2581Tourists": 5631,
    "\u2581appartement": 5632,
    "\u2581lanterns": 5633,
    "\u2581compl\u00c3": 5634,
    "\u2581select": 5635,
    "\u2581lanternes": 5636,
    "\u2581greet": 5637,
    "\u2581\u0308gues": 5638,
    "ical": 5639,
    "\u2581cupcakes": 5640,
    "\u2581characters": 5641,
    "\u2581attracti": 5642,
    "\u2581employees": 5643,
    "parp": 5644,
    "\u2581touchent": 5645,
    "\u2581colorfully": 5646,
    "\u2581Indien": 5647,
    "eval": 5648,
    "\u2581skill": 5649,
    "\u2581ordering": 5650,
    "\u2581enseignante": 5651,
    "\u2581ultim": 5652,
    "\u2581indiqu": 5653,
    "\u2581shooter": 5654,
    "\u2581DS": 5655,
    "ogie": 5656,
    "\u2581monitors": 5657,
    "\u2581str": 5658,
    "\u2581upwards": 5659,
    "\u2581colorie": 5660,
    "\u2581shack": 5661,
    "\u2581pliantes": 5662,
    "\u2581chevalet": 5663,
    "\u2581dolls": 5664,
    "ear": 5665,
    "\u2581demonstration": 5666,
    "\u2581tutus": 5667,
    "\u2581assembl": 5668,
    "zard": 5669,
    "\u2581camels": 5670,
    "shape": 5671,
    "\u2581p\u00c3achent": 5672,
    "quipiers": 5673,
    "yed": 5674,
    "\u2581rallye": 5675,
    "\u2581jar": 5676,
    "\u2581prepared": 5677,
    "tory": 5678,
    "\u2581necklaces": 5679,
    "\u2581drawn": 5680,
    "\u2581barrels": 5681,
    "\u2581jailliss": 5682,
    "\u2581Walk": 5683,
    "\u2581award": 5684,
    "\u2581baisse": 5685,
    "\u2581peaks": 5686,
    "\u2581snacks": 5687,
    "\u2581seating": 5688,
    "\u2581professionnels": 5689,
    "\u2581gay": 5690,
    "tudiante": 5691,
    "\u2581sold": 5692,
    "gout": 5693,
    "\u2581amies": 5694,
    "\u2581coco": 5695,
    "ti": 5696,
    "oles": 5697,
    "\u2581harp": 5698,
    "\u2581Halloween": 5699,
    "\u2581magnifiques": 5700,
    "let": 5701,
    "ppy": 5702,
    "ened": 5703,
    "\u2581eff": 5704,
    "\u2581emm": 5705,
    "iversity": 5706,
    "ppr\u00c3": 5707,
    "vi\u00c3": 5708,
    "\u2581need": 5709,
    "\u2581armor": 5710,
    "\u2581organiz": 5711,
    "\u2581advertisements": 5712,
    "\u2581feature": 5713,
    "\u2581flame": 5714,
    "\u2581floue": 5715,
    "\u2581ado": 5716,
    "\u2581pleu": 5717,
    "\u2581text": 5718,
    "\u2581alimentaires": 5719,
    "para": 5720,
    "\u2581brille": 5721,
    "toufl": 5722,
    "\u2581polos": 5723,
    "riod": 5724,
    "li": 5725,
    "\u2581tableaux": 5726,
    "embers": 5727,
    "tats": 5728,
    "\u2581quitt": 5729,
    "\u2581weight": 5730,
    "\u2581sc": 5731,
    "\u2581u": 5732,
    "\u2581strings": 5733,
    "ennis": 5734,
    "\u2581soi": 5735,
    "\u2581gonflables": 5736,
    "urry": 5737,
    "\u2581beiges": 5738,
    "chev\u00c3": 5739,
    "ignant": 5740,
    "errier": 5741,
    "amour": 5742,
    "\u2581balais": 5743,
    "hole": 5744,
    "ange": 5745,
    "\u2581flu": 5746,
    "\u2581troncs": 5747,
    "\u2581guards": 5748,
    "\u2581stars": 5749,
    "fin": 5750,
    "robe": 5751,
    "gu": 5752,
    "va": 5753,
    "\u2581gratt": 5754,
    "ants": 5755,
    "\u2581slic": 5756,
    "\u2581app": 5757,
    "\u2581Nat": 5758,
    "The": 5759,
    "\u2581symbol": 5760,
    "\u2581scal": 5761,
    "tique": 5762,
    "\u2581wrapp": 5763,
    "\u2581trains": 5764,
    "\u2581border": 5765,
    "ler": 5766,
    "\u2581paw": 5767,
    "\u2581shi": 5768,
    "\u2581installe": 5769,
    "\u2581Shop": 5770,
    "lectriques": 5771,
    "\u2581Protest": 5772,
    "\u2581quiet": 5773,
    "back": 5774,
    "ros": 5775,
    "\u2581own": 5776,
    "ese": 5777,
    "\u2581dropp": 5778,
    "ap": 5779,
    "\u2581bloque": 5780,
    "\u2581bounce": 5781,
    "\u2581Power": 5782,
    "\u2581medi": 5783,
    "dults": 5784,
    "\u2581fat": 5785,
    "\u2581dump": 5786,
    "\u2581bump": 5787,
    "ars": 5788,
    "\u2581sad": 5789,
    "camera": 5790,
    "\u2581artists": 5791,
    "als": 5792,
    "\u2581remov": 5793,
    "onner": 5794,
    "\u2581baign": 5795,
    "\u2581polish": 5796,
    "\u2581crab": 5797,
    "dressed": 5798,
    "sol": 5799,
    "\u2581poser": 5800,
    "\u2581railings": 5801,
    "\u2581impatie": 5802,
    "\u2581Long": 5803,
    "\u2581statues": 5804,
    "colte": 5805,
    "im": 5806,
    "\u2581pans": 5807,
    "ria": 5808,
    "\u2581jets": 5809,
    "rill": 5810,
    "\u2581hour": 5811,
    "\u2581cats": 5812,
    "\u2581masques": 5813,
    "\u2581serveu": 5814,
    "\u2581suspend": 5815,
    "\u2581flow": 5816,
    "\u2581comm": 5817,
    "\u2581mauvaise": 5818,
    "\u2581rocheuses": 5819,
    "\u2581mic": 5820,
    "\u2581relev": 5821,
    "ack": 5822,
    "\u2581dot": 5823,
    "lass": 5824,
    "pose": 5825,
    "\u2581desks": 5826,
    "\u2581carri": 5827,
    "serves": 5828,
    "val": 5829,
    "\u2581corne": 5830,
    "andy": 5831,
    "\u2581auto": 5832,
    "\u2581salad": 5833,
    "chir": 5834,
    "ssing": 5835,
    "\u2581para": 5836,
    "\u2581sip": 5837,
    "voyant": 5838,
    "\u2581soup": 5839,
    "phones": 5840,
    "\u2581build": 5841,
    "t\u00c3ate": 5842,
    "\u2581remet": 5843,
    "ique": 5844,
    "\u2581dor": 5845,
    "ds": 5846,
    "core": 5847,
    "\u2581sail": 5848,
    "\u2581manuel": 5849,
    "\u2581locale": 5850,
    "ively": 5851,
    "\u2581souple": 5852,
    "jupes": 5853,
    "\u2581oil": 5854,
    "ather": 5855,
    "agent": 5856,
    "\u2581shirted": 5857,
    "\u2581souriants": 5858,
    "\u2581peigne": 5859,
    "\u2581lin": 5860,
    "oppos": 5861,
    "\u2581pops": 5862,
    "\u2581Wi": 5863,
    "York": 5864,
    "sion": 5865,
    "try": 5866,
    "storm": 5867,
    "collant": 5868,
    "documents": 5869,
    "individus": 5870,
    "ster": 5871,
    "allure": 5872,
    "\u2581connecte": 5873,
    "\u2581japonaise": 5874,
    "\u2581beers": 5875,
    "high": 5876,
    "effor": 5877,
    "marine": 5878,
    "filled": 5879,
    "\u2581tisse": 5880,
    "\u2581concentrate": 5881,
    "oney": 5882,
    "\u2581nou": 5883,
    "held": 5884,
    "\u2581recline": 5885,
    "\u2581release": 5886,
    "\u2581spik": 5887,
    "\u2581fran": 5888,
    "\u2581Ge": 5889,
    "day": 5890,
    "ood": 5891,
    "\u2581interagi": 5892,
    "\u2581kn": 5893,
    "\u2581gla": 5894,
    "\u2581compan": 5895,
    "\u2581tribu": 5896,
    "\u2581wo": 5897,
    "\u2581zip": 5898,
    "io": 5899,
    "\u2581explore": 5900,
    "\u2581fork": 5901,
    "\u2581fontaines": 5902,
    "\u2581briefcase": 5903,
    "\u2581dossard": 5904,
    "\u2581skull": 5905,
    "\u2581handbag": 5906,
    "\u2581comb": 5907,
    "\u2581hutte": 5908,
    "\u2581question": 5909,
    "\u2581pillar": 5910,
    "\u2581mode": 5911,
    "\u2581friandise": 5912,
    "\u2581weapon": 5913,
    "\u2581enseignant": 5914,
    "\u2581zombie": 5915,
    "\u2581poncho": 5916,
    "\u2581Tourist": 5917,
    "\u2581banane": 5918,
    "\u2581buisson": 5919,
    "\u2581colonne": 5920,
    "\u2581rep": 5921,
    "\u2581personnage": 5922,
    "\u2581crate": 5923,
    "\u2581strik": 5924,
    "\u2581meuble": 5925,
    "\u2581porc": 5926,
    "\u2581dribbl": 5927,
    "\u2581sweet": 5928,
    "\u2581temp": 5929,
    "\u2581trim": 5930,
    "\u2581brid": 5931,
    "\u2581patte": 5932,
    "\u2581voi": 5933,
    "\u2581scout": 5934,
    "\u2581disposi": 5935,
    "con": 5936,
    "\u2581serpent": 5937,
    "ot": 5938,
    "irefighters": 5939,
    "oddler": 5940,
    "\u2581encadr": 5941,
    "\u2581tomato": 5942,
    "ature": 5943,
    "\u2581mon": 5944,
    "\u2581ceremon": 5945,
    "den": 5946,
    "\u2581clarinet": 5947,
    "\u2581fantaisi": 5948,
    "affichage": 5949,
    "\u2581Basketball": 5950,
    "\u2581Berlin": 5951,
    "\u2581Cowboy": 5952,
    "\u2581Pizza": 5953,
    "\u2581album": 5954,
    "\u2581alcohol": 5955,
    "\u2581brindle": 5956,
    "\u2581caucasien": 5957,
    "\u2581concession": 5958,
    "\u2581crocodile": 5959,
    "\u2581husband": 5960,
    "\u2581invisible": 5961,
    "\u2581kiosk": 5962,
    "\u2581liquor": 5963,
    "\u2581monopoly": 5964,
    "\u2581ninja": 5965,
    "\u2581opinion": 5966,
    "\u2581ornament": 5967,
    "\u2581paisible": 5968,
    "\u2581patrouille": 5969,
    "\u2581perplexe": 5970,
    "\u2581physique": 5971,
    "\u2581pittoresque": 5972,
    "\u2581professor": 5973,
    "\u2581scissors": 5974,
    "\u2581spatula": 5975,
    "\u2581spatule": 5976,
    "\u2581sunshine": 5977,
    "\u2581bronco": 5978,
    "\u2581fluorescent": 5979,
    "\u2581lipstick": 5980,
    "\u2581razor": 5981,
    "\u2581Company": 5982,
    "\u2581recreat": 5983,
    "\u2581Hotel": 5984,
    "\u2581jazz": 5985,
    "\u2581maigre": 5986,
    "\u2581system": 5987,
    "\u2581Angels": 5988,
    "\u2581lavabo": 5989,
    "\u2581cable": 5990,
    "\u2581Angeles": 5991,
    "\u2581tortue": 5992,
    "\u2581Certain": 5993,
    "\u2581Surfer": 5994,
    "\u2581ciseaux": 5995,
    "\u2581bardeaux": 5996,
    "\u2581navigable": 5997,
    "\u2581nightclub": 5998,
    "\u2581Volkswagen": 5999,
    "\u2581soudure": 6000,
    "\u2581Claus": 6001,
    "\u2581geisha": 6002,
    "\u2581boulangerie": 6003,
    "\u2581High": 6004,
    "\u2581seesaw": 6005,
    "\u2581secouriste": 6006,
    "\u2581rustique": 6007,
    "\u2581Life": 6008,
    "\u2581breath": 6009,
    "\u2581BMW": 6010,
    "\u2581archway": 6011,
    "\u2581riverbank": 6012,
    "\u2581cuivre": 6013,
    "\u2581situation": 6014,
    "\u2581compagnie": 6015,
    "\u2581Lakers": 6016,
    "\u2581propane": 6017,
    "\u2581tunic": 6018,
    "\u2581typique": 6019,
    "\u2581lourd": 6020,
    "\u2581rasoir": 6021,
    "\u2581fitness": 6022,
    "\u2581Spiderman": 6023,
    "\u2581operation": 6024,
    "\u2581curious": 6025,
    "\u2581wonder": 6026,
    "\u2581suburb": 6027,
    "\u2581rafra": 6028,
    "\u2581hipster": 6029,
    "\u2581remue": 6030,
    "\u2581tatoueur": 6031,
    "marrer": 6032,
    "\u2581projection": 6033,
    "\u2581relais": 6034,
    "\u2581vieillard": 6035,
    "\u2581audio": 6036,
    "\u2581sharp": 6037,
    "\u2581goatee": 6038,
    "\u2581panda": 6039,
    "\u2581Wii": 6040,
    "\u2581arbor": 6041,
    "\u2581index": 6042,
    "\u2581socializing": 6043,
    "\u2581crochet": 6044,
    "\u2581constructed": 6045,
    "\u2581sauveteur": 6046,
    "\u2581campement": 6047,
    "\u2581saddle": 6048,
    "\u2581ruade": 6049,
    "\u2581wineglasses": 6050,
    "\u2581clap": 6051,
    "ordonn": 6052,
    "\u2581tunique": 6053,
    "dicaux": 6054,
    "\u2581hairstyle": 6055,
    "\u2581radeaux": 6056,
    "\u2581chunk": 6057,
    "dalant": 6058,
    "\u2581frown": 6059,
    "\u2581poker": 6060,
    "\u2581glider": 6061,
    "\u2581Cyclist": 6062,
    "\u2581tuyaux": 6063,
    "lly": 6064,
    "\u2581sailor": 6065,
    "\u2581completely": 6066,
    "\u2581saucisses": 6067,
    "\u2581mittens": 6068,
    "\u2581excitedly": 6069,
    "\u2581fireworks": 6070,
    "\u2581session": 6071,
    "\u2581Bikers": 6072,
    "\u2581knitting": 6073,
    "\u2581Ice": 6074,
    "\u2581joyeuse": 6075,
    "\u2581assembled": 6076,
    "\u2581banlieue": 6077,
    "\u2581surveillant": 6078,
    "\u2581parvien": 6079,
    "\u2581puff": 6080,
    "\u2581Colle": 6081,
    "\u2581sauna": 6082,
    "\u2581pride": 6083,
    "\u2581tomatoes": 6084,
    "\u2581cash": 6085,
    "\u2581barreaux": 6086,
    "\u2581secours": 6087,
    "\u2581contra": 6088,
    "\u2581obten": 6089,
    "\u2581criant": 6090,
    "\u2581flaming": 6091,
    "\u2581escarp": 6092,
    "\u2581East": 6093,
    "\u2581crack": 6094,
    "\u2581belly": 6095,
    "\u2581souvenirs": 6096,
    "\u2581prient": 6097,
    "\u2581policemen": 6098,
    "\u2581spr": 6099,
    "\u2581bridesmaids": 6100,
    "\u2581eager": 6101,
    "\u2581except": 6102,
    "\u2581sueur": 6103,
    "\u2581balaye": 6104,
    "\u2581priant": 6105,
    "ctors": 6106,
    "\u2581Superman": 6107,
    "\u2581Gray": 6108,
    "\u2581mosa": 6109,
    "\u2581words": 6110,
    "\u2581pastel": 6111,
    "\u2581ascend": 6112,
    "\u2581melons": 6113,
    "\u2581grillage": 6114,
    "chement": 6115,
    "\u2581texting": 6116,
    "\u2581poudre": 6117,
    "\u2581Skier": 6118,
    "\u2581ceris": 6119,
    "\u2581tresses": 6120,
    "ame": 6121,
    "\u2581stay": 6122,
    "\u2581rondin": 6123,
    "\u2581tumbling": 6124,
    "\u2581Sud": 6125,
    "amily": 6126,
    "\u2581clos": 6127,
    "\u2581mouettes": 6128,
    "\u2581tips": 6129,
    "\u2581clothed": 6130,
    "\u2581Dirt": 6131,
    "\u2581ollie": 6132,
    "agged": 6133,
    "\u2581steer": 6134,
    "\u2581blower": 6135,
    "gale": 6136,
    "\u2581Joe": 6137,
    "\u2581trio": 6138,
    "\u2581dirig": 6139,
    "\u2581waterside": 6140,
    "\u2581girlfriend": 6141,
    "\u2581paresse": 6142,
    "ging": 6143,
    "acheteurs": 6144,
    "\u2581pr\u00c3atre": 6145,
    "\u2581scratch": 6146,
    "\u2581checked": 6147,
    "\u2581enceinte": 6148,
    "\u2581Bull": 6149,
    "\u2581champs": 6150,
    "\u2581South": 6151,
    "\u2581essuie": 6152,
    "\u2581signal": 6153,
    "\u2581loupe": 6154,
    "\u2581Loca": 6155,
    "\u2581grimper": 6156,
    "\u2581stair": 6157,
    "\u2581plonger": 6158,
    "\u2581ponchos": 6159,
    "\u2581zombies": 6160,
    "\u2581ascension": 6161,
    "\u2581approchant": 6162,
    "\u2581Hous": 6163,
    "barrasse": 6164,
    "\u2581note": 6165,
    "\u2581framed": 6166,
    "\u2581ancienne": 6167,
    "\u2581mout": 6168,
    "\u2581via": 6169,
    "\u2581ombres": 6170,
    "\u2581cierge": 6171,
    "\u2581agr\u00c3": 6172,
    "lic": 6173,
    "five": 6174,
    "\u2581gowns": 6175,
    "ber": 6176,
    "\u2581talkie": 6177,
    "\u2581projecteurs": 6178,
    "\u2581abandonn": 6179,
    "\u2581equ": 6180,
    "\u2581\u0308tres": 6181,
    "\u2581nails": 6182,
    "\u2581br": 6183,
    "\u2581ethniques": 6184,
    "\u2581citrouilles": 6185,
    "\u2581blurr": 6186,
    "\u2581spots": 6187,
    "\u2581snowball": 6188,
    "\u2581swan": 6189,
    "\u2581Day": 6190,
    "\u2581lapins": 6191,
    "\u2581vigo": 6192,
    "lins": 6193,
    "\u2581enroul": 6194,
    "\u2581tranch": 6195,
    "\u2581drape": 6196,
    "\u2581personnels": 6197,
    "\u2581ravine": 6198,
    "\u2581flood": 6199,
    "\u2581strip": 6200,
    "\u2581poulets": 6201,
    "\u2581minces": 6202,
    "\u2581marsh": 6203,
    "ston": 6204,
    "\u2581rugs": 6205,
    "\u2581braqu": 6206,
    "\u2581rou": 6207,
    "\u2581varie": 6208,
    "ey": 6209,
    "\u2581want": 6210,
    "anneaux": 6211,
    "\u2581plongeon": 6212,
    "ssed": 6213,
    "\u2581pyramide": 6214,
    "Bo": 6215,
    "\u2581boxers": 6216,
    "\u2581Jew": 6217,
    "clairages": 6218,
    "\u2581rondes": 6219,
    "\u2581construite": 6220,
    "tournant": 6221,
    "elve": 6222,
    "\u2581haul": 6223,
    "\u2581chand": 6224,
    "phants": 6225,
    "\u2581yo": 6226,
    "\u2581barriers": 6227,
    "decins": 6228,
    "\u2581McDonalds": 6229,
    "\u2581Mick": 6230,
    "\u2581expose": 6231,
    "minine": 6232,
    "vale": 6233,
    "toiles": 6234,
    "W": 6235,
    "ung": 6236,
    "\u2581kit": 6237,
    "\u2581valises": 6238,
    "\u2581ribbons": 6239,
    "\u2581bonhomme": 6240,
    "\u2581brow": 6241,
    "\u2581brooms": 6242,
    "\u2581blocking": 6243,
    "\u2581cerfs": 6244,
    "\u2581ja": 6245,
    "\u2581surplombe": 6246,
    "\u2581decide": 6247,
    "\u2581ajust": 6248,
    "\u2581festive": 6249,
    "\u2581allure": 6250,
    "\u2581beams": 6251,
    "\u2581doctors": 6252,
    "\u2581enseignes": 6253,
    "\u2581baton": 6254,
    "\u2581wok": 6255,
    "\u2581dots": 6256,
    "ootball": 6257,
    "\u2581planter": 6258,
    "bli": 6259,
    "\u2581swords": 6260,
    "\u2581amarr": 6261,
    "\u2581formations": 6262,
    "\u2581descente": 6263,
    "\u2581console": 6264,
    "\u2581jumpsuits": 6265,
    "\u2581hearts": 6266,
    "\u2581devanture": 6267,
    "\u2581Ho": 6268,
    "\u2581africaines": 6269,
    "\u2581boa": 6270,
    "\u2581drying": 6271,
    "\u2581cl": 6272,
    "\u2581turbans": 6273,
    "\u2581sound": 6274,
    "\u2581Bill": 6275,
    "\u2581utili": 6276,
    "pe": 6277,
    "\u2581sleeves": 6278,
    "stretched": 6279,
    "\u2581litter": 6280,
    "\u2581mots": 6281,
    "tales": 6282,
    "\u2581skim": 6283,
    "\u2581bottoms": 6284,
    "\u2581bows": 6285,
    "\u2581fier": 6286,
    "\u2581tricycles": 6287,
    "\u2581cages": 6288,
    "\u2581presents": 6289,
    "\u2581invi": 6290,
    "\u2581dra": 6291,
    "\u2581pipes": 6292,
    "\u2581tropicale": 6293,
    "\u2581wheelchairs": 6294,
    "\u2581serviettes": 6295,
    "set": 6296,
    "\u2581assisting": 6297,
    "\u2581marathonien": 6298,
    "erry": 6299,
    "\u2581Sal": 6300,
    "ugging": 6301,
    "tin": 6302,
    "rt": 6303,
    "\u2581lands": 6304,
    "\u2581flee": 6305,
    "ssent": 6306,
    "\u2581raining": 6307,
    "\u2581Tim": 6308,
    "\u2581devices": 6309,
    "\u2581secure": 6310,
    "\u2581vaches": 6311,
    "\u2581remett": 6312,
    "\u2581rafts": 6313,
    "arde": 6314,
    "riment": 6315,
    "\u2581attack": 6316,
    "\u2581Minne": 6317,
    "her": 6318,
    "tex": 6319,
    "\u2581slopes": 6320,
    "chauff": 6321,
    "\u2581escalader": 6322,
    "cla": 6323,
    "\u2581noses": 6324,
    "\u2581change": 6325,
    "\u2581plaine": 6326,
    "\u2581menton": 6327,
    "\u2581acier": 6328,
    "\u2581golfeur": 6329,
    "\u2581stunts": 6330,
    "ag": 6331,
    "chette": 6332,
    "\u2581Nou": 6333,
    "\u2581press": 6334,
    "got": 6335,
    "\u2581visite": 6336,
    "\u2581pend": 6337,
    "no": 6338,
    "\u2581soupe": 6339,
    "\u2581mise": 6340,
    "\u2581pouv": 6341,
    "ummer": 6342,
    "\u2581rapport": 6343,
    "\u2581profondes": 6344,
    "alise": 6345,
    "\u00c3ate": 6346,
    "\u2581suspendus": 6347,
    "head": 6348,
    "im\u00c3": 6349,
    "ac": 6350,
    "\u2581gonfle": 6351,
    "\u2581plush": 6352,
    "\u2581approche": 6353,
    "\u2581chats": 6354,
    "rasant": 6355,
    "insi": 6356,
    "\u2581So": 6357,
    "eling": 6358,
    "\u2581campeur": 6359,
    "\u2581Ja": 6360,
    "\u2581savour": 6361,
    "verse": 6362,
    "\u2581vides": 6363,
    "\u2581tendue": 6364,
    "\u2581trans": 6365,
    "\u2581limb": 6366,
    "rows": 6367,
    "\u2581strollers": 6368,
    "\u2581hear": 6369,
    "\u2581crabe": 6370,
    "\u2581magnif": 6371,
    "oul\u00c3": 6372,
    "\u2581toilet": 6373,
    "Bron": 6374,
    "\u2581origin": 6375,
    "\u2581Pe": 6376,
    "hand": 6377,
    "time": 6378,
    "ngry": 6379,
    "\u2581tambourin": 6380,
    "\u2581pellet": 6381,
    "\u2581Chi": 6382,
    "\u2581cath": 6383,
    "\u2581colliers": 6384,
    "\u2581lanes": 6385,
    "crase": 6386,
    "\u2581gen": 6387,
    "\u2581brunes": 6388,
    "wearing": 6389,
    "iving": 6390,
    "ages": 6391,
    "\u2581pelles": 6392,
    "\u2581Grand": 6393,
    "\u2581breaks": 6394,
    "ize": 6395,
    "\u2581vitrines": 6396,
    "ional": 6397,
    "ilitary": 6398,
    "\u2581taill": 6399,
    "\u2581trous": 6400,
    "chi": 6401,
    "\u2581Mad": 6402,
    "hose": 6403,
    "\u2581surfeurs": 6404,
    "\u2581Pa": 6405,
    "\u2581accroche": 6406,
    "rest": 6407,
    "ouli": 6408,
    "\u2581observ": 6409,
    "eautiful": 6410,
    "\u2581peak": 6411,
    "tery": 6412,
    "asse": 6413,
    "\u2581conveni": 6414,
    "thing": 6415,
    "ellow": 6416,
    "ctur": 6417,
    "\u2581axe": 6418,
    "hat": 6419,
    "\u2581squa": 6420,
    "\u2581may": 6421,
    "ff": 6422,
    "rious": 6423,
    "\u2581vise": 6424,
    "\u2581assort": 6425,
    "Unis": 6426,
    "\u2581cord": 6427,
    "\u2581vision": 6428,
    "son": 6429,
    "rded": 6430,
    "ouche": 6431,
    "short": 6432,
    "\u2581mow": 6433,
    "\u2581musta": 6434,
    "\u2581fle": 6435,
    "\u2581Asians": 6436,
    "uvr": 6437,
    "skating": 6438,
    "\u2581glid": 6439,
    "\u2581wade": 6440,
    "\u2581frott": 6441,
    "ay": 6442,
    "ft": 6443,
    "\u2581search": 6444,
    "\u2581vertical": 6445,
    "wards": 6446,
    "\u2581rapporte": 6447,
    "mat": 6448,
    "piece": 6449,
    "\u2581chip": 6450,
    "objet": 6451,
    "cute": 6452,
    "\u2581suite": 6453,
    "\u2581stretch": 6454,
    "hoop": 6455,
    "\u2581demand": 6456,
    "pool": 6457,
    "golf": 6458,
    "\u2581bouton": 6459,
    "\u2581glissa": 6460,
    "\u2581museau": 6461,
    "cast": 6462,
    "\u2581coll": 6463,
    "\u2581manipul": 6464,
    "\u2581environn": 6465,
    "aller": 6466,
    "exercice": 6467,
    "\u2581stre": 6468,
    "iens": 6469,
    "\u2581too": 6470,
    "white": 6471,
    "\u2581care": 6472,
    "\u2581Me": 6473,
    "\u2581demonstrat": 6474,
    "\u2581principale": 6475,
    "command": 6476,
    "cie": 6477,
    "N": 6478,
    "ok": 6479,
    "ris": 6480,
    "ser": 6481,
    "cteurs": 6482,
    "\u2581barbecu": 6483,
    "wheeler": 6484,
    "ka": 6485,
    "cting": 6486,
    "\u2581clou": 6487,
    "work": 6488,
    "fi": 6489,
    "ime": 6490,
    "\u2581shad": 6491,
    "quip": 6492,
    "bat": 6493,
    "treign": 6494,
    "informatique": 6495,
    "cercle": 6496,
    "\u2581canin": 6497,
    "up\u00c3": 6498,
    "articles": 6499,
    "ctively": 6500,
    "asphalte": 6501,
    "Asie": 6502,
    "harmonica": 6503,
    "acier": 6504,
    "acheter": 6505,
    "vage": 6506,
    "\u2581inscription": 6507,
    "corn": 6508,
    "break": 6509,
    "artistes": 6510,
    "uds": 6511,
    "rent": 6512,
    "Le": 6513,
    "outils": 6514,
    "itty": 6515,
    "\u2581mouths": 6516,
    "vin": 6517,
    "\u2581mark": 6518,
    "\u2581Ca": 6519,
    "\u2581tra": 6520,
    "\u2581trotte": 6521,
    "\u2581Fisherm": 6522,
    "\u2581submerge": 6523,
    "rien": 6524,
    "\u2581culture": 6525,
    "j": 6526,
    "oiseau": 6527,
    "\u2581wipe": 6528,
    "artial": 6529,
    "\u2581pourchasse": 6530,
    "\u2581multicolor": 6531,
    "scope": 6532,
    "\u2581major": 6533,
    "\u2581truc": 6534,
    "\u2581choisi": 6535,
    "\u2581final": 6536,
    "\u2581important": 6537,
    "\u2581asphalt": 6538,
    "\u2581hung": 6539,
    "\u2581cal": 6540,
    "aby": 6541,
    "\u2581marionnette": 6542,
    "\u2581arroseur": 6543,
    "rateur": 6544,
    "\u2581sister": 6545,
    "\u2581cahier": 6546,
    "\u2581chiffon": 6547,
    "\u2581canadien": 6548,
    "\u2581concurrent": 6549,
    "\u2581Bicyclist": 6550,
    "\u2581struggl": 6551,
    "\u2581blind": 6552,
    "\u2581watermelon": 6553,
    "\u2581banana": 6554,
    "\u2581kimono": 6555,
    "clabousse": 6556,
    "\u2581pedestrian": 6557,
    "\u2581bagpipe": 6558,
    "\u2581jog": 6559,
    "\u2581expert": 6560,
    "\u2581backward": 6561,
    "\u2581dinde": 6562,
    "\u2581billet": 6563,
    "\u2581cookie": 6564,
    "\u2581cooler": 6565,
    "sole": 6566,
    "\u2581protester": 6567,
    "haps": 6568,
    "\u2581rouleau": 6569,
    "\u2581pig": 6570,
    "chefs": 6571,
    "\u2581fro": 6572,
    "ras": 6573,
    "\u2581kart": 6574,
    "\u2581pie": 6575,
    "\u2581emerg": 6576,
    "\u2581snorkel": 6577,
    "uma": 6578,
    "\u2581effray": 6579,
    "combres": 6580,
    "ig": 6581,
    "\u2581\u0301me": 6582,
    "\u2581know": 6583,
    "\u2581Japon": 6584,
    "\u2581sauce": 6585,
    "\u2581libert": 6586,
    "\u2581pray": 6587,
    "\u2581competitive": 6588,
    "\u2581soft": 6589,
    "enaissance": 6590,
    "UNICEF": 6591,
    "\u2581Golden": 6592,
    "\u2581Hispani": 6593,
    "\u2581Photographer": 6594,
    "\u2581apparatus": 6595,
    "\u2581blossom": 6596,
    "\u2581bookshelf": 6597,
    "\u2581britannique": 6598,
    "\u2581cagoule": 6599,
    "\u2581dauphin": 6600,
    "\u2581disponibles": 6601,
    "\u2581dolphin": 6602,
    "\u2581javelin": 6603,
    "\u2581pacifier": 6604,
    "\u2581peacock": 6605,
    "\u2581rehears": 6606,
    "\u2581rocailleux": 6607,
    "\u2581tyrolienne": 6608,
    "\u2581unknown": 6609,
    "\u2581watercraft": 6610,
    "\u2581zebra": 6611,
    "\u2581camarade": 6612,
    "\u2581elbow": 6613,
    "\u2581gallop": 6614,
    "\u2581intrigu": 6615,
    "\u2581lumineuse": 6616,
    "\u2581vegetation": 6617,
    "\u2581dizaine": 6618,
    "\u2581fingernail": 6619,
    "\u2581Gentlem": 6620,
    "\u2581tightrope": 6621,
    "\u2581autocollant": 6622,
    "ambulateur": 6623,
    "\u2581carousel": 6624,
    "\u2581charbon": 6625,
    "\u2581hijab": 6626,
    "\u2581ukulele": 6627,
    "\u2581Patrick": 6628,
    "\u2581corniche": 6629,
    "estrian": 6630,
    "\u2581squelette": 6631,
    "\u2581represent": 6632,
    "\u2581Dancers": 6633,
    "\u2581refresh": 6634,
    "\u2581France": 6635,
    "\u2581stylish": 6636,
    "\u2581campsite": 6637,
    "\u2581shoeshine": 6638,
    "\u2581treilli": 6639,
    "\u2581coloriage": 6640,
    "\u2581dominos": 6641,
    "\u2581community": 6642,
    "\u2581applaudissant": 6643,
    "\u2581ordinaire": 6644,
    "\u2581rowboat": 6645,
    "\u2581kitten": 6646,
    "\u2581hippique": 6647,
    "\u2581nouilles": 6648,
    "\u2581sacoche": 6649,
    "\u2581malheureux": 6650,
    "\u2581vacation": 6651,
    "\u2581nettoyage": 6652,
    "\u2581touristique": 6653,
    "\u2581meilleur": 6654,
    "\u2581overhang": 6655,
    "\u2581remote": 6656,
    "\u2581canopy": 6657,
    "\u2581identical": 6658,
    "\u2581fourneaux": 6659,
    "\u2581swamp": 6660,
    "\u2581curtain": 6661,
    "\u2581passionate": 6662,
    "\u2581cartwheel": 6663,
    "\u2581synth": 6664,
    "\u2581mignon": 6665,
    "\u2581Castro": 6666,
    "\u2581cinder": 6667,
    "\u2581dragster": 6668,
    "\u2581Coffee": 6669,
    "\u2581exhibition": 6670,
    "\u2581fourchette": 6671,
    "\u2581blindfolded": 6672,
    "\u2581tiara": 6673,
    "\u2581religieux": 6674,
    "\u2581backstroke": 6675,
    "\u2581escape": 6676,
    "\u2581york": 6677,
    "\u2581Singer": 6678,
    "\u2581nibbl": 6679,
    "\u2581excitement": 6680,
    "\u2581renaissance": 6681,
    "\u2581neuf": 6682,
    "\u2581dentaire": 6683,
    "\u2581earth": 6684,
    "\u2581sifflet": 6685,
    "\u2581retrouve": 6686,
    "\u2581drunk": 6687,
    "\u2581shelves": 6688,
    "\u2581clock": 6689,
    "\u2581attentively": 6690,
    "\u2581passerby": 6691,
    "\u2581Gap": 6692,
    "odeo": 6693,
    "\u2581California": 6694,
    "\u2581scantily": 6695,
    "\u2581Soldier": 6696,
    "autobus": 6697,
    "\u2581bakery": 6698,
    "\u2581rubble": 6699,
    "\u2581eyeglasses": 6700,
    "\u2581promener": 6701,
    "cemment": 6702,
    "\u2581clarinette": 6703,
    "\u2581Story": 6704,
    "\u2581priest": 6705,
    "\u2581labrado": 6706,
    "\u2581tram": 6707,
    "\u2581merchant": 6708,
    "\u2581answer": 6709,
    "\u2581hanches": 6710,
    "\u2581mixage": 6711,
    "\u2581parachuting": 6712,
    "\u2581cattle": 6713,
    "\u2581Hero": 6714,
    "\u2581honor": 6715,
    "\u2581sweatsuit": 6716,
    "\u2581bathrobe": 6717,
    "\u2581whistle": 6718,
    "rosol": 6719,
    "\u2581sketch": 6720,
    "\u2581daylight": 6721,
    "\u2581greenery": 6722,
    "\u2581confused": 6723,
    "\u2581fireplace": 6724,
    "\u2581crib": 6725,
    "\u2581lovely": 6726,
    "\u2581Femme": 6727,
    "\u2581clothesline": 6728,
    "\u2581sujet": 6729,
    "\u2581puits": 6730,
    "\u2581contrebasse": 6731,
    "apid": 6732,
    "\u2581Grouch": 6733,
    "\u2581cartoon": 6734,
    "\u2581depict": 6735,
    "\u2581Scout": 6736,
    "\u2581produire": 6737,
    "\u2581competitors": 6738,
    "\u2581gratuits": 6739,
    "\u2581SU": 6740,
    "\u2581ruins": 6741,
    "\u2581oversize": 6742,
    "\u2581extension": 6743,
    "\u2581bl": 6744,
    "\u2581gigant": 6745,
    "\u2581couture": 6746,
    "\u2581lacets": 6747,
    "\u2581deliver": 6748,
    "\u2581snake": 6749,
    "\u2581encourageant": 6750,
    "\u2581rythme": 6751,
    "ollerblades": 6752,
    "\u2581grains": 6753,
    "\u2581lessive": 6754,
    "merveill": 6755,
    "\u2581steam": 6756,
    "\u2581zoom": 6757,
    "\u2581randonneuse": 6758,
    "\u2581Met": 6759,
    "\u2581interviewed": 6760,
    "\u2581floaties": 6761,
    "\u2581Sports": 6762,
    "\u2581ruines": 6763,
    "\u2581figurines": 6764,
    "\u2581early": 6765,
    "\u2581You": 6766,
    "\u2581weave": 6767,
    "\u2581audition": 6768,
    "\u2581collide": 6769,
    "\u2581karting": 6770,
    "\u2581nine": 6771,
    "\u2581agripp": 6772,
    "\u2581flexible": 6773,
    "\u2581volunteer": 6774,
    "\u2581slab": 6775,
    "\u2581headset": 6776,
    "\u2581strawberr": 6777,
    "\u2581jack": 6778,
    "\u2581cruis": 6779,
    "\u2581struggles": 6780,
    "\u2581cutout": 6781,
    "ose": 6782,
    "licieuse": 6783,
    "\u2581courbe": 6784,
    "\u2581pleurer": 6785,
    "\u2581earrings": 6786,
    "\u2581dalles": 6787,
    "\u2581toilettes": 6788,
    "\u2581selection": 6789,
    "\u2581assorties": 6790,
    "\u2581force": 6791,
    "\u2581upper": 6792,
    "\u2581emerge": 6793,
    "\u2581fairy": 6794,
    "tan": 6795,
    "yer": 6796,
    "\u2581parachutist": 6797,
    "\u2581keys": 6798,
    "\u2581dramatic": 6799,
    "\u2581fau": 6800,
    "\u2581paysan": 6801,
    "\u2581squirt": 6802,
    "\u2581fashionabl": 6803,
    "\u2581shingles": 6804,
    "\u2581seagulls": 6805,
    "\u2581exciting": 6806,
    "\u2581inconnue": 6807,
    "\u2581cuve": 6808,
    "\u2581crowns": 6809,
    "cial": 6810,
    "\u2581served": 6811,
    "\u2581wool": 6812,
    "\u2581grave": 6813,
    "\u2581frite": 6814,
    "\u2581sprinte": 6815,
    "\u2581coolers": 6816,
    "\u2581envol": 6817,
    "\u2581entertainer": 6818,
    "\u2581breast": 6819,
    "\u2581garment": 6820,
    "\u2581trap": 6821,
    "\u2581poilu": 6822,
    "\u2581morte": 6823,
    "\u2581plow": 6824,
    "\u2581legged": 6825,
    "ayer": 6826,
    "\u2581flour": 6827,
    "\u2581ambulanc": 6828,
    "\u2581weapons": 6829,
    "\u2581perd": 6830,
    "\u2581friandises": 6831,
    "\u2581respond": 6832,
    "\u2581foam": 6833,
    "woman": 6834,
    "\u2581medal": 6835,
    "\u2581safe": 6836,
    "\u2581lama": 6837,
    "labor": 6838,
    "adresse": 6839,
    "\u2581informal": 6840,
    "\u2581marking": 6841,
    "\u2581ref": 6842,
    "\u2581barking": 6843,
    "hirtless": 6844,
    "\u2581magici": 6845,
    "paration": 6846,
    "\u2581exercices": 6847,
    "ais": 6848,
    "merge": 6849,
    "\u2581tribe": 6850,
    "eep": 6851,
    "\u2581feathers": 6852,
    "\u2581dash": 6853,
    "ucking": 6854,
    "\u2581identifi": 6855,
    "m\u00c3ames": 6856,
    "\u2581encouragent": 6857,
    "\u2581marins": 6858,
    "\u2581laveur": 6859,
    "taires": 6860,
    "\u2581tip": 6861,
    "\u2581given": 6862,
    "\u2581carried": 6863,
    "\u2581nourriss": 6864,
    "\u2581encl": 6865,
    "\u2581goats": 6866,
    "\u2581trays": 6867,
    "\u2581contemplat": 6868,
    "dimen": 6869,
    "\u2581appliqu": 6870,
    "\u2581poursui": 6871,
    "\u2581tickets": 6872,
    "\u2581lost": 6873,
    "\u2581quille": 6874,
    "\u2581toque": 6875,
    "\u2581canettes": 6876,
    "\u2581leashes": 6877,
    "pice": 6878,
    "\u2581troupe": 6879,
    "\u2581haies": 6880,
    "\u2581cheeks": 6881,
    "\u2581couette": 6882,
    "\u2581cire": 6883,
    "\u2581grin": 6884,
    "\u2581civile": 6885,
    "\u2581hu": 6886,
    "\u2581torche": 6887,
    "\u2581completed": 6888,
    "\u2581ratisse": 6889,
    "\u2581suitcases": 6890,
    "\u2581clearing": 6891,
    "\u2581recent": 6892,
    "\u2581bones": 6893,
    "\u2581ad": 6894,
    "\u2581bris": 6895,
    "\u2581botte": 6896,
    "\u2581spend": 6897,
    "\u2581sight": 6898,
    "mas": 6899,
    "\u2581engins": 6900,
    "\u2581noms": 6901,
    "ag\u00c3": 6902,
    "\u2581elephants": 6903,
    "\u2581cornes": 6904,
    "\u2581gu": 6905,
    "\u2581apples": 6906,
    "\u2581snowman": 6907,
    "\u2581smashe": 6908,
    "\u2581Che": 6909,
    "\u2581banderoles": 6910,
    "\u2581motorbikes": 6911,
    "\u2581artistiques": 6912,
    "\u2581handles": 6913,
    "ide": 6914,
    "cement": 6915,
    "\u2581solder": 6916,
    "\u2581anno": 6917,
    "\u2581fusils": 6918,
    "\u2581storefronts": 6919,
    "\u2581ombrelles": 6920,
    "\u2581horns": 6921,
    "\u2581anneau": 6922,
    "\u2581applaudi": 6923,
    "ward": 6924,
    "\u2581sodas": 6925,
    "\u2581mind": 6926,
    "\u2581taste": 6927,
    "\u2581divertiss": 6928,
    "ueuses": 6929,
    "long": 6930,
    "\u2581construct": 6931,
    "\u2581storm": 6932,
    "\u2581domin": 6933,
    "\u2581parti": 6934,
    "TE": 6935,
    "tuellement": 6936,
    "\u2581Work": 6937,
    "\u2581emball": 6938,
    "accroch": 6939,
    "tter": 6940,
    "\u2581chains": 6941,
    "\u2581flash": 6942,
    "lectrici": 6943,
    "\u2581supports": 6944,
    "taille": 6945,
    "front": 6946,
    "viron": 6947,
    "\u2581opponents": 6948,
    "\u2581auvent": 6949,
    "\u2581asphalte": 6950,
    "\u2581gosse": 6951,
    "tisserie": 6952,
    "qu\u00c3": 6953,
    "\u2581longueur": 6954,
    "\u2581pursu": 6955,
    "\u2581enlev": 6956,
    "\u2581quilt": 6957,
    "\u2581gorge": 6958,
    "ache": 6959,
    "\u2581cliente": 6960,
    "\u2581towels": 6961,
    "uck": 6962,
    "\u2581slop": 6963,
    "\u2581nun": 6964,
    "\u2581cli": 6965,
    "\u2581courtes": 6966,
    "\u2581photographing": 6967,
    "\u2581ka": 6968,
    "opsicle": 6969,
    "\u2581boutonn": 6970,
    "ador": 6971,
    "\u2581trot": 6972,
    "p\u00c3acher": 6973,
    "lender": 6974,
    "\u2581appara": 6975,
    "\u2581rollerskater": 6976,
    "\u2581rien": 6977,
    "\u2581poke": 6978,
    "titu": 6979,
    "\u2581horizontal": 6980,
    "mble": 6981,
    "\u2581patrol": 6982,
    "\u2581verticale": 6983,
    "\u2581vien": 6984,
    "\u2581congr": 6985,
    "\u2581parka": 6986,
    "lage": 6987,
    "\u2581vase": 6988,
    "uffle": 6989,
    "\u2581sheets": 6990,
    "skier": 6991,
    "\u2581adolescentes": 6992,
    "iki": 6993,
    "taire": 6994,
    "\u2581bosse": 6995,
    "\u2581posters": 6996,
    "pite": 6997,
    "\u2581Pen": 6998,
    "\u2581ob": 6999,
    "\u2581starts": 7000,
    "\u2581jug": 7001,
    "\u2581attein": 7002,
    "\u2581tam": 7003,
    "\u2581gum": 7004,
    "\u2581bel": 7005,
    "\u2581Arabi": 7006,
    "chit": 7007,
    "hree": 7008,
    "ried": 7009,
    "bble": 7010,
    "\u2581chal": 7011,
    "\u2581communique": 7012,
    "tch": 7013,
    "\u2581retriev": 7014,
    "\u2581percute": 7015,
    "\u2581pump": 7016,
    "\u2581posts": 7017,
    "\u2581east": 7018,
    "\u2581pense": 7019,
    "\u2581salade": 7020,
    "\u2581sangle": 7021,
    "\u2581Be": 7022,
    "tonnier": 7023,
    "\u2581\u0308": 7024,
    "\u2581shoote": 7025,
    "sionn": 7026,
    "\u2581em": 7027,
    "\u2581guitaristes": 7028,
    "\u2581Sma": 7029,
    "\u2581Adult": 7030,
    "\u2581wheeler": 7031,
    "\u2581derni": 7032,
    "dies": 7033,
    "tages": 7034,
    "\u2581reflect": 7035,
    "voir": 7036,
    "\u2581canon": 7037,
    "endant": 7038,
    "cteur": 7039,
    "\u2581singers": 7040,
    "esse": 7041,
    "chet": 7042,
    "tals": 7043,
    "\u2581Gr": 7044,
    "lice": 7045,
    "entourent": 7046,
    "\u2581continue": 7047,
    "urgical": 7048,
    "ck": 7049,
    "series": 7050,
    "pack": 7051,
    "ank": 7052,
    "\u2581tiss": 7053,
    "\u2581da": 7054,
    "\u2581cornet": 7055,
    "ult": 7056,
    "\u2581Ci": 7057,
    "take": 7058,
    "ris\u00c3": 7059,
    "aillant": 7060,
    "litary": 7061,
    "for": 7062,
    "ltim": 7063,
    "\u2581sci": 7064,
    "\u2581wor": 7065,
    "bord": 7066,
    "\u2581handed": 7067,
    "\u2581barbie": 7068,
    "tine": 7069,
    "\u2581deli": 7070,
    "\u2581concour": 7071,
    "runette": 7072,
    "\u2581rampes": 7073,
    "\u2581Neu": 7074,
    "\u2581defens": 7075,
    "\u2581artisan": 7076,
    "\u2581col\u00c3": 7077,
    "tam": 7078,
    "eye": 7079,
    "\u2581sprinkle": 7080,
    "\u2581chaton": 7081,
    "\u2581lan": 7082,
    "\u2581fighter": 7083,
    "\u2581butt": 7084,
    "\u2581cloths": 7085,
    "xy": 7086,
    "turne": 7087,
    "stle": 7088,
    "rowing": 7089,
    "\u2581lutt": 7090,
    "\u2581affiches": 7091,
    "py": 7092,
    "\u2581cascades": 7093,
    "\u2581floors": 7094,
    "mes": 7095,
    "\u2581fixe": 7096,
    "\u2581guitares": 7097,
    "\u2581bake": 7098,
    "\u2581Ch": 7099,
    "dding": 7100,
    "li\u00c3": 7101,
    "\u2581write": 7102,
    "\u2581scra": 7103,
    "\u2581tambourine": 7104,
    "\u2581galope": 7105,
    "\u2581imit": 7106,
    "\u2581sprinkl": 7107,
    "\u2581saying": 7108,
    "\u2581saxophones": 7109,
    "linge": 7110,
    "\u2581Sp": 7111,
    "ome": 7112,
    "act": 7113,
    "key": 7114,
    "hoe": 7115,
    "\u2581Bu": 7116,
    "iant": 7117,
    "ution": 7118,
    "\u2581vac": 7119,
    "\u2581puiss": 7120,
    "\u2581pol": 7121,
    "\u2581miss": 7122,
    "\u2581sprint": 7123,
    "ouverture": 7124,
    "\u2581assemble": 7125,
    "\u2581sirote": 7126,
    "\u2581mot": 7127,
    "\u2581symbole": 7128,
    "ul": 7129,
    "rtial": 7130,
    "esque": 7131,
    "\u2581amaz": 7132,
    "\u2581intern": 7133,
    "rou": 7134,
    "nake": 7135,
    "\u2581cabin": 7136,
    "roll": 7137,
    "nded": 7138,
    "chissante": 7139,
    "\u2581oar": 7140,
    "\u2581Pan": 7141,
    "\u2581bouch": 7142,
    "quette": 7143,
    "\u2581pistes": 7144,
    "\u2581footing": 7145,
    "\u2581gonfl": 7146,
    "gum": 7147,
    "\u2581flier": 7148,
    "iz": 7149,
    "\u2581tricote": 7150,
    "pass": 7151,
    "\u2581count": 7152,
    "Doo": 7153,
    "\u2581bark": 7154,
    "\u2581surfers": 7155,
    "lissant": 7156,
    "ite": 7157,
    "ift": 7158,
    "\u2581communicat": 7159,
    "\u2581bung": 7160,
    "\u2581holes": 7161,
    "superman": 7162,
    "\u2581skateboarders": 7163,
    "\u2581cueille": 7164,
    "mult": 7165,
    "\u2581Athlete": 7166,
    "muff": 7167,
    "rait": 7168,
    "teur": 7169,
    "lk": 7170,
    "\u2581command": 7171,
    "\u2581lie": 7172,
    "ussi": 7173,
    "\u2581cro": 7174,
    "\u2581imp": 7175,
    "action": 7176,
    "ave": 7177,
    "cier": 7178,
    "\u2581ombre": 7179,
    "rous": 7180,
    "oul": 7181,
    "\u2581tell": 7182,
    "eek": 7183,
    "rry": 7184,
    "\u2581affich": 7185,
    "termin": 7186,
    "\u2581bandage": 7187,
    "dit": 7188,
    "ots": 7189,
    "\u2581circul": 7190,
    "sus": 7191,
    "owered": 7192,
    "\u2581Care": 7193,
    "\u2581rocker": 7194,
    "\u2581chant": 7195,
    "gers": 7196,
    "nis": 7197,
    "neck": 7198,
    "\u2581dev": 7199,
    "\u2581quel": 7200,
    "file": 7201,
    "\u2581embrass": 7202,
    "\u2581curren": 7203,
    "ouvrier": 7204,
    "tiques": 7205,
    "\u2581habil": 7206,
    "\u2581sweatshirts": 7207,
    "vous": 7208,
    "immeuble": 7209,
    "ets": 7210,
    "\u2581numer": 7211,
    "sier": 7212,
    "truck": 7213,
    "\u2581hol": 7214,
    "\u2581boss": 7215,
    "\u2581costum": 7216,
    "\u2581cell": 7217,
    "ied": 7218,
    "\u2581purchas": 7219,
    "ike": 7220,
    "\u2581f\u00c3at": 7221,
    "Guitar": 7222,
    "ho": 7223,
    "aris": 7224,
    "\u2581distribu": 7225,
    "lad": 7226,
    "Bien": 7227,
    "where": 7228,
    "blade": 7229,
    "\u2581thought": 7230,
    "mission": 7231,
    "zone": 7232,
    "type": 7233,
    "escalator": 7234,
    "\u2581audit": 7235,
    "canique": 7236,
    "\u2581Y": 7237,
    "\u2581Oh": 7238,
    "tui": 7239,
    "oad": 7240,
    "observer": 7241,
    "alpiniste": 7242,
    "estomac": 7243,
    "spect": 7244,
    "last": 7245,
    "stand": 7246,
    "drawn": 7247,
    "ambulant": 7248,
    "\u2581distribue": 7249,
    "box": 7250,
    "deep": 7251,
    "mark": 7252,
    "guards": 7253,
    "\u2581lemon": 7254,
    "\u2581graduati": 7255,
    "\u2581pagaye": 7256,
    "Indien": 7257,
    "quilles": 7258,
    "\u2581burger": 7259,
    "handed": 7260,
    "ron": 7261,
    "fter": 7262,
    "\u2581fleuris": 7263,
    "capot": 7264,
    "\u2581Side": 7265,
    "llant": 7266,
    "\u2581lantern": 7267,
    "ancien": 7268,
    "\u2581sandal": 7269,
    "\u2581sl": 7270,
    "pond": 7271,
    "roule": 7272,
    "\u2581washe": 7273,
    "\u2581fit": 7274,
    "\u2581Teenage": 7275,
    "entrer": 7276,
    "rit": 7277,
    "\u2581pollu": 7278,
    "\u2581marke": 7279,
    "uz": 7280,
    "\u2581Na": 7281,
    "\u2581lunette": 7282,
    "gar": 7283,
    "\u2581officiel": 7284,
    "\u2581arr": 7285,
    "\u2581casse": 7286,
    "\u2581agriculteur": 7287,
    "\u2581instructor": 7288,
    "pplies": 7289,
    "\u2581patineuse": 7290,
    "\u2581wrist": 7291,
    "\u2581designe": 7292,
    "rmaid": 7293,
    "vis": 7294,
    "dish": 7295,
    "\u2581holiday": 7296,
    "\u2581magique": 7297,
    "\u2581pancake": 7298,
    "\u2581Garden": 7299,
    "\u2581cr\u00c3ape": 7300,
    "\u2581armure": 7301,
    "\u2581rabbit": 7302,
    "ados": 7303,
    "\u2581seagull": 7304,
    "\u2581mauve": 7305,
    "\u2581hamburger": 7306,
    "\u2581steak": 7307,
    "\u2581identique": 7308,
    "\u2581baguette": 7309,
    "\u2581mouette": 7310,
    "\u2581gymnastic": 7311,
    "\u2581tarte": 7312,
    "\u2581rub": 7313,
    "\u2581tomate": 7314,
    "acing": 7315,
    "\u2581enfon": 7316,
    "\u2581dist": 7317,
    "ssive": 7318,
    "\u2581kiddi": 7319,
    "mant": 7320,
    "\u2581mixe": 7321,
    "\u2581late": 7322,
    "images": 7323,
    "\u2581mosqu": 7324,
    "\u2581streetlight": 7325,
    "\u2581slam": 7326,
    "\u2581stocking": 7327,
    "keep": 7328,
    "\u2581vault": 7329,
    "\u2581recycl": 7330,
    "\u2581exam": 7331,
    "\u2581don": 7332,
    "glac": 7333,
    "tted": 7334,
    "\u2581promoti": 7335,
    "assi": 7336,
    "shake": 7337,
    "\u2581word": 7338,
    "\u2581artificiel": 7339,
    "rindien": 7340,
    "\u2581Bike": 7341,
    "enseigne": 7342,
    "vatrice": 7343,
    "AM": 7344,
    "tard": 7345,
    "\u2581artifici": 7346,
    "ndant": 7347,
    "\u2581occurr": 7348,
    "\u2581weld": 7349,
    "\u2581attaqu": 7350,
    "mergency": 7351,
    "xford": 7352,
    "\u2581Latin": 7353,
    "\u2581unidentifi": 7354,
    "ibbon": 7355,
    "\u2581douce": 7356,
    "\u2581enthusiast": 7357,
    "hawk": 7358,
    "\u2581Ocean": 7359,
    "olkswagen": 7360,
    "awasaki": 7361,
    "\u2581Scooby": 7362,
    "bouriff": 7363,
    "empanadas": 7364,
    "enregistrement": 7365,
    "immigration": 7366,
    "tincelles": 7367,
    "\u2581Brazil": 7368,
    "\u2581Challenge": 7369,
    "\u2581Chinois": 7370,
    "\u2581Circus": 7371,
    "\u2581Doberman": 7372,
    "\u2581Engine": 7373,
    "\u2581Heineken": 7374,
    "\u2581Individual": 7375,
    "\u2581Michigan": 7376,
    "\u2581Pokemon": 7377,
    "\u2581SWAT": 7378,
    "\u2581Samsung": 7379,
    "\u2581Seahawks": 7380,
    "\u2581YMCA": 7381,
    "\u2581Yankee": 7382,
    "\u2581accueill": 7383,
    "\u2581aircraft": 7384,
    "\u2581anorak": 7385,
    "\u2581burqa": 7386,
    "\u2581burrito": 7387,
    "\u2581cafeteria": 7388,
    "\u2581chubby": 7389,
    "\u2581convertible": 7390,
    "\u2581crutches": 7391,
    "\u2581deltaplane": 7392,
    "\u2581diaporama": 7393,
    "\u2581didgeridoo": 7394,
    "\u2581difficult": 7395,
    "\u2581domicile": 7396,
    "\u2581espresso": 7397,
    "\u2581goudron": 7398,
    "\u2581guirlande": 7399,
    "\u2581hirsute": 7400,
    "\u2581hispanic": 7401,
    "\u2581hopscotch": 7402,
    "\u2581igloo": 7403,
    "\u2581lambeaux": 7404,
    "\u2581librairie": 7405,
    "\u2581octopus": 7406,
    "\u2581palissade": 7407,
    "\u2581piggyback": 7408,
    "\u2581pineapple": 7409,
    "\u2581pluvieuse": 7410,
    "\u2581screwdriver": 7411,
    "\u2581seaweed": 7412,
    "\u2581skeleton": 7413,
    "\u2581technology": 7414,
    "\u2581teckel": 7415,
    "\u2581tortillas": 7416,
    "\u2581zigzag": 7417,
    "\u2581Chinatown": 7418,
    "\u2581Earth": 7419,
    "\u2581carrefour": 7420,
    "\u2581horloge": 7421,
    "\u2581menuisier": 7422,
    "\u2581minutieuse": 7423,
    "\u2581poverty": 7424,
    "\u2581satchel": 7425,
    "\u2581spaghetti": 7426,
    "\u2581trompettiste": 7427,
    "\u2581Hopper": 7428,
    "\u2581foundation": 7429,
    "\u2581health": 7430,
    "\u2581tourniquet": 7431,
    "pproximate": 7432,
    "\u2581David": 7433,
    "\u2581flatbed": 7434,
    "\u2581condiment": 7435,
    "\u2581difficile": 7436,
    "\u2581dominoes": 7437,
    "\u2581mailbox": 7438,
    "\u2581stairwell": 7439,
    "\u2581Airways": 7440,
    "\u2581kettle": 7441,
    "\u2581partenaire": 7442,
    "\u2581insolite": 7443,
    "\u2581paintbrush": 7444,
    "noopy": 7445,
    "\u2581embarcation": 7446,
    "\u2581charcuterie": 7447,
    "\u2581collision": 7448,
    "\u2581frustrated": 7449,
    "\u2581recherche": 7450,
    "\u2581corridor": 7451,
    "\u2581brief": 7452,
    "\u2581landmark": 7453,
    "\u2581Hiker": 7454,
    "\u2581ficelle": 7455,
    "\u2581panoramique": 7456,
    "\u2581captiv": 7457,
    "\u2581violence": 7458,
    "\u2581forgeron": 7459,
    "\u2581occupations": 7460,
    "\u2581source": 7461,
    "\u2581consider": 7462,
    "\u2581Picture": 7463,
    "\u2581swimwear": 7464,
    "\u2581motorboat": 7465,
    "\u2581napkin": 7466,
    "\u2581spectaculaire": 7467,
    "\u2581MMA": 7468,
    "\u2581cluster": 7469,
    "\u2581freestyle": 7470,
    "\u2581victim": 7471,
    "\u2581Block": 7472,
    "\u2581retrouss": 7473,
    "\u2581cuvette": 7474,
    "\u2581pieuvre": 7475,
    "\u2581James": 7476,
    "minaire": 7477,
    "\u2581megaphone": 7478,
    "\u2581pressure": 7479,
    "\u2581frolic": 7480,
    "\u2581eatery": 7481,
    "\u2581bistro": 7482,
    "\u2581Harlem": 7483,
    "\u2581mermaid": 7484,
    "\u2581studies": 7485,
    "\u2581terrace": 7486,
    "\u2581footbridge": 7487,
    "tiseur": 7488,
    "\u2581gyro": 7489,
    "\u2581llama": 7490,
    "\u2581jewelery": 7491,
    "\u2581mariachi": 7492,
    "\u2581carriole": 7493,
    "\u2581marcel": 7494,
    "\u2581Water": 7495,
    "\u2581diaper": 7496,
    "ong": 7497,
    "\u2581bookbag": 7498,
    "\u2581minivan": 7499,
    "\u2581prestation": 7500,
    "\u2581Bank": 7501,
    "\u2581notice": 7502,
    "\u2581coiffeuse": 7503,
    "\u2581raconte": 7504,
    "\u2581western": 7505,
    "\u2581phare": 7506,
    "\u2581institut": 7507,
    "\u2581memorial": 7508,
    "\u2581procession": 7509,
    "\u2581cityscape": 7510,
    "\u2581buoy": 7511,
    "\u2581miniskirt": 7512,
    "\u2581weeds": 7513,
    "\u2581farine": 7514,
    "\u2581Parade": 7515,
    "\u2581sunrise": 7516,
    "\u2581protestation": 7517,
    "\u2581spiral": 7518,
    "\u2581suspect": 7519,
    "Afrique": 7520,
    "\u2581playpen": 7521,
    "\u2581oxen": 7522,
    "\u2581bookstore": 7523,
    "\u2581View": 7524,
    "\u2581Jeep": 7525,
    "\u2581corgi": 7526,
    "\u2581bavardent": 7527,
    "\u2581Photo": 7528,
    "\u2581moquette": 7529,
    "orah": 7530,
    "abeille": 7531,
    "\u2581balconies": 7532,
    "\u2581bunker": 7533,
    "\u2581Marx": 7534,
    "\u2581stationary": 7535,
    "\u2581sunbathers": 7536,
    "\u2581workbench": 7537,
    "\u2581ginger": 7538,
    "ananas": 7539,
    "\u2581winning": 7540,
    "\u2581trek": 7541,
    "\u2581postal": 7542,
    "\u2581hurlant": 7543,
    "\u2581inhabituelle": 7544,
    "\u2581particulier": 7545,
    "\u2581knock": 7546,
    "agility": 7547,
    "enthusiastically": 7548,
    "coratif": 7549,
    "\u2581Giant": 7550,
    "\u2581diable": 7551,
    "\u2581Snowboarder": 7552,
    "\u2581drift": 7553,
    "\u2581metropoli": 7554,
    "vious": 7555,
    "\u2581skimboard": 7556,
    "\u2581paperasse": 7557,
    "ON": 7558,
    "\u2581bidon": 7559,
    "\u2581Swimmer": 7560,
    "\u2581corral": 7561,
    "\u2581dealer": 7562,
    "ssenger": 7563,
    "\u2581stalks": 7564,
    "\u2581partner": 7565,
    "\u2581Jackson": 7566,
    "endort": 7567,
    "\u2581campus": 7568,
    "\u2581coq": 7569,
    "\u2581roadwork": 7570,
    "\u2581spectate": 7571,
    "\u2581outfielder": 7572,
    "\u2581scared": 7573,
    "oller": 7574,
    "\u2581extended": 7575,
    "\u2581guidon": 7576,
    "\u2581Heal": 7577,
    "\u2581apparel": 7578,
    "\u2581Iz": 7579,
    "\u2581mesh": 7580,
    "\u2581runway": 7581,
    "\u2581slum": 7582,
    "\u2581spear": 7583,
    "\u2581violinist": 7584,
    "\u2581else": 7585,
    "\u2581boucherie": 7586,
    "fille": 7587,
    "\u2581Station": 7588,
    "nds": 7589,
    "\u2581montagneuse": 7590,
    "\u2581conduire": 7591,
    "\u2581tightly": 7592,
    "essence": 7593,
    "\u2581Fast": 7594,
    "\u2581elevator": 7595,
    "cident": 7596,
    "\u2581plaisanc": 7597,
    "\u2581entrelac": 7598,
    "\u2581curling": 7599,
    "\u2581pastries": 7600,
    "panish": 7601,
    "\u2581Petit": 7602,
    "\u2581steal": 7603,
    "\u2581guest": 7604,
    "\u2581poignard": 7605,
    "\u2581puces": 7606,
    "chauffent": 7607,
    "\u2581tuiles": 7608,
    "\u2581prizes": 7609,
    "\u2581tournoy": 7610,
    "\u2581percuter": 7611,
    "\u2581bondissant": 7612,
    "\u2581Mom": 7613,
    "\u2581Stones": 7614,
    "\u2581fosse": 7615,
    "\u2581placard": 7616,
    "\u2581Latino": 7617,
    "\u2581surgeons": 7618,
    "\u2581ceme": 7619,
    "\u2581fon": 7620,
    "\u2581manual": 7621,
    "\u2581sheepdog": 7622,
    "NE": 7623,
    "\u2581aime": 7624,
    "\u2581countertop": 7625,
    "ates": 7626,
    "\u2581overcoat": 7627,
    "\u2581mixte": 7628,
    "Carol": 7629,
    "\u2581bloom": 7630,
    "\u2581Wal": 7631,
    "\u2581bassiste": 7632,
    "\u2581gesticule": 7633,
    "\u2581roadway": 7634,
    "\u2581massage": 7635,
    "UFC": 7636,
    "\u2581known": 7637,
    "\u2581Notre": 7638,
    "\u2581humaine": 7639,
    "\u2581mock": 7640,
    "\u2581mime": 7641,
    "\u2581weathered": 7642,
    "\u2581mountainside": 7643,
    "\u2581circus": 7644,
    "\u2581hairnet": 7645,
    "\u2581archet": 7646,
    "\u2581enfonc": 7647,
    "\u2581saluer": 7648,
    "\u2581explorer": 7649,
    "\u2581\u0308tement": 7650,
    "\u2581gallon": 7651,
    "\u2581sprinting": 7652,
    "usiness": 7653,
    "\u2581tasting": 7654,
    "\u2581cot": 7655,
    "\u2581vendus": 7656,
    "fugi": 7657,
    "\u2581troops": 7658,
    "\u2581\u0308gle": 7659,
    "\u2581acrobatiques": 7660,
    "\u2581marelle": 7661,
    "\u2581sausages": 7662,
    "\u2581coconuts": 7663,
    "\u2581hips": 7664,
    "\u2581frontale": 7665,
    "\u2581shield": 7666,
    "\u2581commander": 7667,
    "\u2581communication": 7668,
    "\u2581grown": 7669,
    "\u2581Mc": 7670,
    "\u2581Diner": 7671,
    "\u2581Nouve": 7672,
    "\u2581vaporis": 7673,
    "\u2581repli": 7674,
    "Spring": 7675,
    "appartements": 7676,
    "\u2581achats": 7677,
    "\u2581snorkeling": 7678,
    "\u2581interrog": 7679,
    "rice": 7680,
    "\u2581Happy": 7681,
    "\u2581affection": 7682,
    "\u2581ustensile": 7683,
    "extr\u00c3ame": 7684,
    "\u2581discover": 7685,
    "clecti": 7686,
    "mmage": 7687,
    "\u2581loose": 7688,
    "\u2581ascenseur": 7689,
    "\u2581serpentin": 7690,
    "\u2581created": 7691,
    "\u2581lanterne": 7692,
    "\u2581ac": 7693,
    "coller": 7694,
    "\u2581available": 7695,
    "change": 7696,
    "\u2581dozen": 7697,
    "\u2581DI": 7698,
    "gume": 7699,
    "\u2581luxuriante": 7700,
    "\u2581lib\u00c3": 7701,
    "\u2581shields": 7702,
    "\u2581sponge": 7703,
    "\u2581pompes": 7704,
    "\u2581smell": 7705,
    "\u2581interest": 7706,
    "\u2581metro": 7707,
    "\u2581master": 7708,
    "\u2581aerial": 7709,
    "\u2581Light": 7710,
    "\u2581locomotives": 7711,
    "\u2581pneumatiques": 7712,
    "nergi": 7713,
    "\u2581topic": 7714,
    "\u2581ongle": 7715,
    "\u2581voyageurs": 7716,
    "\u2581interior": 7717,
    "\u2581inflated": 7718,
    "\u2581couronnes": 7719,
    "\u2581kayakers": 7720,
    "\u2581element": 7721,
    "\u2581seeds": 7722,
    "\u2581pulley": 7723,
    "roulent": 7724,
    "fait": 7725,
    "\u2581Peter": 7726,
    "\u2581comfortable": 7727,
    "\u2581jongler": 7728,
    "\u2581washed": 7729,
    "IS": 7730,
    "\u2581observers": 7731,
    "\u2581mollet": 7732,
    "balle": 7733,
    "\u2581ondul": 7734,
    "\u2581calling": 7735,
    "\u2581aube": 7736,
    "\u2581lip": 7737,
    "\u2581couturi": 7738,
    "\u2581stockings": 7739,
    "\u2581rabbits": 7740,
    "\u2581barricades": 7741,
    "\u2581mordill": 7742,
    "lac": 7743,
    "\u2581partly": 7744,
    "brant": 7745,
    "\u2581exposed": 7746,
    "\u2581chirurgicale": 7747,
    "\u2581crue": 7748,
    "\u2581ranch": 7749,
    "\u2581cooked": 7750,
    "same": 7751,
    "\u2581rideau": 7752,
    "\u2581dropped": 7753,
    "\u2581moque": 7754,
    "coltes": 7755,
    "unning": 7756,
    "\u2581extend": 7757,
    "raman": 7758,
    "tisseries": 7759,
    "\u2581contestant": 7760,
    "\u2581quick": 7761,
    "\u2581thread": 7762,
    "\u2581steers": 7763,
    "\u2581Amis": 7764,
    "\u2581flap": 7765,
    "\u2581lemons": 7766,
    "\u2581wigs": 7767,
    "\u2581oeuvres": 7768,
    "\u2581concurrents": 7769,
    "\u2581evil": 7770,
    "\u2581Bicyclists": 7771,
    "scin": 7772,
    "\u2581altitude": 7773,
    "blue": 7774,
    "\u2581idiot": 7775,
    "\u2581basement": 7776,
    "\u2581accompliss": 7777,
    "EN": 7778,
    "\u2581cows": 7779,
    "\u2581astronaut": 7780,
    "\u2581latine": 7781,
    "\u2581stride": 7782,
    "\u2581commer": 7783,
    "rmy": 7784,
    "\u2581cables": 7785,
    "\u2581esp\u00c3": 7786,
    "\u2581mortes": 7787,
    "\u2581Twister": 7788,
    "\u2581Jim": 7789,
    "\u2581Look": 7790,
    "\u2581relaxant": 7791,
    "actory": 7792,
    "\u2581orage": 7793,
    "curi": 7794,
    "\u2581pillars": 7795,
    "\u2581questions": 7796,
    "inspiration": 7797,
    "\u2581grins": 7798,
    "\u2581viewer": 7799,
    "\u2581ponce": 7800,
    "\u2581danger": 7801,
    "ney": 7802,
    "coal": 7803,
    "ashore": 7804,
    "\u2581condition": 7805,
    "\u2581sn": 7806,
    "\u2581tiges": 7807,
    "\u2581Teen": 7808,
    "\u2581Colorful": 7809,
    "\u2581shine": 7810,
    "\u2581boutons": 7811,
    "fenseurs": 7812,
    "\u2581defenders": 7813,
    "\u2581parall": 7814,
    "\u2581jongleur": 7815,
    "\u2581dalle": 7816,
    "\u2581texts": 7817,
    "\u2581Deli": 7818,
    "\u2581cler": 7819,
    "\u2581morts": 7820,
    "\u2581closer": 7821,
    "\u2581fronce": 7822,
    "envole": 7823,
    "\u2581taller": 7824,
    "\u2581hippie": 7825,
    "ass": 7826,
    "\u2581navigat": 7827,
    "\u2581sandwiches": 7828,
    "\u2581brochures": 7829,
    "\u2581clous": 7830,
    "\u2581self": 7831,
    "\u2581venir": 7832,
    "ach": 7833,
    "\u2581voient": 7834,
    "ottery": 7835,
    "exer": 7836,
    "\u2581textos": 7837,
    "\u2581perruques": 7838,
    "\u2581enregistre": 7839,
    "dalo": 7840,
    "\u2581miner": 7841,
    "\u2581desserts": 7842,
    "\u2581barricade": 7843,
    "\u2581heure": 7844,
    "\u2581Chan": 7845,
    "\u2581cheminot": 7846,
    "\u2581ram": 7847,
    "\u2581sca": 7848,
    "\u2581citrons": 7849,
    "\u2581provide": 7850,
    "\u2581Thai": 7851,
    "\u2581bongos": 7852,
    "gante": 7853,
    "\u2581douz": 7854,
    "\u2581graduate": 7855,
    "\u2581poches": 7856,
    "\u2581\u0308nement": 7857,
    "\u2581pad": 7858,
    "enfonce": 7859,
    "AH": 7860,
    "\u2581celebrates": 7861,
    "glig": 7862,
    "\u2581traditionnelles": 7863,
    "\u2581mine": 7864,
    "\u2581estomac": 7865,
    "\u2581avoi": 7866,
    "\u2581hum": 7867,
    "\u2581informations": 7868,
    "riends": 7869,
    "\u2581chickens": 7870,
    "\u2581boulders": 7871,
    "\u2581musicales": 7872,
    "\u2581boucher": 7873,
    "\u2581breakdancer": 7874,
    "\u2581prie": 7875,
    "\u2581aboie": 7876,
    "layers": 7877,
    "\u2581bearer": 7878,
    "\u2581orang": 7879,
    "\u2581mingl": 7880,
    "\u2581cordon": 7881,
    "\u2581sauvages": 7882,
    "\u2581\u0308de": 7883,
    "\u2581cabinet": 7884,
    "\u2581bagarre": 7885,
    "\u2581buff": 7886,
    "\u2581arid": 7887,
    "\u2581siding": 7888,
    "\u2581scientifiques": 7889,
    "tuck": 7890,
    "\u2581encourage": 7891,
    "\u2581artisanale": 7892,
    "\u2581fouill": 7893,
    "\u2581informatique": 7894,
    "\u2581muzzles": 7895,
    "cou": 7896,
    "\u2581sex": 7897,
    "\u2581headbands": 7898,
    "\u2581electronics": 7899,
    "rates": 7900,
    "lowly": 7901,
    "\u2581av": 7902,
    "neiger": 7903,
    "\u2581controls": 7904,
    "rette": 7905,
    "\u2581kites": 7906,
    "\u2581seeming": 7907,
    "\u2581appre": 7908,
    "du": 7909,
    "ndex": 7910,
    "gr\u00c3": 7911,
    "sage": 7912,
    "\u2581surroundings": 7913,
    "ker": 7914,
    "raw": 7915,
    "\u2581tendu": 7916,
    "mong": 7917,
    "\u2581sais": 7918,
    "\u2581rad": 7919,
    "\u2581rin": 7920,
    "\u2581rounds": 7921,
    "ordinateurs": 7922,
    "\u2581lesquel": 7923,
    "\u2581principal": 7924,
    "\u2581voil": 7925,
    "\u2581Teenager": 7926,
    "jeunent": 7927,
    "\u2581skinn": 7928,
    "\u2581guitarists": 7929,
    "\u2581sec": 7930,
    "\u2581Johns": 7931,
    "\u2581automatiques": 7932,
    "IN": 7933,
    "bu": 7934,
    "\u2581walker": 7935,
    "\u2581grises": 7936,
    "ntr\u00c3": 7937,
    "piqueur": 7938,
    "aid": 7939,
    "\u2581traineau": 7940,
    "\u2581hooping": 7941,
    "\u2581Hand": 7942,
    "appr\u00c3ata": 7943,
    "\u2581sweaters": 7944,
    "\u2581Centr": 7945,
    "\u2581grooms": 7946,
    "\u2581Ne": 7947,
    "xcited": 7948,
    "\u2581soin": 7949,
    "\u2581shapes": 7950,
    "\u2581renvo": 7951,
    "\u2581pratiqu": 7952,
    "\u2581coude": 7953,
    "over": 7954,
    "tranges": 7955,
    "\u2581indig": 7956,
    "\u2581films": 7957,
    "\u2581circuits": 7958,
    "taught": 7959,
    "\u2581arriv": 7960,
    "\u2581halt": 7961,
    "racas": 7962,
    "\u2581impressi": 7963,
    "\u2581Nav": 7964,
    "\u2581cre": 7965,
    "\u2581trottinettes": 7966,
    "\u2581atterrissa": 7967,
    "abst": 7968,
    "\u2581soil": 7969,
    "\u2581demonstrate": 7970,
    "\u2581react": 7971,
    "\u2581comprend": 7972,
    "\u2581parts": 7973,
    "falls": 7974,
    "\u2581nettoy": 7975,
    "\u2581mount": 7976,
    "\u2581ivre": 7977,
    "\u2581affa": 7978,
    "arathon": 7979,
    "\u2581carr": 7980,
    "\u2581copie": 7981,
    "\u2581rambardes": 7982,
    "builder": 7983,
    "eignent": 7984,
    "implement": 7985,
    "\u2581arbitres": 7986,
    "\u2581bullet": 7987,
    "\u2581mats": 7988,
    "\u2581pairs": 7989,
    "\u2581pant": 7990,
    "\u2581spill": 7991,
    "\u2581challenge": 7992,
    "umping": 7993,
    "\u2581loade": 7994,
    "eam": 7995,
    "\u2581mesur": 7996,
    "ttes": 7997,
    "\u2581clairs": 7998,
    "tt": 7999,
    "teen": 8000,
    "\u2581pitchers": 8001,
    "\u2581Pap": 8002,
    "ple": 8003,
    "assure": 8004,
    "\u2581peach": 8005,
    "own": 8006,
    "\u2581tread": 8007,
    "\u2581croque": 8008,
    "\u2581battu": 8009,
    "point": 8010,
    "cur": 8011,
    "\u2581trott": 8012,
    "IG": 8013,
    "\u2581cueill": 8014,
    "\u2581canine": 8015,
    "ham": 8016,
    "\u2581ampli": 8017,
    "\u2581saxophoniste": 8018,
    "\u2581San": 8019,
    "\u2581Ski": 8020,
    "clat": 8021,
    "\u2581squares": 8022,
    "\u2581classeur": 8023,
    "soin": 8024,
    "reyhound": 8025,
    "well": 8026,
    "boyant": 8027,
    "langer": 8028,
    "\u2581peintes": 8029,
    "overalls": 8030,
    "ignot": 8031,
    "\u2581accompani": 8032,
    "temporary": 8033,
    "\u2581mates": 8034,
    "installe": 8035,
    "\u2581balcons": 8036,
    "ider": 8037,
    "regnant": 8038,
    "prints": 8039,
    "\u2581roul": 8040,
    "\u2581came": 8041,
    "potted": 8042,
    "\u2581statu": 8043,
    "\u2581prints": 8044,
    "\u2581buck": 8045,
    "ingham": 8046,
    "imate": 8047,
    "appare": 8048,
    "\u2581Wo": 8049,
    "\u2581moue": 8050,
    "\u2581chart": 8051,
    "\u2581add": 8052,
    "\u2581daughters": 8053,
    "\u2581mill": 8054,
    "ign": 8055,
    "immer": 8056,
    "ouvre": 8057,
    "ignent": 8058,
    "oussant": 8059,
    "\u2581poids": 8060,
    "essaye": 8061,
    "ortant": 8062,
    "coli": 8063,
    "aise": 8064,
    "water": 8065,
    "\u2581Mon": 8066,
    "\u2581veil": 8067,
    "\u2581paon": 8068,
    "uor": 8069,
    "\u2581dirai": 8070,
    "\u2581rear": 8071,
    "\u2581scar": 8072,
    "seen": 8073,
    "\u2581chinoise": 8074,
    "powered": 8075,
    "\u2581bur": 8076,
    "tonni": 8077,
    "\u2581pointu": 8078,
    "ropped": 8079,
    "rning": 8080,
    "\u2581ties": 8081,
    "atif": 8082,
    "table": 8083,
    "\u2581anniversaire": 8084,
    "\u2581Itali": 8085,
    "bo": 8086,
    "\u2581gravi": 8087,
    "\u2581photographers": 8088,
    "\u2581appearing": 8089,
    "\u2581Divers": 8090,
    "\u2581insecte": 8091,
    "examiner": 8092,
    "quet": 8093,
    "\u2581crashe": 8094,
    "\u2581patiente": 8095,
    "\u2581cale": 8096,
    "daille": 8097,
    "\u2581escalators": 8098,
    "\u2581sirot": 8099,
    "\u2581Cal": 8100,
    "\u2581spare": 8101,
    "anges": 8102,
    "na": 8103,
    "\u2581supervise": 8104,
    "\u2581ways": 8105,
    "\u2581rode": 8106,
    "alais": 8107,
    "\u2581perc": 8108,
    "\u2581cravates": 8109,
    "bic": 8110,
    "lling": 8111,
    "\u2581hom": 8112,
    "ements": 8113,
    "iment": 8114,
    "\u2581viv": 8115,
    "antes": 8116,
    "ise": 8117,
    "exprime": 8118,
    "\u2581reli": 8119,
    "once": 8120,
    "\u2581Fin": 8121,
    "ground": 8122,
    "EL": 8123,
    "\u2581Lad": 8124,
    "tout": 8125,
    "\u2581real": 8126,
    "\u2581agita": 8127,
    "ables": 8128,
    "vite": 8129,
    "ley": 8130,
    "\u2581positionne": 8131,
    "\u2581leader": 8132,
    "\u2581pein": 8133,
    "\u2581Ha": 8134,
    "choir": 8135,
    "\u2581adventur": 8136,
    "\u2581sticker": 8137,
    "\u2581pounc": 8138,
    "vel": 8139,
    "vie": 8140,
    "\u2581operat": 8141,
    "usement": 8142,
    "\u2581pace": 8143,
    "frog": 8144,
    "\u2581Har": 8145,
    "\u2581expli": 8146,
    "nches": 8147,
    "ultim": 8148,
    "ering": 8149,
    "nch\u00c3": 8150,
    "care": 8151,
    "eva": 8152,
    "\u2581scri": 8153,
    "mar": 8154,
    "ain": 8155,
    "ouvri": 8156,
    "\u2581insect": 8157,
    "lime": 8158,
    "\u2581ladders": 8159,
[...]
