{
  "src_word2id": {
    "<pad>": 0,
    "<s>": 1,
    "</s>": 2,
    "<unk>": 3,
    "<en>": 4,
    "<fr>": 5,
    ".": 6,
    "\u2581a": 7,
    "\u2581Un": 8,
    "\u2581A": 9,
    "\u2581un": 10,
    "'": 11,
    "\u2581in": 12,
    "\u2581": 13,
    "\u2581de": 14,
    "\u2581une": 15,
    "\u2581the": 16,
    "\u2581en": 17,
    "s": 18,
    "e": 19,
    ",": 20,
    "\u2581d": 21,
    "\u2581on": 22,
    "\u2581dans": 23,
    "\u2581sur": 24,
    "\u2581homme": 25,
    "\u2581is": 26,
    "\u2581et": 27,
    "\u2581man": 28,
    "\u2581and": 29,
    "\u2581avec": 30,
    "\u2581of": 31,
    "\u2581with": 32,
    "\u2581des": 33,
    "\u2581la": 34,
    "\u00e0": 35,
    "ing": 36,
    "-": 37,
    "un": 38,
    "\u2581femme": 39,
    "\u2581l": 40,
    "\u2581woman": 41,
    "\u2581are": 42,
    "\u2581le": 43,
    "\u2581to": 44,
    "\u2581est": 45,
    "\u2581Two": 46,
    "ant": 47,
    "\u2581at": 48,
    "une": 49,
    "\u2581wearing": 50,
    "\u2581people": 51,
    "ux": 52,
    "\u2581white": 53,
    "\u2581se": 54,
    "\u2581shirt": 55,
    "\u2581young": 56,
    "\u2581t": 57,
    "\u2581De": 58,
    "\u2581debout": 59,
    "\u2581black": 60,
    "\u2581his": 61,
    "\u2581personnes": 62,
    "\u2581sont": 63,
    "\u2581while": 64,
    "\u2581an": 65,
    "\u2581blue": 66,
    "\u2581jeune": 67,
    "\u2581devant": 68,
    "\u2581fille": 69,
    "\u2581au": 70,
    "\u2581red": 71,
    "\u2581sitting": 72,
    "\u2581du": 73,
    "\u2581assis": 74,
    "\u2581gar\u00e7on": 75,
    "\u2581girl": 76,
    "\u2581groupe": 77,
    "\u2581dog": 78,
    "\u2581chien": 79,
    "\u2581T": 80,
    "\u2581boy": 81,
    "\u2581men": 82,
    "\u2581standing": 83,
    "\u2581Des": 84,
    "shirt": 85,
    "\u2581playing": 86,
    "\u2581hommes": 87,
    "\u2581son": 88,
    "\u2581group": 89,
    "is": 90,
    "\u2581rue": 91,
    "\u2581rouge": 92,
    "\u2581street": 93,
    "eux": 94,
    "\u2581les": 95,
    "\u2581qu": 96,
    "\u2581down": 97,
    "\u2581noir": 98,
    "\u2581walking": 99,
    "\u2581D": 100,
    "\u2581pour": 101,
    "\u2581blanc": 102,
    "portant": 103,
    "\u2581front": 104,
    "\u2581train": 105,
    "\u2581her": 106,
    "\u2581holding": 107,
    "nt": 108,
    "andis": 109,
    "\u2581gens": 110,
    "\u2581water": 111,
    "\u2581bleu": 112,
    "\u2581The": 113,
    "ed": 114,
    "\u2581by": 115,
    "\u2581fait": 116,
    "eau": 117,
    "\u2581par": 118,
    "\u2581petit": 119,
    "\u2581femmes": 120,
    "\u2581sa": 121,
    "\u2581table": 122,
    "\u2581enfant": 123,
    "\u2581qui": 124,
    "\u2581for": 125,
    "\u2581up": 126,
    "\u2581orange": 127,
    "\u2581green": 128,
    "\u2581women": 129,
    "\u2581s": 130,
    "\u2581c\u00f4t\u00e9": 131,
    "\u2581tient": 132,
    "\u2581An": 133,
    "\u2581regarde": 134,
    "\u2581outside": 135,
    "\u2581child": 136,
    "d": 137,
    "\u2581Thre": 138,
    "\u2581deux": 139,
    "\u2581que": 140,
    "\u2581large": 141,
    "\u2581little": 142,
    "\u2581enfants": 143,
    "looking": 144,
    "\u2581one": 145,
    "ir": 146,
    "\u2581joue": 147,
    "\u2581through": 148,
    "y": 149,
    "\u2581photo": 150,
    "\u2581pr\u00e8s": 151,
    "\u2581brown": 152,
    "\u2581yellow": 153,
    "\u2581personne": 154,
    "\u2581two": 155,
    "\u2581v\u00eatu": 156,
    "\u2581ball": 157,
    "\u2581jouant": 158,
    "\u2581hat": 159,
    "\u2581from": 160,
    "\u2581look": 161,
    "\u2581person": 162,
    "\u2581over": 163,
    "\u2581jaune": 164,
    "\u2581chemise": 165,
    "\u2581children": 166,
    "\u2581other": 167,
    "\u2581Le": 168,
    "\u2581next": 169,
    "\u2581v\u00e9lo": 170,
    "\u2581small": 171,
    "\u2581jeunes": 172,
    "\u2581dressed": 173,
    "\u2581football": 174,
    "\u2581out": 175,
    "\u2581Tro": 176,
    "\u2581as": 177,
    "\u2581jouent": 178,
    "\u2581petite": 179,
    "es": 180,
    "\u2581building": 181,
    "\u2581regardant": 182,
    "\u2581long": 183,
    "\u2581lors": 184,
    "\u2581tout": 185,
    "\u2581dehors": 186,
    "\u2581marche": 187,
    "\u2581b\u00e2timent": 188,
    "\u2581porte": 189,
    "\u2581blanche": 190,
    "\u2581riding": 191,
    "\u2581running": 192,
    "\u2581lunettes": 193,
    "\u2581near": 194,
    "\u2581People": 195,
    "\u2581stand": 196,
    "\u2581tand": 197,
    "\u2581jacket": 198,
    "\u2581veste": 199,
    "\u2581be": 200,
    "\u2581couple": 201,
    "air": 202,
    "\u2581another": 203,
    "\u2581around": 204,
    "\u2581trottoir": 205,
    "\u2581court": 206,
    "r": 207,
    "\u2581saute": 208,
    "\u2581some": 209,
    "\u2581assise": 210,
    "\u2581regardent": 211,
    "\u2581air": 212,
    "\u2581field": 213,
    "\u2581beach": 214,
    "\u2581cheveux": 215,
    "\u2581sidewalk": 216,
    "t": 217,
    "\u2581foule": 218,
    "\u2581autre": 219,
    "\u2581ses": 220,
    "\u2581Man": 221,
    "\u2581arri\u00e8re": 222,
    "\u2581vert": 223,
    "\u2581crowd": 224,
    "\u2581marchant": 225,
    "\u2581derri\u00e8re": 226,
    "\u2581plage": 227,
    "ent": 228,
    "\u2581stands": 229,
    "\u2581pink": 230,
    "\u2581bleue": 231,
    "\u2581snow": 232,
    "\u2581jumping": 233,
    "\u2581behind": 234,
    "\u2581sits": 235,
    "\u2581face": 236,
    "\u2581grass": 237,
    "\u2581main": 238,
    "\u2581blond": 239,
    "\u2581neige": 240,
    "ly": 241,
    "\u2581ballon": 242,
    "\u2581background": 243,
    "into": 244,
    "plan": 245,
    "\u2581grand": 246,
    "\u2581quelque": 247,
    "\u2581rose": 248,
    "\u2581bike": 249,
    "\u2581girls": 250,
    "\u2581chose": 251,
    "il": 252,
    "re": 253,
    "\u2581brun": 254,
    "\u2581city": 255,
    "\u2581player": 256,
    "\u2581park": 257,
    "\u2581tenue": 258,
    "\u2581vers": 259,
    "dessus": 260,
    "\u2581fais": 261,
    "herbe": 262,
    "\u2581top": 263,
    "\u2581wall": 264,
    "\u2581off": 265,
    "\u2581filles": 266,
    "\u2581marchent": 267,
    "\u2581L": 268,
    "u": 269,
    "\u2581that": 270,
    "\u2581chapeau": 271,
    "\u2581robe": 272,
    "\u2581tennis": 273,
    "\u2581sous": 274,
    "\u2581dress": 275,
    "\u2581camera": 276,
    "\u2581mur": 277,
    "\u2581baseball": 278,
    "\u2581course": 279,
    "\u2581chiens": 280,
    "sieurs": 281,
    "er": 282,
    "\u2581costume": 283,
    "\u2581ville": 284,
    "\u2581dogs": 285,
    "\u2581restaurant": 286,
    "\u2581hold": 287,
    "\u2581short": 288,
    "\u2581talking": 289,
    "\u2581play": 290,
    "\u2581something": 291,
    "\u2581autour": 292,
    "\u2581skateboard": 293,
    "\u2581guitar": 294,
    "\u2581noire": 295,
    "\u2581older": 296,
    "\u2581hand": 297,
    "\u2581soleil": 298,
    "\u2581along": 299,
    "\u2581walks": 300,
    "\u2581soccer": 301,
    "\u2581hair": 302,
    "\u2581font": 303,
    "\u2581food": 304,
    "to": 305,
    "\u2581lady": 306,
    "\u2581together": 307,
    "\u2581balle": 308,
    "\u2581ten": 309,
    "\u2581working": 310,
    "\u2581guitare": 311,
    "\u2581parc": 312,
    "\u2581car": 313,
    "autre": 314,
    "\"": 315,
    "\u2581sac": 316,
    "\u2581gray": 317,
    "\u2581match": 318,
    "\u2581bois": 319,
    "\u2581smiling": 320,
    "\u2581game": 321,
    "\u2581picture": 322,
    "\u2581gar\u00e7ons": 323,
    "\u2581has": 324,
    "\u2581assises": 325,
    "\u2581boys": 326,
    "\u2581marron": 327,
    "\u2581ensemble": 328,
    "\u2581sc\u00e8ne": 329,
    "\u2581\"": 330,
    "\u2581shorts": 331,
    "\u2581Asian": 332,
    "\u2581plays": 333,
    "\u2581terrain": 334,
    "\u2581terre": 335,
    "\u2581jean": 336,
    "\u2581walk": 337,
    "\u2581joueur": 338,
    "\u2581sit": 339,
    "\u2581Four": 340,
    "\u2581banc": 341,
    "\u2581maillot": 342,
    "\u2581gars": 343,
    "\u2581him": 344,
    "enant": 345,
    "\u2581road": 346,
    "\u2581haut": 347,
    "\u2581Quat": 348,
    "\u2581bench": 349,
    "\u2581leur": 350,
    "\u2581pants": 351,
    "\u2581glasses": 352,
    "\u2581stage": 353,
    "\u2581rock": 354,
    "\u2581asiatique": 355,
    "n": 356,
    "\u2581v\u00eatue": 357,
    "\u2581dirt": 358,
    "\u2581carry": 359,
    "\u2581lui": 360,
    "\u2581head": 361,
    "\u2581Pl": 362,
    "\u2581it": 363,
    "\u2581them": 364,
    "\u2581pantalon": 365,
    "\u2581baby": 366,
    "\u2581bicycle": 367,
    "\u2581La": 368,
    "\u2581bus": 369,
    "\u2581voiture": 370,
    "\u2581tree": 371,
    "\u2581gris": 372,
    "\u2581t\u00eate": 373,
    "\u2581C": 374,
    "\u2581side": 375,
    "veral": 376,
    "\u2581bord": 377,
    "\u2581casque": 378,
    "\u2581tr\u00e8s": 379,
    "\u2581pose": 380,
    "\u2581jeans": 381,
    "\u2581pool": 382,
    "\u2581race": 383,
    "\u2581old": 384,
    "\u2581casquette": 385,
    "each": 386,
    "\u2581dos": 387,
    "\u2581route": 388,
    "\u2581verte": 389,
    "\u2581back": 390,
    "\u2581doing": 391,
    "leurs": 392,
    "\u2581b\u00e9b\u00e9": 393,
    "\u2581cheval": 394,
    "\u2581pull": 395,
    "autres": 396,
    "\u2581watching": 397,
    "\u2581dark": 398,
    "\u2581grande": 399,
    "elle": 400,
    "\u2581y": 401,
    "\u2581male": 402,
    "\u2581middle": 403,
    "\u2581v\u00eatements": 404,
    "\u2581gros": 405,
    "\u2581trois": 406,
    "\u2581boat": 407,
    "st": 408,
    "\u2581t\u00e9l\u00e9phone": 409,
    "\u2581area": 410,
    "\u2581bateau": 411,
    "\u2581who": 412,
    "rois": 413,
    "\u2581jumps": 414,
    "\u2581suit": 415,
    "\u2581sautant": 416,
    "\u2581magasin": 417,
    "\u2581hands": 418,
    "\u2581pendant": 419,
    "\u2581piscine": 420,
    "\u2581ground": 421,
    "\u2581sand": 422,
    "\u2581sol": 423,
    "\u2581room": 424,
    "\u2581day": 425,
    "\u2581sable": 426,
    "\u2581nourriture": 427,
    "\u2581champ": 428,
    "\u2581performing": 429,
    "\u2581lit": 430,
    "\u2581female": 431,
    "\u2581prend": 432,
    "\u2581eating": 433,
    "\u2581milieu": 434,
    "\u2581guy": 435,
    "\u2581courant": 436,
    "\u2581rouges": 437,
    "\u2581sign": 438,
    "\u2581coat": 439,
    "\u2581Il": 440,
    "homme": 441,
    "a": 442,
    "\u2581construction": 443,
    "\u2581using": 444,
    "\u2581band": 445,
    "\u2581horse": 446,
    "\u2581sweat": 447,
    "\u2581under": 448,
    "\u2581mouth": 449,
    "\u2581watch": 450,
    "\u2581go": 451,
    "\u2581striped": 452,
    "\u2581microphone": 453,
    "\u2581store": 454,
    "\u2581f": 455,
    "\u2581purple": 456,
    "\u2581faire": 457,
    "\u2581parle": 458,
    "\u2581manteau": 459,
    "haired": 460,
    "l": 461,
    "\u2581passe": 462,
    "\u2581On": 463,
    "\u2581basketball": 464,
    "\u2581he": 465,
    "\u2581toward": 466,
    "\u2581contre": 467,
    "\u2581bras": 468,
    "\u2581S": 469,
    "\u2581gilet": 470,
    "\u2581enjoy": 471,
    "\u2581runs": 472,
    "\u2581public": 473,
    "\u2581Young": 474,
    "\u2581mountain": 475,
    "\u2581machine": 476,
    "\u2581journ\u00e9e": 477,
    "\u2581uniform": 478,
    "\u2581sunglasses": 479,
    "\u2581reading": 480,
    "ment": 481,
    "\u2581visage": 482,
    "\u2581\u00e2g\u00e9": 483,
    "\u2581three": 484,
    "\u2581clothing": 485,
    "\u2581blonde": 486,
    "\u2581bar": 487,
    "\u2581vieil": 488,
    "\u2581souriant": 489,
    "\u2581line": 490,
    "\u2581courent": 491,
    "\u2581There": 492,
    "\u2581noirs": 493,
    "\u2581players": 494,
    "\u2581hockey": 495,
    "\u2581travers": 496,
    "\u2581toy": 497,
    "\u2581ocean": 498,
    "\u2581tente": 499,
    "\u2581blancs": 500,
    "\u2581past": 501,
    "\u2581helmet": 502,
    "\u2581portable": 503,
    "\u2581watches": 504,
    "\u2581micro": 505,
    "\u2581Se": 506,
    "\u2581moto": 507,
    "\u2581its": 508,
    "\u2581climbing": 509,
    "\u2581kids": 510,
    "\u2581salle": 511,
    "\u2581work": 512,
    "\u2581sourit": 513,
    "\u2581again": 514,
    "\u2581window": 515,
    "\u2581or": 516,
    "\u2581elder": 517,
    "ve": 518,
    "\u2581arbre": 519,
    "\u2581dancing": 520,
    "\u2581show": 521,
    "\u2581basket": 522,
    "\u2581team": 523,
    "\u2581chemin": 524,
    "\u2581montagne": 525,
    "oc\u00e9an": 526,
    "\u2581chair": 527,
    "\u2581rides": 528,
    "\u2581throw": 529,
    "across": 530,
    "\u2581piste": 531,
    "\u2581mains": 532,
    "\u2581costumes": 533,
    "\u2581wooden": 534,
    "\u2581posing": 535,
    "\u2581outdoor": 536,
    "\u2581plus": 537,
    "\u2581fleurs": 538,
    "\u2581catch": 539,
    "\u2581about": 540,
    "\u2581trees": 541,
    "\u2581figure": 542,
    "\u2581jeu": 543,
    "\u2581statue": 544,
    "\u2581cuisine": 545,
    "\u2581travaille": 546,
    "\u2581covered": 547,
    "\u2581plein": 548,
    "\u2581o": 549,
    "\u2581floor": 550,
    "\u2581all": 551,
    "\u2581waiting": 552,
    "\u2581\u00e2g\u00e9e": 553,
    "\u2581swimming": 554,
    "\u2581jump": 555,
    "\u2581march\u00e9": 556,
    "\u2581bain": 557,
    "\u2581apr\u00e8s": 558,
    "\u2581bag": 559,
    "\u2581very": 560,
    "\u2581workers": 561,
    "\u2581autres": 562,
    "\u2581nu": 563,
    "\u2581tan": 564,
    "\u2581ice": 565,
    "\u2581cap": 566,
    "\u2581colorful": 567,
    "\u2581busy": 568,
    "al": 569,
    "\u2581fence": 570,
    "\u2581instruments": 571,
    "\u00e9": 572,
    "ext\u00e9rieur": 573,
    "\u2581parlant": 574,
    "\u2581singing": 575,
    "\u2581hav": 576,
    "\u2581Woman": 577,
    "en": 578,
    "on": 579,
    "\u2581get": 580,
    "\u2581habill\u00e9": 581,
    "\u2581high": 582,
    "\u2581truck": 583,
    "\u2581hill": 584,
    "\u00eatre": 585,
    "\u2581pren": 586,
    "\u2581base": 587,
    "\u2581plan": 588,
    "\u2581tenues": 589,
    "\u2581bas": 590,
    "\u2581cart": 591,
    "\u2581torse": 592,
    "\u2581utilise": 593,
    "hommes": 594,
    "\u2581jouer": 595,
    "\u2581ray\u00e9": 596,
    "\u2581nuit": 597,
    "\u2581open": 598,
    "\u2581camion": 599,
    "\u2581book": 600,
    "\u2581travaillant": 601,
    "\u2581livre": 602,
    "\u2581ski": 603,
    "\u2581v\u00eatus": 604,
    "\u2581ride": 605,
    "\u2581Men": 606,
    "\u2581jouet": 607,
    "\u2581point": 608,
    "\u2581joueurs": 609,
    "\u2581bright": 610,
    "\u2581planche": 611,
    "\u2581laying": 612,
    "\u2581beard": 613,
    "\u2581d\u00e9bardeur": 614,
    "\u2581cellphone": 615,
    "\u2581path": 616,
    "\u2581kitchen": 617,
    "\u2581market": 618,
    "\u2581inside": 619,
    "\u2581light": 620,
    "\u2581Seve": 621,
    "\u2581beige": 622,
    "\u2581structure": 623,
    "\u2581rampe": 624,
    "\u2581making": 625,
    "\u2581grassy": 626,
    "\u2581ou": 627,
    "\u2581polo": 628,
    "\u2581stick": 629,
    "\u2581pi\u00e8ce": 630,
    "\u2581brick": 631,
    "\u2581gueule": 632,
    "\u2581track": 633,
    "\u2581semble": 634,
    "\u2581clothes": 635,
    "\u2581big": 636,
    "\u2581pr\u00e9pare": 637,
    "\u2581place": 638,
    "\u2581umbrella": 639,
    "\u2581outfit": 640,
    "\u2581tak": 641,
    "\u2581metal": 642,
    "\u2581travaillent": 643,
    "\u2581hats": 644,
    "\u2581body": 645,
    "enfants": 646,
    "\u2581violet": 647,
    "\u2581motorcycle": 648,
    "\u2581others": 649,
    "\u2581rivi\u00e8re": 650,
    "\u2581perform": 651,
    "\u2581swing": 652,
    "\u2581concert": 653,
    "\u2581takes": 654,
    "\u2581full": 655,
    "\u2581rocher": 656,
    "\u2581night": 657,
    "\u2581shirts": 658,
    "\u2581musique": 659,
    "\u2581ouvriers": 660,
    "\u2581am\u00e9ricain": 661,
    "\u2581paper": 662,
    "\u2581cigarette": 663,
    "\u2581river": 664,
    "\u2581ready": 665,
    "\u2581lean": 666,
    "\u2581fen\u00eatre": 667,
    "\u2581instrument": 668,
    "\u2581p": 669,
    "nent": 670,
    "\u2581cycliste": 671,
    "\u2581montre": 672,
    "colored": 673,
    "\u2581blanches": 674,
    "\u2581maison": 675,
    "\u2581tire": 676,
    "\u2581chaise": 677,
    "\u2581pierre": 678,
    "\u2581police": 679,
    "\u2581tank": 680,
    "\u2581she": 681,
    "ils": 682,
    "\u2581trouve": 683,
    "uring": 684,
    "\u2581spectateurs": 685,
    "\u2581pont": 686,
    "\u2581bleus": 687,
    "\u2581sweater": 688,
    "\u2581hard": 689,
    "coup": 690,
    "\u2581foot": 691,
    "\u2581shop": 692,
    "\u2581shopping": 693,
    "\u2581piece": 694,
    "\u2581dessus": 695,
    "\u2581bowling": 696,
    "ne": 697,
    "ral": 698,
    "\u2581lac": 699,
    "\u2581trick": 700,
    "\u2581cl\u00f4ture": 701,
    "\u2581push": 702,
    "\u2581painting": 703,
    "\u2581lake": 704,
    "\u2581chante": 705,
    "inq": 706,
    "\u2581appareil": 707,
    "\u2581plu": 708,
    "it": 709,
    "\u2581vend": 710,
    "\u2581bonnet": 711,
    "\u2581above": 712,
    "\u2581pelouse": 713,
    "\u2581surround": 714,
    "\u2581dance": 715,
    "\u2581corde": 716,
    "\u2581volleyball": 717,
    "\u2581entre": 718,
    "\u2581run": 719,
    "\u2581vest": 720,
    "\u2581f\u00eate": 721,
    "objectif": 722,
    "\u2581tie": 723,
    "\u2581stone": 724,
    "\u2581wave": 725,
    "\u2581\u00e9quipe": 726,
    "\u2581zone": 727,
    "\u2581sport": 728,
    "\u2581station": 729,
    "\u2581snowy": 730,
    "\u2581marches": 731,
    "\u2581lot": 732,
    "\u2581balan\u00e7oire": 733,
    "\u2581combinaison": 734,
    "aking": 735,
    "\u2581music": 736,
    "\u2581beside": 737,
    "\u2581backpack": 738,
    "\u2581worker": 739,
    "\u2581board": 740,
    "\u2581Th": 741,
    "\u2581coup": 742,
    "\u2581just": 743,
    "\u2581glace": 744,
    "\u2581uniforms": 745,
    "\u2581vague": 746,
    "\u2581objet": 747,
    "\u2581pole": 748,
    "rying": 749,
    "\u2581manger": 750,
    "\u2581allong\u00e9": 751,
    "\u2581crowded": 752,
    "\u2581smiles": 753,
    "\u2581m\u00e9tro": 754,
    "\u2581many": 755,
    "\u2581house": 756,
    "shirts": 757,
    "\u2581posent": 758,
    "\u2581adultes": 759,
    "\u2581b": 760,
    "\u2581bikini": 761,
    "\u2581chariot": 762,
    "\u2581conversation": 763,
    "\u2581toddler": 764,
    "\u2581gear": 765,
    "\u2581outdoors": 766,
    "\u2581Fi": 767,
    "\u2581traverse": 768,
    "\u2581frisbee": 769,
    "\u2581graffiti": 770,
    "\u2581adults": 771,
    "\u2581four": 772,
    "le": 773,
    "\u2581drinking": 774,
    "ball": 775,
    "\u2581parking": 776,
    "\u2581couleur": 777,
    "\u2581kid": 778,
    "\u2581arm": 779,
    "\u2581phone": 780,
    "mi": 781,
    "in": 782,
    "\u2581regarder": 783,
    "\u2581famille": 784,
    "\u2581b\u00e2ton": 785,
    "int\u00e9rieur": 786,
    "\u2581fruits": 787,
    "\u2581kick": 788,
    "\u2581tena": 789,
    "\u2581saut": 790,
    "\u2581sacs": 791,
    "\u2581for\u00eat": 792,
    "\u2581cowboy": 793,
    "\u2581sort": 794,
    "\u2581oranges": 795,
    "\u2581parlent": 796,
    "\u2581quai": 797,
    "\u2581gathered": 798,
    "\u2581briques": 799,
    "ur": 800,
    "\u2581pieds": 801,
    "\u2581event": 802,
    "\u2581photos": 803,
    "\u2581hanging": 804,
    "\u2581chaussures": 805,
    "hair": 806,
    "\u2581attend": 807,
    "\u2581subway": 808,
    "\u2581bridge": 809,
    "\u2581African": 810,
    "\u2581colline": 811,
    "\u2581P": 812,
    "\u2581arbres": 813,
    "ch": 814,
    "\u2581family": 815,
    "\u2581arms": 816,
    "\u2581elle": 817,
    "\u2581flowers": 818,
    "\u2581verre": 819,
    "\u2581fire": 820,
    "\u2581preparing": 821,
    "\u2581object": 822,
    "\u2581g": 823,
    "\u2581passent": 824,
    "\u2581peint": 825,
    "\u2581away": 826,
    "\u2581sorte": 827,
    "\u2581rope": 828,
    "\u2581set": 829,
    "\u2581attempt": 830,
    "\u2581carreaux": 831,
    "\u2581sleeping": 832,
    "\u2581fontaine": 833,
    "\u2581prendre": 834,
    "\u2581steps": 835,
    "\u2581utilis": 836,
    "\u2581forest": 837,
    "aisant": 838,
    "\u2581like": 839,
    "\u2581take": 840,
    "\u2581habill\u00e9e": 841,
    "\u2581cow": 842,
    "\u2581fountain": 843,
    "\u2581canap\u00e9": 844,
    "\u2581after": 845,
    "\u2581vieux": 846,
    "\u2581does": 847,
    "\u2581grill": 848,
    "\u2581fishing": 849,
    "te": 850,
    "\u2581ce": 851,
    "\u2581adult": 852,
    "\u2581Children": 853,
    "\u2581parade": 854,
    "\u2581surf": 855,
    "\u2581enneig\u00e9e": 856,
    "\u2581monte": 857,
    "\u2581beautiful": 858,
    "\u2581guys": 859,
    "\u2581clean": 860,
    "\u2581tent": 861,
    "\u2581casques": 862,
    "lors": 863,
    "\u2581descend": 864,
    "\u2581pente": 865,
    "\u2581asian": 866,
    "\u2581sun": 867,
    "i": 868,
    "x": 869,
    "\u2581parapluie": 870,
    "\u2581longs": 871,
    "\u2581pass": 872,
    "\u2581appear": 873,
    "\u2581jaunes": 874,
    "\u2581prepare": 875,
    "\u2581stairs": 876,
    "nnent": 877,
    "\u2581ext\u00e9rieur": 878,
    "\u2581pousse": 879,
    "\u2581skate": 880,
    "\u2581su": 881,
    "\u2581tous": 882,
    "\u2581shoes": 883,
    "\u2581pile": 884,
    "\u2581met": 885,
    "\u2581asiatiques": 886,
    "\u2581quelqu": 887,
    "\u2581c": 888,
    "est": 889,
    "\u2581vif": 890,
    "\u2581graffitis": 891,
    "\u2581couch": 892,
    "\u2581ensoleill\u00e9e": 893,
    "\u2581shirtless": 894,
    "\u2581selling": 895,
    "\u2581jupe": 896,
    "\u2581cour": 897,
    "\u2581essay": 898,
    "\u2581slide": 899,
    "\u2581bruns": 900,
    "\u2581travail": 901,
    "\u2581caf\u00e9": 902,
    "\u2581barbe": 903,
    "nny": 904,
    "\u2581papier": 905,
    "cross": 906,
    "\u2581setting": 907,
    "\u2581glass": 908,
    "\u2581Some": 909,
    "\u2581quatre": 910,
    "\u2581rempli": 911,
    "\u2581sommet": 912,
    "\u2581attendant": 913,
    "\u2581noires": 914,
    "\u2581American": 915,
    "\u2581ta": 916,
    "\u2581bouche": 917,
    "\u2581racing": 918,
    "\u2581flag": 919,
    "\u2581rocks": 920,
    "\u2581marathon": 921,
    "\u2581p\u00eache": 922,
    "\u2581someone": 923,
    "\u2581corner": 924,
    "\u2581loin": 925,
    "\u2581party": 926,
    "\u2581grosse": 927,
    "\u2581bet": 928,
    "\u2581drink": 929,
    "ont": 930,
    "\u2581both": 931,
    "\u2581balance": 932,
    "\u2581attraper": 933,
    "\u2581feu": 934,
    "\u2581uniforme": 935,
    "\u2581num\u00e9ro": 936,
    "\u2581tall": 937,
    "\u2581animal": 938,
    "\u2581chairs": 939,
    "\u2581escalier": 940,
    "\u2581whi": 941,
    "ween": 942,
    "\u2581b\u00e9ton": 943,
    "\u2581attendent": 944,
    "\u2581nombreux": 945,
    "\u2581F": 946,
    "\u2581flower": 947,
    "\u2581pied": 948,
    "\u2581nombreuse": 949,
    "\u2581view": 950,
    "\u2581putt": 951,
    "\u2581bleues": 952,
    "\u2581panneau": 953,
    "\u2581genoux": 954,
    "\u2581plastique": 955,
    "\u2581equipment": 956,
    "\u2581ladies": 957,
    "\u2581frapper": 958,
    "\u2581have": 959,
    "\u2581laughing": 960,
    "\u2581roller": 961,
    "\u2581ramp": 962,
    "\u2581beau": 963,
    "\u2581computer": 964,
    "\u2581clown": 965,
    "\u2581ouvrier": 966,
    "\u2581adulte": 967,
    "\u2581donne": 968,
    "\u2581fish": 969,
    "\u2581pleine": 970,
    "\u2581try": 971,
    "\u2581trail": 972,
    "\u2581bureau": 973,
    "\u2581toit": 974,
    "aged": 975,
    "\u2581poses": 976,
    "\u2581kayak": 977,
    "etting": 978,
    "arri\u00e8re": 979,
    "\u2581proximit\u00e9": 980,
    "\u2581arts": 981,
    "\u2581entour\u00e9": 982,
    "\u2581cyclistes": 983,
    "\u2581wood": 984,
    "\u2581nus": 985,
    "tting": 986,
    "\u2581sans": 987,
    "\u2581clair": 988,
    "\u2581passant": 989,
    "\u2581robes": 990,
    "\u2581sweatshirt": 991,
    "\u2581plastic": 992,
    "\u2581playground": 993,
    "\u2581dock": 994,
    "\u2581tas": 995,
    "\u00e2ge": 996,
    "\u2581dansent": 997,
    "\u2581lance": 998,
    "\u2581bath": 999,
    "\u2581golf": 1000,
    "\u2581woods": 1001,
    "\u2581v\u00eatues": 1002,
    "\u2581concrete": 1003,
    "\u2581cross": 1004,
    "\u2581attire": 1005,
    "\u2581ligne": 1006,
    "\u2581scooter": 1007,
    "\u2581reach": 1008,
    "\u2581hit": 1009,
    "\u2581journal": 1010,
    "\u2581winter": 1011,
    "\u2581yard": 1012,
    "\u2581pictures": 1013,
    "\u2581pancarte": 1014,
    "\u2581vue": 1015,
    "\u2581posant": 1016,
    "an": 1017,
    "\u2581lisant": 1018,
    "\u2581rain": 1019,
    "appr\u00eate": 1020,
    "\u2581v": 1021,
    "\u2581drapeau": 1022,
    "\u2581midair": 1023,
    "\u2581spectacle": 1024,
    "\u2581distance": 1025,
    "aux": 1026,
    "\u2581feuilles": 1027,
    "\u2581belle": 1028,
    "\u2581but": 1029,
    "o": 1030,
    "\u2581number": 1031,
    "\u2581rochers": 1032,
    "\u2581skirt": 1033,
    "\u2581airs": 1034,
    "\u2581ciel": 1035,
    "\u2581tables": 1036,
    "\u2581Quelqu": 1037,
    "\u2581m\u00e8re": 1038,
    "\u2581coin": 1039,
    "\u2581No": 1040,
    "\u2581microscope": 1041,
    "\u2581m\u00e9tallique": 1042,
    "hiver": 1043,
    "\u2581montagnes": 1044,
    "\u2581sautent": 1045,
    "\u2581d\u00e9fil\u00e9": 1046,
    "\u2581s\u00e9curit\u00e9": 1047,
    "ting": 1048,
    "\u2581tien": 1049,
    "\u2581fr\u00e9quent\u00e9e": 1050,
    "\u2581dort": 1051,
    "\u2581yeux": 1052,
    "\u2581prom\u00e8ne": 1053,
    "\u2581no": 1054,
    "\u2581tunnel": 1055,
    "\u2581what": 1056,
    "\u2581seated": 1057,
    "w": 1058,
    "\u2581lancer": 1059,
    "\u2581mangeant": 1060,
    "\u2581chaises": 1061,
    "\u2581reads": 1062,
    "\u2581repas": 1063,
    "\u2581fonc\u00e9s": 1064,
    "\u2581sauter": 1065,
    "\u2581avant": 1066,
    "king": 1067,
    "\u2581chef": 1068,
    "\u2581maillots": 1069,
    "\u2581escalade": 1070,
    "\u00e9quipe": 1071,
    "\u2581sourient": 1072,
    "\u2581cream": 1073,
    "\u2581left": 1074,
    "\u2581tapis": 1075,
    "\u2581barbu": 1076,
    "\u2581sky": 1077,
    "\u2581\u00e9v\u00e9nement": 1078,
    "\u2581\u00e9crit": 1079,
    "\u2581vendeur": 1080,
    "\u2581fauteuil": 1081,
    "\u2581bi\u00e8re": 1082,
    "\u2581nombre": 1083,
    "\u2581beer": 1084,
    "\u2581pilote": 1085,
    "\u2581classe": 1086,
    "\u2581moyen": 1087,
    "\u2581rod\u00e9o": 1088,
    "\u2581motocross": 1089,
    "\u2581bikes": 1090,
    "\u2581chapeaux": 1091,
    "\u2581cooking": 1092,
    "ier": 1093,
    "\u2581kneel": 1094,
    "\u2581ordinateur": 1095,
    "\u2581rider": 1096,
    "\u2581do": 1097,
    "\u2581vieille": 1098,
    "\u2581works": 1099,
    "ittle": 1100,
    "\u2581wear": 1101,
    "\u2581cliff": 1102,
    "\u2581sentier": 1103,
    "\u2581smoking": 1104,
    "\u2581Boy": 1105,
    "\u2581where": 1106,
    "\u2581home": 1107,
    "\u2581sculpture": 1108,
    "\u2581fruit": 1109,
    "c": 1110,
    "puis": 1111,
    "\u2581comme": 1112,
    "\u2581B": 1113,
    "ying": 1114,
    "\u2581pick": 1115,
    "\u2581blouse": 1116,
    "\u2581vests": 1117,
    "\u2581panier": 1118,
    "\u2581school": 1119,
    "\u2581ont": 1120,
    "\u2581bags": 1121,
    "\u2581glisse": 1122,
    "\u2581bed": 1123,
    "\u2581plate": 1124,
    "\u2581box": 1125,
    "\u2581Group": 1126,
    "\u2581toboggan": 1127,
    "\u2581comp\u00e9tition": 1128,
    "\u2581edge": 1129,
    "\u2581art": 1130,
    "\u2581snowboarder": 1131,
    "\u2581uniformes": 1132,
    "\u2581plai": 1133,
    "\u2581make": 1134,
    "\u2581Frisbee": 1135,
    "\u2581l\u00e9gumes": 1136,
    "\u2581quelques": 1137,
    "\u2581tablier": 1138,
    "\u2581crossing": 1139,
    "\u2581danse": 1140,
    "\u2581frappe": 1141,
    "\u2581voitures": 1142,
    "\u2581gauche": 1143,
    "\u2581scarf": 1144,
    "\u2581paysage": 1145,
    "\u2581right": 1146,
    "\u2581jersey": 1147,
    "\u2581cup": 1148,
    "\u2581mountains": 1149,
    "\u2581Women": 1150,
    "\u2581trampoline": 1151,
    "\u2581nearby": 1152,
    "arbres": 1153,
    "\u2581buildings": 1154,
    "\u2581stop": 1155,
    "\u2581apron": 1156,
    "ers": 1157,
    "\u2581snowboard": 1158,
    "\u2581v\u00e9los": 1159,
    "\u2581cutt": 1160,
    "\u2581buvant": 1161,
    "\u2581chantant": 1162,
    "\u2581driving": 1163,
    "\u2581brune": 1164,
    "\u2581cours": 1165,
    "\u2581jardin": 1166,
    "\u2581skateur": 1167,
    "\u2581fix": 1168,
    "\u2581surfer": 1169,
    "man": 1170,
    "se": 1171,
    "\u2581mother": 1172,
    "\u2581leaves": 1173,
    "\u2581pluie": 1174,
    "\u2581barbecue": 1175,
    "\u2581blonds": 1176,
    "\u2581shore": 1177,
    "ring": 1178,
    "\u2581friends": 1179,
    "\u2581bottle": 1180,
    "\u2581display": 1181,
    "\u2581smile": 1182,
    "\u2581door": 1183,
    "\u2581skateboarder": 1184,
    "\u2581part": 1185,
    "ement": 1186,
    "\u2581filled": 1187,
    "\u2581hot": 1188,
    "\u2581pr\u00e9par": 1189,
    "\u2581morceau": 1190,
    "\u2581couleurs": 1191,
    "\u2581boots": 1192,
    "\u2581bottes": 1193,
    "\u2581bien": 1194,
    "\u2581horses": 1195,
    "\u2581star": 1196,
    "\u2581c\u00f4te": 1197,
    "\u2581gants": 1198,
    "\u2581parked": 1199,
    "\u2581rocheuse": 1200,
    "\u2581shovel": 1201,
    "\u2581v\u00e9hicule": 1202,
    "\u2581doigt": 1203,
    "\u2581vendor": 1204,
    "\u2581net": 1205,
    "\u2581Person": 1206,
    "\u2581eux": 1207,
    "\u2581artiste": 1208,
    "\u2581dansant": 1209,
    "\u2581goggles": 1210,
    "\u2581drapeaux": 1211,
    "\u2581battent": 1212,
    "\u2581th": 1213,
    "his": 1214,
    "\u2581bowl": 1215,
    "\u2581longue": 1216,
    "\u2581falaise": 1217,
    "\u2581cam\u00e9ra": 1218,
    "\u2581vehicle": 1219,
    "\u2581roulant": 1220,
    "\u2581color\u00e9s": 1221,
    "\u2581dame": 1222,
    "\u2581bull": 1223,
    "\u2581time": 1224,
    "\u2581fe": 1225,
    "\u2581peinture": 1226,
    "\u2581poteau": 1227,
    "\u2581painted": 1228,
    "\u2581Si": 1229,
    "boy": 1230,
    "\u2581produits": 1231,
    "\u2581drums": 1232,
    "\u2581shot": 1233,
    "\u2581talks": 1234,
    "\u2581habill\u00e9s": 1235,
    "\u2581\u00e2g\u00e9es": 1236,
    "\u2581fonc\u00e9": 1237,
    "\u2581coffee": 1238,
    "\u2581jogging": 1239,
    "\u2581ballons": 1240,
    "\u2581flying": 1241,
    "id": 1242,
    "\u2581rocky": 1243,
    "\u2581rail": 1244,
    "\u2581eyes": 1245,
    "\u2581snowboardeur": 1246,
    "\u2581newspaper": 1247,
    "\u2581bouteille": 1248,
    "\u2581grise": 1249,
    "\u2581cars": 1250,
    "\u2581dresses": 1251,
    "\u2581carrie": 1252,
    "\u2581safety": 1253,
    "\u2581gentleman": 1254,
    "\u2581bunch": 1255,
    "\u2581paint": 1256,
    "\u2581roof": 1257,
    "\u2581membre": 1258,
    "\u2581rassemblent": 1259,
    "\u2581gather": 1260,
    "\u2581surface": 1261,
    "\u2581jeux": 1262,
    "\u2581Old": 1263,
    "\u2581surfeur": 1264,
    "\u2581bucket": 1265,
    "\u2581swinging": 1266,
    "\u2581verts": 1267,
    "\u2581m": 1268,
    "\u2581flags": 1269,
    "attraper": 1270,
    "\u2581couvert": 1271,
    "\u2581sports": 1272,
    "\u2581meal": 1273,
    "\u2581waves": 1274,
    "\u2581practicing": 1275,
    "\u2581spectators": 1276,
    "\u2581centre": 1277,
    "\u2581martiaux": 1278,
    "\u2581bicyclist": 1279,
    "\u2581com": 1280,
    "\u2581cake": 1281,
    "\u2581mange": 1282,
    "\u2581gloves": 1283,
    "\u2581younger": 1284,
    "\u2581essaie": 1285,
    "\u2581ladder": 1286,
    "\u2581policier": 1287,
    "\u2581m\u00eame": 1288,
    "\u2581penche": 1289,
    "\u2581break": 1290,
    "out": 1291,
    "age": 1292,
    "\u2581il": 1293,
    "\u2581tour": 1294,
    "\u2581biker": 1295,
    "\u2581giv": 1296,
    "\u2581empty": 1297,
    "\u2581competition": 1298,
    "\u2581festival": 1299,
    "\u2581different": 1300,
    "\u2581listening": 1301,
    "\u2581dur": 1302,
    "\u2581temps": 1303,
    "\u2581wait": 1304,
    "\u2581examine": 1305,
    "\u2581parler": 1306,
    "\u2581musiciens": 1307,
    "\u2581forme": 1308,
    "art": 1309,
    "\u2581blanket": 1310,
    "\u2581masque": 1311,
    "\u2581boule": 1312,
    "\u2581vitrine": 1313,
    "\u2581nage": 1314,
    "\u2581turn": 1315,
    "\u2581sale": 1316,
    "\u2581canne": 1317,
    "que": 1318,
    "et": 1319,
    "\u2581certain": 1320,
    "\u2581chevaux": 1321,
    "\u2581capuche": 1322,
    "\u2581poussette": 1323,
    "\u2581l\u00e8ve": 1324,
    "\u2581scene": 1325,
    "\u2581coupe": 1326,
    "\u2581check": 1327,
    "\u2581items": 1328,
    "\u2581peu": 1329,
    "\u2581can": 1330,
    "uses": 1331,
    "\u2581couverture": 1332,
    "\u2581balloon": 1333,
    "\u2581port": 1334,
    "\u2581mask": 1335,
    "\u2581M": 1336,
    "\u00e9e": 1337,
    "\u2581fils": 1338,
    "\u2581seau": 1339,
    "\u2581desk": 1340,
    "\u2581audience": 1341,
    "\u2581chantier": 1342,
    "\u2581lawn": 1343,
    "\u2581mangent": 1344,
    "\u2581lire": 1345,
    "\u2581ma": 1346,
    "entre": 1347,
    "\u2581pav\u00e9e": 1348,
    "\u2581afro": 1349,
    "\u2581skateboarding": 1350,
    "\u2581put": 1351,
    "\u2581class": 1352,
    "\u2581railing": 1353,
    "\u2581pot": 1354,
    "arious": 1355,
    "\u2581jackets": 1356,
    "\u2581rodeo": 1357,
    "\u2581softball": 1358,
    "\u2581Someone": 1359,
    "\u2581Indian": 1360,
    "\u2581onlookers": 1361,
    "\u2581pause": 1362,
    "\u2581among": 1363,
    "\u2581p\u00e8re": 1364,
    "\u2581\u00e9tendue": 1365,
    "\u2581b\u00e2timents": 1366,
    "\u2581leaps": 1367,
    "\u2581bat": 1368,
    "\u2581collier": 1369,
    "\u2581Girl": 1370,
    "\u2581traversant": 1371,
    "\u2581filet": 1372,
    "\u2581grands": 1373,
    "\u2581longues": 1374,
    "\u2581courses": 1375,
    "\u2581Beau": 1376,
    "\u2581cut": 1377,
    "\u2581ouverte": 1378,
    "\u2581joueuse": 1379,
    "\u2581drinks": 1380,
    "\u2581lieu": 1381,
    "\u2581roses": 1382,
    "\u2581mett": 1383,
    "\u2581slid": 1384,
    "\u2581espace": 1385,
    "\u2581\u00e9chelle": 1386,
    "\u2581vegetables": 1387,
    "\u2581chas": 1388,
    "\u2581gathering": 1389,
    "\u2581re": 1390,
    "\u2581obstacle": 1391,
    "\u2581flip": 1392,
    "\u2581surfboard": 1393,
    "\u2581saxophone": 1394,
    "\u2581tattoo": 1395,
    "\u2581skieur": 1396,
    "\u2581pointing": 1397,
    "\u2581bicycles": 1398,
    "\u2581type": 1399,
    "\u2581adolescent": 1400,
    "\u2581petites": 1401,
    "ieurs": 1402,
    "\u2581New": 1403,
    "\u2581premier": 1404,
    "\u2581mat\u00e9riel": 1405,
    "\u2581facing": 1406,
    "\u2581feet": 1407,
    "\u2581collar": 1408,
    "\u2581wet": 1409,
    "\u2581vertes": 1410,
    "\u2581cement": 1411,
    "fore": 1412,
    "\u2581bulles": 1413,
    "\u2581manches": 1414,
    "\u2581platform": 1415,
    "\u2581ge": 1416,
    "\u2581new": 1417,
    "\u2581poisson": 1418,
    "de": 1419,
    "\u2581help": 1420,
    "\u2581bird": 1421,
    "ix": 1422,
    "\u2581photographe": 1423,
    "\u2581silver": 1424,
    "\u2581rivage": 1425,
    "\u2581gold": 1426,
    "\u2581tradition": 1427,
    "\u2581wedding": 1428,
    "\u2581batterie": 1429,
    "\u2581competing": 1430,
    "\u2581speaking": 1431,
    "\u2581descendant": 1432,
    "\u2581droite": 1433,
    "\u2581laisse": 1434,
    "\u2581skis": 1435,
    "\u2581remplie": 1436,
    "\u2581purse": 1437,
    "\u2581business": 1438,
    "\u2581sombre": 1439,
    "\u2581martia": 1440,
    "\u2581skier": 1441,
    "\u2581\u00e2g\u00e9s": 1442,
    "tirant": 1443,
    "\u2581pas": 1444,
    "\u2581g\u00e2teau": 1445,
    "\u2581piano": 1446,
    "\u2581hula": 1447,
    "\u2581camouflage": 1448,
    "\u2581classroom": 1449,
    "\u2581performance": 1450,
    "\u2581salon": 1451,
    "\u2581counter": 1452,
    "\u2581diff\u00e9rentes": 1453,
    "\u2581discutent": 1454,
    "\u2581bride": 1455,
    "\u2581huge": 1456,
    "\u2581ray\u00e9e": 1457,
    "\u2581suits": 1458,
    "\u2581mer": 1459,
    "\u2581country": 1460,
    "\u2581wash": 1461,
    "\u2581pompiers": 1462,
    "\u2581podium": 1463,
    "\u2581helmets": 1464,
    "elles": 1465,
    "ette": 1466,
    "\u2581recouverte": 1467,
    "\u2581vagues": 1468,
    "\u2581rugby": 1469,
    "\u2581students": 1470,
    "\u2581lift": 1471,
    "\u2581sings": 1472,
    "\u2581taille": 1473,
    "\u2581climbs": 1474,
    "\u2581surfing": 1475,
    "\u2581there": 1476,
    "\u2581participe": 1477,
    "\u2581hors": 1478,
    "\u2581cascade": 1479,
    "\u2581direction": 1480,
    "\u2581violette": 1481,
    "\u2581teams": 1482,
    "\u00e7ant": 1483,
    "\u2581repose": 1484,
    "\u2581immeuble": 1485,
    "\u2581montr": 1486,
    "\u2581allong\u00e9e": 1487,
    "\u2581peluche": 1488,
    "\u2581mirror": 1489,
    "\u2581foulard": 1490,
    "\u2581military": 1491,
    "\u2581alley": 1492,
    "\u2581roll": 1493,
    "\u2581kissing": 1494,
    "\u2581jet": 1495,
    "\u2581boissons": 1496,
    "\u2581musical": 1497,
    "\u2581inspect": 1498,
    "\u2581stroller": 1499,
    "\u2581\u00e9quilibre": 1500,
    "\u2581marcher": 1501,
    "\u2581taureau": 1502,
    "\u2581violon": 1503,
    "\u2581terrasse": 1504,
    "\u2581violin": 1505,
    "\u2581walkway": 1506,
    "\u2581nettoie": 1507,
    "\u2581writing": 1508,
    "\u2581moment": 1509,
    "\u2581screen": 1510,
    "\u2581coucher": 1511,
    "\u2581cinq": 1512,
    "\u2581six": 1513,
    "\u2581\u00e9charpe": 1514,
    "\u2581fighting": 1515,
    "\u2581traverser": 1516,
    "\u2581same": 1517,
    "\u2581talk": 1518,
    "\u2581leap": 1519,
    "\u2581comptoir": 1520,
    "\u2581observe": 1521,
    "\u2581shoulder": 1522,
    "\u2581anim\u00e9e": 1523,
    "\u2581tape": 1524,
    "\u2581elles": 1525,
    "\u2581artist": 1526,
    "\u2581position": 1527,
    "\u2581lap": 1528,
    "\u2581chauve": 1529,
    "\u2581sunset": 1530,
    "\u2581recouvert": 1531,
    "\u2581Ce": 1532,
    "\u2581boue": 1533,
    "\u2581clients": 1534,
    "\u2581tableau": 1535,
    "\u2581pelle": 1536,
    "\u2581amis": 1537,
    "\u2581employ\u00e9": 1538,
    "\u2581electric": 1539,
    "\u2581runner": 1540,
    "\u2581boisson": 1541,
    "\u2581waits": 1542,
    "\u2581so": 1543,
    "\u2581pre": 1544,
    "\u2581h": 1545,
    "\u2581attrape": 1546,
    "\u2581color\u00e9": 1547,
    "\u2581roule": 1548,
    "\u2581barefoot": 1549,
    "\u2581mariage": 1550,
    "\u2581affiche": 1551,
    "up": 1552,
    "\u2581waving": 1553,
    "\u2581gym": 1554,
    "\u2581tasse": 1555,
    "\u2581policiers": 1556,
    "\u2581\u00e9cran": 1557,
    "ans": 1558,
    "\u2581close": 1559,
    "\u2581randonn\u00e9e": 1560,
    "\u2581club": 1561,
    "\u2581rousse": 1562,
    "\u2581ciment": 1563,
    "\u2581row": 1564,
    "\u2581wheel": 1565,
    "\u2581females": 1566,
    "\u2581jette": 1567,
    "\u2581spray": 1568,
    "\u2581vole": 1569,
    "\u2581mari\u00e9e": 1570,
    "escalade": 1571,
    "top": 1572,
    "\u2581profite": 1573,
    "\u2581brandi": 1574,
    "\u2581transport": 1575,
    "\u2581cravate": 1576,
    "\u2581avoir": 1577,
    "\u2581officer": 1578,
    "\u2581seul": 1579,
    "\u2581conduit": 1580,
    "\u2581In": 1581,
    "\u2581gi": 1582,
    "\u2581promenant": 1583,
    "\u2581urban": 1584,
    "\u2581father": 1585,
    "\u2581volley": 1586,
    "\u2581signs": 1587,
    "\u2581rassembl\u00e9es": 1588,
    "\u2581says": 1589,
    "\u2581cordes": 1590,
    "\u2581fond": 1591,
    "\u2581blowing": 1592,
    "\u2581voie": 1593,
    "\u2581York": 1594,
    "\u2581bubbles": 1595,
    "\u2581Cet": 1596,
    "\u2581outfits": 1597,
    "\u2581\u00e9quipes": 1598,
    "\u2581effectu": 1599,
    "\u2581touche": 1600,
    "\u2581cuir": 1601,
    "pom": 1602,
    "\u2581U": 1603,
    "\u2581\u00e9lectrique": 1604,
    "\u2581coureur": 1605,
    "\u2581va": 1606,
    "\u2581sell": 1607,
    "\u2581profit": 1608,
    "\u2581dents": 1609,
    "\u2581seen": 1610,
    "\u2581bald": 1611,
    "\u2581chemis": 1612,
    "\u2581vive": 1613,
    "\u2581garage": 1614,
    "\u2581happy": 1615,
    "\u2581leather": 1616,
    "\u2581meat": 1617,
    "\u2581life": 1618,
    "\u2581hole": 1619,
    "\u2581skating": 1620,
    "\u2581couch\u00e9": 1621,
    "\u2581examin": 1622,
    "\u2581surfe": 1623,
    "\u2581coureurs": 1624,
    "\u2581makes": 1625,
    "\u2581trou": 1626,
    "\u2581O": 1627,
    "\u2581grimpe": 1628,
    "\u2581balloons": 1629,
    "\u2581leg": 1630,
    "\u2581miroir": 1631,
    "\u2581swim": 1632,
    "\u2581rit": 1633,
    "\u2581escalator": 1634,
    "\u2581chat": 1635,
    "board": 1636,
    "\u2581m\u00e9tal": 1637,
    "\u2581hang": 1638,
    "\u2581passage": 1639,
    "\u2581jockey": 1640,
    "\u2581Construction": 1641,
    "\u2581foreground": 1642,
    "\u2581site": 1643,
    "\u2581protection": 1644,
    "ous": 1645,
    "\u2581brightly": 1646,
    "\u2581alone": 1647,
    "\u2581five": 1648,
    "\u2581desert": 1649,
    "\u2581helping": 1650,
    "\u2581musicians": 1651,
    "\u2581paroi": 1652,
    "\u2581lights": 1653,
    "\u2581local": 1654,
    "\u2581hoop": 1655,
    "\u2581magazine": 1656,
    "\u2581motard": 1657,
    "\u2581effectue": 1658,
    "\u2581streets": 1659,
    "\u2581mud": 1660,
    "\u2581image": 1661,
    "\u2581surplomb": 1662,
    "\u2581jus": 1663,
    "\u2581monsieur": 1664,
    "\u2581endormi": 1665,
    "\u2581headphones": 1666,
    "\u2581asleep": 1667,
    "\u2581canoe": 1668,
    "\u2581suspendu": 1669,
    "\u2581goal": 1670,
    "\u2581float": 1671,
    "\u2581well": 1672,
    "ive": 1673,
    "\u2581oiseau": 1674,
    "\u2581give": 1675,
    "\u2581fume": 1676,
    "\u2581umbrellas": 1677,
    "\u2581Quelque": 1678,
    "\u00e8re": 1679,
    "\u2581jouets": 1680,
    "\u2581legs": 1681,
    "\u2581rest": 1682,
    "\u2581made": 1683,
    "ter": 1684,
    "m": 1685,
    "\u2581wagon": 1686,
    "\u2581n": 1687,
    "\u2581bea": 1688,
    "\u2581fl": 1689,
    "\u2581photograph": 1690,
    "\u2581avion": 1691,
    "\u2581office": 1692,
    "tries": 1693,
    "\u2581prairie": 1694,
    "\u2581stadium": 1695,
    "\u2581viande": 1696,
    "\u2581promenade": 1697,
    "\u2581discutant": 1698,
    "\u2581brush": 1699,
    "\u2581doorway": 1700,
    "\u2581\u00e9couteurs": 1701,
    "\u2581sandals": 1702,
    "\u2581stade": 1703,
    "ng": 1704,
    "\u2581leash": 1705,
    "\u2581danseuse": 1706,
    "\u2581drive": 1707,
    "\u2581diving": 1708,
    "\u2581\u00e9quipement": 1709,
    "\u2581pom": 1710,
    "\u2581ne": 1711,
    "\u2581bo": 1712,
    "or": 1713,
    "\u2581plant": 1714,
    "\u2581man\u00e8ge": 1715,
    "\u2581accordion": 1716,
    "\u2581stuff": 1717,
    "\u2581rang\u00e9e": 1718,
    "\u2581projet": 1719,
    "\u2581video": 1720,
    "\u2581profonde": 1721,
    "\u2581sandales": 1722,
    "\u2581multicolored": 1723,
    "\u2581falling": 1724,
    "\u2581sh": 1725,
    "\u2581pierres": 1726,
    "\u2581tube": 1727,
    "\u2581swings": 1728,
    "\u2581mat": 1729,
    "\u2581sticks": 1730,
    "\u2581souriante": 1731,
    "\u2581officers": 1732,
    "\u2581orchestre": 1733,
    "\u2581oriental": 1734,
    "\u2581d\u00e9sert": 1735,
    "\u2581speak": 1736,
    "\u2581laptop": 1737,
    "\u2581drawing": 1738,
    "\u2581photographer": 1739,
    "\u2581way": 1740,
    "\u2581teenage": 1741,
    "\u2581kaki": 1742,
    "\u2581church": 1743,
    "\u2581shallow": 1744,
    "\u2581traffic": 1745,
    "\u2581batte": 1746,
    "\u2581tourne": 1747,
    "\u2581Worker": 1748,
    "\u2581ruelle": 1749,
    "petit": 1750,
    "arbre": 1751,
    "\u2581cat": 1752,
    "\u2581\u00e9paules": 1753,
    "\u2581faces": 1754,
    "\u2581cou": 1755,
    "\u2581w": 1756,
    "\u2581ba": 1757,
    "\u2581climb": 1758,
    "ombre": 1759,
    "\u2581cano": 1760,
    "\u2581skiing": 1761,
    "\u2581vide": 1762,
    "\u2581fun": 1763,
    "\u2581toys": 1764,
    "\u2581plonge": 1765,
    "\u2581fa": 1766,
    "\u2581digging": 1767,
    "\u2581quartier": 1768,
    "\u2581below": 1769,
    "\u2581heads": 1770,
    "\u2581pays": 1771,
    "\u2581garden": 1772,
    "\u2581sled": 1773,
    "\u2581hammer": 1774,
    "\u2581pond": 1775,
    "\u2581plantes": 1776,
    "\u2581barre": 1777,
    "ayant": 1778,
    "\u2581project": 1779,
    "\u2581drum": 1780,
    "\u2581brosse": 1781,
    "\u2581mouvement": 1782,
    "\u2581raquette": 1783,
    "ish": 1784,
    "\u2581signe": 1785,
    "\u2581barri\u00e8re": 1786,
    "\u2581friend": 1787,
    "\u2581action": 1788,
    "\u2581entour\u00e9e": 1789,
    "\u2581vin": 1790,
    "\u2581village": 1791,
    "\u2581silhouette": 1792,
    "\u2581laboratoire": 1793,
    "\u2581hoodie": 1794,
    "\u2581hugging": 1795,
    "aving": 1796,
    "\u2581repr\u00e9sentant": 1797,
    "\u2581tuyau": 1798,
    "\u2581upside": 1799,
    "\u2581brunette": 1800,
    "\u2581dreadlocks": 1801,
    "\u2581van": 1802,
    "\u2581taxi": 1803,
    "\u2581relaxing": 1804,
    "\u2581peut": 1805,
    "\u2581vestes": 1806,
    "\u2581r\u00e9unis": 1807,
    "\u2581pouss": 1808,
    "\u2581mural": 1809,
    "\u2581objets": 1810,
    "qu": 1811,
    "\u2581fans": 1812,
    "\u00e9loigne": 1813,
    "au": 1814,
    "\u2581pench\u00e9": 1815,
    "\u2581includ": 1816,
    "\u2581divers": 1817,
    "\u2581block": 1818,
    "\u2581tronc": 1819,
    "\u2581stunt": 1820,
    "\u2581multicolore": 1821,
    "\u2581participant": 1822,
    "\u2581d\u00e9": 1823,
    "ding": 1824,
    "\u2581endroit": 1825,
    "eurs": 1826,
    "enfant": 1827,
    "\u2581cloud": 1828,
    "\u2581sandwich": 1829,
    "\u2581BM": 1830,
    "\u2581virage": 1831,
    "\u2581poubelle": 1832,
    "\u2581sauvetage": 1833,
    "\u2581Christmas": 1834,
    "\u2581t\u00e9lescope": 1835,
    "\u2581Chinese": 1836,
    "\u2581combat": 1837,
    "\u2581assiette": 1838,
    "\u2581golden": 1839,
    "\u2581tir": 1840,
    "\u2581sweeping": 1841,
    "\u2581sleeps": 1842,
    "aide": 1843,
    "\u2581\u00e9norme": 1844,
    "\u2581courir": 1845,
    "\u2581move": 1846,
    "k": 1847,
    "\u2581start": 1848,
    "\u2581dancers": 1849,
    "\u2581cafe": 1850,
    "\u2581\u00e9t": 1851,
    "\u2581bord\u00e9e": 1852,
    "\u2581accroupi": 1853,
    "\u2581males": 1854,
    "hiking": 1855,
    "A": 1856,
    "\u2581singer": 1857,
    "\u2581parachute": 1858,
    "\u2581bo\u00eete": 1859,
    "\u2581escalad": 1860,
    "\u2581caisse": 1861,
    "\u2581courts": 1862,
    "\u2581daughter": 1863,
    "\u2581string": 1864,
    "arts": 1865,
    "\u2581blow": 1866,
    "\u2581dessin": 1867,
    "\u2581b\u00e2tons": 1868,
    "\u2581Guy": 1869,
    "\u2581karat\u00e9": 1870,
    "\u2581sieste": 1871,
    "\u2581telescope": 1872,
    "\u2581teeth": 1873,
    "\u2581tissu": 1874,
    "\u2581patio": 1875,
    "\u2581cadre": 1876,
    "\u2581fumant": 1877,
    "\u2581flies": 1878,
    "\u2581c\u00e9r\u00e9monie": 1879,
    "\u2581ruban": 1880,
    "\u2581conversing": 1881,
    "\u2581batteur": 1882,
    "\u2581basketteur": 1883,
    "\u2581hose": 1884,
    "\u2581ruisseau": 1885,
    "\u2581vendre": 1886,
    "ucoup": 1887,
    "\u2581quad": 1888,
    "\u2581trunks": 1889,
    "\u2581nageant": 1890,
    "\u2581travailler": 1891,
    "\u2581resting": 1892,
    "\u2581passes": 1893,
    "\u2581color\u00e9e": 1894,
    "\u2581points": 1895,
    "ids": 1896,
    "\u2581plants": 1897,
    "\u2581all\u00e9e": 1898,
    "\u2581agent": 1899,
    "\u2581balustrade": 1900,
    "\u2581produit": 1901,
    "\u2581jambe": 1902,
    "\u2581lone": 1903,
    "\u2581ring": 1904,
    "\u2581adolescents": 1905,
    "\u2581pique": 1906,
    "\u2581pier": 1907,
    "\u2581studio": 1908,
    "\u2581Black": 1909,
    "\u2581cricket": 1910,
    "ty": 1911,
    "\u2581nettoyant": 1912,
    "\u2581underneath": 1913,
    "\u2581karate": 1914,
    "\u2581racket": 1915,
    "\u2581fa\u00e7on": 1916,
    "\u2581wrestling": 1917,
    "\u2581cold": 1918,
    "\u2581Voic": 1919,
    "\u2581splashing": 1920,
    "\u2581remorque": 1921,
    "\u2581intersection": 1922,
    "\u2581town": 1923,
    "\u2581prom\u00e8nent": 1924,
    "\u2581held": 1925,
    "\u2581bol": 1926,
    "ure": 1927,
    "\u2581shoe": 1928,
    "ie": 1929,
    "\u2581eat": 1930,
    "ge": 1931,
    "\u2581mid": 1932,
    "\u2581\u00e9tudiants": 1933,
    "\u2581stack": 1934,
    "\u2581En": 1935,
    "\u2581how": 1936,
    "am\u00e9ricain": 1937,
    "\u2581escaliers": 1938,
    "\u2581vi": 1939,
    "\u2581commercial": 1940,
    "i\u00e8me": 1941,
    "\u2581stroll": 1942,
    "\u2581straw": 1943,
    "\u2581picnic": 1944,
    "\u2581soir\u00e9e": 1945,
    "\u2581campagne": 1946,
    "\u2581solitaire": 1947,
    "\u2581themselves": 1948,
    "\u2581roulettes": 1949,
    "\u2581curly": 1950,
    "\u2581coats": 1951,
    "\u2581dinner": 1952,
    "\u2581gymnase": 1953,
    "\u2581paille": 1954,
    "\u2581hall": 1955,
    "\u2581motifs": 1956,
    "ez": 1957,
    "\u2581enneig\u00e9": 1958,
    "\u2581gate": 1959,
    "\u2581cercle": 1960,
    "\u2581cyclist": 1961,
    "\u2581seem": 1962,
    "\u2581balaie": 1963,
    "\u2581rient": 1964,
    "\u2581pi\u00e9tons": 1965,
    "ation": 1966,
    "\u2581cloth": 1967,
    "\u2581card": 1968,
    "lying": 1969,
    "\u2581seule": 1970,
    "\u2581cane": 1971,
    "\u2581voir": 1972,
    "\u2581shoulders": 1973,
    "\u2581style": 1974,
    "\u2581G": 1975,
    "\u2581partage": 1976,
    "\u2581d\u00e9place": 1977,
    "\u2581chinois": 1978,
    "forme": 1979,
    "\u2581tend": 1980,
    "\u2581gardien": 1981,
    "\u2581lumi\u00e8re": 1982,
    "\u2581hiker": 1983,
    "\u2581vol": 1984,
    "\u2581roue": 1985,
    "\u2581kiss": 1986,
    "arr\u00eate": 1987,
    "\u2581toute": 1988,
    "accord\u00e9on": 1989,
    "\u2581dirige": 1990,
    "\u2581stream": 1991,
    "eaux": 1992,
    "\u2581chase": 1993,
    "ion": 1994,
    "\u2581fa\u00e7ade": 1995,
    "\u2581carnival": 1996,
    "\u2581wetsuit": 1997,
    "\u2581crosswalk": 1998,
    "\u2581kind": 1999,
    "\u2581fresque": 2000,
    "\u2581produce": 2001,
    "\u2581heavy": 2002,
    "\u2581makeup": 2003,
    "\u2581voit": 2004,
    "\u2581partie": 2005,
    "appuie": 2006,
    "\u2581crying": 2007,
    "\u2581nez": 2008,
    "\u2581descendent": 2009,
    "\u2581wooded": 2010,
    "us": 2011,
    "\u2581roux": 2012,
    "\u2581formal": 2013,
    "\u2581voile": 2014,
    "\u2581co": 2015,
    "\u2581couper": 2016,
    "\u2581individuals": 2017,
    "\u2581taken": 2018,
    "\u2581deep": 2019,
    "\u2581lumi\u00e8res": 2020,
    "\u2581pla": 2021,
    "\u2581riant": 2022,
    "\u2581bond\u00e9e": 2023,
    "\u2581knee": 2024,
    "\u2581color\u00e9es": 2025,
    "\u2581not": 2026,
    "\u2581gymnaste": 2027,
    "\u2581infant": 2028,
    "\u2581doigts": 2029,
    "\u2581mix": 2030,
    "ordinateur": 2031,
    "\u2581mari\u00e9": 2032,
    "\u2581gonflable": 2033,
    "\u2581parasol": 2034,
    "\u2581militaire": 2035,
    "\u2581nose": 2036,
    "th": 2037,
    "\u2581performer": 2038,
    "\u2581cherche": 2039,
    "f": 2040,
    "\u2581slope": 2041,
    "\u2581E": 2042,
    "\u2581aide": 2043,
    "\u2581oppos": 2044,
    "\u2581trash": 2045,
    "\u2581jungle": 2046,
    "eur": 2047,
    "\u2581professional": 2048,
    "\u2581center": 2049,
    "\u2581discussion": 2050,
    "\u2581nice": 2051,
    "\u2581balanc": 2052,
    "\u2581plat": 2053,
    "\u2581lunch": 2054,
    "\u2581sewing": 2055,
    "\u2581roulent": 2056,
    "\u2581covering": 2057,
    "\u2581tricks": 2058,
    "\u2581pigeons": 2059,
    "\u2581queue": 2060,
    "\u2581members": 2061,
    "\u2581driver": 2062,
    "\u2581fall": 2063,
    "\u2581closed": 2064,
    "\u2581bout": 2065,
    "\u2581pe": 2066,
    "\u2581Dog": 2067,
    "\u2581finish": 2068,
    "\u2581soldats": 2069,
    "\u2581lab": 2070,
    "\u2581chevauche": 2071,
    "cette": 2072,
    "at": 2073,
    "\u2581mov": 2074,
    "\u2581nouveau": 2075,
    "\u2581practice": 2076,
    "\u2581t\u00eates": 2077,
    "\u2581ch": 2078,
    "\u2581patient": 2079,
    "\u2581balcon": 2080,
    "\u2581bond\u00e9": 2081,
    "\u2581urbain": 2082,
    "\u2581button": 2083,
    "\u2581gare": 2084,
    "\u2581baskets": 2085,
    "\u2581square": 2086,
    "\u2581adverse": 2087,
    "\u2581booth": 2088,
    "\u2581pompier": 2089,
    "\u2581randonneur": 2090,
    "\u2581hauts": 2091,
    "\u2581gun": 2092,
    "\u2581circle": 2093,
    "\u2581r\u00e9pare": 2094,
    "\u2581log": 2095,
    "tant": 2096,
    "\u2581R": 2097,
    "\u2581patin": 2098,
    "ndis": 2099,
    "\u2581fight": 2100,
    "\u2581pin": 2101,
    "\u2581guitariste": 2102,
    "\u2581gril": 2103,
    "nique": 2104,
    "\u2581\u00e9coute": 2105,
    "\u2581marteau": 2106,
    "\u2581himself": 2107,
    "\u2581third": 2108,
    "\u2581ach\u00e8te": 2109,
    "\u2581lanceur": 2110,
    "\u2581derby": 2111,
    "\u2581speed": 2112,
    "\u2581balcony": 2113,
    "\u2581manteaux": 2114,
    "\u2581jet\u00e9e": 2115,
    "\u2581montent": 2116,
    "\u2581dances": 2117,
    "avant": 2118,
    "\u2581souffle": 2119,
    "\u2581print": 2120,
    "\u2581opening": 2121,
    "\u2581randonneurs": 2122,
    "\u2581\u00e9glise": 2123,
    "\u2581jambes": 2124,
    "\u2581pr\u00eat": 2125,
    "\u2581pois": 2126,
    "\u2581ressemble": 2127,
    "\u2581pav\u00e9": 2128,
    "\u2581sourire": 2129,
    "\u2581vache": 2130,
    "\u2581hautes": 2131,
    "\u2581athlete": 2132,
    "\u2581device": 2133,
    "\u2581neck": 2134,
    "\u2581indoor": 2135,
    "\u2581shav": 2136,
    "\u2581eye": 2137,
    "\u2581balls": 2138,
    "\u2581int\u00e9rieur": 2139,
    "\u2581tabouret": 2140,
    "\u2581staircase": 2141,
    "\u2581monticule": 2142,
    "\u2581travaux": 2143,
    "\u2581supermarch\u00e9": 2144,
    "\u2581monde": 2145,
    "\u2581bagages": 2146,
    "\u2581rassembl\u00e9s": 2147,
    "\u2581parcours": 2148,
    "\u2581poutre": 2149,
    "\u2581\u00e9coutant": 2150,
    "\u2581langue": 2151,
    "ny": 2152,
    "\u2581camping": 2153,
    "\u2581chanteur": 2154,
    "\u2581traditionnels": 2155,
    "\u2581montant": 2156,
    "\u2581deck": 2157,
    "\u2581boxes": 2158,
    "\u2581plateau": 2159,
    "\u2581cha": 2160,
    "\u2581vie": 2161,
    "\u2581indienne": 2162,
    "onto": 2163,
    "\u2581appuy\u00e9": 2164,
    "\u2581frapp": 2165,
    "\u2581most": 2166,
    "\u2581repair": 2167,
    "g": 2168,
    "\u2581gymnast": 2169,
    "\u2581perche": 2170,
    "\u2581pantalons": 2171,
    "\u2581end": 2172,
    "\u2581grind": 2173,
    "onnant": 2174,
    "\u2581pi\u00e9ton": 2175,
    "\u2581use": 2176,
    "\u2581tatouage": 2177,
    "\u2581poster": 2178,
    "\u2581sheet": 2179,
    "\u2581musicien": 2180,
    "\u2581chefs": 2181,
    "\u2581produis": 2182,
    "\u2581frame": 2183,
    "covered": 2184,
    "\u2581film": 2185,
    "\u2581salto": 2186,
    "\u2581couloir": 2187,
    "\u2581grocery": 2188,
    "\u2581garb": 2189,
    "\u2581publique": 2190,
    "\u2581gentlemen": 2191,
    "\u2581puddle": 2192,
    "\u2581circulation": 2193,
    "\u2581fresh": 2194,
    "\u2581heureux": 2195,
    "\u2581fallen": 2196,
    "less": 2197,
    "\u2581e": 2198,
    "z": 2199,
    "\u2581direct": 2200,
    "\u2581overalls": 2201,
    "semblent": 2202,
    "\u2581couverte": 2203,
    "\u2581chantent": 2204,
    "\u2581paved": 2205,
    "\u2581bon": 2206,
    "\u2581livres": 2207,
    "\u2581blocks": 2208,
    "\u2581couvre": 2209,
    "\u2581swims": 2210,
    "\u2581accroch\u00e9": 2211,
    "\u2581balai": 2212,
    "\u2581J": 2213,
    "\u2581pain": 2214,
    "urs": 2215,
    "\u2581porch": 2216,
    "\u2581admir": 2217,
    "\u2581arr\u00eat": 2218,
    "\u2581post": 2219,
    "\u2581waterfall": 2220,
    "\u2581fair": 2221,
    "\u2581pitcher": 2222,
    "\u2581cavalier": 2223,
    "\u2581guard": 2224,
    "\u2581conduis": 2225,
    "\u2581carton": 2226,
    "r\u00e9parer": 2227,
    "\u2581dancer": 2228,
    "ar": 2229,
    "\u2581travel": 2230,
    "\u2581I": 2231,
    "mall": 2232,
    "\u2581haute": 2233,
    "\u2581\u00e9paule": 2234,
    "\u2581steep": 2235,
    "\u2581palm": 2236,
    "\u2581curb": 2237,
    "\u2581vid\u00e9o": 2238,
    "\u2581laundry": 2239,
    "\u2581salopette": 2240,
    "\u2581cot\u00e9": 2241,
    "\u2581gamin": 2242,
    "\u2581airplane": 2243,
    "\u2581passerelle": 2244,
    "affrontent": 2245,
    "\u2581dorm": 2246,
    "\u2581flight": 2247,
    "\u2581luge": 2248,
    "\u2581ledge": 2249,
    "\u2581cape": 2250,
    "\u2581professionnelle": 2251,
    "\u2581round": 2252,
    "\u2581\u00e9tang": 2253,
    "\u2581stool": 2254,
    "ight": 2255,
    "\u2581load": 2256,
    "\u2581customers": 2257,
    "\u2581comment": 2258,
    "\u2581opposi": 2259,
    "\u2581fingers": 2260,
    "\u2581marching": 2261,
    "\u2581climber": 2262,
    "\u2581lay": 2263,
    "\u2581pitch": 2264,
    "\u2581jour": 2265,
    "ce": 2266,
    "\u2581teenagers": 2267,
    "\u2581militaires": 2268,
    "\u2581hikers": 2269,
    "\u2581tombe": 2270,
    "\u2581books": 2271,
    "\u2581peau": 2272,
    "\u2581nature": 2273,
    "\u2581birds": 2274,
    "\u2581chain": 2275,
    "\u2581kicks": 2276,
    "\u2581fonc\u00e9e": 2277,
    "\u2581mouill\u00e9": 2278,
    "\u2581plaque": 2279,
    "men": 2280,
    "\u2581khaki": 2281,
    "\u2581rollers": 2282,
    "\u2581ouvre": 2283,
    "\u2581teenager": 2284,
    "appareil": 2285,
    "\u2581chemises": 2286,
    "\u2581athl\u00e8te": 2287,
    "\u2581volant": 2288,
    "\u2581pipe": 2289,
    "\u2581present": 2290,
    "\u2581machines": 2291,
    "\u2581parapluies": 2292,
    "\u2581peign": 2293,
    "\u2581clear": 2294,
    "\u2581c\u00e2lin": 2295,
    "\u2581cadeau": 2296,
    "\u2581VTT": 2297,
    "\u2581pyjama": 2298,
    "\u2581fabric": 2299,
    "\u2581imposant": 2300,
    "\u2581denim": 2301,
    "\u2581bandana": 2302,
    "\u2581backyard": 2303,
    "\u2581chaussette": 2304,
    "\u2581flaque": 2305,
    "\u2581cuisinier": 2306,
    "\u2581paddling": 2307,
    "\u2581Here": 2308,
    "\u2581humide": 2309,
    "\u2581attached": 2310,
    "amusent": 2311,
    "\u2581\u00e9claboussures": 2312,
    "\u2581evening": 2313,
    "\u2581pattes": 2314,
    "\u2581touristes": 2315,
    "\u2581shooting": 2316,
    "\u2581arena": 2317,
    "\u2581tee": 2318,
    "\u2581tracks": 2319,
    "\u2581bend": 2320,
    "\u2581colors": 2321,
    "\u2581tenir": 2322,
    "\u2581pr": 2323,
    "\u2581lies": 2324,
    "ssant": 2325,
    "\u2581jolie": 2326,
    "\u2581laugh": 2327,
    "\u2581camp": 2328,
    "\u00e9s": 2329,
    "sant": 2330,
    "\u2581gliss": 2331,
    "\u2581ship": 2332,
    "\u2581crouche": 2333,
    "\u2581shoot": 2334,
    "\u2581nap": 2335,
    "\u2581windows": 2336,
    "\u2581raft": 2337,
    "\u2581chevauch": 2338,
    "\u2581lasso": 2339,
    "\u2581tongue": 2340,
    "\u2581mound": 2341,
    "\u2581chambre": 2342,
    "\u2581keyboard": 2343,
    "\u2581rambarde": 2344,
    "\u2581serviette": 2345,
    "\u2581wheelchair": 2346,
    "\u2581alimentaire": 2347,
    "\u2581soldat": 2348,
    "\u2581si\u00e8ge": 2349,
    "\u2581cage": 2350,
    "\u2581floral": 2351,
    "\u2581ami": 2352,
    "\u2581\u00e9t\u00e9": 2353,
    "ts": 2354,
    "\u2581\u00e9ta": 2355,
    "\u2581argent": 2356,
    "\u2581attach\u00e9": 2357,
    "\u2581plane": 2358,
    "\u2581file": 2359,
    "\u2581feuille": 2360,
    "\u2581inflatable": 2361,
    "\u2581soul\u00e8ve": 2362,
    "\u2581attentivement": 2363,
    "\u2581pavement": 2364,
    "\u2581Child": 2365,
    "\u2581Japan": 2366,
    "\u2581luggage": 2367,
    "\u2581rues": 2368,
    "\u2581rayures": 2369,
    "\u2581warm": 2370,
    "\u2581cha\u00eene": 2371,
    "\u2581balade": 2372,
    "\u2581d\u00eener": 2373,
    "\u2581diff\u00e9rents": 2374,
    "\u2581poles": 2375,
    "\u2581regard": 2376,
    "h": 2377,
    "\u00e9t\u00e9": 2378,
    "amusant": 2379,
    "\u2581shade": 2380,
    "\u2581cones": 2381,
    "\u2581articles": 2382,
    "\u2581V": 2383,
    "la": 2384,
    "\u2581fenced": 2385,
    "\u2581live": 2386,
    "\u2581arbitre": 2387,
    "\u2581fer": 2388,
    "\u2581tile": 2389,
    "\u2581waters": 2390,
    "\u2581agenouill\u00e9": 2391,
    "\u2581wine": 2392,
    "isant": 2393,
    "\u2581directions": 2394,
    "\u2581pointe": 2395,
    "\u2581serre": 2396,
    "\u2581ear": 2397,
    "\u2581r": 2398,
    "\u2581bandanna": 2399,
    "\u2581fan": 2400,
    "\u2581cook": 2401,
    "\u2581hurdle": 2402,
    "\u2581container": 2403,
    "\u2581motos": 2404,
    "\u2581tricycle": 2405,
    "\u2581bottom": 2406,
    "\u2581portrait": 2407,
    "\u2581swimsuit": 2408,
    "\u2581d\u00e9cor": 2409,
    "\u2581tub": 2410,
    "\u2581verres": 2411,
    "oit": 2412,
    "\u2581\u00e9clair\u00e9e": 2413,
    "\u2581record": 2414,
    "\u2581radeau": 2415,
    "\u2581monument": 2416,
    "\u2581clavier": 2417,
    "\u2581married": 2418,
    "\u2581railroad": 2419,
    "\u2581tractor": 2420,
    "\u2581boivent": 2421,
    "\u2581joyeusement": 2422,
    "\u2581courtyard": 2423,
    "\u2581goalie": 2424,
    "\u2581rassemblement": 2425,
    "\u2581Santa": 2426,
    "\u2581model": 2427,
    "\u2581berger": 2428,
    "\u2581sea": 2429,
    "\u2581juggling": 2430,
    "and": 2431,
    "\u2581referee": 2432,
    "\u2581fast": 2433,
    "\u2581conf\u00e9rence": 2434,
    "\u2581tracteur": 2435,
    "\u2581landscape": 2436,
    "\u2581H": 2437,
    "\u2581boire": 2438,
    "\u2581descendre": 2439,
    "\u2581fris\u00e9": 2440,
    "tre": 2441,
    "\u2581indien": 2442,
    "\u2581nouvelle": 2443,
    "\u2581buying": 2444,
    "\u2581name": 2445,
    "ian": 2446,
    "\u2581chest": 2447,
    "\u2581compete": 2448,
    "atteindre": 2449,
    "C": 2450,
    "\u2581seat": 2451,
    "eign": 2452,
    "\u2581branches": 2453,
    "like": 2454,
    "entr\u00e9e": 2455,
    "rs": 2456,
    "\u2581laughs": 2457,
    "\u2581nageur": 2458,
    "\u2581passer": 2459,
    "\u2581footballeurs": 2460,
    "\u2581surfant": 2461,
    "\u2581linge": 2462,
    "\u2581outils": 2463,
    "\u2581discuss": 2464,
    "\u2581W": 2465,
    "yant": 2466,
    "\u2581m\u00e9lange": 2467,
    "\u2581pit": 2468,
    "\u2581fill": 2469,
    "\u2581d\u00e9serte": 2470,
    "talons": 2471,
    "\u2581eats": 2472,
    "\u2581appr\u00e9ci": 2473,
    "\u2581fr\u00e9quent\u00e9": 2474,
    "\u2581pancartes": 2475,
    "\u2581skirts": 2476,
    "\u2581low": 2477,
    "\u2581trottinette": 2478,
    "\u2581publicit\u00e9": 2479,
    "\u2581towel": 2480,
    "\u2581soldier": 2481,
    "\u2581musician": 2482,
    "\u2581footballeur": 2483,
    "\u2581rame": 2484,
    "\u00e9l\u00e8ves": 2485,
    "\u2581ha": 2486,
    "\u2581bouquet": 2487,
    "\u2581acousti": 2488,
    "\u2581allemand": 2489,
    "\u2581yoga": 2490,
    "\u2581banjo": 2491,
    "\u2581happily": 2492,
    "\u2581chauss\u00e9e": 2493,
    "\u2581natation": 2494,
    "\u2581adjust": 2495,
    "\u2581casual": 2496,
    "\u2581ceinture": 2497,
    "\u2581camionnette": 2498,
    "\u2581marketplace": 2499,
    "\u2581poussi\u00e8re": 2500,
    "\u2581chacun": 2501,
    "\u2581carriage": 2502,
    "\u2581garbage": 2503,
    "\u2581acoustique": 2504,
    "\u2581blouson": 2505,
    "\u2581feed": 2506,
    "\u2581coudre": 2507,
    "\u2581carpet": 2508,
    "\u2581ambulant": 2509,
    "\u2581sapin": 2510,
    "\u2581pajamas": 2511,
    "\u2581bucking": 2512,
    "\u2581socks": 2513,
    "\u2581Male": 2514,
    "\u2581fai": 2515,
    "\u2581backwards": 2516,
    "\u2581scaffolding": 2517,
    "\u2581ferm\u00e9s": 2518,
    "\u2581cheering": 2519,
    "\u2581bread": 2520,
    "\u2581adversaire": 2521,
    "\u2581touching": 2522,
    "line": 2523,
    "\u2581shape": 2524,
    "merican": 2525,
    "\u2581prise": 2526,
    "\u2581lead": 2527,
    "\u2581hay": 2528,
    "\u2581alpiniste": 2529,
    "ither": 2530,
    "\u2581wind": 2531,
    "\u2581goods": 2532,
    "\u2581parents": 2533,
    "\u2581tools": 2534,
    "\u2581vast": 2535,
    "\u2581soldiers": 2536,
    "\u2581fly": 2537,
    "\u2581step": 2538,
    "\u2581motorcycles": 2539,
    "\u2581you": 2540,
    "\u2581caresse": 2541,
    "\u2581shown": 2542,
    "appr\u00eat": 2543,
    "\u2581mustache": 2544,
    "\u2581protecti": 2545,
    "\u2581moves": 2546,
    "side": 2547,
    "\u2581support": 2548,
    "\u2581magazines": 2549,
    "\u2581pair": 2550,
    "\u2581pratique": 2551,
    "\u2581wrappe": 2552,
    "S": 2553,
    "skinn": 2554,
    "\u2581mais": 2555,
    "\u2581jerseys": 2556,
    "\u2581mo": 2557,
    "\u2581riders": 2558,
    "\u2581brillant": 2559,
    "\u2581shin": 2560,
    "\u2581rural": 2561,
    "\u2581b\u00e9ret": 2562,
    "\u2581circuit": 2563,
    "\u2581advertisement": 2564,
    "\u2581serr": 2565,
    "\u2581kilt": 2566,
    "ies": 2567,
    "\u2581groom": 2568,
    "\u2581bubble": 2569,
    "\u2581unique": 2570,
    "\u2581map": 2571,
    "ic": 2572,
    "\u2581sheep": 2573,
    "\u2581German": 2574,
    "\u2581athletic": 2575,
    "\u2581corpulent": 2576,
    "\u2581gradins": 2577,
    "\u2581mannequin": 2578,
    "\u2581turquoise": 2579,
    "\u2581plaza": 2580,
    "\u2581caught": 2581,
    "\u2581rebord": 2582,
    "\u2581White": 2583,
    "\u2581stove": 2584,
    "\u2581airport": 2585,
    "\u2581pagaie": 2586,
    "\u2581underwater": 2587,
    "\u2581compos\u00e9": 2588,
    "\u2581welding": 2589,
    "\u2581discuter": 2590,
    "sleeved": 2591,
    "\u2581teacher": 2592,
    "\u2581bassin": 2593,
    "\u2581serving": 2594,
    "\u2581pouce": 2595,
    "\u2581mobile": 2596,
    "\u2581buissons": 2597,
    "\u2581harness": 2598,
    "\u2581peace": 2599,
    "\u2581dining": 2600,
    "\u2581battant": 2601,
    "argent": 2602,
    "\u2581raised": 2603,
    "\u2581ar\u00e8ne": 2604,
    "\u2581foin": 2605,
    "\u2581blocs": 2606,
    "embrassant": 2607,
    "\u2581coach": 2608,
    "\u2581living": 2609,
    "\u2581mord": 2610,
    "\u2581tirer": 2611,
    "\u2581dry": 2612,
    "\u2581repos": 2613,
    "\u2581pos\u00e9": 2614,
    "volant": 2615,
    "ping": 2616,
    "way": 2617,
    "\u2581vives": 2618,
    "\u2581shak": 2619,
    "\u2581cartes": 2620,
    "\u2581poissons": 2621,
    "\u2581participat": 2622,
    "amp": 2623,
    "\u2581paints": 2624,
    "\u2581poil": 2625,
    "\u2581ajuste": 2626,
    "\u2581i": 2627,
    "fully": 2628,
    "P": 2629,
    "\u2581animals": 2630,
    "\u2581turban": 2631,
    "\u2581gobelet": 2632,
    "\u2581student": 2633,
    "\u2581\u00e9chafaudage": 2634,
    "ew": 2635,
    "\u2581soude": 2636,
    "\u2581\u00e9tan": 2637,
    "\u2581kiosque": 2638,
    "\u2581manifestation": 2639,
    "\u2581adoss\u00e9": 2640,
    "\u2581polka": 2641,
    "\u2581plafond": 2642,
    "\u2581t\u00e9l\u00e9phonique": 2643,
    "\u2581haircut": 2644,
    "\u2581Street": 2645,
    "\u2581nettoyer": 2646,
    "\u2581native": 2647,
    "\u2581gravel": 2648,
    "\u2581fluo": 2649,
    "\u2581st": 2650,
    "\u2581half": 2651,
    "\u2581tongs": 2652,
    "\u2581operating": 2653,
    "\u2581mom": 2654,
    "\u2581identiques": 2655,
    "\u2581bateaux": 2656,
    "\u2581glaces": 2657,
    "\u2581hooded": 2658,
    "\u2581rire": 2659,
    "\u2581backpacks": 2660,
    "\u2581engage": 2661,
    "\u2581marchandises": 2662,
    "\u2581hood": 2663,
    "\u2581pris": 2664,
    "\u2581graviss": 2665,
    "\u2581p\u00eacheur": 2666,
    "\u2581boats": 2667,
    "\u2581cabine": 2668,
    "\u2581herbes": 2669,
    "lays": 2670,
    "\u2581ordures": 2671,
    "adultes": 2672,
    "\u2581arrive": 2673,
    "\u2581thrown": 2674,
    "attractions": 2675,
    "\u2581skateboards": 2676,
    "\u2581ramass": 2677,
    "\u2581ancien": 2678,
    "\u2581colle": 2679,
    "\u2581savoure": 2680,
    "\u2581multicolores": 2681,
    "\u2581wa": 2682,
    "\u2581grilling": 2683,
    "\u2581runners": 2684,
    "\u2581tir\u00e9": 2685,
    "\u2581walls": 2686,
    "\u2581\u00e9clair\u00e9": 2687,
    "\u2581pro": 2688,
    "\u2581ouvert": 2689,
    "\u2581bouteilles": 2690,
    "\u2581fin": 2691,
    "uvre": 2692,
    "\u2581murs": 2693,
    "\u2581peer": 2694,
    "vant": 2695,
    "\u2581pack": 2696,
    "\u2581droit": 2697,
    "\u2581rang": 2698,
    "\u2581routine": 2699,
    "\u2581publicitaire": 2700,
    "\u2581opponent": 2701,
    "\u2581\u00e9tranger": 2702,
    "\u2581magnifique": 2703,
    "\u2581visages": 2704,
    "n\u00e9": 2705,
    "\u2581chaussure": 2706,
    "\u2581ordinateurs": 2707,
    "\u2581individual": 2708,
    "\u2581bord\u00e9": 2709,
    "\u2581flottant": 2710,
    "\u2581touch": 2711,
    "\u2581wire": 2712,
    "\u2581wi": 2713,
    "\u2581protest": 2714,
    "pt": 2715,
    "\u2581pleure": 2716,
    "\u2581ATV": 2717,
    "\u2581auditorium": 2718,
    "\u2581pizza": 2719,
    "\u2581r\u00e9cipient": 2720,
    "\u2581vitesse": 2721,
    "\u2581discours": 2722,
    "\u2581bathroom": 2723,
    "\u2581headscarf": 2724,
    "\u2581presentation": 2725,
    "\u2581hallway": 2726,
    "\u2581DJ": 2727,
    "\u2581orchestra": 2728,
    "\u2581youth": 2729,
    "\u2581probabl": 2730,
    "\u2581d\u00e9jeuner": 2731,
    "\u2581candy": 2732,
    "\u2581gazon": 2733,
    "\u2581ressemblant": 2734,
    "\u2581cuisinant": 2735,
    "\u2581danseurs": 2736,
    "\u2581commence": 2737,
    "\u2581lacrosse": 2738,
    "\u2581dormir": 2739,
    "\u2581redhead": 2740,
    "ked": 2741,
    "\u2581sink": 2742,
    "\u2581heels": 2743,
    "\u2581things": 2744,
    "\u2581Europe": 2745,
    "\u2581money": 2746,
    "\u2581checkered": 2747,
    "\u2581spread": 2748,
    "\u2581charge": 2749,
    "\u2581pedestrians": 2750,
    "\u2581allong\u00e9s": 2751,
    "\u2581wide": 2752,
    "\u2581toucher": 2753,
    "arrow": 2754,
    "\u2581tomber": 2755,
    "\u2581passagers": 2756,
    "\u2581farm": 2757,
    "origine": 2758,
    "me": 2759,
    "\u2581approach": 2760,
    "p": 2761,
    "\u2581c\u00f4nes": 2762,
    "\u2581fleur": 2763,
    "red": 2764,
    "\u2581cover": 2765,
    "\u2581jongle": 2766,
    "\u2581frais": 2767,
    "\u2581rafting": 2768,
    "\u2581menu": 2769,
    "\u2581Sur": 2770,
    "\u2581si\u00e8ges": 2771,
    "\u2581cartons": 2772,
    "\u2581po": 2773,
    "\u00e9cole": 2774,
    "\u2581sleeve": 2775,
    "\u2581dit": 2776,
    "O": 2777,
    "\u2581oiseaux": 2778,
    "\u2581motards": 2779,
    "\u2581cyclists": 2780,
    "\u2581photographs": 2781,
    "\u2581ca": 2782,
    "\u2581benches": 2783,
    "\u2581types": 2784,
    "\u2581attrap": 2785,
    "\u2581mudd": 2786,
    "\u2581construis": 2787,
    "\u2581aid": 2788,
    "\u2581interact": 2789,
    "\u2581vehicles": 2790,
    "\u2581fil": 2791,
    "\u2581cone": 2792,
    "down": 2793,
    "\u2581aire": 2794,
    "\u2581pan": 2795,
    "\u2581fauteuils": 2796,
    "\u2581ramasse": 2797,
    "\u2581danser": 2798,
    "ufs": 2799,
    "ped": 2800,
    "\u2581drummer": 2801,
    "issant": 2802,
    "\u2581gant": 2803,
    "\u2581jumpsuit": 2804,
    "\u2581soda": 2805,
    "\u2581pr\u00e9": 2806,
    "\u2581design": 2807,
    "\u2581ropes": 2808,
    "\u2581tool": 2809,
    "\u2581craft": 2810,
    "\u2581grab": 2811,
    "\u2581heart": 2812,
    "\u2581ballet": 2813,
    "\u2581contr\u00f4le": 2814,
    "\u2581harnais": 2815,
    "\u2581l\u00e9vrier": 2816,
    "\u2581v\u00e9t\u00e9tiste": 2817,
    "\u2581t\u00e9l\u00e9vision": 2818,
    "\u2581blazer": 2819,
    "\u2581speech": 2820,
    "\u2581entrance": 2821,
    "\u2581patinoire": 2822,
    "\u2581Brown": 2823,
    "\u2581racetrack": 2824,
    "\u2581ceiling": 2825,
    "\u2581l\u00e9g\u00e8rement": 2826,
    "\u2581badge": 2827,
    "\u2581r\u00e9cup\u00e9rer": 2828,
    "\u2581trompette": 2829,
    "\u2581tatou\u00e9": 2830,
    "\u2581machinery": 2831,
    "\u2581grimpant": 2832,
    "\u2581leaf": 2833,
    "embrassent": 2834,
    "\u2581p\u00e2te": 2835,
    "\u2581puck": 2836,
    "\u2581hospital": 2837,
    "\u2581pattern": 2838,
    "\u2581policeman": 2839,
    "\u2581summer": 2840,
    "\u2581chaude": 2841,
    "am\u00e9ricaine": 2842,
    "\u2581aliments": 2843,
    "\u2581relax": 2844,
    "\u2581racer": 2845,
    "\u2581travailleurs": 2846,
    "\u2581passengers": 2847,
    "\u2581chanter": 2848,
    "\u2581africains": 2849,
    "\u2581pourchass": 2850,
    "\u2581St": 2851,
    "\u2581pr\u00e9parer": 2852,
    "\u2581stra": 2853,
    "\u2581grille": 2854,
    "\u2581basse": 2855,
    "\u2581guide": 2856,
    "\u2581sword": 2857,
    "\u2581sets": 2858,
    "\u2581pr\u00eats": 2859,
    "\u2581snowboarding": 2860,
    "\u2581oreilles": 2861,
    "\u2581animaux": 2862,
    "\u2581planches": 2863,
    "\u2581urbaine": 2864,
    "\u00e9quilibre": 2865,
    "\u2581ears": 2866,
    "\u2581tomb\u00e9": 2867,
    "\u2581pins": 2868,
    "\u2581ho": 2869,
    "\u2581casquettes": 2870,
    "\u2581we": 2871,
    "ate": 2872,
    "\u2581suspende": 2873,
    "\u2581inspecte": 2874,
    "\u2581rests": 2875,
    "\u2581filets": 2876,
    "\u2581overlook": 2877,
    "\u2581dor\u00e9": 2878,
    "voie": 2879,
    "\u2581v\u00e9hicules": 2880,
    "\u2581sortant": 2881,
    "\u2581sha": 2882,
    "\u2581carte": 2883,
    "\u2581tag": 2884,
    "\u2581agenouill\u00e9e": 2885,
    "\u2581tops": 2886,
    "\u2581bancs": 2887,
    "\u2581branche": 2888,
    "\u2581m\u00e9talliques": 2889,
    "\u2581read": 2890,
    "\u2581si": 2891,
    "\u2581tambour": 2892,
    "\u2581raise": 2893,
    "\u2581froid": 2894,
    "\u2581\u00e9trange": 2895,
    "\u2581gravier": 2896,
    "\u2581rowing": 2897,
    "ful": 2898,
    "\u2581r\u00e9par": 2899,
    "\u2581trumpet": 2900,
    "\u2581automatique": 2901,
    "les": 2902,
    "\u2581beverage": 2903,
    "\u2581formation": 2904,
    "\u2581grimace": 2905,
    "\u2581pneu": 2906,
    "\u2581cleans": 2907,
    "\u2581glove": 2908,
    "\u2581good": 2909,
    "\u2581visit": 2910,
    "\u2581John": 2911,
    "\u2581bois\u00e9": 2912,
    "\u2581smoke": 2913,
    "\u2581beam": 2914,
    "\u2581visible": 2915,
    "\u2581tr": 2916,
    "\u2581palet": 2917,
    "\u2581bow": 2918,
    "\u2581bear": 2919,
    "\u2581form": 2920,
    "\u2581buy": 2921,
    "\u2581voyage": 2922,
    "\u2581per": 2923,
    "\u2581d\u00e9tend": 2924,
    "\u2581biblioth\u00e8que": 2925,
    "\u2581museum": 2926,
    "\u2581ornate": 2927,
    "\u2581quarterback": 2928,
    "\u2581Blond": 2929,
    "\u2581donkey": 2930,
    "\u2581align\u00e9s": 2931,
    "\u2581Crowd": 2932,
    "\u2581herself": 2933,
    "\u2581chanson": 2934,
    "\u2581cr\u00eate": 2935,
    "\u2581peindre": 2936,
    "\u2581boardwalk": 2937,
    "\u2581accident": 2938,
    "\u2581rapidement": 2939,
    "\u2581possibly": 2940,
    "\u2581horseback": 2941,
    "\u2581paix": 2942,
    "\u2581spinning": 2943,
    "\u2581hillside": 2944,
    "\u2581stopped": 2945,
    "\u2581lave": 2946,
    "\u2581rais": 2947,
    "\u2581a\u00e9rienne": 2948,
    "\u2581african": 2949,
    "ll": 2950,
    "\u2581achet": 2951,
    "\u2581boueuse": 2952,
    "\u2581bushes": 2953,
    "\u2581mus\u00e9e": 2954,
    "\u2581moteur": 2955,
    "\u2581chanteuse": 2956,
    "\u2581Red": 2957,
    "i\u00e8re": 2958,
    "\u2581incendie": 2959,
    "\u2581keep": 2960,
    "\u2581nagent": 2961,
    "\u2581maman": 2962,
    "\u2581wrestler": 2963,
    "cuba": 2964,
    "\u2581bro": 2965,
    "\u2581partielle": 2966,
    "\u2581paddle": 2967,
    "\u2581crosses": 2968,
    "\u2581color": 2969,
    "\u2581\u00e9criv": 2970,
    "b": 2971,
    "\u2581flipp": 2972,
    "able": 2973,
    "\u2581ballerine": 2974,
    "ciel": 2975,
    "amis": 2976,
    "\u2581serve": 2977,
    "\u2581faux": 2978,
    "\u2581batter": 2979,
    "\u2581pots": 2980,
    "\u2581balles": 2981,
    "\u2581rough": 2982,
    "\u2581g\u00e9ant": 2983,
    "quel": 2984,
    "\u2581bikers": 2985,
    "\u2581rails": 2986,
    "ry": 2987,
    "\u2581install": 2988,
    "\u2581accroupie": 2989,
    "ning": 2990,
    "\u2581portables": 2991,
    "\u2581song": 2992,
    "\u2581choses": 2993,
    "\u2581scooters": 2994,
    "\u2581participate": 2995,
    "\u2581tropical": 2996,
    "uff": 2997,
    "\u2581slides": 2998,
    "pping": 2999,
    "\u2581poitrine": 3000,
    "\u2581couples": 3001,
    "des": 3002,
    "\u2581snack": 3003,
    "\u2581motorcyclist": 3004,
    "\u2581v\u00eatement": 3005,
    "che": 3006,
    "\u2581vitre": 3007,
    "accroche": 3008,
    "\u2581c\u00f4ne": 3009,
    "\u2581dust": 3010,
    "vent": 3011,
    "mment": 3012,
    "\u2581cheer": 3013,
    "\u2581moustache": 3014,
    "\u2581r\u00e9fl\u00e9chissant": 3015,
    "\u2581enseigne": 3016,
    "ns": 3017,
    "\u2581lampe": 3018,
    "\u2581bijoux": 3019,
    "\u2581nautique": 3020,
    "\u2581billard": 3021,
    "\u2581journaux": 3022,
    "\u2581maroon": 3023,
    "\u2581miniature": 3024,
    "\u2581neighborhood": 3025,
    "\u2581Moyen": 3026,
    "\u2581atelier": 3027,
    "\u2581coiffure": 3028,
    "\u2581maquillage": 3029,
    "\u2581tramway": 3030,
    "\u2581carnaval": 3031,
    "\u2581Coca": 3032,
    "\u2581brouette": 3033,
    "\u2581cobble": 3034,
    "\u2581puppy": 3035,
    "\u2581celebrating": 3036,
    "\u2581collection": 3037,
    "\u2581outstretched": 3038,
    "\u2581Homme": 3039,
    "\u2581squatting": 3040,
    "\u2581sportif": 3041,
    "\u2581vu": 3042,
    "\u2581africaine": 3043,
    "\u2581firetruck": 3044,
    "\u2581great": 3045,
    "\u2581cabane": 3046,
    "\u2581flanc": 3047,
    "\u2581fencing": 3048,
    "\u2581foire": 3049,
    "\u2581talent": 3050,
    "\u2581papa": 3051,
    "\u2581panneaux": 3052,
    "amuse": 3053,
    "\u2581clay": 3054,
    "\u2581dishes": 3055,
    "rubber": 3056,
    "\u2581expression": 3057,
    "\u2581handstand": 3058,
    "\u2581battre": 3059,
    "\u2581mall": 3060,
    "\u2581garde": 3061,
    "\u2581service": 3062,
    "\u2581d\u00e9contract\u00e9e": 3063,
    "\u2581scouts": 3064,
    "\u2581al": 3065,
    "\u2581entra\u00eeneur": 3066,
    "\u2581Texas": 3067,
    "\u2581c\u00f4t\u00e9s": 3068,
    "\u2581plongeur": 3069,
    "\u2581farmer": 3070,
    "\u2581plancher": 3071,
    "\u2581semi": 3072,
    "\u2581enter": 3073,
    "\u2581attention": 3074,
    "\u2581creuse": 3075,
    "\u2581seats": 3076,
    "\u2581sculpt": 3077,
    "\u2581converse": 3078,
    "\u2581circule": 3079,
    "\u2581pen": 3080,
    "\u2581indoors": 3081,
    "\u2581marine": 3082,
    "\u2581levant": 3083,
    "\u2581dish": 3084,
    "occupe": 3085,
    "\u2581arc": 3086,
    "\u2581calm": 3087,
    "\u2581ahead": 3088,
    "\u2581Bo": 3089,
    "corps": 3090,
    "ard": 3091,
    "\u2581bare": 3092,
    "\u2581pench\u00e9e": 3093,
    "\u2581drill": 3094,
    "\u00e9es": 3095,
    "\u2581am\u00e9ricains": 3096,
    "\u2581buckets": 3097,
    "\u2581pa": 3098,
    "\u2581dessous": 3099,
    "\u2581decorate": 3100,
    "\u2581guitarist": 3101,
    "\u2581bottles": 3102,
    "\u2581\u00e9tudiant": 3103,
    "ally": 3104,
    "\u2581argent\u00e9": 3105,
    "\u2581plates": 3106,
    "\u2581dessine": 3107,
    "\u2581mini": 3108,
    "\u2581baril": 3109,
    "\u2581sack": 3110,
    "abri": 3111,
    "\u2581couche": 3112,
    "ries": 3113,
    "\u2581heureuse": 3114,
    "\u2581professionnel": 3115,
    "\u2581papillon": 3116,
    "\u2581ombrelle": 3117,
    "\u2581fusil": 3118,
    "\u2581doctor": 3119,
    "\u2581storefront": 3120,
    "\u2581cerf": 3121,
    "\u2581swimmer": 3122,
    "\u2581finger": 3123,
    "\u2581chiot": 3124,
    "\u2581broom": 3125,
    "\u2581item": 3126,
    "\u2581belt": 3127,
    "\u2581wakeboard": 3128,
    "tte": 3129,
    "\u2581branch": 3130,
    "\u2581br": 3131,
    "\u2581brique": 3132,
    "\u2581microphones": 3133,
    "\u2581pet": 3134,
    "\u2581paire": 3135,
    "\u2581wrestle": 3136,
    "\u2581agit": 3137,
    "\u2581order": 3138,
    "\u2581aquarium": 3139,
    "\u2581montgolfi\u00e8re": 3140,
    "\u2581patauge": 3141,
    "\u2581Square": 3142,
    "\u2581nacelle": 3143,
    "\u2581pinata": 3144,
    "\u2581victoire": 3145,
    "\u2581conducteur": 3146,
    "\u2581calf": 3147,
    "\u2581gymnastique": 3148,
    "\u2581wife": 3149,
    "flops": 3150,
    "\u2581scenery": 3151,
    "\u2581chalk": 3152,
    "\u2581admire": 3153,
    "\u2581disput": 3154,
    "\u2581canal": 3155,
    "\u2581ballerina": 3156,
    "\u2581rocheux": 3157,
    "\u2581ventre": 3158,
    "\u2581stretching": 3159,
    "\u2581partout": 3160,
    "\u2581newly": 3161,
    "\u2581carving": 3162,
    "\u2581crew": 3163,
    "\u2581tap": 3164,
    "\u2581f\u00e9minin": 3165,
    "\u2581fum\u00e9e": 3166,
    "\u2581ch\u00e2teau": 3167,
    "\u2581crouching": 3168,
    "\u2581agite": 3169,
    "\u2581odd": 3170,
    "\u2581cheerleaders": 3171,
    "\u2581first": 3172,
    "\u2581choir": 3173,
    "\u2581palmiers": 3174,
    "\u2581space": 3175,
    "\u2581cool": 3176,
    "\u2581ro": 3177,
    "go": 3178,
    "\u2581iron": 3179,
    "\u2581stones": 3180,
    "\u2581stripes": 3181,
    "\u2581sortie": 3182,
    "\u2581vente": 3183,
    "\u2581skates": 3184,
    "\u2581stares": 3185,
    "\u2581coloring": 3186,
    "\u2581hugs": 3187,
    "\u2581observent": 3188,
    "\u2581kite": 3189,
    "\u2581crafts": 3190,
    "\u2581amid": 3191,
    "\u2581smokes": 3192,
    "\u2581rink": 3193,
    "\u2581maisons": 3194,
    "\u2581gas": 3195,
    "\u2581hi": 3196,
    "\u2581sing": 3197,
    "\u2581receiv": 3198,
    "\u2581bois\u00e9e": 3199,
    "\u2581attach\u00e9s": 3200,
    "\u2581Asiatiques": 3201,
    "\u2581tatouages": 3202,
    "utiliser": 3203,
    "\u2581boi": 3204,
    "\u2581arme": 3205,
    "\u2581boxing": 3206,
    "born": 3207,
    "\u2581roues": 3208,
    "\u2581caisses": 3209,
    "\u2581nav": 3210,
    "\u2581crie": 3211,
    "\u2581filme": 3212,
    "\u2581barres": 3213,
    "\u2581cla": 3214,
    "ggy": 3215,
    "\u2581bande": 3216,
    "\u2581pilot": 3217,
    "\u2581apartment": 3218,
    "\u2581rase": 3219,
    "\u2581d\u00e9coupe": 3220,
    "as": 3221,
    "arbitre": 3222,
    "\u2581hoops": 3223,
    "\u2581knit": 3224,
    "\u2581splashe": 3225,
    "\u2581guitars": 3226,
    "\u2581tattoos": 3227,
    "\u2581complet": 3228,
    "\u2581images": 3229,
    "\u2581scie": 3230,
    "stone": 3231,
    "aring": 3232,
    "\u2581bowls": 3233,
    "\u2581bit": 3234,
    "ue": 3235,
    "\u2581bite": 3236,
    "\u2581paniers": 3237,
    "\u2581reflecti": 3238,
    "\u2581liquid": 3239,
    "\u2581wrap": 3240,
    "\u2581lamp": 3241,
    "gets": 3242,
    "chases": 3243,
    "nding": 3244,
    "embras": 3245,
    "envers": 3246,
    "ned": 3247,
    "\u2581sofa": 3248,
    "\u2581cr\u00e2ne": 3249,
    "\u2581traditionnel": 3250,
    "\u2581banderole": 3251,
    "\u2581motorbike": 3252,
    "\u2581individu": 3253,
    "\u2581artistique": 3254,
    "\u2581banner": 3255,
    "\u2581free": 3256,
    "\u2581canard": 3257,
    "\u2581vegetable": 3258,
    "\u2581sprinkler": 3259,
    "\u2581boutique": 3260,
    "\u2581barrel": 3261,
    "\u2581member": 3262,
    "\u2581medic": 3263,
    "\u2581far": 3264,
    "\u2581char": 3265,
    "\u2581sweep": 3266,
    "\u2581mop": 3267,
    "\u2581\u00e9cossaise": 3268,
    "\u2581draw": 3269,
    "\u2581tra\u00eeneau": 3270,
    "pped": 3271,
    "\u2581duck": 3272,
    "honneur": 3273,
    "\u2581caoutchouc": 3274,
    "\u2581cornemuse": 3275,
    "\u2581cr\u00e9puscule": 3276,
    "\u2581fanfare": 3277,
    "\u2581gymnasium": 3278,
    "\u2581xylophone": 3279,
    "\u2581material": 3280,
    "\u2581monocycle": 3281,
    "\u2581baignoire": 3282,
    "\u2581Middle": 3283,
    "\u2581m\u00e9tier": 3284,
    "\u2581stairway": 3285,
    "\u2581receveur": 3286,
    "\u2581caddie": 3287,
    "\u2581furniture": 3288,
    "\u2581second": 3289,
    "\u2581conference": 3290,
    "\u2581cr\u00e8me": 3291,
    "\u2581dimly": 3292,
    "\u2581greyhound": 3293,
    "\u2581craie": 3294,
    "\u2581jeep": 3295,
    "\u2581partially": 3296,
    "\u2581intently": 3297,
    "\u2581laverie": 3298,
    "\u2581buffet": 3299,
    "\u2581nourrisson": 3300,
    "\u2581nighttime": 3301,
    "\u2581foraine": 3302,
    "\u2581library": 3303,
    "\u2581similar": 3304,
    "\u2581angel": 3305,
    "\u2581parquet": 3306,
    "\u2581bou\u00e9e": 3307,
    "\u00e9loignant": 3308,
    "\u2581castle": 3309,
    "\u2581moped": 3310,
    "\u2581poteaux": 3311,
    "\u2581toge": 3312,
    "\u2581crane": 3313,
    "\u2581marbre": 3314,
    "\u2581lecture": 3315,
    "\u2581logo": 3316,
    "\u2581benne": 3317,
    "\u2581circulant": 3318,
    "\u2581flotte": 3319,
    "\u2581tower": 3320,
    "\u2581meeting": 3321,
    "\u2581s\u00e8che": 3322,
    "\u2581act": 3323,
    "\u2581\u00e9coutent": 3324,
    "irthday": 3325,
    "arriv\u00e9e": 3326,
    "\u2581following": 3327,
    "\u2581unicycle": 3328,
    "\u2581immense": 3329,
    "ling": 3330,
    "\u2581double": 3331,
    "\u2581bougies": 3332,
    "\u2581cl\u00f4tur\u00e9e": 3333,
    "\u2581candles": 3334,
    "\u2581d\u00e9guis\u00e9s": 3335,
    "\u2581vaisselle": 3336,
    "\u2581bonnets": 3337,
    "\u2581propos": 3338,
    "\u2581listens": 3339,
    "\u2581trailer": 3340,
    "entra\u00eenant": 3341,
    "use": 3342,
    "Cola": 3343,
    "\u2581muzzle": 3344,
    "ke": 3345,
    "\u2581pieces": 3346,
    "\u2581moderne": 3347,
    "\u2581cr": 3348,
    "\u2581barber": 3349,
    "\u2581balding": 3350,
    "\u2581toges": 3351,
    "ient": 3352,
    "\u2581tied": 3353,
    "\u2581saisi": 3354,
    "ncy": 3355,
    "ken": 3356,
    "\u2581plante": 3357,
    "U": 3358,
    "\u2581share": 3359,
    "\u2581\u00e2ne": 3360,
    "\u2581tenu": 3361,
    "\u2581liquide": 3362,
    "\u2581retourne": 3363,
    "\u2581N": 3364,
    "\u2581individus": 3365,
    "\u2581d\u00e9cor\u00e9": 3366,
    "arge": 3367,
    "\u2581surrounding": 3368,
    "\u2581control": 3369,
    "\u2581voies": 3370,
    "\u2581cast": 3371,
    "\u2581wheels": 3372,
    "\u2581viewing": 3373,
    "\u2581loung": 3374,
    "escalier": 3375,
    "\u2581motor": 3376,
    "\u2581saw": 3377,
    "\u2581amuse": 3378,
    "dessous": 3379,
    "ept": 3380,
    "\u2581Girls": 3381,
    "\u2581cache": 3382,
    "\u2581skieurs": 3383,
    "\u2581tackle": 3384,
    "illy": 3385,
    "juste": 3386,
    "\u2581bandeau": 3387,
    "\u2581dames": 3388,
    "\u2581lounge": 3389,
    "our": 3390,
    "folding": 3391,
    "\u2581me": 3392,
    "\u2581micros": 3393,
    "\u2581allong\u00e9es": 3394,
    "\u2581thin": 3395,
    "\u2581protect": 3396,
    "\u2581africain": 3397,
    "\u2581sales": 3398,
    "so": 3399,
    "\u2581creus": 3400,
    "\u2581involv": 3401,
    "\u2581doors": 3402,
    "\u2581clowns": 3403,
    "\u2581computers": 3404,
    "\u2581tribal": 3405,
    "sert": 3406,
    "\u2581anim\u00e9": 3407,
    "\u2581gaz": 3408,
    "tered": 3409,
    "ou": 3410,
    "\u2581seaux": 3411,
    "\u2581modern": 3412,
    "\u2581lampadaire": 3413,
    "\u2581spoon": 3414,
    "\u2581electronic": 3415,
    "\u2581headband": 3416,
    "\u2581elephant": 3417,
    "\u2581scolaire": 3418,
    "\u2581poup\u00e9e": 3419,
    "\u2581m\u00e9decin": 3420,
    "\u2581ribbon": 3421,
    "\u2581valise": 3422,
    "\u2581necklace": 3423,
    "\u2581teammate": 3424,
    "\u2581crayon": 3425,
    "\u2581lines": 3426,
    "\u2581geste": 3427,
    "he": 3428,
    "\u2581Ma": 3429,
    "\u2581City": 3430,
    "\u2581col": 3431,
    "\u2581horn": 3432,
    "\u2581objects": 3433,
    "\u2581camel": 3434,
    "\u2581corn": 3435,
    "\u2581chaud": 3436,
    "dog": 3437,
    "\u2581discute": 3438,
    "ze": 3439,
    "\u2581cerceau": 3440,
    "escrime": 3441,
    "\u2581London": 3442,
    "\u2581Walmart": 3443,
    "\u2581advertising": 3444,
    "\u2581badauds": 3445,
    "\u2581fra\u00eeche": 3446,
    "\u2581professeur": 3447,
    "\u2581stomach": 3448,
    "\u2581jewelry": 3449,
    "\u2581senior": 3450,
    "\u2581destination": 3451,
    "\u2581applaudissent": 3452,
    "\u2581billboard": 3453,
    "\u2581rainbow": 3454,
    "\u2581casino": 3455,
    "\u2581poign\u00e9e": 3456,
    "\u2581\u00e9cart\u00e9s": 3457,
    "\u2581steel": 3458,
    "\u2581celui": 3459,
    "\u2581pistolet": 3460,
    "\u2581television": 3461,
    "\u2581r\u00e9gion": 3462,
    "\u2581r\u00e9unissent": 3463,
    "\u2581voilier": 3464,
    "\u2581return": 3465,
    "\u2581forward": 3466,
    "\u2581consist": 3467,
    "\u2581envelopp\u00e9": 3468,
    "\u2581called": 3469,
    "\u2581flute": 3470,
    "\u2581trench": 3471,
    "\u2581tombant": 3472,
    "\u2581leggings": 3473,
    "\u2581bundle": 3474,
    "\u2581observing": 3475,
    "\u2581marquer": 3476,
    "\u2581d\u00e9tendent": 3477,
    "\u2581bonbons": 3478,
    "ooks": 3479,
    "\u2581l\u00e8vres": 3480,
    "\u2581re\u00e7oi": 3481,
    "\u2581fireman": 3482,
    "\u2581imperm\u00e9able": 3483,
    "\u2581\u00e9lectronique": 3484,
    "\u2581huit": 3485,
    "\u2581na": 3486,
    "\u2581piercing": 3487,
    "c\u00f4t\u00e9": 3488,
    "\u2581Multip": 3489,
    "\u2581learn": 3490,
    "\u2581tri": 3491,
    "\u2581lev\u00e9s": 3492,
    "\u2581\u00e9toffe": 3493,
    "\u2581toile": 3494,
    "\u2581doll": 3495,
    "\u2581plumes": 3496,
    "\u2581theater": 3497,
    "\u2581exit": 3498,
    "\u2581cr\u00e9e": 3499,
    "\u2581catcher": 3500,
    "\u2581Elmo": 3501,
    "\u2581kitesurf": 3502,
    "embrasser": 3503,
    "\u2581follows": 3504,
    "\u2581bordure": 3505,
    "\u2581see": 3506,
    "\u2581crayons": 3507,
    "ined": 3508,
    "\u2581notes": 3509,
    "\u2581non": 3510,
    "\u2581laver": 3511,
    "\u2581acheter": 3512,
    "\u2581manche": 3513,
    "\u00e9gale": 3514,
    "\u2581Whi": 3515,
    "\u2581lutte": 3516,
    "\u2581Je": 3517,
    "\u2581froide": 3518,
    "neath": 3519,
    "\u2581assistant": 3520,
    "\u2581shades": 3521,
    "semblant": 3522,
    "\u2581bars": 3523,
    "sleeve": 3524,
    "\u2581embrasse": 3525,
    "\u2581documents": 3526,
    "\u2581exposition": 3527,
    "\u2581camions": 3528,
    "\u2581athl\u00e8tes": 3529,
    "\u2581bi": 3530,
    "\u2581peek": 3531,
    "\u2581dead": 3532,
    "\u2581land": 3533,
    "\u2581guns": 3534,
    "\u2581pr\u00e9sente": 3535,
    "\u2581pu": 3536,
    "\u2581Blu": 3537,
    "\u2581coiffe": 3538,
    "\u2581li": 3539,
    "em": 3540,
    "approche": 3541,
    "\u2581turns": 3542,
    "entra\u00eene": 3543,
    "\u2581got": 3544,
    "entra\u00eenement": 3545,
    "horizon": 3546,
    "\u2581verse": 3547,
    "ill": 3548,
    "aire": 3549,
    "\u2581Time": 3550,
    "\u2581moi": 3551,
    "\u2581shovels": 3552,
    "\u2581pench": 3553,
    "\u2581ju": 3554,
    "\u2581pushe": 3555,
    "car": 3556,
    "\u2581nets": 3557,
    "\u2581sculptures": 3558,
    "\u2581client": 3559,
    "\u2581bac": 3560,
    "\u2581\u00e9tal": 3561,
    "\u2581whil": 3562,
    "E": 3563,
    "\u2581gar\u00e9": 3564,
    "\u2581ext\u00e9rieure": 3565,
    "\u2581pine": 3566,
    "\u2581tir\u00e9e": 3567,
    "iers": 3568,
    "\u2581passants": 3569,
    "\u2581dive": 3570,
    "\u2581vo": 3571,
    "\u2581follow": 3572,
    "\u2581claire": 3573,
    "\u2581gift": 3574,
    "tandi": 3575,
    "\u2581scientifique": 3576,
    "\u2581McDonald": 3577,
    "\u2581co\u00e9quipier": 3578,
    "\u2581ferr\u00e9e": 3579,
    "\u2581pirate": 3580,
    "\u2581pillow": 3581,
    "\u2581document": 3582,
    "\u2581pigeon": 3583,
    "\u2581passenger": 3584,
    "\u2581trunk": 3585,
    "T": 3586,
    "\u2581attraction": 3587,
    "\u2581dribble": 3588,
    "\u2581El": 3589,
    "\u2581navigue": 3590,
    "ky": 3591,
    "D": 3592,
    "\u2581apple": 3593,
    "\u2581couteau": 3594,
    "\u2581Caucasian": 3595,
    "\u2581Cheerleaders": 3596,
    "\u2581Jenga": 3597,
    "\u2581bulldozer": 3598,
    "\u2581d\u00e9garni": 3599,
    "\u2581premi\u00e8re": 3600,
    "\u2581prochain": 3601,
    "\u2581prot\u00e8ge": 3602,
    "\u2581rickshaw": 3603,
    "\u2581r\u00e9p\u00e8te": 3604,
    "\u2581wheelbarrow": 3605,
    "\u2581chorale": 3606,
    "\u2581charrette": 3607,
    "\u2581Sooner": 3608,
    "\u2581cuisini\u00e8re": 3609,
    "\u2581glacier": 3610,
    "\u2581pr\u00e9sentation": 3611,
    "\u2581ponytail": 3612,
    "\u2581multiple": 3613,
    "\u2581downtown": 3614,
    "\u2581fisherman": 3615,
    "\u2581slightly": 3616,
    "\u2581poterie": 3617,
    "\u2581job": 3618,
    "\u2581dr\u00f4le": 3619,
    "\u2581airborne": 3620,
    "\u2581pottery": 3621,
    "\u2581temple": 3622,
    "\u2581weaving": 3623,
    "\u2581crawl": 3624,
    "\u2581reflet": 3625,
    "\u2581retournant": 3626,
    "\u2581fr\u00e8re": 3627,
    "\u2581aussi": 3628,
    "\u2581binoculars": 3629,
    "\u2581russes": 3630,
    "\u2581pub": 3631,
    "\u2581forestier": 3632,
    "\u2581th\u00e9\u00e2tre": 3633,
    "\u2581closeup": 3634,
    "\u2581excited": 3635,
    "\u2581bordeaux": 3636,
    "\u2581State": 3637,
    "\u2581grue": 3638,
    "\u2581scoop": 3639,
    "\u2581servant": 3640,
    "\u2581nuageux": 3641,
    "\u2581bikinis": 3642,
    "\u2581Students": 3643,
    "\u2581plong\u00e9e": 3644,
    "\u2581bracelet": 3645,
    "\u2581cible": 3646,
    "\u2581aisle": 3647,
    "\u2581tug": 3648,
    "\u2581p\u00e9ri": 3649,
    "\u2581fo": 3650,
    "nd": 3651,
    "entra\u00eenent": 3652,
    "\u2581science": 3653,
    "\u2581poor": 3654,
    "\u2581c\u00e2bles": 3655,
    "\u2581rapides": 3656,
    "\u2581voler": 3657,
    "\u2581protesting": 3658,
    "\u2581gravit": 3659,
    "\u2581patch": 3660,
    "\u2581dough": 3661,
    "occer": 3662,
    "\u2581pellette": 3663,
    "aspirateur": 3664,
    "\u2581rappel": 3665,
    "of": 3666,
    "\u2581tourists": 3667,
    "\u2581volent": 3668,
    "\u2581photographed": 3669,
    "\u2581boueux": 3670,
    "\u2581joy": 3671,
    "\u2581gestes": 3672,
    "\u2581gar\u00e9s": 3673,
    "\u2581gratte": 3674,
    "\u2581vous": 3675,
    "\u2581contain": 3676,
    "\u2581size": 3677,
    "uvres": 3678,
    "\u2581dedans": 3679,
    "\u2581funn": 3680,
    "\u2581pneus": 3681,
    "ated": 3682,
    "\u2581gra": 3683,
    "lan\u00e7": 3684,
    "\u2581tourn\u00e9": 3685,
    "\u2581cherch": 3686,
    "\u2581wild": 3687,
    "\u2581portes": 3688,
    "\u2581veau": 3689,
    "\u2581amie": 3690,
    "\u2581outil": 3691,
    "\u2581repairs": 3692,
    "dis": 3693,
    "\u2581japonais": 3694,
    "\u2581bulle": 3695,
    "one": 3696,
    "\u2581ouvr": 3697,
    "\u2581papers": 3698,
    "oir": 3699,
    "\u2581hike": 3700,
    "\u2581\u00e9tudie": 3701,
    "\u2581bass": 3702,
    "\u2581test": 3703,
    "\u2581raquettes": 3704,
    "\u2581lion": 3705,
    "\u2581engine": 3706,
    "\u2581sta": 3707,
    "attente": 3708,
    "ville": 3709,
    "\u2581backs": 3710,
    "\u2581teach": 3711,
    "\u2581ferme": 3712,
    "\u2581mari": 3713,
    "\u2581che": 3714,
    "\u2581complete": 3715,
    "\u2581sari": 3716,
    "\u2581gr": 3717,
    "uf": 3718,
    "the": 3719,
    "ance": 3720,
    "\u2581orientale": 3721,
    "com": 3722,
    "arrosage": 3723,
    "\u2581cuire": 3724,
    "American": 3725,
    "\u2581fetch": 3726,
    "\u2581je": 3727,
    "anniversaire": 3728,
    "orchestre": 3729,
    "\u2581feather": 3730,
    "automne": 3731,
    "\u2581corps": 3732,
    "\u2581engin": 3733,
    "weight": 3734,
    "\u2581ethnic": 3735,
    "lu": 3736,
    "partment": 3737,
    "\u2581attache": 3738,
    "\u2581tomb\u00e9e": 3739,
    "\u2581hug": 3740,
    "\u2581cop": 3741,
    "\u2581joli": 3742,
    "\u2581fonctionne": 3743,
    "\u2581fort": 3744,
    "\u2581bin": 3745,
    "girl": 3746,
    "\u2581reste": 3747,
    "\u2581bounc": 3748,
    "\u2581ga": 3749,
    "\u2581teen": 3750,
    "\u2581aqua": 3751,
    "\u2581mi": 3752,
    "\u2581Bea": 3753,
    "\u2581attach\u00e9e": 3754,
    "\u2581tentes": 3755,
    "\u2581balay": 3756,
    "pousse": 3757,
    "\u2581rayon": 3758,
    "\u2581cuill\u00e8re": 3759,
    "\u2581official": 3760,
    "\u2581tea": 3761,
    "\u2581sauvage": 3762,
    "\u2581barrier": 3763,
    "\u2581tutu": 3764,
    "\u2581acrobatie": 3765,
    "\u2581shadow": 3766,
    "\u2581customer": 3767,
    "\u2581shake": 3768,
    "\u2581descent": 3769,
    "\u2581mug": 3770,
    "\u2581shave": 3771,
    "ture": 3772,
    "\u2581skie": 3773,
    "\u2581entertain": 3774,
    "Un": 3775,
    "\u2581engag\u00e9": 3776,
    "\u2581cra": 3777,
    "ence": 3778,
    "\u2581cowboys": 3779,
    "\u00e8me": 3780,
    "\u2581Londres": 3781,
    "\u2581abrupte": 3782,
    "\u2581burgundy": 3783,
    "\u2581espagnol": 3784,
    "\u2581groceries": 3785,
    "\u2581percussion": 3786,
    "\u2581d\u00e9bris": 3787,
    "\u2581perceuse": 3788,
    "\u2581sniff": 3789,
    "\u2581banni\u00e8re": 3790,
    "\u2581chainsaw": 3791,
    "\u2581confetti": 3792,
    "\u2581tondeuse": 3793,
    "\u2581caniche": 3794,
    "\u2581croix": 3795,
    "\u2581mousse": 3796,
    "\u2581debris": 3797,
    "\u2581ch\u00e8vre": 3798,
    "\u2581Elder": 3799,
    "\u2581p\u00e2le": 3800,
    "\u2581process": 3801,
    "\u2581d\u00e9part": 3802,
    "\u2581paquet": 3803,
    "\u2581location": 3804,
    "\u2581r\u00e9union": 3805,
    "\u2581perron": 3806,
    "\u2581wheelie": 3807,
    "\u2581stylo": 3808,
    "\u2581s\u00e9rie": 3809,
    "\u2581exhibit": 3810,
    "\u2581ceremony": 3811,
    "\u2581bleachers": 3812,
    "\u2581sneakers": 3813,
    "\u2581bretelles": 3814,
    "\u2581coaster": 3815,
    "\u2581spotted": 3816,
    "\u2581messy": 3817,
    "\u2581overhead": 3818,
    "\u2581morceaux": 3819,
    "\u2581studying": 3820,
    "\u2581officier": 3821,
    "\u2581skater": 3822,
    "\u2581dusk": 3823,
    "\u2581loom": 3824,
    "\u2581commencer": 3825,
    "\u2581pratiquant": 3826,
    "\u2581appr\u00e9cie": 3827,
    "\u2581telephone": 3828,
    "\u2581factory": 3829,
    "\u2581waterway": 3830,
    "\u2581\u00e9colier": 3831,
    "\u2581waterfront": 3832,
    "\u2581score": 3833,
    "\u2581wings": 3834,
    "\u2581porta": 3835,
    "\u2581gar\u00e9e": 3836,
    "\u2581rouler": 3837,
    "\u2581oven": 3838,
    "\u2581bombe": 3839,
    "\u2581apprend": 3840,
    "\u2581gestures": 3841,
    "\u2581\u00e9p\u00e9e": 3842,
    "\u2581eau": 3843,
    "cal": 3844,
    "\u2581eggs": 3845,
    "\u2581manifestants": 3846,
    "\u2581houses": 3847,
    "\u2581was": 3848,
    "\u2581pomme": 3849,
    "\u2581section": 3850,
    "\u2581firefighters": 3851,
    "\u2581tuba": 3852,
    "\u2581moutons": 3853,
    "\u2581fl\u00e2n": 3854,
    "\u2581hauteur": 3855,
    "\u2581tents": 3856,
    "\u2581brillante": 3857,
    "\u2581hache": 3858,
    "\u2581chiots": 3859,
    "\u2581swimmers": 3860,
    "\u2581appareils": 3861,
    "tirent": 3862,
    "\u2581dunk": 3863,
    "\u2581usine": 3864,
    "\u2581shops": 3865,
    "\u2581movie": 3866,
    "\u2581strap": 3867,
    "\u2581pleurs": 3868,
    "\u2581fen\u00eatres": 3869,
    "ident": 3870,
    "\u2581p\u00eacher": 3871,
    "\u2581praying": 3872,
    "\u2581con": 3873,
    "if": 3874,
    "ooking": 3875,
    "\u2581places": 3876,
    "\u2581commande": 3877,
    "v\u00eatements": 3878,
    "\u2581incline": 3879,
    "\u2581bascule": 3880,
    "\u2581violets": 3881,
    "\u2581parasols": 3882,
    "\u2581operate": 3883,
    "\u2581prot\u00e9ge": 3884,
    "\u2581mouvements": 3885,
    "\u2581hid": 3886,
    "\u2581plac": 3887,
    "\u2581laptops": 3888,
    "\u2581a\u00e9roport": 3889,
    "\u2581link": 3890,
    "\u2581Orient": 3891,
    "lit": 3892,
    "\u2581dune": 3893,
    "\u2581int\u00e9rieure": 3894,
    "avion": 3895,
    "\u2581caps": 3896,
    "\u2581observes": 3897,
    "chef": 3898,
    "\u2581landing": 3899,
    "ire": 3900,
    "\u2581races": 3901,
    "\u2581Dan": 3902,
    "\u2581flips": 3903,
    "\u2581laine": 3904,
    "\u2581fur": 3905,
    "poids": 3906,
    "\u2581cups": 3907,
    "all\u00e9e": 3908,
    "\u00e9tudiants": 3909,
    "affaires": 3910,
    "avoir": 3911,
    "\u2581create": 3912,
    "\u2581drap": 3913,
    "accroupi": 3914,
    "rie": 3915,
    "ois": 3916,
    "\u2581expos\u00e9": 3917,
    "stern": 3918,
    "\u2581careful": 3919,
    "entretien": 3920,
    "\u2581rassemble": 3921,
    "made": 3922,
    "\u2581tourist": 3923,
    "ity": 3924,
    "\u2581ex\u00e9cute": 3925,
    "\u2581bik": 3926,
    "\u2581explor": 3927,
    "\u2581mal": 3928,
    "\u2581super": 3929,
    "\u2581slip": 3930,
    "\u2581bound": 3931,
    "\u2581p\u00each": 3932,
    "nant": 3933,
    "\u2581artistes": 3934,
    "ci": 3935,
    "\u2581bra": 3936,
    "blement": 3937,
    "\u2581bloc": 3938,
    "\u2581listen": 3939,
    "\u2581brows": 3940,
    "\u2581smash": 3941,
    "\u2581lane": 3942,
    "\u2581exercise": 3943,
    "\u2581rempliss": 3944,
    "\u2581target": 3945,
    "\u2581snowsuit": 3946,
    "\u2581boulder": 3947,
    "\u2581chicken": 3948,
    "\u2581suitcase": 3949,
    "\u2581pay": 3950,
    "\u2581begin": 3951,
    "\u2581mouton": 3952,
    "\u2581breakdance": 3953,
    "\u2581presse": 3954,
    "\u2581\u00e9l\u00e9phant": 3955,
    "\u2581scaffold": 3956,
    "\u2581ours": 3957,
    "part": 3958,
    "\u2581peints": 3959,
    "\u2581surveille": 3960,
    "\u2581come": 3961,
    "\u2581contrebas": 3962,
    "\u2581matelas": 3963,
    "\u2581automobile": 3964,
    "\u2581badminton": 3965,
    "\u2581bamboo": 3966,
    "\u2581experiment": 3967,
    "\u2581galerie": 3968,
    "\u2581knife": 3969,
    "\u2581merchandise": 3970,
    "\u2581renifl": 3971,
    "\u2581soci\u00e9t\u00e9": 3972,
    "\u2581tron\u00e7onneuse": 3973,
    "\u2581umpire": 3974,
    "\u2581fourrure": 3975,
    "\u2581po\u00eale": 3976,
    "\u2581Female": 3977,
    "\u2581carrelage": 3978,
    "\u2581China": 3979,
    "\u2581celebration": 3980,
    "\u2581casserole": 3981,
    "\u2581NY": 3982,
    "\u2581iPod": 3983,
    "\u2581trolley": 3984,
    "\u2581forehead": 3985,
    "\u2581radio": 3986,
    "\u2581juice": 3987,
    "\u2581clapping": 3988,
    "\u2581plongeoir": 3989,
    "\u2581paperwork": 3990,
    "\u2581hotel": 3991,
    "\u2581sailboat": 3992,
    "\u2581alleyway": 3993,
    "\u2581blood": 3994,
    "\u2581countryside": 3995,
    "\u2581encombr\u00e9": 3996,
    "\u2581strange": 3997,
    "\u2581stoop": 3998,
    "\u2581emergency": 3999,
    "\u2581m\u00e9dical": 4000,
    "\u2581cheese": 4001,
    "argile": 4002,
    "\u00e9treignent": 4003,
    "\u2581dragon": 4004,
    "\u2581phase": 4005,
    "\u2581retriever": 4006,
    "\u2581motion": 4007,
    "\u2581pigtails": 4008,
    "\u2581soap": 4009,
    "\u2581brother": 4010,
    "\u2581crois\u00e9s": 4011,
    "\u2581brass": 4012,
    "\u2581meet": 4013,
    "\u2581firemen": 4014,
    "\u2581mower": 4015,
    "\u2581bureaux": 4016,
    "\u2581jumelles": 4017,
    "\u2581bystanders": 4018,
    "\u2581lettres": 4019,
    "\u2581chess": 4020,
    "\u2581poodle": 4021,
    "arr\u00eat": 4022,
    "orange": 4023,
    "\u2581TV": 4024,
    "\u2581boucl\u00e9s": 4025,
    "\u2581Legos": 4026,
    "\u2581world": 4027,
    "\u2581dorment": 4028,
    "\u2581glac\u00e9e": 4029,
    "tent": 4030,
    "\u2581catche": 4031,
    "\u2581hockeyeurs": 4032,
    "\u2581chips": 4033,
    "\u2581gymnastics": 4034,
    "\u2581baguettes": 4035,
    "\u2581wares": 4036,
    "\u2581featur": 4037,
    "\u2581baiss\u00e9e": 4038,
    "\u2581teal": 4039,
    "\u2581herbeux": 4040,
    "\u2581bagpipes": 4041,
    "\u2581mec": 4042,
    "\u2581chewing": 4043,
    "\u2581jo": 4044,
    "\u2581forces": 4045,
    "\u2581page": 4046,
    "ary": 4047,
    "\u2581punch": 4048,
    "\u2581Police": 4049,
    "\u2581th\u00e9": 4050,
    "\u2581olympiques": 4051,
    "\u2581canot": 4052,
    "\u2581cu": 4053,
    "\u2581eight": 4054,
    "\u2581nuages": 4055,
    "\u2581glisser": 4056,
    "\u2581tournoi": 4057,
    "\u2581\u00e9troite": 4058,
    "\u2581pommes": 4059,
    "\u2581patineurs": 4060,
    "\u2581nager": 4061,
    "\u2581dor\u00e9e": 4062,
    "\u2581shadows": 4063,
    "\u2581essentielle": 4064,
    "\u2581poste": 4065,
    "\u2581pillows": 4066,
    "\u2581It": 4067,
    "\u2581gar\u00e9es": 4068,
    "\u2581skaters": 4069,
    "\u2581wires": 4070,
    "ti\u00e9": 4071,
    "\u2581grimaces": 4072,
    "\u2581beverages": 4073,
    "\u2581comes": 4074,
    "\u2581paddles": 4075,
    "arm\u00e9e": 4076,
    "\u2581creat": 4077,
    "\u2581cigarettes": 4078,
    "\u2581tray": 4079,
    "\u2581ti": 4080,
    "\u2581r\u00e9": 4081,
    "\u2581backdrop": 4082,
    "\u2581spike": 4083,
    "I": 4084,
    "\u2581v\u00e9rifie": 4085,
    "\u2581label": 4086,
    "\u2581int\u00e9grale": 4087,
    "\u2581tires": 4088,
    "om": 4089,
    "\u2581arcade": 4090,
    "\u2581war": 4091,
    "\u2581lick": 4092,
    "\u2581performers": 4093,
    "\u2581bronze": 4094,
    "\u2581porche": 4095,
    "\u2581stare": 4096,
    "lever": 4097,
    "\u2581knees": 4098,
    "\u00e9cume": 4099,
    "\u2581tubes": 4100,
    "\u2581tackl": 4101,
    "\u2581manipule": 4102,
    "\u2581bains": 4103,
    "\u2581donn": 4104,
    "ady": 4105,
    "\u2581news": 4106,
    "\u2581sombres": 4107,
    "\u2581aller": 4108,
    "\u2581habit": 4109,
    "\u2581case": 4110,
    "\u2581couvertures": 4111,
    "\u2581boules": 4112,
    "\u2581blankets": 4113,
    "oreille": 4114,
    "\u2581verdoyante": 4115,
    "\u2581decorat": 4116,
    "\u2581newspapers": 4117,
    "anie": 4118,
    "\u2581spin": 4119,
    "\u2581vendors": 4120,
    "cour": 4121,
    "tient": 4122,
    "\u2581bal": 4123,
    "Orient": 4124,
    "\u2581termine": 4125,
    "dy": 4126,
    "a\u00e9roport": 4127,
    "\u2581appl": 4128,
    "\u2581essaye": 4129,
    "ons": 4130,
    "\u2581rust": 4131,
    "tion": 4132,
    "\u2581\u00e9cole": 4133,
    "\u2581couvr": 4134,
    "\u2581march": 4135,
    "ted": 4136,
    "rant": 4137,
    "\u2581lanc\u00e9": 4138,
    "\u2581lignes": 4139,
    "ateur": 4140,
    "\u2581Hu": 4141,
    "\u2581chasse": 4142,
    "ud": 4143,
    "\u2581rod": 4144,
    "\u2581rollerskat": 4145,
    "\u2581entr\u00e9e": 4146,
    "\u2581fashion": 4147,
    "\u2581conten": 4148,
    "cking": 4149,
    "\u2581papiers": 4150,
    "\u2581d\u00e9labr\u00e9": 4151,
    "\u2581remplis": 4152,
    "\u2581marque": 4153,
    "\u2581te": 4154,
    "\u2581\u00e9cossais": 4155,
    "\u2581bless\u00e9": 4156,
    "\u2581Jack": 4157,
    "\u2581quitte": 4158,
    "\u2581vent": 4159,
    "\u2581bizarre": 4160,
    "\u2581range": 4161,
    "\u2581diver": 4162,
    "\u2581enthousiaste": 4163,
    "\u2581traditionnelle": 4164,
    "\u2581firefighter": 4165,
    "\u2581bu": 4166,
    "leading": 4167,
    "\u2581aim": 4168,
    "\u2581cheek": 4169,
    "\u2581shower": 4170,
    "\u2581pliante": 4171,
    "\u2581torch": 4172,
    "\u2581celebrate": 4173,
    "\u2581Mia": 4174,
    "\u2581mule": 4175,
    "\u2581hut": 4176,
    "\u2581secou": 4177,
    "ins": 4178,
    "\u2581burn": 4179,
    "\u2581boxer": 4180,
    "\u2581\u00e9": 4181,
    "\u2581fla": 4182,
    "\u2581trip": 4183,
    "\u2581\u00e9toile": 4184,
    "land": 4185,
    "\u2581fell": 4186,
    "\u2581weather": 4187,
    "\u2581haie": 4188,
    "\u2581coast": 4189,
    "\u2581chor\u00e9graphie": 4190,
    "affrontant": 4191,
    "\u2581christmas": 4192,
    "\u2581d\u00e9chets": 4193,
    "\u2581enthousiasme": 4194,
    "\u2581laundromat": 4195,
    "\u2581masculin": 4196,
    "\u2581poussi\u00e9reux": 4197,
    "\u2581Batman": 4198,
    "\u2581Mohawk": 4199,
    "\u2581technique": 4200,
    "\u2581unusual": 4201,
    "\u2581rapids": 4202,
    "\u2581religieuse": 4203,
    "\u2581surgery": 4204,
    "\u2581Subway": 4205,
    "\u2581medium": 4206,
    "\u2581d\u00e9charge": 4207,
    "\u2581separate": 4208,
    "\u2581tachet\u00e9": 4209,
    "\u2581similaire": 4210,
    "\u2581tripod": 4211,
    "\u2581puppies": 4212,
    "\u2581Couple": 4213,
    "\u2581butcher": 4214,
    "\u2581underwear": 4215,
    "\u2581robot": 4216,
    "\u2581staff": 4217,
    "\u2581yarn": 4218,
    "\u2581municipal": 4219,
    "\u2581sunlight": 4220,
    "\u2581homeless": 4221,
    "\u2581distributeur": 4222,
    "\u2581chameaux": 4223,
    "\u2581chalkboard": 4224,
    "\u2581shoreline": 4225,
    "\u2581rollerblading": 4226,
    "\u2581construire": 4227,
    "\u2581suspenders": 4228,
    "\u2581chargement": 4229,
    "\u2581perdu": 4230,
    "\u2581folded": 4231,
    "\u2581highway": 4232,
    "\u2581snap": 4233,
    "\u2581handrail": 4234,
    "\u2581combattant": 4235,
    "\u2581ronde": 4236,
    "\u2581observant": 4237,
    "\u2581Runners": 4238,
    "\u2581cello": 4239,
    "\u2581supplies": 4240,
    "\u2581tisser": 4241,
    "\u2581violoncelle": 4242,
    "\u2581joie": 4243,
    "\u2581juggle": 4244,
    "\u2581screaming": 4245,
    "still": 4246,
    "\u2581align\u00e9es": 4247,
    "ake": 4248,
    "are": 4249,
    "\u2581rive": 4250,
    "\u2581Nik": 4251,
    "\u2581d\u00e9couper": 4252,
    "\u2581closely": 4253,
    "\u2581chatting": 4254,
    "\u2581natte": 4255,
    "M": 4256,
    "\u2581handle": 4257,
    "\u2581jou\u00e9": 4258,
    "\u2581snowshoes": 4259,
    "\u2581ramant": 4260,
    "\u2581Apple": 4261,
    "\u2581exp\u00e9rience": 4262,
    "\u2581\u00e9paisse": 4263,
    "\u2581America": 4264,
    "\u2581single": 4265,
    "\u2581rament": 4266,
    "\u2581We": 4267,
    "\u2581meubles": 4268,
    "\u2581tond": 4269,
    "\u2581colonnes": 4270,
    "\u2581reposer": 4271,
    "rimmed": 4272,
    "\u2581stall": 4273,
    "\u2581lifted": 4274,
    "\u2581bush": 4275,
    "\u2581bank": 4276,
    "\u2581rice": 4277,
    "\u2581tights": 4278,
    "\u2581chute": 4279,
    "\u2581concentre": 4280,
    "\u2581diverses": 4281,
    "\u2581crossed": 4282,
    "\u2581hotdogs": 4283,
    "\u2581pr\u00e9para": 4284,
    "\u2581sortir": 4285,
    "borne": 4286,
    "war": 4287,
    "\u2581enthousiastes": 4288,
    "\u2581g\u00e9ante": 4289,
    "\u2581fleurie": 4290,
    "\u2581magasins": 4291,
    "\u2581peintre": 4292,
    "\u2581lighted": 4293,
    "\u2581Car": 4294,
    "\u2581sprinklers": 4295,
    "\u2581nageuse": 4296,
    "\u2581thumbs": 4297,
    "\u2581nappe": 4298,
    "homa": 4299,
    "\u2581motorcyclists": 4300,
    "\u2581harmonica": 4301,
    "green": 4302,
    "gging": 4303,
    "nder": 4304,
    "\u2581veston": 4305,
    "os": 4306,
    "unk": 4307,
    "\u2581gobelets": 4308,
    "\u2581huddle": 4309,
    "\u2581bols": 4310,
    "\u2581watched": 4311,
    "\u2581swimsuits": 4312,
    "sailing": 4313,
    "\u2581arrange": 4314,
    "\u2581b\u00e9b\u00e9s": 4315,
    "\u2581khakis": 4316,
    "\u2581pi\u00e8ces": 4317,
    "\u2581bricks": 4318,
    "\u2581cavaliers": 4319,
    "ro": 4320,
    "\u2581hind": 4321,
    "\u2581logs": 4322,
    "\u2581athletes": 4323,
    "\u2581cameras": 4324,
    "\u2581floats": 4325,
    "lots": 4326,
    "\u2581poing": 4327,
    "\u2581barri\u00e8res": 4328,
    "\u2581ray\u00e9s": 4329,
    "\u2581stir": 4330,
    "\u2581suspendue": 4331,
    "\u2581plats": 4332,
    "\u2581trie": 4333,
    "\u2581coll": 4334,
    "\u2581aider": 4335,
    "\u2581ra": 4336,
    "ist": 4337,
    "iste": 4338,
    "\u2581comfort": 4339,
    "\u2581argent\u00e9e": 4340,
    "el": 4341,
    "\u2581picks": 4342,
    "\u2581verdoyant": 4343,
    "\u2581poche": 4344,
    "\u2581flan": 4345,
    "\u2581splash": 4346,
    "\u2581training": 4347,
    "\u2581fleuri": 4348,
    "L": 4349,
    "\u2581violettes": 4350,
    "\u2581environn": 4351,
    "\u2581calme": 4352,
    "\u2581skiers": 4353,
    "sty": 4354,
    "\u2581carts": 4355,
    "\u2581douche": 4356,
    "\u2581atterri": 4357,
    "\u2581mis": 4358,
    "\u2581retire": 4359,
    "m\u00eame": 4360,
    "t\u00e9": 4361,
    "\u2581gathers": 4362,
    "embrasse": 4363,
    "\u2581cir": 4364,
    "ered": 4365,
    "ouvriers": 4366,
    "V": 4367,
    "\u2581cor": 4368,
    "obstacle": 4369,
    "\u2581stepp": 4370,
    "\u2581cont": 4371,
    "h\u00f4pital": 4372,
    "cy": 4373,
    "animaux": 4374,
    "exposition": 4375,
    "\u2581celle": 4376,
    "round": 4377,
    "adolescents": 4378,
    "\u2581appuy\u00e9e": 4379,
    "wood": 4380,
    "\u2581microscopes": 4381,
    "\u2581lo": 4382,
    "\u2581personnel": 4383,
    "\u2581ea": 4384,
    "\u2581d\u00e9guis\u00e9": 4385,
    "\u2581squat": 4386,
    "\u2581lens": 4387,
    "aider": 4388,
    "\u2581marchand": 4389,
    "\u2581souffl": 4390,
    "rench": 4391,
    "iles": 4392,
    "ses": 4393,
    "\u2581d\u00e9pla": 4394,
    "\u2581ras\u00e9": 4395,
    "\u2581arche": 4396,
    "oire": 4397,
    "\u2581triste": 4398,
    "\u2581pupitre": 4399,
    "\u2581rally": 4400,
    "B": 4401,
    "\u2581focuse": 4402,
    "\u2581leotard": 4403,
    "\u2581bongo": 4404,
    "\u2581citron": 4405,
    "\u2581canette": 4406,
    "\u2581mince": 4407,
    "\u2581poulet": 4408,
    "\u2581ticket": 4409,
    "\u2581arr\u00eat\u00e9": 4410,
    "lot": 4411,
    "\u2581upward": 4412,
    "\u2581thumb": 4413,
    "\u2581hotdog": 4414,
    "\u2581candle": 4415,
    "\u2581patineur": 4416,
    "\u2581manifestant": 4417,
    "\u2581egg": 4418,
    "\u2581patron": 4419,
    "\u2581monitor": 4420,
    "\u2581imprim\u00e9": 4421,
    "\u2581travailleur": 4422,
    "lle": 4423,
    "\u2581goat": 4424,
    "\u2581treat": 4425,
    "\u2581vacuum": 4426,
    "\u2581disque": 4427,
    "ors": 4428,
    "\u2581\u00e9clairage": 4429,
    "\u2581contest": 4430,
    "\u2581headdress": 4431,
    "pectators": 4432,
    "by": 4433,
    "loseup": 4434,
    "\u2581carve": 4435,
    "\u2581chameau": 4436,
    "Obama": 4437,
    "\u2581Monopoly": 4438,
    "\u2581School": 4439,
    "\u2581Speedo": 4440,
    "\u2581agricole": 4441,
    "\u2581bandouli\u00e8re": 4442,
    "\u2581caricatur": 4443,
    "\u2581contraption": 4444,
    "\u2581demoiselle": 4445,
    "\u2581gagner": 4446,
    "\u2581gallery": 4447,
    "\u2581signalisation": 4448,
    "\u2581universitaire": 4449,
    "\u2581\u00e9chasses": 4450,
    "\u2581activity": 4451,
    "\u2581canvas": 4452,
    "\u2581parall\u00e8le": 4453,
    "\u2581restauration": 4454,
    "obscurit\u00e9": 4455,
    "\u2581earphones": 4456,
    "\u2581vacances": 4457,
    "\u2581frozen": 4458,
    "\u2581lobby": 4459,
    "\u2581ch\u00e2le": 4460,
    "\u2581trashcan": 4461,
    "\u2581valley": 4462,
    "\u2581c\u00e9l\u00e8bre": 4463,
    "\u2581champagne": 4464,
    "\u2581passersby": 4465,
    "\u2581adorable": 4466,
    "\u2581monkey": 4467,
    "\u2581dumpster": 4468,
    "\u2581workshop": 4469,
    "\u2581plaisir": 4470,
    "\u2581peignoir": 4471,
    "\u2581maintenance": 4472,
    "\u2581sideways": 4473,
    "\u2581lingerie": 4474,
    "\u2581facility": 4475,
    "\u2581navire": 4476,
    "\u2581canyon": 4477,
    "\u2581spotlight": 4478,
    "\u2581driveway": 4479,
    "\u2581sarcelle": 4480,
    "\u2581vrai": 4481,
    "\u2581l\u00e8che": 4482,
    "\u2581transportation": 4483,
    "\u2581securi": 4484,
    "\u2581injured": 4485,
    "\u2581quickly": 4486,
    "\u2581stilts": 4487,
    "\u2581fatigu\u00e9": 4488,
    "\u2581embracing": 4489,
    "\u2581rooftop": 4490,
    "\u2581highchair": 4491,
    "\u2581gazonn\u00e9": 4492,
    "\u2581appel\u00e9": 4493,
    "\u2581r\u00e9unies": 4494,
    "\u2581pedal": 4495,
    "\u2581tranquille": 4496,
    "\u2581Asia": 4497,
    "\u2581olive": 4498,
    "\u2581sportive": 4499,
    "\u2581stores": 4500,
    "\u2581pilier": 4501,
    "\u2581classique": 4502,
    "\u2581collie": 4503,
    "\u2581intense": 4504,
    "\u2581roadside": 4505,
    "\u2581Brit": 4506,
    "\u2581interesting": 4507,
    "\u2581bonne": 4508,
    "\u2581concours": 4509,
    "\u2581scarves": 4510,
    "\u2581artwork": 4511,
    "\u2581workout": 4512,
    "\u2581mixer": 4513,
    "\u2581Band": 4514,
    "\u2581capot": 4515,
    "\u2581nuageuse": 4516,
    "\u2581\u00e9tag\u00e8re": 4517,
    "\u2581\u00e9picerie": 4518,
    "\u2581maneuver": 4519,
    "\u2581enl\u00e8ve": 4520,
    "\u2581flamme": 4521,
    "\u2581c\u00e9l\u00e9br": 4522,
    "\u2581libre": 4523,
    "\u2581spa": 4524,
    "rt": 4525,
    "\u2581hawa": 4526,
    "gue": 4527,
    "\u2581sprayed": 4528,
    "wed": 4529,
    "\u2581pauvre": 4530,
    "\u2581Army": 4531,
    "\u2581approaches": 4532,
    "hepherd": 4533,
    "\u2581genou": 4534,
    "\u2581kimonos": 4535,
    "\u2581even": 4536,
    "\u2581soutien": 4537,
    "\u2581s\u00e9": 4538,
    "\u2581vari": 4539,
    "\u2581faible": 4540,
    "\u2581gaze": 4541,
    "\u2581torches": 4542,
    "\u2581Seattle": 4543,
    "\u2581Easter": 4544,
    "\u2581products": 4545,
    "\u2581Olympics": 4546,
    "\u2581Cafe": 4547,
    "\u2581frapp\u00e9": 4548,
    "\u2581ponton": 4549,
    "\u2581larger": 4550,
    "\u2581Player": 4551,
    "\u2581interagiss": 4552,
    "\u2581propre": 4553,
    "\u2581autumn": 4554,
    "\u2581focus": 4555,
    "\u2581lutteur": 4556,
    "\u2581drag": 4557,
    "\u2581gazes": 4558,
    "\u2581washer": 4559,
    "pr\u00e8s": 4560,
    "\u2581fromage": 4561,
    "\u2581\u00e9vier": 4562,
    "\u2581commun": 4563,
    "\u2581soulev": 4564,
    "\u2581chocolate": 4565,
    "\u2581boards": 4566,
    "\u2581fixes": 4567,
    "\u2581painter": 4568,
    "\u2581belts": 4569,
    "\u2581shar": 4570,
    "\u2581trouver": 4571,
    "\u2581mess": 4572,
    "\u2581rond": 4573,
    "\u2581dig": 4574,
    "\u2581jongl": 4575,
    "\u2581venue": 4576,
    "\u2581cuisiner": 4577,
    "ily": 4578,
    "\u2581\u00e9chafaudages": 4579,
    "\u2581racers": 4580,
    "\u2581salu": 4581,
    "fashioned": 4582,
    "\u2581cr\u00e9": 4583,
    "\u2581content": 4584,
    "ota": 4585,
    "\u2581heavi": 4586,
    "corative": 4587,
    "\u2581d\u00e9colle": 4588,
    "\u2581pale": 4589,
    "\u2581oreille": 4590,
    "ak": 4591,
    "\u2581lan": 4592,
    "\u2581Asie": 4593,
    "\u2581adverses": 4594,
    "\u2581strike": 4595,
    "\u2581boucle": 4596,
    "\u2581rassembl": 4597,
    "\u2581op\u00e9ration": 4598,
    "\u2581Ra": 4599,
    "agenouille": 4600,
    "range": 4601,
    "lleux": 4602,
    "\u2581bo\u00eetes": 4603,
    "\u2581cards": 4604,
    "\u2581padd": 4605,
    "\u2581accroupis": 4606,
    "\u2581kayaking": 4607,
    "\u2581classic": 4608,
    "\u2581curve": 4609,
    "\u2581trucks": 4610,
    "\u2581install\u00e9": 4611,
    "eignant": 4612,
    "\u2581cans": 4613,
    "\u2581particip": 4614,
    "\u2581typ": 4615,
    "\u2581Vu": 4616,
    "bout": 4617,
    "ving": 4618,
    "\u2581angle": 4619,
    "\u2581p\u00e9dale": 4620,
    "\u2581apart": 4621,
    "\u2581horizon": 4622,
    "light": 4623,
    "\u2581played": 4624,
    "\u2581pince": 4625,
    "vention": 4626,
    "\u2581photographi\u00e9": 4627,
    "\u2581moin": 4628,
    "\u2581cab": 4629,
    "\u2581pl": 4630,
    "\u2581my": 4631,
    "its": 4632,
    "house": 4633,
    "rd": 4634,
    "\u2581accompagn\u00e9": 4635,
    "\u2581retourn\u00e9": 4636,
    "\u2581dis": 4637,
    "\u2581adolescente": 4638,
    "\u2581displays": 4639,
    "\u2581arrose": 4640,
    "\u2581baigne": 4641,
    "\u2581allume": 4642,
    "\u2581Lo": 4643,
    "\u2581lighting": 4644,
    "image": 4645,
    "\u2581He": 4646,
    "attendre": 4647,
    "\u2581orn\u00e9": 4648,
    "\u2581pi": 4649,
    "euse": 4650,
    "body": 4651,
    "\u2581capture": 4652,
    "striped": 4653,
    "\u2581recev": 4654,
    "nnel": 4655,
    "style": 4656,
    "\u00e9crire": 4657,
    "\u2581tail": 4658,
    "\u2581crash": 4659,
    "most": 4660,
    "\u00e9glise": 4661,
    "op\u00e9ration": 4662,
    "oiseaux": 4663,
    "arcade": 4664,
    "v": 4665,
    "nce": 4666,
    "\u2581numbers": 4667,
    "appuy": 4668,
    "\u2581sculpte": 4669,
    "\u2581situ\u00e9": 4670,
    "\u2581parent": 4671,
    "\u2581navigate": 4672,
    "ched": 4673,
    "\u2581photographie": 4674,
    "\u2581Mar": 4675,
    "\u2581secur": 4676,
    "\u2581bicycl": 4677,
    "eusement": 4678,
    "\u2581than": 4679,
    "\u2581jailli": 4680,
    "edestrians": 4681,
    "\u2581Hol": 4682,
    "\u2581stor": 4683,
    "\u2581transporte": 4684,
    "\u2581moustach": 4685,
    "\u2581\u00e9ventail": 4686,
    "\u2581rifle": 4687,
    "\u2581partition": 4688,
    "\u2581nuage": 4689,
    "\u2581pumpkin": 4690,
    "\u2581reflection": 4691,
    "etty": 4692,
    "\u2581perruque": 4693,
    "\u2581diner": 4694,
    "\u2581construit": 4695,
    "\u2581t\u00e2che": 4696,
    "\u2581texto": 4697,
    "otted": 4698,
    "\u2581marchandise": 4699,
    "\u2581rug": 4700,
    "\u2581proche": 4701,
    "\u2581task": 4702,
    "\u2581wig": 4703,
    "\u2581cute": 4704,
    "kla": 4705,
    "\u2581impliqu": 4706,
    "ille": 4707,
    "\u2581dessert": 4708,
    "\u2581collines": 4709,
    "\u2581Lot": 4710,
    "\u2581smooth": 4711,
    "\u2581Canad": 4712,
    "H": 4713,
    "\u2581games": 4714,
    "resque": 4715,
    "cked": 4716,
    "\u2581tight": 4717,
    "\u2581mechanic": 4718,
    "Am\u00e9rique": 4719,
    "artifice": 4720,
    "\u2581Skateboarder": 4721,
    "\u2581Starbucks": 4722,
    "\u2581afternoon": 4723,
    "\u2581bambin": 4724,
    "\u2581brouillard": 4725,
    "\u2581cal\u00e8che": 4726,
    "\u2581caucasian": 4727,
    "\u2581chopsticks": 4728,
    "\u2581cockpit": 4729,
    "\u2581emmitoufl\u00e9": 4730,
    "\u2581entrep\u00f4t": 4731,
    "\u2581foliage": 4732,
    "\u2581marmite": 4733,
    "\u2581monospace": 4734,
    "\u2581shawl": 4735,
    "\u2581squeez": 4736,
    "\u2581\u00e9pouse": 4737,
    "\u2581couvercle": 4738,
    "\u2581gesturing": 4739,
    "\u2581mod\u00e8le": 4740,
    "\u2581musel\u00e9": 4741,
    "\u2581tr\u00e9pied": 4742,
    "\u2581synchroniz": 4743,
    "\u2581trombone": 4744,
    "\u2581\u00e9ject\u00e9": 4745,
    "\u2581Hockey": 4746,
    "\u2581bathtub": 4747,
    "\u2581rev\u00eatement": 4748,
    "\u2581sparring": 4749,
    "\u2581helicopter": 4750,
    "\u2581accept": 4751,
    "\u2581compris": 4752,
    "\u2581baiser": 4753,
    "\u2581butterfly": 4754,
    "\u2581curieux": 4755,
    "\u2581stump": 4756,
    "\u2581bedroom": 4757,
    "\u2581soyeux": 4758,
    "\u2581pencil": 4759,
    "\u2581raincoat": 4760,
    "\u2581foyer": 4761,
    "\u2581Disney": 4762,
    "\u2581morning": 4763,
    "\u2581cherry": 4764,
    "\u2581s\u00e9cher": 4765,
    "\u2581collation": 4766,
    "\u2581beret": 4767,
    "\u2581pourpre": 4768,
    "\u2581Shepherd": 4769,
    "\u2581USA": 4770,
    "\u2581Food": 4771,
    "\u2581cannon": 4772,
    "\u2581vall\u00e9e": 4773,
    "\u2581kickboxing": 4774,
    "\u2581d\u00e9filent": 4775,
    "\u2581prix": 4776,
    "\u2581suivant": 4777,
    "\u2581pathway": 4778,
    "\u2581every": 4779,
    "midi": 4780,
    "\u2581breakdancing": 4781,
    "\u2581jardinage": 4782,
    "\u2581belongings": 4783,
    "\u2581built": 4784,
    "\u2581decorations": 4785,
    "\u2581pretend": 4786,
    "\u2581drop": 4787,
    "\u2581Dark": 4788,
    "\u2581serveur": 4789,
    "\u2581g\u00e2teaux": 4790,
    "\u2581fausse": 4791,
    "\u2581officielle": 4792,
    "\u2581rollerblades": 4793,
    "\u2581servir": 4794,
    "\u2581d\u00e9fend": 4795,
    "nu": 4796,
    "\u2581parasailing": 4797,
    "\u2581kayakiste": 4798,
    "\u2581unhappy": 4799,
    "\u2581chariots": 4800,
    "\u2581perles": 4801,
    "\u2581checkers": 4802,
    "\u2581chemin\u00e9e": 4803,
    "\u2581monk": 4804,
    "\u2581d\u00e9corations": 4805,
    "\u2581digital": 4806,
    "\u2581terrier": 4807,
    "\u2581surveillent": 4808,
    "\u2581vite": 4809,
    "\u2581raser": 4810,
    "\u2581illuminat": 4811,
    "\u2581acrobatic": 4812,
    "\u2581braid": 4813,
    "\u2581obscure": 4814,
    "\u2581past\u00e8ques": 4815,
    "\u2581\u00e9poux": 4816,
    "\u2581cowgirl": 4817,
    "\u2581convention": 4818,
    "\u2581balan\u00e7": 4819,
    "\u2581deuxi\u00e8me": 4820,
    "\u2581chercher": 4821,
    "\u2581steaks": 4822,
    "\u2581letter": 4823,
    "\u2581tendus": 4824,
    "\u2581avance": 4825,
    "\u2581marin": 4826,
    "\u2581unload": 4827,
    "\u2581zoo": 4828,
    "\u2581fumer": 4829,
    "\u2581tombent": 4830,
    "uzz": 4831,
    "\u2581suivi": 4832,
    "\u2581writes": 4833,
    "\u2581punching": 4834,
    "\u00e9broue": 4835,
    "\u2581package": 4836,
    "\u2581jogs": 4837,
    "\u2581crates": 4838,
    "am\u00e9ricains": 4839,
    "sh": 4840,
    "wing": 4841,
    "\u2581displayed": 4842,
    "\u2581congregate": 4843,
    "\u2581coff": 4844,
    "\u2581\u00e9checs": 4845,
    "\u2581brushes": 4846,
    "\u2581plaqu\u00e9": 4847,
    "\u2581Park": 4848,
    "\u2581riot": 4849,
    "\u2581cuit": 4850,
    "\u2581choisiss": 4851,
    "\u2581proches": 4852,
    "\u2581pads": 4853,
    "ten": 4854,
    "\u2581Toy": 4855,
    "\u2581chinoises": 4856,
    "ad": 4857,
    "ble": 4858,
    "\u2581begins": 4859,
    "\u2581jumper": 4860,
    "\u2581mont\u00e9": 4861,
    "\u2581rag": 4862,
    "\u2581pagay": 4863,
    "\u2581ferr\u00e9es": 4864,
    "\u2581Bear": 4865,
    "enlace": 4866,
    "\u2581am\u00e9ricaine": 4867,
    "\u2581tags": 4868,
    "ches": 4869,
    "\u2581waiter": 4870,
    "\u2581fi": 4871,
    "\u2581canards": 4872,
    "\u2581fishes": 4873,
    "\u2581m\u00e2che": 4874,
    "\u2581peinte": 4875,
    "\u2581scen": 4876,
    "\u2581collect": 4877,
    "\u2581measur": 4878,
    "\u2581r\u00e9ception": 4879,
    "\u2581designs": 4880,
    "\u2581visibles": 4881,
    "\u2581grasp": 4882,
    "\u2581ducks": 4883,
    "\u2581locat": 4884,
    "\u2581numer": 4885,
    "\u2581lower": 4886,
    "\u2581faite": 4887,
    "other": 4888,
    "squ": 4889,
    "\u2581navigu": 4890,
    "\u2581moyenne": 4891,
    "\u2581portraits": 4892,
    "\u2581rings": 4893,
    "miling": 4894,
    "\u2581Par": 4895,
    "\u2581ru": 4896,
    "\u2581plaqu": 4897,
    "ese": 4898,
    "ma": 4899,
    "\u2581situ\u00e9e": 4900,
    "\u2581cet": 4901,
    "opcorn": 4902,
    "\u2581soir": 4903,
    "\u2581booths": 4904,
    "\u2581interview": 4905,
    "\u2581maquille": 4906,
    "\u2581plain": 4907,
    "gle": 4908,
    "\u2581appren": 4909,
    "fro": 4910,
    "\u2581clouds": 4911,
    "\u2581icy": 4912,
    "\u2581dad": 4913,
    "\u2581ve": 4914,
    "\u2581antique": 4915,
    "\u2581fois": 4916,
    "dress": 4917,
    "\u2581flo": 4918,
    "\u2581parachutes": 4919,
    "\u2581participants": 4920,
    "ique": 4921,
    "\u2581fr": 4922,
    "\u2581ici": 4923,
    "\u2581Re": 4924,
    "lement": 4925,
    "ut": 4926,
    "\u2581banquet": 4927,
    "\u2581win": 4928,
    "\u2581lever": 4929,
    "\u2581Ba": 4930,
    "armi": 4931,
    "\u2581armes": 4932,
    "led": 4933,
    "\u2581sens": 4934,
    "\u2581affaires": 4935,
    "\u2581waist": 4936,
    "\u2581mani\u00e8re": 4937,
    "\u2581automne": 4938,
    "ore": 4939,
    "rize": 4940,
    "venant": 4941,
    "ick": 4942,
    "\u2581solo": 4943,
    "\u2581boxeur": 4944,
    "ai": 4945,
    "sing": 4946,
    "\u2581immeubles": 4947,
    "\u2581await": 4948,
    "ail": 4949,
    "\u2581Vi": 4950,
    "\u2581cannes": 4951,
    "\u2581complex": 4952,
    "\u2581profond": 4953,
    "issent": 4954,
    "di": 4955,
    "\u2581roulants": 4956,
    "\u2581spot": 4957,
    "instrument": 4958,
    "jo": 4959,
    "\u2581k": 4960,
    "\u2581think": 4961,
    "\u2581photographes": 4962,
    "\u2581chopp": 4963,
    "\u2581aprons": 4964,
    "\u2581cree": 4965,
    "\u2581skateurs": 4966,
    "ious": 4967,
    "\u2581Hawa": 4968,
    "coat": 4969,
    "\u2581trace": 4970,
    "\u2581arch": 4971,
    "\u2581install\u00e9e": 4972,
    "ine": 4973,
    "\u2581Qua": 4974,
    "ven": 4975,
    "\u2581patine": 4976,
    "\u2581She": 4977,
    "\u00e9tire": 4978,
    "\u2581scale": 4979,
    "animal": 4980,
    "be": 4981,
    "ial": 4982,
    "cas": 4983,
    "\u2581Nin": 4984,
    "vert": 4985,
    "aille": 4986,
    "sses": 4987,
    "\u2581dresse": 4988,
    "instruments": 4989,
    "\u2581ray\u00e9es": 4990,
    "cause": 4991,
    "\u2581prepar": 4992,
    "paved": 4993,
    "ume": 4994,
    "mount": 4995,
    "\u2581bross": 4996,
    "\u2581environ": 4997,
    "\u2581fabrique": 4998,
    "size": 4999,
    "\u2581v\u00e9rifi": 5000,
    "\u2581dinosaur": 5001,
    "\u2581\u00e9clabouss": 5002,
    "\u2581singe": 5003,
    "\u2581power": 5004,
    "\u2581cigar": 5005,
    "\u2581wh": 5006,
    "\u2581fu": 5007,
    "leans": 5008,
    "\u2581receive": 5009,
    "\u2581infirmi\u00e8re": 5010,
    "\u2581aride": 5011,
    "\u2581hook": 5012,
    "environ": 5013,
    "\u2581d\u00e9coup": 5014,
    "\u2581fine": 5015,
    "\u2581diverti": 5016,
    "\u2581beat": 5017,
    "\u2581offer": 5018,
    "\u2581carr\u00e9": 5019,
    "agent": 5020,
    "\u2581chocolat": 5021,
    "pong": 5022,
    "\u2581Mexica": 5023,
    "ort": 5024,
    "\u2581pop": 5025,
    "\u2581murale": 5026,
    "ls": 5027,
    "\u2581tu": 5028,
    "\u2581Mark": 5029,
    "\u2581muscl\u00e9": 5030,
    "\u2581courb\u00e9": 5031,
    "lant": 5032,
    "\u2581\u00e9tendu": 5033,
    "\u2581Fire": 5034,
    "l\u00e9": 5035,
    "\u2581renvers\u00e9": 5036,
    "\u2581sleep": 5037,
    "\u2581Con": 5038,
    "\u2581civil": 5039,
    "\u2581pyramid": 5040,
    "ours": 5041,
    "\u2581cl\u00f4tur\u00e9": 5042,
    "\u2581trouv": 5043,
    "\u2581notebook": 5044,
    "\u2581coussin": 5045,
    "\u2581message": 5046,
    "\u2581bambou": 5047,
    "\u2581pocket": 5048,
    "\u2581museli\u00e8re": 5049,
    "\u2581brochure": 5050,
    "\u2581surv\u00eatement": 5051,
    "\u2581concentr\u00e9": 5052,
    "\u2581citrouille": 5053,
    "\u2581ethnique": 5054,
    "\u2581rapide": 5055,
    "\u2581column": 5056,
    "\u2581Olympic": 5057,
    "\u2581olympique": 5058,
    "\u2581product": 5059,
    "\u2581c\u00e2ble": 5060,
    "\u2581bougie": 5061,
    "\u2581gesture": 5062,
    "\u2581coud": 5063,
    "\u2581palmier": 5064,
    "\u2581\u00e9troit": 5065,
    "\u2581raide": 5066,
    "\u00e9po": 5067,
    "\u2581oreiller": 5068,
    "\u2581speaker": 5069,
    "\u2581gown": 5070,
    "\u2581plume": 5071,
    "tra\u00eenant": 5072,
    "\u2581nail": 5073,
    "vil": 5074,
    "als": 5075,
    "\u2581fini": 5076,
    "\u2581j": 5077,
    "laden": 5078,
    "\u2581passager": 5079,
    "\u2581savon": 5080,
    "\u2581India": 5081,
    "\u2581puzzle": 5082,
    "ear": 5083,
    "\u2581potato": 5084,
    "\u2581caress": 5085,
    "\u2581social": 5086,
    "\u2581harvest": 5087,
    "\u2581disc": 5088,
    "\u2581Gym": 5089,
    "\u2581chic": 5090,
    "\u2581lapin": 5091,
    "itchenAid": 5092,
    "\u2581Vegas": 5093,
    "\u2581Vendor": 5094,
    "\u2581Yamaha": 5095,
    "\u2581bermuda": 5096,
    "\u2581cardigan": 5097,
    "\u2581d\u00e9chir\u00e9": 5098,
    "\u2581d\u00e9monstration": 5099,
    "\u2581elaborate": 5100,
    "\u2581genouill\u00e8res": 5101,
    "\u2581laboratory": 5102,
    "\u2581mascara": 5103,
    "\u2581peupl\u00e9": 5104,
    "\u2581pizzeria": 5105,
    "\u2581possession": 5106,
    "\u2581poussi\u00e9reuse": 5107,
    "\u2581substance": 5108,
    "\u2581toothbrush": 5109,
    "\u2581treadmill": 5110,
    "\u2581vibrant": 5111,
    "\u2581warehouse": 5112,
    "\u2581\u00e9tablissement": 5113,
    "urgence": 5114,
    "\u2581ATM": 5115,
    "\u2581flamboyant": 5116,
    "\u2581fourgonnette": 5117,
    "\u2581hammock": 5118,
    "\u2581trafic": 5119,
    "\u2581Concert": 5120,
    "\u2581Yellow": 5121,
    "\u2581register": 5122,
    "\u2581powder": 5123,
    "\u2581remuant": 5124,
    "\u2581hydrant": 5125,
    "\u2581scrubs": 5126,
    "\u2581turtle": 5127,
    "\u2581easel": 5128,
    "\u2581hamac": 5129,
    "\u2581triangle": 5130,
    "\u2581campfire": 5131,
    "\u2581attelage": 5132,
    "\u2581drainage": 5133,
    "\u2581mutuellement": 5134,
    "\u2581tuxedo": 5135,
    "\u2581consult": 5136,
    "\u2581establishment": 5137,
    "\u2581favorite": 5138,
    "\u2581religious": 5139,
    "\u2581conductor": 5140,
    "\u2581Mouse": 5141,
    "\u2581Musician": 5142,
    "\u2581emm\u00e8ne": 5143,
    "quoise": 5144,
    "\u2581historique": 5145,
    "\u2581mohawk": 5146,
    "\u2581victory": 5147,
    "\u2581tarp": 5148,
    "\u2581visi\u00e8re": 5149,
    "\u2581chisel": 5150,
    "\u2581marble": 5151,
    "\u2581babies": 5152,
    "\u2581abandoned": 5153,
    "\u2581Spanish": 5154,
    "\u2581pelleteuse": 5155,
    "\u2581sample": 5156,
    "\u2581Big": 5157,
    "\u2581turkey": 5158,
    "\u2581bowtie": 5159,
    "\u2581sucette": 5160,
    "\u2581messieurs": 5161,
    "\u2581sumo": 5162,
    "\u2581cerceaux": 5163,
    "\u2581coiffeur": 5164,
    "\u2581trouble": 5165,
    "\u2581arrangement": 5166,
    "\u2581projector": 5167,
    "\u2581Chine": 5168,
    "\u2581tournament": 5169,
    "\u2581daytime": 5170,
    "\u2581terminal": 5171,
    "\u2581tracksuit": 5172,
    "\u2581cadeaux": 5173,
    "\u2581underground": 5174,
    "\u2581company": 5175,
    "\u2581sledding": 5176,
    "\u2581plateforme": 5177,
    "\u2581contenu": 5178,
    "\u2581bib": 5179,
    "\u2581nourrit": 5180,
    "\u2581noix": 5181,
    "\u2581maquette": 5182,
    "\u2581bloquer": 5183,
    "\u2581crois\u00e9es": 5184,
    "\u2581sombrero": 5185,
    "\u2581pony": 5186,
    "\u2581shoppers": 5187,
    "boys": 5188,
    "r\u00e9di": 5189,
    "\u2581stretches": 5190,
    "\u2581paintball": 5191,
    "\u2581catcheur": 5192,
    "\u2581cycling": 5193,
    "itting": 5194,
    "\u2581upset": 5195,
    "\u2581photographier": 5196,
    "\u2581saluent": 5197,
    "\u2581scrap": 5198,
    "\u2581nomm\u00e9": 5199,
    "\u2581revers": 5200,
    "\u2581waterskiing": 5201,
    "bbing": 5202,
    "\u2581split": 5203,
    "\u2581iro": 5204,
    "\u2581cheerlead": 5205,
    "\u2581indian": 5206,
    "\u2581industri": 5207,
    "\u2581beads": 5208,
    "\u2581judges": 5209,
    "\u2581transit": 5210,
    "\u2581juges": 5211,
    "\u2581\u00e9pais": 5212,
    "\u2581plaquer": 5213,
    "\u2581instructions": 5214,
    "\u2581conditions": 5215,
    "\u2581tackled": 5216,
    "\u00e9treign": 5217,
    "\u2581crashing": 5218,
    "\u2581creusent": 5219,
    "\u2581owner": 5220,
    "\u2581tomates": 5221,
    "\u2581Deere": 5222,
    "\u2581fortune": 5223,
    "\u2581billets": 5224,
    "\u2581cookies": 5225,
    "\u2581flock": 5226,
    "\u2581ongles": 5227,
    "\u2581clut": 5228,
    "\u2581d\u00e9guis\u00e9e": 5229,
    "mon": 5230,
    "del": 5231,
    "\u2581salue": 5232,
    "\u2581empil\u00e9": 5233,
    "\u2581call": 5234,
    "\u2581skills": 5235,
    "\u2581quilles": 5236,
    "\u2581assorti": 5237,
    "\u2581filmant": 5238,
    "\u2581sur\u00e9lev\u00e9e": 5239,
    "\u2581nurses": 5240,
    "\u2581entreprise": 5241,
    "\u2581h\u00e9licopt\u00e8re": 5242,
    "\u2581stance": 5243,
    "\u2581Green": 5244,
    "\u2581carrier": 5245,
    "\u2581riz": 5246,
    "\u2581touriste": 5247,
    "\u2581accord\u00e9on": 5248,
    "\u2581columns": 5249,
    "\u2581flou": 5250,
    "\u2581boxe": 5251,
    "\u2581cave": 5252,
    "\u2581rencontre": 5253,
    "\u2581find": 5254,
    "ston": 5255,
    "\u2581patrons": 5256,
    "\u2581lips": 5257,
    "\u2581\u00e9cart": 5258,
    "ton": 5259,
    "\u2581oreillers": 5260,
    "\u2581inter": 5261,
    "\u2581pos\u00e9es": 5262,
    "\u2581instruct": 5263,
    "\u2581di": 5264,
    "\u2581cameraman": 5265,
    "\u2581done": 5266,
    "\u2581rake": 5267,
    "\u2581acrobaties": 5268,
    "\u2581calmes": 5269,
    "\u2581year": 5270,
    "\u2581purchase": 5271,
    "\u2581pirates": 5272,
    "\u2581nous": 5273,
    "\u2581gardening": 5274,
    "\u2581int": 5275,
    "\u2581teammates": 5276,
    "\u2581peers": 5277,
    "\u2581cries": 5278,
    "\u2581banners": 5279,
    "\u2581ex": 5280,
    "\u2581rack": 5281,
    "aseball": 5282,
    "\u2581brillantes": 5283,
    "\u2581vitres": 5284,
    "\u2581h\u00f4tel": 5285,
    "\u2581services": 5286,
    "\u2581pos\u00e9e": 5287,
    "dans": 5288,
    "cker": 5289,
    "\u2581ador": 5290,
    "\u2581mont": 5291,
    "\u2581sides": 5292,
    "ordre": 5293,
    "\u2581rush": 5294,
    "\u2581courte": 5295,
    "\u2581kilts": 5296,
    "\u2581ouverts": 5297,
    "\u2581circula": 5298,
    "\u2581cigare": 5299,
    "\u2581US": 5300,
    "\u2581dinosaure": 5301,
    "ca": 5302,
    "\u2581contrer": 5303,
    "\u2581involve": 5304,
    "\u2581hills": 5305,
    "\u2581cuisinent": 5306,
    "\u2581rurale": 5307,
    "\u2581tow": 5308,
    "\u2581battl": 5309,
    "\u2581muret": 5310,
    "\u2581structures": 5311,
    "\u2581demande": 5312,
    "\u2581entrer": 5313,
    "all": 5314,
    "\u2581cellphones": 5315,
    "\u2581d\u00e9bardeurs": 5316,
    "\u2581cause": 5317,
    "suit": 5318,
    "uch": 5319,
    "ded": 5320,
    "\u2581dessins": 5321,
    "\u2581transparent": 5322,
    "\u2581ange": 5323,
    "\u2581h\u00f4pital": 5324,
    "\u2581sang": 5325,
    "\u2581endroits": 5326,
    "\u2581Mac": 5327,
    "\u2581moine": 5328,
    "\u2581hiver": 5329,
    "ab": 5330,
    "\u2581yell": 5331,
    "\u2581lis": 5332,
    "\u2581Br": 5333,
    "\u2581gar": 5334,
    "Y": 5335,
    "ives": 5336,
    "league": 5337,
    "\u2581pr\u00eate": 5338,
    "\u2581colorie": 5339,
    "\u2581montagneux": 5340,
    "\u2581sunbath": 5341,
    "\u2581camper": 5342,
    "\u2581skies": 5343,
    "\u2581complexe": 5344,
    "atterrir": 5345,
    "\u2581inclu": 5346,
    "\u2581remove": 5347,
    "\u2581crouch": 5348,
    "quelle": 5349,
    "\u2581canoes": 5350,
    "\u2581panel": 5351,
    "\u2581flat": 5352,
    "\u2581Gro": 5353,
    "\u2581enclos": 5354,
    "\u2581\u00e9crans": 5355,
    "\u2581musta": 5356,
    "\u2581purses": 5357,
    "\u2581sw": 5358,
    "ice": 5359,
    "\u2581masks": 5360,
    "son": 5361,
    "\u2581plank": 5362,
    "yo": 5363,
    "\u2581installe": 5364,
    "owing": 5365,
    "\u2581napp": 5366,
    "\u2581fouille": 5367,
    "\u2581cott": 5368,
    "\u2581launch": 5369,
    "\u2581garder": 5370,
    "do": 5371,
    "\u2581mor": 5372,
    "tif": 5373,
    "\u2581Ste": 5374,
    "\u2581expos": 5375,
    "\u2581jou": 5376,
    "\u2581Mi": 5377,
    "\u2581bondi": 5378,
    "ddy": 5379,
    "\u2581Co": 5380,
    "G": 5381,
    "emment": 5382,
    "\u2581entass\u00e9": 5383,
    "ordures": 5384,
    "\u2581mar": 5385,
    "\u2581accompanie": 5386,
    "\u2581tabliers": 5387,
    "\u2581shout": 5388,
    "\u2581pinceau": 5389,
    "\u2581baie": 5390,
    "op": 5391,
    "\u2581multi": 5392,
    "per": 5393,
    "\u00e9cran": 5394,
    "ents": 5395,
    "\u2581rid": 5396,
    "\u2581bi\u00e8res": 5397,
    "\u2581toast": 5398,
    "ments": 5399,
    "\u2581ballot": 5400,
    "\u2581arrow": 5401,
    "\u2581gri": 5402,
    "\u2581maquill\u00e9": 5403,
    "\u2581pic": 5404,
    "\u2581chin": 5405,
    "\u2581rebondi": 5406,
    "\u2581Num": 5407,
    "\u2581writ": 5408,
    "\u2581toss": 5409,
    "\u2581love": 5410,
    "country": 5411,
    "\u2581compan": 5412,
    "ading": 5413,
    "gorge": 5414,
    "\u2581recouvr": 5415,
    "attention": 5416,
    "ait": 5417,
    "Halloween": 5418,
    "\u00e9paule": 5419,
    "service": 5420,
    "Asiatiques": 5421,
    "uniformes": 5422,
    "\u2581dunes": 5423,
    "ungle": 5424,
    "\u2581ver": 5425,
    "\u00e9quipement": 5426,
    "\u2581brand": 5427,
    "escalader": 5428,
    "objets": 5429,
    "\u2581buri": 5430,
    "right": 5431,
    "venue": 5432,
    "jupes": 5433,
    "\u2581crosse": 5434,
    "\u2581Qu": 5435,
    "erous": 5436,
    "\u2581mort": 5437,
    "oreilles": 5438,
    "\u2581say": 5439,
    "\u2581franchi": 5440,
    "\u2581ras": 5441,
    "\u2581fl\u00e2ne": 5442,
    "hinese": 5443,
    "\u2581barque": 5444,
    "\u2581excit\u00e9": 5445,
    "\u2581text": 5446,
    "\u2581fountains": 5447,
    "\u2581mobylette": 5448,
    "\u2581ravin": 5449,
    "\u2581circulaire": 5450,
    "alcool": 5451,
    "\u2581mexicain": 5452,
    "\u2581twirl": 5453,
    "\u2581b\u00e2che": 5454,
    "\u2581d\u00e9fenseur": 5455,
    "\u2581defender": 5456,
    "\u2581spectateur": 5457,
    "\u2581human": 5458,
    "\u2581character": 5459,
    "\u2581coll\u00e8gue": 5460,
    "\u2581\u00e9treint": 5461,
    "\u2581employee": 5462,
    "\u2581cupcake": 5463,
    "rasant": 5464,
    "\u2581motif": 5465,
    "\u2581nurse": 5466,
    "\u2581cheerleader": 5467,
    "\u2581signing": 5468,
    "\u2581extr\u00e9mit\u00e9": 5469,
    "\u2581rassembl\u00e9e": 5470,
    "\u2581tige": 5471,
    "\u2581season": 5472,
    "\u2581feature": 5473,
    "\u2581fog": 5474,
    "\u2581berge": 5475,
    "\u2581weigh": 5476,
    "\u2581stripe": 5477,
    "\u2581though": 5478,
    "\u2581d\u00e9neige": 5479,
    "\u2581mitt": 5480,
    "\u2581industriel": 5481,
    "ustomers": 5482,
    "\u2581projecteur": 5483,
    "\u2581mascot": 5484,
    "\u2581elevat": 5485,
    "athl\u00e9tisme": 5486,
    "\u2581Muslim": 5487,
    "\u2581activities": 5488,
    "\u2581cathedral": 5489,
    "\u2581cath\u00e9drale": 5490,
    "\u2581chirurgien": 5491,
    "\u2581extreme": 5492,
    "\u2581hispanique": 5493,
    "\u2581inachev\u00e9": 5494,
    "\u2581javelot": 5495,
    "\u2581lumineux": 5496,
    "\u2581meadow": 5497,
    "\u2581musulman": 5498,
    "\u2581num\u00e9rique": 5499,
    "\u2581propri\u00e9taire": 5500,
    "\u2581puppet": 5501,
    "\u2581r\u00e9cup\u00e8re": 5502,
    "\u2581toujours": 5503,
    "\u2581trophy": 5504,
    "\u2581troph\u00e9e": 5505,
    "\u2581wilderness": 5506,
    "\u2581\u00e9l\u00e9vateur": 5507,
    "\u2581exercising": 5508,
    "\u2581harbor": 5509,
    "\u2581\u00e9chantillon": 5510,
    "\u2581caravan": 5511,
    "\u2581fedora": 5512,
    "\u2581guichet": 5513,
    "\u2581progress": 5514,
    "\u2581littoral": 5515,
    "\u2581soigneusement": 5516,
    "\u2581supermarket": 5517,
    "\u2581explosion": 5518,
    "\u2581videotap": 5519,
    "\u2581v\u00e9g\u00e9tation": 5520,
    "\u2581parallel": 5521,
    "\u2581verdure": 5522,
    "\u2581tigre": 5523,
    "\u2581cygne": 5524,
    "\u2581cellulaire": 5525,
    "\u2581maybe": 5526,
    "\u2581reception": 5527,
    "\u2581chapiteau": 5528,
    "\u2581d\u00e9filant": 5529,
    "\u2581arabe": 5530,
    "\u2581citizen": 5531,
    "\u2581slacks": 5532,
    "\u2581galets": 5533,
    "artisanat": 5534,
    "autoroute": 5535,
    "\u2581Island": 5536,
    "\u2581rustic": 5537,
    "\u2581seafood": 5538,
    "\u2581fermier": 5539,
    "\u2581aquatique": 5540,
    "\u2581backseat": 5541,
    "\u2581peloton": 5542,
    "\u2581herbeuse": 5543,
    "\u2581woodland": 5544,
    "\u2581expans": 5545,
    "\u2581resort": 5546,
    "\u2581special": 5547,
    "\u2581visor": 5548,
    "\u2581husky": 5549,
    "\u2581tournage": 5550,
    "\u2581d\u00e9but": 5551,
    "\u2581demonstration": 5552,
    "\u2581facial": 5553,
    "\u2581grotte": 5554,
    "\u2581suivent": 5555,
    "\u2581scientist": 5556,
    "\u00e9crasant": 5557,
    "\u2581tablecloth": 5558,
    "\u2581buggy": 5559,
    "\u2581mascotte": 5560,
    "\u2581tendue": 5561,
    "opard": 5562,
    "\u2581impressionnant": 5563,
    "\u2581compagn": 5564,
    "\u2581textile": 5565,
    "\u2581mattress": 5566,
    "\u2581skyline": 5567,
    "\u2581Ford": 5568,
    "\u2581skydiving": 5569,
    "\u2581roche": 5570,
    "\u2581crops": 5571,
    "\u2581relay": 5572,
    "\u2581poney": 5573,
    "\u2581somewhere": 5574,
    "\u2581mounted": 5575,
    "\u2581frire": 5576,
    "\u2581starring": 5577,
    "\u2581bodysuit": 5578,
    "\u2581violoniste": 5579,
    "Est": 5580,
    "\u2581muscula": 5581,
    "\u2581web": 5582,
    "\u00e9lastique": 5583,
    "\u2581baisse": 5584,
    "\u2581Wall": 5585,
    "\u2581sourcils": 5586,
    "\u2581mitaines": 5587,
    "\u2581r\u00e9parations": 5588,
    "\u2581tiger": 5589,
    "\u2581applaudit": 5590,
    "US": 5591,
    "\u2581conducting": 5592,
    "\u2581feutre": 5593,
    "\u2581moulant": 5594,
    "\u2581guerre": 5595,
    "\u2581downhill": 5596,
    "act": 5597,
    "\u2581bicyclette": 5598,
    "\u2581rentrer": 5599,
    "eval": 5600,
    "\u2581topless": 5601,
    "\u2581marker": 5602,
    "\u2581mu": 5603,
    "ds": 5604,
    "\u2581dryer": 5605,
    "\u2581artificielle": 5606,
    "\u2581brassard": 5607,
    "\u2581cargo": 5608,
    "\u2581sidelines": 5609,
    "\u2581trop": 5610,
    "\u2581termin\u00e9": 5611,
    "\u2581niveau": 5612,
    "amuser": 5613,
    "\u2581historic": 5614,
    "\u2581sunhat": 5615,
    "\u2581clutch": 5616,
    "\u2581mountaintop": 5617,
    "\u2581crown": 5618,
    "ical": 5619,
    "\u2581flottent": 5620,
    "\u2581autochtone": 5621,
    "\u2581stationnement": 5622,
    "\u2581lush": 5623,
    "\u2581milk": 5624,
    "\u2581broad": 5625,
    "\u2581rollerskates": 5626,
    "t\u00f4t": 5627,
    "\u2581level": 5628,
    "\u2581information": 5629,
    "\u2581hamburgers": 5630,
    "\u2581Inde": 5631,
    "\u2581stock": 5632,
    "\u2581trotting": 5633,
    "\u2581greet": 5634,
    "\u2581quoi": 5635,
    "\u2581vacuuming": 5636,
    "\u2581flame": 5637,
    "\u2581embrace": 5638,
    "ened": 5639,
    "\u2581watermelons": 5640,
    "\u2581bananas": 5641,
    "\u2581damage": 5642,
    "\u2581chew": 5643,
    "\u2581personnages": 5644,
    "\u2581bananes": 5645,
    "\u2581exhib": 5646,
    "\u2581Tourists": 5647,
    "tend": 5648,
    "\u2581select": 5649,
    "\u2581Washington": 5650,
    "\u2581lanterns": 5651,
    "\u2581employees": 5652,
    "\u2581coll\u00e8gues": 5653,
    "\u2581characters": 5654,
    "\u2581cupcakes": 5655,
    "\u2581lanternes": 5656,
    "\u2581indiqu": 5657,
    "\u2581appartement": 5658,
    "\u2581enseignante": 5659,
    "\u2581vocal": 5660,
    "\u2581colorfully": 5661,
    "\u2581bloque": 5662,
    "\u2581touchent": 5663,
    "\u2581skill": 5664,
    "\u2581attracti": 5665,
    "serves": 5666,
    "\u2581ordering": 5667,
    "\u2581shooter": 5668,
    "fin": 5669,
    "\u2581ultim": 5670,
    "\u2581monitors": 5671,
    "oles": 5672,
    "shape": 5673,
    "\u2581Indien": 5674,
    "\u2581DS": 5675,
    "\u2581upwards": 5676,
    "\u2581pliantes": 5677,
    "\u2581shack": 5678,
    "\u2581dolls": 5679,
    "\u2581para": 5680,
    "\u2581rallye": 5681,
    "\u2581chevalet": 5682,
    "\u2581tutus": 5683,
    "\u2581camels": 5684,
    "ges": 5685,
    "tats": 5686,
    "\u2581co\u00e9quipiers": 5687,
    "\u2581\u00e9couter": 5688,
    "ogie": 5689,
    "\u2581coco": 5690,
    "hole": 5691,
    "\u2581\u00e9tudiante": 5692,
    "\u2581fold": 5693,
    "\u2581necklaces": 5694,
    "\u2581prepared": 5695,
    "\u2581jar": 5696,
    "\u2581jailliss": 5697,
    "\u2581border": 5698,
    "\u2581barrels": 5699,
    "ange": 5700,
    "der": 5701,
    "\u2581p\u00eachent": 5702,
    "\u2581Walk": 5703,
    "\u2581\u00e9l\u00e8ve": 5704,
    "\u2581anti": 5705,
    "im": 5706,
    "\u2581drawn": 5707,
    "\u2581award": 5708,
    "teindre": 5709,
    "\u2581snacks": 5710,
    "\u2581professionnels": 5711,
    "\u2581amies": 5712,
    "\u2581gay": 5713,
    "tory": 5714,
    "\u2581seating": 5715,
    "\u2581peaks": 5716,
    "iversity": 5717,
    "\u2581magnifiques": 5718,
    "\u2581floue": 5719,
    "\u2581brille": 5720,
    "\u2581sold": 5721,
    "let": 5722,
    "\u2581armor": 5723,
    "\u2581advertisements": 5724,
    "\u2581fabriqu": 5725,
    "\u2581need": 5726,
    "infirmi\u00e8res": 5727,
    "\u2581polos": 5728,
    "\u2581Halloween": 5729,
    "N": 5730,
    "\u2581pleu": 5731,
    "entourent": 5732,
    "\u2581alimentaires": 5733,
    "\u2581Nat": 5734,
    "\u2581organiz": 5735,
    "embers": 5736,
    "The": 5737,
    "\u2581paw": 5738,
    "\u2581tableaux": 5739,
    "\u2581beiges": 5740,
    "\u2581teint": 5741,
    "ennis": 5742,
    "\u2581strings": 5743,
    "\u2581gonflables": 5744,
    "\u2581\u00e9l\u00e9gant": 5745,
    "\u2581balais": 5746,
    "sur": 5747,
    "\u2581peigne": 5748,
    "\u2581trains": 5749,
    "\u2581mouill\u00e9e": 5750,
    "\u2581bounce": 5751,
    "dults": 5752,
    "\u2581mic": 5753,
    "sent": 5754,
    "urry": 5755,
    "ars": 5756,
    "\u2581troncs": 5757,
    "\u2581medi": 5758,
    "\u2581perch": 5759,
    "\u2581bump": 5760,
    "\u2581gratt": 5761,
    "\u2581stars": 5762,
    "\u2581weight": 5763,
    "\u2581pulv\u00e9rise": 5764,
    "\u2581guards": 5765,
    "\u2581wrapp": 5766,
    "\u2581dropp": 5767,
    "\u2581str": 5768,
    "errier": 5769,
    "back": 5770,
    "\u2581impliqu\u00e9": 5771,
    "\u2581tremp\u00e9": 5772,
    "agged": 5773,
    "\u2581glissa": 5774,
    "\u2581fat": 5775,
    "\u2581quitt": 5776,
    "\u2581\u00e9lectriques": 5777,
    "\u2581pr\u00e9lass": 5778,
    "camera": 5779,
    "\u2581Shop": 5780,
    "ients": 5781,
    "\u2581quiet": 5782,
    "dressed": 5783,
    "tes": 5784,
    "\u2581poser": 5785,
    "\u2581expose": 5786,
    "\u2581jets": 5787,
    "\u2581dump": 5788,
    "\u2581symbol": 5789,
    "\u2581pans": 5790,
    "\u2581d\u00e9cor\u00e9e": 5791,
    "effor": 5792,
    "\u2581artists": 5793,
    "\u2581shi": 5794,
    "\u2581mauvaise": 5795,
    "\u2581scal": 5796,
    "ler": 5797,
    "\u2581sad": 5798,
    "\u2581Protest": 5799,
    "\u2581dot": 5800,
    "F": 5801,
    "\u2581Power": 5802,
    "\u2581harp": 5803,
    "opping": 5804,
    "oney": 5805,
    "\u2581statues": 5806,
    "ppy": 5807,
    "\u2581railings": 5808,
    "\u2581cats": 5809,
    "ather": 5810,
    "\u2581attach": 5811,
    "\u2581impatie": 5812,
    "\u2581eff": 5813,
    "ose": 5814,
    "\u2581accroch\u00e9e": 5815,
    "\u2581Long": 5816,
    "\u2581slic": 5817,
    "\u2581masques": 5818,
    "yed": 5819,
    "\u2581hour": 5820,
    "\u2581polish": 5821,
    "\u2581remov": 5822,
    "cart": 5823,
    "\u2581locale": 5824,
    "erry": 5825,
    "\u2581occup\u00e9e": 5826,
    "\u2581sc": 5827,
    "ssing": 5828,
    "ap": 5829,
    "\u2581suspend": 5830,
    "\u2581drape": 5831,
    "\u2581crab": 5832,
    "\u2581r\u00e9colte": 5833,
    "\u2581rocheuses": 5834,
    "\u2581\u00e9l\u00e9gante": 5835,
    "\u2581own": 5836,
    "\u2581us": 5837,
    "\u2581auto": 5838,
    "\u2581flow": 5839,
    "\u2581desks": 5840,
    "ack": 5841,
    "\u2581pass\u00e9": 5842,
    "ood": 5843,
    "voyant": 5844,
    "ch\u00e9": 5845,
    "t\u00eate": 5846,
    "\u2581corne": 5847,
    "\u2581sip": 5848,
    "\u2581prot\u00e9g": 5849,
    "\u2581serveu": 5850,
    "\u2581paresse": 5851,
    "ress": 5852,
    "\u2581souple": 5853,
    "\u2581lin": 5854,
    "\u2581tisse": 5855,
    "\u2581japonaise": 5856,
    "\u2581mar\u00e9cage": 5857,
    "amour": 5858,
    "\u2581ri": 5859,
    "andy": 5860,
    "\u2581salad": 5861,
    "\u2581Ge": 5862,
    "\u2581explore": 5863,
    "\u2581comb": 5864,
    "\u2581soup": 5865,
    "\u2581concentrate": 5866,
    "try": 5867,
    "\u2581termin": 5868,
    "\u2581attein": 5869,
    "ively": 5870,
    "\u2581build": 5871,
    "\u2581recline": 5872,
    "\u2581manuel": 5873,
    "\u2581souriants": 5874,
    "\u2581pops": 5875,
    "York": 5876,
    "entourant": 5877,
    "storm": 5878,
    "documents": 5879,
    "individus": 5880,
    "\u00e9p\u00e9e": 5881,
    "ging": 5882,
    "allure": 5883,
    "high": 5884,
    "marine": 5885,
    "\u2581pou": 5886,
    "filled": 5887,
    "\u2581oil": 5888,
    "\u2581spr": 5889,
    "\u2581fro": 5890,
    "tendant": 5891,
    "day": 5892,
    "\u2581beers": 5893,
    "n\u00e9e": 5894,
    "\u2581mon": 5895,
    "\u2581connecte": 5896,
    "ver": 5897,
    "ung": 5898,
    "held": 5899,
    "jour": 5900,
    "\u2581shirted": 5901,
    "\u2581release": 5902,
    "\u2581serr\u00e9": 5903,
    "\u2581accroche": 5904,
    "ri": 5905,
    "her": 5906,
    "\u2581wo": 5907,
    "\u2581disposi": 5908,
    "\u00eate": 5909,
    "\u2581fou": 5910,
    "\u2581soulev\u00e9": 5911,
    "gers": 5912,
    "\u2581r\u00e9alise": 5913,
    "\u2581Wi": 5914,
    "\u2581interagi": 5915,
    "\u2581r\u00e9fl\u00e9chi": 5916,
    "\u2581sail": 5917,
    "\u2581bouc": 5918,
    "\u2581kn": 5919,
    "\u2581fontaines": 5920,
    "ctors": 5921,
    "\u2581charg\u00e9": 5922,
    "\u00e7on": 5923,
    "\u2581cass\u00e9": 5924,
    "\u2581briefcase": 5925,
    "\u2581dossard": 5926,
    "\u2581skull": 5927,
    "\u2581handbag": 5928,
    "\u2581brid": 5929,
    "\u2581mode": 5930,
    "\u2581fork": 5931,
    "\u2581synchronis\u00e9e": 5932,
    "\u2581hutte": 5933,
    "\u2581question": 5934,
    "\u2581pillar": 5935,
    "\u2581bou": 5936,
    "\u2581friandise": 5937,
    "\u2581weapon": 5938,
    "\u2581activit\u00e9": 5939,
    "\u2581zombie": 5940,
    "\u2581poncho": 5941,
    "\u2581Tourist": 5942,
    "\u2581banane": 5943,
    "\u2581spik": 5944,
    "\u2581buisson": 5945,
    "\u2581tribu": 5946,
    "\u2581colonne": 5947,
    "\u2581temp": 5948,
    "\u2581meuble": 5949,
    "\u2581personnage": 5950,
    "\u2581crate": 5951,
    "\u2581porc": 5952,
    "\u2581enseignant": 5953,
    "\u2581sweet": 5954,
    "\u2581patte": 5955,
    "irefighters": 5956,
    "\u2581trim": 5957,
    "\u2581d\u00e9passe": 5958,
    "\u2581scout": 5959,
    "\u2581via": 5960,
    "\u2581cable": 5961,
    "\u2581lev\u00e9": 5962,
    "\u2581serpent": 5963,
    "\u2581note": 5964,
    "\u2581too": 5965,
    "\u2581dessin\u00e9e": 5966,
    "oddler": 5967,
    "\u2581remett": 5968,
    "\u2581tomato": 5969,
    "\u2581regroup\u00e9": 5970,
    "\u2581app": 5971,
    "\u2581zip": 5972,
    "den": 5973,
    "\u2581ceremon": 5974,
    "\u2581clarinet": 5975,
    "\u2581balaye": 5976,
    "\u2581baton": 5977,
    "\u2581fantaisi": 5978,
    "affichage": 5979,
    "\u2581Basketball": 5980,
    "\u2581Berlin": 5981,
    "\u2581Cowboy": 5982,
    "\u2581Pizza": 5983,
    "\u2581album": 5984,
    "\u2581alcohol": 5985,
    "\u2581brindle": 5986,
    "\u2581bronco": 5987,
    "\u2581caucasien": 5988,
    "\u2581concession": 5989,
    "\u2581crocodile": 5990,
    "\u2581encadr\u00e9": 5991,
    "\u2581husband": 5992,
    "\u2581intitul\u00e9": 5993,
    "\u2581invisible": 5994,
    "\u2581kiosk": 5995,
    "\u2581liquor": 5996,
    "\u2581monopoly": 5997,
    "\u2581ninja": 5998,
    "\u2581opinion": 5999,
    "\u2581paisible": 6000,
    "\u2581perplexe": 6001,
    "\u2581physique": 6002,
    "\u2581pittoresque": 6003,
    "\u2581professor": 6004,
    "\u2581scissors": 6005,
    "\u2581spatula": 6006,
    "\u2581spatule": 6007,
    "\u2581sunshine": 6008,
    "\u2581tr\u00e9buch": 6009,
    "\u2581t\u00e9l\u00e9si\u00e8ge": 6010,
    "\u2581z\u00e9br\u00e9": 6011,
    "\u2581boulevers\u00e9": 6012,
    "\u2581fluorescent": 6013,
    "\u2581lipstick": 6014,
    "\u2581ornament": 6015,
    "\u2581patrouille": 6016,
    "\u2581razor": 6017,
    "\u2581Company": 6018,
    "\u2581anti\u00e9meute": 6019,
    "\u2581lyc\u00e9e": 6020,
    "\u2581l\u00e9opard": 6021,
    "\u2581recreat": 6022,
    "\u2581Hotel": 6023,
    "\u2581maigre": 6024,
    "\u2581Angels": 6025,
    "\u2581crochet": 6026,
    "\u2581jazz": 6027,
    "\u2581situation": 6028,
    "\u2581Angeles": 6029,
    "\u2581d\u00e9tritus": 6030,
    "\u2581lavabo": 6031,
    "\u2581Surfer": 6032,
    "\u2581Certain": 6033,
    "\u2581r\u00e9tro": 6034,
    "\u2581intens\u00e9ment": 6035,
    "\u2581navigable": 6036,
    "\u2581ciseaux": 6037,
    "\u2581tortue": 6038,
    "\u2581bardeaux": 6039,
    "\u2581system": 6040,
    "\u2581nightclub": 6041,
    "\u2581Volkswagen": 6042,
    "\u2581soudure": 6043,
    "\u2581boulangerie": 6044,
    "\u2581geisha": 6045,
    "\u2581Claus": 6046,
    "\u2581seesaw": 6047,
    "\u2581High": 6048,
    "\u2581secouriste": 6049,
    "\u2581tatoueur": 6050,
    "\u2581Life": 6051,
    "\u2581rustique": 6052,
    "\u2581rasoir": 6053,
    "\u2581archway": 6054,
    "\u2581BMW": 6055,
    "\u2581breath": 6056,
    "\u2581cuivre": 6057,
    "\u2581propane": 6058,
    "\u2581riverbank": 6059,
    "\u2581compagnie": 6060,
    "\u2581Lakers": 6061,
    "\u2581typique": 6062,
    "\u2581tunic": 6063,
    "\u2581lourd": 6064,
    "\u2581operation": 6065,
    "\u2581m\u00e9dicaux": 6066,
    "\u2581fitness": 6067,
    "\u2581Spiderman": 6068,
    "\u2581curious": 6069,
    "\u2581wonder": 6070,
    "\u2581dra": 6071,
    "\u2581arbor": 6072,
    "\u2581panda": 6073,
    "\u2581ruade": 6074,
    "\u2581hipster": 6075,
    "\u2581projection": 6076,
    "\u2581goatee": 6077,
    "\u2581remue": 6078,
    "\u2581relais": 6079,
    "\u2581suburb": 6080,
    "\u2581vieillard": 6081,
    "\u2581sharp": 6082,
    "\u2581index": 6083,
    "\u2581Wii": 6084,
    "\u2581crack": 6085,
    "\u2581dirig\u00e9": 6086,
    "\u2581socializing": 6087,
    "OR": 6088,
    "\u2581bloqu\u00e9": 6089,
    "\u2581foresti\u00e8re": 6090,
    "\u2581wineglasses": 6091,
    "\u2581constructed": 6092,
    "\u2581clap": 6093,
    "\u2581sauveteur": 6094,
    "\u2581campement": 6095,
    "\u2581audio": 6096,
    "\u2581saddle": 6097,
    "\u2581tunique": 6098,
    "\u2581chunk": 6099,
    "\u2581frown": 6100,
    "\u2581radeaux": 6101,
    "\u2581hairstyle": 6102,
    "\u2581poker": 6103,
    "five": 6104,
    "\u2581Rod": 6105,
    "\u2581glider": 6106,
    "\u2581p\u00e9dalant": 6107,
    "\u2581Cyclist": 6108,
    "\u2581tuyaux": 6109,
    "\u2581saucisses": 6110,
    "\u2581mittens": 6111,
    "\u2581clos": 6112,
    "\u2581session": 6113,
    "\u2581sailor": 6114,
    "\u2581assembled": 6115,
    "\u2581fireworks": 6116,
    "\u2581completely": 6117,
    "\u2581Bikers": 6118,
    "\u2581excitedly": 6119,
    "\u2581parvien": 6120,
    "\u2581knitting": 6121,
    "\u2581cash": 6122,
    "\u2581Ice": 6123,
    "\u2581grillage": 6124,
    "\u2581banlieue": 6125,
    "\u2581enterr\u00e9": 6126,
    "\u2581surveillant": 6127,
    "\u2581tomatoes": 6128,
    "\u2581pride": 6129,
    "\u2581joyeuse": 6130,
    "\u2581puff": 6131,
    "\u2581Colle": 6132,
    "\u2581sauna": 6133,
    "\u2581criant": 6134,
    "\u2581obten": 6135,
    "\u2581secours": 6136,
    "\u2581barreaux": 6137,
    "\u2581mosa": 6138,
    "\u2581prient": 6139,
    "\u2581flaming": 6140,
    "\u2581priant": 6141,
    "rows": 6142,
    "\u2581ceris": 6143,
    "\u2581souvenirs": 6144,
    "\u2581poudre": 6145,
    "\u2581belly": 6146,
    "\u2581bridesmaids": 6147,
    "\u2581policemen": 6148,
    "sse": 6149,
    "\u2581sueur": 6150,
    "\u2581East": 6151,
    "\u2581eager": 6152,
    "\u2581roul\u00e9": 6153,
    "\u2581yo": 6154,
    "\u2581tresses": 6155,
    "i\u00e8rement": 6156,
    "\u2581bouton": 6157,
    "\u2581Gray": 6158,
    "\u2581sponsor": 6159,
    "\u2581menton": 6160,
    "\u2581Ho": 6161,
    "\u2581words": 6162,
    "\u2581pastel": 6163,
    "\u2581trio": 6164,
    "\u2581melons": 6165,
    "\u2581expos\u00e9es": 6166,
    "\u2581Superman": 6167,
    "\u2581equ": 6168,
    "\u2581champs": 6169,
    "\u2581ascend": 6170,
    "\u2581enflamm\u00e9s": 6171,
    "\u2581stay": 6172,
    "\u2581texting": 6173,
    "\u2581plongeon": 6174,
    "\u2581Skier": 6175,
    "anneaux": 6176,
    "\u2581pr\u00eatre": 6177,
    "\u2581rouill\u00e9e": 6178,
    "\u2581rondin": 6179,
    "\u2581d\u00e9tourn": 6180,
    "amily": 6181,
    "\u2581mouettes": 6182,
    "\u2581remet": 6183,
    "\u2581Joe": 6184,
    "acheteurs": 6185,
    "\u2581tips": 6186,
    "\u2581strik": 6187,
    "\u2581inf\u00e9rieure": 6188,
    "\u2581tumbling": 6189,
    "\u2581clothed": 6190,
    "\u2581dribbl": 6191,
    "\u2581steer": 6192,
    "\u2581Dirt": 6193,
    "\u2581Sud": 6194,
    "\u2581plonger": 6195,
    "\u2581blower": 6196,
    "\u2581marsh": 6197,
    "\u2581\u00e9clabouss\u00e9": 6198,
    "\u2581ollie": 6199,
    "\u2581waterside": 6200,
    "\u2581girlfriend": 6201,
    "\u2581grimper": 6202,
    "\u2581checked": 6203,
    "\u2581scratch": 6204,
    "\u2581loupe": 6205,
    "\u2581mout": 6206,
    "\u2581ponchos": 6207,
    "\u2581zombies": 6208,
    "\u2581signal": 6209,
    "\u2581occup": 6210,
    "\u2581surplombe": 6211,
    "\u2581ancienne": 6212,
    "\u2581talkie": 6213,
    "\u2581enceinte": 6214,
    "\u2581blurr": 6215,
    "\u2581Bull": 6216,
    "\u2581stair": 6217,
    "\u2581South": 6218,
    "\u2581essuie": 6219,
    "\u2581approchant": 6220,
    "\u2581ombres": 6221,
    "\u2581framed": 6222,
    "\u2581gowns": 6223,
    "\u2581ascension": 6224,
    "\u2581cass\u00e9e": 6225,
    "\u2581projecteurs": 6226,
    "\u2581Hous": 6227,
    "\u2581nails": 6228,
    "\u2581ethniques": 6229,
    "\u2581citrouilles": 6230,
    "\u2581swan": 6231,
    "\u2581spots": 6232,
    "\u2581cierge": 6233,
    "\u2581pouss\u00e9": 6234,
    "ame": 6235,
    "\u2581ravine": 6236,
    "\u2581Day": 6237,
    "\u2581snowball": 6238,
    "\u2581vigo": 6239,
    "\u2581lapins": 6240,
    "\u2581vision": 6241,
    "\u2581d\u00e9barrasse": 6242,
    "W": 6243,
    "\u2581personnels": 6244,
    "\u2581d\u00e9guis\u00e9es": 6245,
    "\u2581poulets": 6246,
    "\u2581minces": 6247,
    "\u2581pyramide": 6248,
    "\u2581\u00e9clairages": 6249,
    "\u2581festive": 6250,
    "\u2581varie": 6251,
    "\u2581construite": 6252,
    "\u2581rugs": 6253,
    "\u2581occup\u00e9s": 6254,
    "\u2581t\u00e2ches": 6255,
    "\u2581flood": 6256,
    "\u2581decide": 6257,
    "\u2581bonhomme": 6258,
    "\u2581rondes": 6259,
    "\u2581boxers": 6260,
    "\u2581\u00e9l\u00e9phants": 6261,
    "\u2581Jew": 6262,
    "\u2581expos\u00e9s": 6263,
    "\u2581boa": 6264,
    "\u00e9crase": 6265,
    "\u2581ref": 6266,
    "\u2581haul": 6267,
    "\u2581want": 6268,
    "\u2581barriers": 6269,
    "\u2581chand": 6270,
    "\u2581\u00e9p\u00e9es": 6271,
    "\u2581brow": 6272,
    "elve": 6273,
    "\u2581McDonalds": 6274,
    "\u2581\u00e9tend": 6275,
    "lly": 6276,
    "\u2581projet\u00e9e": 6277,
    "ey": 6278,
    "\u2581strip": 6279,
    "\u2581attack": 6280,
    "\u2581valises": 6281,
    "\u2581ribbons": 6282,
    "\u2581m\u00e9decins": 6283,
    "\u2581poup\u00e9es": 6284,
    "\u2581gonfle": 6285,
    "\u2581u": 6286,
    "\u2581descente": 6287,
    "\u2581ajust": 6288,
    "\u2581brooms": 6289,
    "\u2581console": 6290,
    "\u2581ja": 6291,
    "\u2581cerfs": 6292,
    "tex": 6293,
    "arde": 6294,
    "Bo": 6295,
    "\u2581arriv": 6296,
    "\u2581blocking": 6297,
    "set": 6298,
    "\u2581kit": 6299,
    "\u2581beams": 6300,
    "\u2581change": 6301,
    "\u2581doctors": 6302,
    "\u2581enseignes": 6303,
    "ootball": 6304,
    "\u2581planter": 6305,
    "\u2581dots": 6306,
    "\u2581swords": 6307,
    "\u2581formations": 6308,
    "Bron": 6309,
    "\u2581wok": 6310,
    "qui": 6311,
    "\u2581jumpsuits": 6312,
    "\u2581hearts": 6313,
    "\u2581africaines": 6314,
    "\u2581cl": 6315,
    "\u2581allure": 6316,
    "\u2581secure": 6317,
    "\u2581marathonien": 6318,
    "\u2581devanture": 6319,
    "stretched": 6320,
    "\u2581turbans": 6321,
    "\u2581sound": 6322,
    "ouche": 6323,
    "\u2581tropicale": 6324,
    "\u2581sleeves": 6325,
    "ide": 6326,
    "\u2581mots": 6327,
    "\u2581Bill": 6328,
    "\u2581flee": 6329,
    "\u2581Loca": 6330,
    "ta": 6331,
    "hree": 6332,
    "\u2581publicit\u00e9s": 6333,
    "\u2581bows": 6334,
    "\u2581cages": 6335,
    "\u2581bottoms": 6336,
    "\u2581p\u00e9ta": 6337,
    "\u2581Mick": 6338,
    "ster": 6339,
    "\u2581tricycles": 6340,
    "\u2581skim": 6341,
    "\u2581presents": 6342,
    "\u2581acier": 6343,
    "\u2581litter": 6344,
    "\u2581drying": 6345,
    "\u2581pipes": 6346,
    "\u2581wheelchairs": 6347,
    "\u2581serviettes": 6348,
    "\u2581utili": 6349,
    "ages": 6350,
    "ssed": 6351,
    "\u00e8res": 6352,
    "\u2581Minne": 6353,
    "aller": 6354,
    "\u2581Sal": 6355,
    "\u2581lands": 6356,
    "\u2581assisting": 6357,
    "\u2581pend": 6358,
    "ot": 6359,
    "\u2581plaine": 6360,
    "\u2581devices": 6361,
    "\u2581vaches": 6362,
    "\u2581rafts": 6363,
    "enne": 6364,
    "da": 6365,
    "\u2581museau": 6366,
    "\u2581raining": 6367,
    "con": 6368,
    "got": 6369,
    "\u2581slopes": 6370,
    "wearing": 6371,
    "\u2581noses": 6372,
    "\u2581visite": 6373,
    "\u2581soupe": 6374,
    "lin": 6375,
    "va": 6376,
    "\u2581Ja": 6377,
    "\u2581escalader": 6378,
    "\u2581stunts": 6379,
    "ugging": 6380,
    "iens": 6381,
    "\u2581vise": 6382,
    "head": 6383,
    "\u2581So": 6384,
    "ummer": 6385,
    "\u2581Mad": 6386,
    "\u2581toilet": 6387,
    "\u2581press": 6388,
    "\u2581golfeur": 6389,
    "tation": 6390,
    "ponge": 6391,
    "\u2581stationn\u00e9e": 6392,
    "\u2581mise": 6393,
    "\u2581trans": 6394,
    "\u2581brunes": 6395,
    "\u2581profondes": 6396,
    "\u2581suspendus": 6397,
    "\u2581crabe": 6398,
    "ctur": 6399,
    "\u2581chats": 6400,
    "\u2581Nou": 6401,
    "\u2581plush": 6402,
    "table": 6403,
    "\u2581rapport": 6404,
    "asse": 6405,
    "\u2581lanes": 6406,
    "ber": 6407,
    "\u2581vides": 6408,
    "mo": 6409,
    "ex": 6410,
    "er\u00e7ant": 6411,
    "\u2581magnif": 6412,
    "pose": 6413,
    "\u2581suite": 6414,
    "hat": 6415,
    "\u2581hear": 6416,
    "eling": 6417,
    "\u2581strollers": 6418,
    "\u2581entra\u00eenement": 6419,
    "\u2581approche": 6420,
    "\u2581campeur": 6421,
    "\u2581d\u00e9roule": 6422,
    "hand": 6423,
    "\u2581may": 6424,
    "\u2581mow": 6425,
    "\u2581care": 6426,
    "\u2581sp": 6427,
    "cteur": 6428,
    "bo": 6429,
    "io": 6430,
    "ize": 6431,
    "\u2581colliers": 6432,
    "\u2581ferr": 6433,
    "hose": 6434,
    "ngry": 6435,
    "\u2581pelles": 6436,
    "time": 6437,
    "ellow": 6438,
    "\u2581Chi": 6439,
    "pos\u00e9s": 6440,
    "\u2581breaks": 6441,
    "\u2581limb": 6442,
    "wards": 6443,
    "\u2581Grand": 6444,
    "\u2581trous": 6445,
    "\u2581vitrines": 6446,
    "insi": 6447,
    "ilitary": 6448,
    "\u2581conveni": 6449,
    "\u2581Tim": 6450,
    "\u2581amus": 6451,
    "\u2581surfeurs": 6452,
    "robe": 6453,
    "\u2581Met": 6454,
    "\u2581savour": 6455,
    "\u2581tambourin": 6456,
    "eautiful": 6457,
    "thing": 6458,
    "\u2581peak": 6459,
    "white": 6460,
    "\u2581axe": 6461,
    "\u2581squa": 6462,
    "\u2581stationn\u00e9": 6463,
    "tery": 6464,
    "\u00e9ment": 6465,
    "mat": 6466,
    "short": 6467,
    "\u2581Pe": 6468,
    "mble": 6469,
    "artial": 6470,
    "\u2581dipl\u00f4m\u00e9": 6471,
    "Unis": 6472,
    "\u2581regard\u00e9": 6473,
    "rious": 6474,
    "\u2581Asians": 6475,
    "rded": 6476,
    "\u2581origin": 6477,
    "skating": 6478,
    "\u2581don": 6479,
    "lage": 6480,
    "\u2581wade": 6481,
    "iving": 6482,
    "\u00e9chant": 6483,
    "piece": 6484,
    "objet": 6485,
    "\u2581rapporte": 6486,
    "\u2581gen": 6487,
    "\u2581inclin\u00e9": 6488,
    "\u2581illumin\u00e9": 6489,
    "\u2581coiff\u00e9": 6490,
    "\u2581stre": 6491,
    "ok": 6492,
    "pool": 6493,
    "cast": 6494,
    "\u2581cho": 6495,
    "woman": 6496,
    "hoop": 6497,
    "\u2581principale": 6498,
    "\u2581chip": 6499,
    "ay": 6500,
    "\u2581flu": 6501,
    "Le": 6502,
    "\u2581assort": 6503,
    "exercice": 6504,
    "\u2581vertical": 6505,
    "\u2581manipul": 6506,
    "\u2581mark": 6507,
    "\u2581search": 6508,
    "corn": 6509,
    "\u2581glid": 6510,
    "\u00e9gout": 6511,
    "\u2581stretch": 6512,
    "rest": 6513,
    "\u2581demand": 6514,
    "work": 6515,
    "wheeler": 6516,
    "\u2581cord": 6517,
    "ka": 6518,
    "\u00e9vite": 6519,
    "ra": 6520,
    "acier": 6521,
    "uma": 6522,
    "cercle": 6523,
    "informatique": 6524,
    "\u2581pie": 6525,
    "Asie": 6526,
    "\u2581frott": 6527,
    "articles": 6528,
    "asphalte": 6529,
    "\u2581trotte": 6530,
    "harmonica": 6531,
    "\u2581pourchasse": 6532,
    "h\u00f4tel": 6533,
    "acheter": 6534,
    "break": 6535,
    "\u2581canin": 6536,
    "\u2581port\u00e9": 6537,
    "cteurs": 6538,
    "tage": 6539,
    "artistes": 6540,
    "\u2581clou": 6541,
    "\u2581barbecu": 6542,
    "\u2581tip": 6543,
    "outils": 6544,
    "\u2581entr": 6545,
    "\u2581emerge": 6546,
    "ctively": 6547,
    "lic": 6548,
    "cting": 6549,
    "\u2581mouths": 6550,
    "uds": 6551,
    "\u2581Ca": 6552,
    "ft": 6553,
    "enla\u00e7ant": 6554,
    "itty": 6555,
    "\u2581submerge": 6556,
    "\u2581major": 6557,
    "oiseau": 6558,
    "\u2581culture": 6559,
    "aby": 6560,
    "\u2581shad": 6561,
    "\u2581bring": 6562,
    "\u2581toque": 6563,
    "\u2581pray": 6564,
    "\u2581hung": 6565,
    "\u2581plow": 6566,
    "m\u00eames": 6567,
    "\u2581d\u00e9ploy\u00e9": 6568,
    "\u2581wipe": 6569,
    "\u2581encl": 6570,
    "\u2581truc": 6571,
    "sion": 6572,
    "\u2581multicolor": 6573,
    "roll": 6574,
    "\u2581choisi": 6575,
    "\u2581demonstrat": 6576,
    "\u2581allum\u00e9": 6577,
    "teur": 6578,
    "\u2581commer\u00e7ant": 6579,
    "\u2581l\u00e9g\u00e8re": 6580,
    "chefs": 6581,
    "\u2581important": 6582,
    "\u2581final": 6583,
    "\u2581asphalt": 6584,
    "\u2581sur\u00e9lev\u00e9": 6585,
    "\u2581engag": 6586,
    "\u2581nom": 6587,
    "\u2581marionnette": 6588,
    "\u2581fl\u00e8che": 6589,
    "\u2581arroseur": 6590,
    "\u2581sister": 6591,
    "sol": 6592,
    "\u2581cahier": 6593,
    "\u2581chiffon": 6594,
    "\u2581vitr\u00e9e": 6595,
    "\u2581canadien": 6596,
    "\u2581jet\u00e9": 6597,
    "\u2581concurrent": 6598,
    "\u2581Bicyclist": 6599,
    "\u2581inscription": 6600,
    "\u2581ma\u00eetre": 6601,
    "\u2581watermelon": 6602,
    "\u2581fau": 6603,
    "\u2581banana": 6604,
    "\u2581kimono": 6605,
    "\u2581jog": 6606,
    "cr\u00e9ation": 6607,
    "\u2581bagpipe": 6608,
    "\u2581pedestrian": 6609,
    "\u2581expert": 6610,
    "\u2581backward": 6611,
    "\u2581empil": 6612,
    "\u2581billet": 6613,
    "\u2581dinde": 6614,
    "\u2581f\u00e9minine": 6615,
    "ional": 6616,
    "\u2581t\u00e9l\u00e9": 6617,
    "\u2581pig": 6618,
    "\u2581cookie": 6619,
    "\u2581struggl": 6620,
    "\u2581cooler": 6621,
    "\u2581rouleau": 6622,
    "\u2581protester": 6623,
    "haps": 6624,
    "\u2581Work": 6625,
    "ult": 6626,
    "\u2581r\u00e9p\u00e9t": 6627,
    "ag": 6628,
    "\u2581d\u00e9coup\u00e9": 6629,
    "\u2581snorkel": 6630,
    "\u2581kart": 6631,
    "\u2581perd": 6632,
    "\u2581compos": 6633,
    "\u2581gu": 6634,
    "it\u00e9": 6635,
    "ho": 6636,
    "\u2581agita": 6637,
    "\u2581Japon": 6638,
    "\u2581know": 6639,
    "\u2581europ\u00e9en": 6640,
    "taille": 6641,
    "\u2581sauce": 6642,
    "\u2581percute": 6643,
    "\u2581quat": 6644,
    "\u2581competitive": 6645,
    "\u2581soft": 6646,
    "\u2581tram": 6647,
    "\u2581rehears": 6648,
    "UNICEF": 6649,
    "\u2581Golden": 6650,
    "\u2581Hispani": 6651,
    "\u2581Photographer": 6652,
    "\u2581Renaissance": 6653,
    "\u2581apparatus": 6654,
    "\u2581autocollant": 6655,
    "\u2581blossom": 6656,
    "\u2581bookshelf": 6657,
    "\u2581britannique": 6658,
    "\u2581caf\u00e9t\u00e9ria": 6659,
    "\u2581cagoule": 6660,
    "\u2581camarade": 6661,
    "\u2581cimeti\u00e8re": 6662,
    "\u2581c\u00e9r\u00e9ales": 6663,
    "\u2581dauphin": 6664,
    "\u2581discoth\u00e8que": 6665,
    "\u2581disponibles": 6666,
    "\u2581dolphin": 6667,
    "\u2581d\u00e9sordonn\u00e9": 6668,
    "\u2581javelin": 6669,
    "\u2581libert\u00e9": 6670,
    "\u2581lumineuse": 6671,
    "\u2581pacifier": 6672,
    "\u2581peacock": 6673,
    "\u2581renaissance": 6674,
    "\u2581rocailleux": 6675,
    "\u2581tyrolienne": 6676,
    "\u2581unknown": 6677,
    "\u2581watercraft": 6678,
    "\u2581zebra": 6679,
    "\u2581a\u00e9rosol": 6680,
    "\u2581b\u00e9tail": 6681,
    "\u2581d\u00e9combres": 6682,
    "\u2581excitement": 6683,
    "\u2581gallop": 6684,
    "\u2581vegetation": 6685,
    "\u2581charbon": 6686,
    "\u2581dizaine": 6687,
    "\u2581elbow": 6688,
    "\u2581corniche": 6689,
    "\u2581d\u00e9ambulateur": 6690,
    "\u2581fingernail": 6691,
    "\u2581tightrope": 6692,
    "\u2581ukulele": 6693,
    "estrian": 6694,
    "\u2581carousel": 6695,
    "\u2581Gentlem": 6696,
    "\u2581Patrick": 6697,
    "\u2581hijab": 6698,
    "\u2581represent": 6699,
    "\u2581Rodeo": 6700,
    "\u2581squelette": 6701,
    "\u2581refresh": 6702,
    "\u2581nettoyage": 6703,
    "\u2581France": 6704,
    "\u2581foss\u00e9": 6705,
    "\u2581Dancers": 6706,
    "\u2581coloriage": 6707,
    "\u2581treilli": 6708,
    "\u2581Castro": 6709,
    "\u2581dominos": 6710,
    "\u2581fourneaux": 6711,
    "\u2581passionate": 6712,
    "\u2581campsite": 6713,
    "\u2581stylish": 6714,
    "\u2581repr\u00e9sentation": 6715,
    "\u2581passionn\u00e9": 6716,
    "\u2581shoeshine": 6717,
    "\u2581hippique": 6718,
    "\u2581community": 6719,
    "\u2581kitten": 6720,
    "\u2581nouilles": 6721,
    "\u2581applaudissant": 6722,
    "\u2581ordinaire": 6723,
    "\u2581rowboat": 6724,
    "\u2581sacoche": 6725,
    "\u2581vacation": 6726,
    "\u2581exciting": 6727,
    "\u2581malheureux": 6728,
    "\u2581remote": 6729,
    "\u2581curtain": 6730,
    "\u2581overhang": 6731,
    "\u2581touristique": 6732,
    "\u2581meilleur": 6733,
    "\u2581identical": 6734,
    "\u2581swamp": 6735,
    "\u2581sponsoris\u00e9": 6736,
    "\u2581cinder": 6737,
    "\u2581fourchette": 6738,
    "\u2581mignon": 6739,
    "\u2581canopy": 6740,
    "\u2581cartwheel": 6741,
    "\u2581amarr\u00e9": 6742,
    "\u2581dragster": 6743,
    "\u2581exhibition": 6744,
    "\u2581fireplace": 6745,
    "\u2581cartoon": 6746,
    "\u2581Coffee": 6747,
    "\u2581enroul\u00e9": 6748,
    "\u2581tiara": 6749,
    "\u2581blindfolded": 6750,
    "\u2581escape": 6751,
    "\u2581religieux": 6752,
    "\u2581backstroke": 6753,
    "\u2581york": 6754,
    "\u2581extension": 6755,
    "\u2581Singer": 6756,
    "\u2581tricot\u00e9": 6757,
    "\u2581shelves": 6758,
    "\u2581retrouve": 6759,
    "\u2581Hero": 6760,
    "\u2581clock": 6761,
    "\u2581earth": 6762,
    "\u2581salet\u00e9": 6763,
    "\u2581nibbl": 6764,
    "\u2581dentaire": 6765,
    "\u2581sifflet": 6766,
    "\u2581Gap": 6767,
    "\u2581neuf": 6768,
    "\u2581drunk": 6769,
    "autobus": 6770,
    "\u2581Soldier": 6771,
    "\u2581passerby": 6772,
    "\u2581attentively": 6773,
    "\u2581clarinette": 6774,
    "\u2581California": 6775,
    "\u2581eyeglasses": 6776,
    "\u2581scantily": 6777,
    "\u2581rubble": 6778,
    "\u2581cattle": 6779,
    "\u2581couture": 6780,
    "\u2581promener": 6781,
    "\u2581bakery": 6782,
    "\u2581priest": 6783,
    "\u2581randonneuse": 6784,
    "\u2581d\u00e9marrer": 6785,
    "\u2581merchant": 6786,
    "\u2581labrado": 6787,
    "\u2581Story": 6788,
    "\u2581honor": 6789,
    "\u2581hanches": 6790,
    "\u2581bring\u00e9": 6791,
    "\u2581answer": 6792,
    "\u2581mixage": 6793,
    "\u2581gigant": 6794,
    "\u2581parachuting": 6795,
    "\u2581whistle": 6796,
    "\u2581sweatsuit": 6797,
    "\u2581bathrobe": 6798,
    "\u2581asperg\u00e9": 6799,
    "\u2581sketch": 6800,
    "\u2581selection": 6801,
    "\u2581slab": 6802,
    "eep": 6803,
    "\u2581greenery": 6804,
    "\u2581daylight": 6805,
    "\u2581confused": 6806,
    "\u2581depict": 6807,
    "\u2581lovely": 6808,
    "apid": 6809,
    "\u2581masqu\u00e9": 6810,
    "\u2581clothesline": 6811,
    "\u2581contrebasse": 6812,
    "\u2581sujet": 6813,
    "\u2581Femme": 6814,
    "\u2581puits": 6815,
    "\u2581fran\u00e7ais": 6816,
    "\u2581Scout": 6817,
    "\u2581produire": 6818,
    "\u2581competitors": 6819,
    "\u2581gratuits": 6820,
    "\u2581ruins": 6821,
    "\u2581observ\u00e9": 6822,
    "\u2581oversize": 6823,
    "\u2581SU": 6824,
    "\u2581deliver": 6825,
    "\u2581rythme": 6826,
    "\u2581Grouch": 6827,
    "\u2581lacets": 6828,
    "\u2581courbe": 6829,
    "\u2581l\u00e9ger": 6830,
    "\u2581snake": 6831,
    "\u2581encourageant": 6832,
    "\u2581grains": 6833,
    "\u2581m\u00e2cher": 6834,
    "\u2581lessive": 6835,
    "\u2581steam": 6836,
    "\u2581zoom": 6837,
    "\u2581floaties": 6838,
    "\u2581interviewed": 6839,
    "\u2581ruines": 6840,
    "\u2581Sports": 6841,
    "\u2581band\u00e9s": 6842,
    "\u2581figurines": 6843,
    "\u2581Rollerblades": 6844,
    "\u2581\u00e9tage": 6845,
    "\u2581nine": 6846,
    "\u2581early": 6847,
    "\u2581collide": 6848,
    "\u2581weave": 6849,
    "\u2581karting": 6850,
    "\u2581You": 6851,
    "\u2581lama": 6852,
    "\u2581cutout": 6853,
    "\u2581struggles": 6854,
    "\u2581headset": 6855,
    "\u2581strawberr": 6856,
    "\u2581cruis": 6857,
    "\u2581fashionabl": 6858,
    "\u2581flexible": 6859,
    "\u2581pleurer": 6860,
    "\u2581agripp": 6861,
    "\u2581tress\u00e9s": 6862,
    "\u2581audition": 6863,
    "\u2581paysan": 6864,
    "\u2581volunteer": 6865,
    "\u2581earrings": 6866,
    "\u2581assorties": 6867,
    "\u2581fle": 6868,
    "\u2581dalles": 6869,
    "\u2581toilettes": 6870,
    "\u2581jack": 6871,
    "\u2581keys": 6872,
    "\u2581upper": 6873,
    "\u2581parachutist": 6874,
    "\u2581lev\u00e9e": 6875,
    "\u2581fairy": 6876,
    "\u2581m\u00e9di\u00e9vale": 6877,
    "\u2581envol": 6878,
    "\u2581force": 6879,
    "vi": 6880,
    "\u2581\u00e9tui": 6881,
    "\u2581dramatic": 6882,
    "\u2581inconnue": 6883,
    "\u2581squirt": 6884,
    "\u2581glaci\u00e8res": 6885,
    "\u2581rien": 6886,
    "\u2581seagulls": 6887,
    "\u2581frite": 6888,
    "\u2581shingles": 6889,
    "\u2581courtes": 6890,
    "\u2581chal": 6891,
    "\u2581sprinte": 6892,
    "\u2581morte": 6893,
    "\u2581grave": 6894,
    "\u2581crowns": 6895,
    "\u2581cuve": 6896,
    "ime": 6897,
    "\u2581d\u00e9cide": 6898,
    "\u2581sci": 6899,
    "\u2581wool": 6900,
    "\u2581handicap\u00e9e": 6901,
    "\u2581\u00e9tages": 6902,
    "\u2581crib": 6903,
    "\u2581coolers": 6904,
    "\u2581garment": 6905,
    "\u2581served": 6906,
    "\u2581breast": 6907,
    "\u2581ambulanc": 6908,
    "\u2581entertainer": 6909,
    "\u2581chaton": 6910,
    "\u2581weapons": 6911,
    "\u2581flour": 6912,
    "\u2581respond": 6913,
    "\u2581friandises": 6914,
    "\u2581marking": 6915,
    "\u2581\u00e7a": 6916,
    "\u2581poilu": 6917,
    "\u2581hu": 6918,
    "adresse": 6919,
    "\u2581drap\u00e9": 6920,
    "\u2581bones": 6921,
    "mes": 6922,
    "\u2581dipl\u00f4me": 6923,
    "\u2581f\u00e9e": 6924,
    "\u2581legged": 6925,
    "\u2581cli": 6926,
    "\u2581quille": 6927,
    "ong": 6928,
    "\u2581arr\u00eat\u00e9e": 6929,
    "\u2581tribe": 6930,
    "\u2581foam": 6931,
    "\u2581safe": 6932,
    "\u2581barking": 6933,
    "\u2581noms": 6934,
    "\u00e9clabouss": 6935,
    "\u2581informal": 6936,
    "hirtless": 6937,
    "\u2581matin": 6938,
    "front": 6939,
    "\u2581feathers": 6940,
    "\u2581lost": 6941,
    "\u2581cire": 6942,
    "\u2581given": 6943,
    "ig": 6944,
    "\u2581leashes": 6945,
    "\u2581exercices": 6946,
    "aillant": 6947,
    "\u2581marins": 6948,
    "\u2581nourriss": 6949,
    "\u2581magici": 6950,
    "\u2581dash": 6951,
    "\u2581couette": 6952,
    "\u2581carried": 6953,
    "\u2581torche": 6954,
    "\u2581trays": 6955,
    "\u2581goats": 6956,
    "\u2581contemplat": 6957,
    "\u2581laveur": 6958,
    "\u2581trot": 6959,
    "\u2581civile": 6960,
    "\u2581tickets": 6961,
    "\u2581slop": 6962,
    "\u2581agit\u00e9e": 6963,
    "\u2581canettes": 6964,
    "\u2581jug": 6965,
    "\u2581medal": 6966,
    "\u2581haies": 6967,
    "\u2581encouragent": 6968,
    "voir": 6969,
    "\u2581ratisse": 6970,
    "\u2581cheeks": 6971,
    "long": 6972,
    "mas": 6973,
    "\u2581defens": 6974,
    "\u2581canon": 6975,
    "\u2581appliqu": 6976,
    "\u2581botte": 6977,
    "\u2581suitcases": 6978,
    "\u2581grin": 6979,
    "\u2581recent": 6980,
    "\u2581troupe": 6981,
    "\u2581spend": 6982,
    "\u2581clearing": 6983,
    "ucking": 6984,
    "\u2581sight": 6985,
    "\u2581engins": 6986,
    "\u2581\u00e9toiles": 6987,
    "yer": 6988,
    "\u2581anno": 6989,
    "\u2581completed": 6990,
    "ueuses": 6991,
    "\u2581g\u00e9antes": 6992,
    "\u2581smashe": 6993,
    "cement": 6994,
    "\u2581cornes": 6995,
    "ants": 6996,
    "\u2581emerg": 6997,
    "ello": 6998,
    "\u2581elephants": 6999,
    "dies": 7000,
    "\u2581dor\u00e9es": 7001,
    "\u2581Fisherm": 7002,
    "\u2581taste": 7003,
    "\u2581apples": 7004,
    "TE": 7005,
    "\u2581solder": 7006,
    "\u2581activit\u00e9s": 7007,
    "ward": 7008,
    "\u2581handles": 7009,
    "\u2581banderoles": 7010,
    "\u2581motorbikes": 7011,
    "\u2581artistiques": 7012,
    "\u2581carri": 7013,
    "\u2581anneau": 7014,
    "\u2581sangle": 7015,
    "\u2581snowman": 7016,
    "\u2581fusils": 7017,
    "\u2581storefronts": 7018,
    "\u2581ombrelles": 7019,
    "viron": 7020,
    "\u2581sodas": 7021,
    "\u2581mind": 7022,
    "skier": 7023,
    "\u2581construct": 7024,
    "marqu\u00e9": 7025,
    "\u2581horns": 7026,
    "\u2581applaudi": 7027,
    "\u2581m\u00e8ne": 7028,
    "\u2581domin": 7029,
    "tch": 7030,
    "\u2581Che": 7031,
    "ried": 7032,
    "\u2581cliente": 7033,
    "\u2581chains": 7034,
    "\u2581supports": 7035,
    "\u2581dor\u00e9s": 7036,
    "iki": 7037,
    "lender": 7038,
    "phone": 7039,
    "\u2581opponents": 7040,
    "\u2581nun": 7041,
    "\u00e8ches": 7042,
    "ador": 7043,
    "enfonce": 7044,
    "\u2581auvent": 7045,
    "\u2581assemble": 7046,
    "\u2581pursu": 7047,
    "\u2581storm": 7048,
    "p\u00eacher": 7049,
    "\u2581photographing": 7050,
    "\u2581pense": 7051,
    "\u2581asphalte": 7052,
    "\u2581divertiss": 7053,
    "pack": 7054,
    "ank": 7055,
    "\u2581verticale": 7056,
    "\u2581quilt": 7057,
    "uck": 7058,
    "\u2581towels": 7059,
    "\u2581coup\u00e9": 7060,
    "\u2581longueur": 7061,
    "\u2581bosse": 7062,
    "ti": 7063,
    "\u2581tra": 7064,
    "\u2581parka": 7065,
    "\u2581gosse": 7066,
    "\u2581poke": 7067,
    "\u2581Be": 7068,
    "occup": 7069,
    "\u2581vase": 7070,
    "\u2581gorge": 7071,
    "\u2581av": 7072,
    "euses": 7073,
    "\u2581flash": 7074,
    "\u2581rollerskater": 7075,
    "series": 7076,
    "\u2581patrol": 7077,
    "\u2581ka": 7078,
    "\u2581Gr": 7079,
    "opsicle": 7080,
    "\u2581salade": 7081,
    "\u2581bel": 7082,
    "\u2581adolescentes": 7083,
    "\u2581sheets": 7084,
    "tter": 7085,
    "\u2581paon": 7086,
    "\u2581Pen": 7087,
    "\u2581poursui": 7088,
    "\u2581horizontal": 7089,
    "\u00e2ch\u00e9": 7090,
    "\u2581posters": 7091,
    "\u2581d\u00e9balle": 7092,
    "\u2581posts": 7093,
    "nn\u00e9es": 7094,
    "\u2581shoote": 7095,
    "\u2581da": 7096,
    "\u2581pump": 7097,
    "\u2581starts": 7098,
    "\u2581tam": 7099,
    "\u2581deli": 7100,
    "\u2581communique": 7101,
    "\u2581appr\u00e9cia": 7102,
    "ques": 7103,
    "\u2581vien": 7104,
    "ayer": 7105,
    "endant": 7106,
    "\u2581Race": 7107,
    "ff": 7108,
    "\u2581\u00e9crire": 7109,
    "\u2581guitaristes": 7110,
    "\u2581gum": 7111,
    "\u2581ob": 7112,
    "tam": 7113,
    "ome": 7114,
    "\u2581reflect": 7115,
    "nake": 7116,
    "\u2581retriev": 7117,
    "\u2581concour": 7118,
    "\u2581continue": 7119,
    "iment": 7120,
    "llant": 7121,
    "ni\u00e8re": 7122,
    "\u2581port\u00e9e": 7123,
    "accroch": 7124,
    "eye": 7125,
    "\u2581fixe": 7126,
    "rry": 7127,
    "\u00e9chauff": 7128,
    "\u2581singers": 7129,
    "\u2581carr": 7130,
    "turn": 7131,
    "\u2581east": 7132,
    "\u2581entass\u00e9e": 7133,
    "bble": 7134,
    "uffle": 7135,
    "\u2581wheeler": 7136,
    "\u2581bouch": 7137,
    "lissant": 7138,
    "ssent": 7139,
    "\u2581Arabi": 7140,
    "\u2581orn\u00e9e": 7141,
    "vin": 7142,
    "\u00e9quipes": 7143,
    "runette": 7144,
    "take": 7145,
    "\u2581photographi\u00e9e": 7146,
    "core": 7147,
    "\u2581imit": 7148,
    "\u2581guitares": 7149,
    "\u2581sprinkle": 7150,
    "\u2581tricote": 7151,
    "\u2581oc\u00e9an": 7152,
    "ck": 7153,
    "py": 7154,
    "\u2581cornet": 7155,
    "ots": 7156,
    "\u2581rampes": 7157,
    "hoe": 7158,
    "rowing": 7159,
    "stle": 7160,
    "\u2581washe": 7161,
    "litary": 7162,
    "linge": 7163,
    "\u2581Sma": 7164,
    "urgical": 7165,
    "\u2581oar": 7166,
    "lad": 7167,
    "\u2581tambourine": 7168,
    "\u2581wor": 7169,
    "\u2581bond": 7170,
    "xy": 7171,
    "\u2581handed": 7172,
    "\u2581Adult": 7173,
    "\u2581Bu": 7174,
    "\u2581artisan": 7175,
    "\u2581cloths": 7176,
    "\u2581floors": 7177,
    "\u2581Me": 7178,
    "\u2581Ci": 7179,
    "\u2581affiches": 7180,
    "\u2581scra": 7181,
    "bord": 7182,
    "\u2581barbie": 7183,
    "ise": 7184,
    "\u2581cascades": 7185,
    "\u2581pouv": 7186,
    "\u2581flier": 7187,
    "ltim": 7188,
    "key": 7189,
    "\u2581bake": 7190,
    "Doo": 7191,
    "\u2581galope": 7192,
    "\u2581symbole": 7193,
    "\u2581fighter": 7194,
    "\u2581write": 7195,
    "\u2581Neu": 7196,
    "ul": 7197,
    "esque": 7198,
    "lac": 7199,
    "\u2581saxophones": 7200,
    "\u2581tricot": 7201,
    "iquement": 7202,
    "\u2581vac": 7203,
    "blade": 7204,
    "superman": 7205,
    "\u2581bung": 7206,
    "ouverture": 7207,
    "iz": 7208,
    "\u2581saying": 7209,
    "\u2581miss": 7210,
    "ser": 7211,
    "uor": 7212,
    "\u2581cro": 7213,
    "\u2581dev": 7214,
    "ets": 7215,
    "\u2581sirote": 7216,
    "\u2581lutt": 7217,
    "\u2581sprint": 7218,
    "\u2581cam\u00e9ras": 7219,
    "\u2581sprinkl": 7220,
    "\u2581butt": 7221,
    "\u2581mot": 7222,
    "\u2581late": 7223,
    "tan": 7224,
    "pa": 7225,
    "taches": 7226,
    "\u2581pistes": 7227,
    "\u2581chant": 7228,
    "RO": 7229,
    "\u2581lie": 7230,
    "\u2581amaz": 7231,
    "ropped": 7232,
    "\u2581count": 7233,
    "\u2581intern": 7234,
    "od": 7235,
    "rous": 7236,
    "aris": 7237,
    "\u2581cueille": 7238,
    "muff": 7239,
    "imate": 7240,
    "\u2581puiss": 7241,
    "\u2581Pan": 7242,
    "\u2581holes": 7243,
    "\u2581parti": 7244,
    "ied": 7245,
    "\u2581surfers": 7246,
    "chet": 7247,
    "gum": 7248,
    "\u2581footing": 7249,
    "\u2581bark": 7250,
    "ift": 7251,
    "\u2581plac\u00e9e": 7252,
    "eek": 7253,
    "mult": 7254,
    "\u2581crois": 7255,
    "\u2581skateboarders": 7256,
    "\u2581cabin": 7257,
    "\u2581Sp": 7258,
    "vel": 7259,
    "\u2581command": 7260,
    "R": 7261,
    "quette": 7262,
    "\u2581sl": 7263,
    "dding": 7264,
    "\u2581ac": 7265,
    "\u2581d\u00e9ball": 7266,
    "\u2581marke": 7267,
    "\u2581communicat": 7268,
    "\u2581tron\u00e7on": 7269,
    "\u2581asperge": 7270,
    "for": 7271,
    "ties": 7272,
    "\u2581Athlete": 7273,
    "\u2581dispos\u00e9": 7274,
    "\u2581bandage": 7275,
    "neck": 7276,
    "\u2581accroch": 7277,
    "\u2581Care": 7278,
    "action": 7279,
    "owered": 7280,
    "\u2581bris": 7281,
    "\u2581d\u00e9c": 7282,
    "\u00e9pice": 7283,
    "\u2581rocker": 7284,
    "ouvrier": 7285,
    "\u2581trap": 7286,
    "ignant": 7287,
    "ements": 7288,
    "immeuble": 7289,
    "truck": 7290,
    "\u2581mixe": 7291,
    "\u2581tell": 7292,
    "\u2581sweatshirts": 7293,
    "\u2581num\u00e9ros": 7294,
    "appr\u00eata": 7295,
    "Guitar": 7296,
    "\u2581shine": 7297,
    "stand": 7298,
    "golf": 7299,
    "\u00e9v\u00e9nement": 7300,
    "\u2581distribue": 7301,
    "falls": 7302,
    "Bien": 7303,
    "\u2581quel": 7304,
    "fille": 7305,
    "where": 7306,
    "\u2581ar": 7307,
    "vous": 7308,
    "\u2581dist": 7309,
    "mant": 7310,
    "\u00e9chelle": 7311,
    "\u2581pollu": 7312,
    "\u00e9charpe": 7313,
    "type": 7314,
    "escalator": 7315,
    "ike": 7316,
    "zone": 7317,
    "\u2581boss": 7318,
    "ign": 7319,
    "spect": 7320,
    "\u2581audito": 7321,
    "\u2581fit": 7322,
    "\u2581f\u00eat": 7323,
    "\u2581Na": 7324,
    "observer": 7325,
    "int\u00e9ressant": 7326,
    "\u00e9ponge": 7327,
    "alpiniste": 7328,
    "oppos\u00e9": 7329,
    "\u2581embrass": 7330,
    "estomac": 7331,
    "drawn": 7332,
    "box": 7333,
    "\u2581thought": 7334,
    "\u00e9vier": 7335,
    "mark": 7336,
    "\u2581purchas": 7337,
    "ave": 7338,
    "deep": 7339,
    "lk": 7340,
    "guards": 7341,
    "\u2581croise": 7342,
    "\u2581cell": 7343,
    "\u2581curren": 7344,
    "nded": 7345,
    "\u2581acc": 7346,
    "Indien": 7347,
    "\u2581sou": 7348,
    "handed": 7349,
    "m\u00e8re": 7350,
    "\u2581pagaye": 7351,
    "pplies": 7352,
    "blue": 7353,
    "ancien": 7354,
    "Am\u00e9ricain": 7355,
    "entrer": 7356,
    "\u2581promoti": 7357,
    "\u2581soin": 7358,
    "\u2581diff\u00e9rent": 7359,
    "fter": 7360,
    "gar": 7361,
    "\u2581ferm\u00e9": 7362,
    "ves": 7363,
    "\u2581distribu": 7364,
    "\u2581Side": 7365,
    "anges": 7366,
    "\u2581casse": 7367,
    "\u2581hol": 7368,
    "\u2581ombre": 7369,
    "\u2581lantern": 7370,
    "rice": 7371,
    "lev\u00e9": 7372,
    "\u2581Teenage": 7373,
    "nds": 7374,
    "iller": 7375,
    "\u2581pr\u00e9sent": 7376,
    "\u2581Y": 7377,
    "\u2581retir\u00e9": 7378,
    "dish": 7379,
    "\u2581cl\u00e9": 7380,
    "\u2581sandal": 7381,
    "\u2581ensoleill\u00e9": 7382,
    "\u2581tendu": 7383,
    "\u2581Oh": 7384,
    "rmaid": 7385,
    "\u2581lunette": 7386,
    "\u2581officiel": 7387,
    "\u2581organis": 7388,
    "\u2581Amis": 7389,
    "shake": 7390,
    "\u2581gel\u00e9": 7391,
    "uz": 7392,
    "\u2581quatr": 7393,
    "\u2581dessin\u00e9": 7394,
    "\u2581agriculteur": 7395,
    "images": 7396,
    "\u2581instructor": 7397,
    "\u2581patineuse": 7398,
    "\u2581wrist": 7399,
    "\u2581graduati": 7400,
    "\u2581lemon": 7401,
    "\u2581holiday": 7402,
    "keep": 7403,
    "\u2581cr\u00eape": 7404,
    "\u2581magique": 7405,
    "\u2581pancake": 7406,
    "\u2581Garden": 7407,
    "\u2581armure": 7408,
    "\u2581sn": 7409,
    "\u2581rabbit": 7410,
    "\u00e9lectrici": 7411,
    "\u2581kiddi": 7412,
    "\u2581mauve": 7413,
    "\u2581seagull": 7414,
    "\u2581l\u00e9gume": 7415,
    "\u2581glaci\u00e8re": 7416,
    "\u2581hamburger": 7417,
    "\u2581mouette": 7418,
    "\u2581steak": 7419,
    "\u2581identique": 7420,
    "\u2581baguette": 7421,
    "\u2581gymnastic": 7422,
    "\u2581tarte": 7423,
    "nis": 7424,
    "\u2581mats": 7425,
    "sier": 7426,
    "coal": 7427,
    "\u2581am": 7428,
    "\u2581tomate": 7429,
    "\u2581accident\u00e9": 7430,
    "\u2581real": 7431,
    "ces": 7432,
    "enseigne": 7433,
    "\u2581exam": 7434,
    "\u2581slam": 7435,
    "\u2581vault": 7436,
    "\u2581aime": 7437,
    "\u2581enneig\u00e9es": 7438,
    "\u2581recycl": 7439,
    "\u2581streetlight": 7440,
    "\u2581stocking": 7441,
    "m\u00e8ne": 7442,
    "ple": 7443,
    "\u2581bl": 7444,
    "\u2581word": 7445,
    "\u2581repr\u00e9sent": 7446,
    "\u2581artificiel": 7447,
    "\u2581Bike": 7448,
    "AM": 7449,
    "\u2581artifici": 7450,
    "\u2581occurr": 7451,
    "mong": 7452,
    "\u2581extend": 7453,
    "\u2581weld": 7454,
    "\u2581tournoy": 7455,
    "mergency": 7456,
    "ution": 7457,
    "xford": 7458,
    "\u2581acc\u00e9l": 7459,
    "\u2581Latin": 7460,
    "\u2581douce": 7461,
    "\u2581postal": 7462,
    "same": 7463,
    "\u2581enthusiast": 7464,
    "hawk": 7465,
    "\u2581\u00e9clabousse": 7466,
    "\u2581Ocean": 7467,
    "olkswagen": 7468,
    "\u2581\u00e9bouriff": 7469,
    "\u2581zigzag": 7470,
    "empanadas": 7471,
    "enregistrement": 7472,
    "esp\u00e8ce": 7473,
    "immigration": 7474,
    "pproximate": 7475,
    "\u2581Challenge": 7476,
    "\u2581Chinois": 7477,
    "\u2581Circus": 7478,
    "\u2581Doberman": 7479,
    "\u2581Engine": 7480,
    "\u2581Heineken": 7481,
    "\u2581Individual": 7482,
    "\u2581Michigan": 7483,
    "\u2581Pokemon": 7484,
    "\u2581Ribbon": 7485,
    "\u2581SWAT": 7486,
    "\u2581Samsung": 7487,
    "\u2581Scooby": 7488,
    "\u2581Seahawks": 7489,
    "\u2581YMCA": 7490,
    "\u2581Yankee": 7491,
    "\u2581accueill": 7492,
    "\u2581aircraft": 7493,
    "\u2581anorak": 7494,
    "\u2581burqa": 7495,
    "\u2581b\u00e9n\u00e9vole": 7496,
    "\u2581cafeteria": 7497,
    "\u2581chubby": 7498,
    "\u2581clairsem\u00e9": 7499,
    "\u2581convertible": 7500,
    "\u2581crutches": 7501,
    "\u2581deltaplane": 7502,
    "\u2581diaporama": 7503,
    "\u2581didgeridoo": 7504,
    "\u2581difficile": 7505,
    "\u2581domicile": 7506,
    "\u2581d\u00e9licieuse": 7507,
    "\u2581embarcation": 7508,
    "\u2581endommag\u00e9": 7509,
    "\u2581espresso": 7510,
    "\u2581fascin\u00e9": 7511,
    "\u2581frustrated": 7512,
    "\u2581goudron": 7513,
    "\u2581guirlande": 7514,
    "\u2581hirsute": 7515,
    "\u2581hispanic": 7516,
    "\u2581hopscotch": 7517,
    "\u2581horloge": 7518,
    "\u2581igloo": 7519,
    "\u2581institut": 7520,
    "\u2581lambeaux": 7521,
    "\u2581librairie": 7522,
    "\u2581megaphone": 7523,
    "\u2581minutieuse": 7524,
    "\u2581ob\u00e8se": 7525,
    "\u2581octopus": 7526,
    "\u2581palissade": 7527,
    "\u2581piggyback": 7528,
    "\u2581pineapple": 7529,
    "\u2581pluvieuse": 7530,
    "\u2581poignard": 7531,
    "\u2581pr\u00e9f\u00e9r\u00e9": 7532,
    "\u2581screwdriver": 7533,
    "\u2581seaweed": 7534,
    "\u2581spaghetti": 7535,
    "\u2581synth\u00e9tiseur": 7536,
    "\u2581s\u00e9minaire": 7537,
    "\u2581technology": 7538,
    "\u2581teckel": 7539,
    "\u2581tortillas": 7540,
    "\u2581\u00e9l\u00e9vatrice": 7541,
    "\u2581\u00e9mission": 7542,
    "\u2581\u00e9parpill\u00e9s": 7543,
    "\u2581\u00e9tincelles": 7544,
    "\u2581Brazil": 7545,
    "\u2581Earth": 7546,
    "\u2581carrefour": 7547,
    "\u2581menuisier": 7548,
    "\u2581poverty": 7549,
    "\u2581r\u00e9duit": 7550,
    "\u2581satchel": 7551,
    "\u2581skeleton": 7552,
    "\u2581trompettiste": 7553,
    "awasaki": 7554,
    "\u2581Chinatown": 7555,
    "\u2581David": 7556,
    "\u2581Hopper": 7557,
    "\u2581burrito": 7558,
    "\u2581foundation": 7559,
    "\u2581health": 7560,
    "\u2581r\u00e9frig\u00e9r": 7561,
    "\u2581sir\u00e8ne": 7562,
    "\u2581studies": 7563,
    "\u2581tourniquet": 7564,
    "\u2581bistro": 7565,
    "\u2581condiment": 7566,
    "\u2581Roller": 7567,
    "\u2581agr\u00e9able": 7568,
    "\u2581dominoes": 7569,
    "\u2581flatbed": 7570,
    "\u2581mailbox": 7571,
    "\u2581post\u00e9rieur": 7572,
    "\u2581stairwell": 7573,
    "\u2581consider": 7574,
    "\u2581occupations": 7575,
    "\u2581partenaire": 7576,
    "\u2581r\u00e9pond": 7577,
    "\u2581forgeron": 7578,
    "\u2581insolite": 7579,
    "\u2581Airways": 7580,
    "\u2581kettle": 7581,
    "noopy": 7582,
    "\u2581paintbrush": 7583,
    "\u2581collision": 7584,
    "\u2581d\u00e9coratif": 7585,
    "\u2581recherche": 7586,
    "\u2581brief": 7587,
    "\u2581charcuterie": 7588,
    "\u2581panoramique": 7589,
    "\u2581corridor": 7590,
    "\u2581ficelle": 7591,
    "\u2581violence": 7592,
    "\u2581landmark": 7593,
    "\u2581Hiker": 7594,
    "\u2581source": 7595,
    "\u2581croisi\u00e8re": 7596,
    "\u2581gyro": 7597,
    "\u2581marcel": 7598,
    "\u2581metropoli": 7599,
    "\u2581particulier": 7600,
    "\u2581swimwear": 7601,
    "\u2581motorboat": 7602,
    "\u2581r\u00e9cemment": 7603,
    "\u2581spectaculaire": 7604,
    "\u2581napkin": 7605,
    "\u2581sunrise": 7606,
    "\u2581Picture": 7607,
    "\u2581MMA": 7608,
    "\u2581Block": 7609,
    "\u2581cluster": 7610,
    "\u2581freestyle": 7611,
    "\u2581pl\u00e2tre": 7612,
    "\u2581victim": 7613,
    "\u2581James": 7614,
    "\u2581cuvette": 7615,
    "\u2581pieuvre": 7616,
    "ite": 7617,
    "\u2581bidon": 7618,
    "\u2581frolic": 7619,
    "ananas": 7620,
    "\u2581r\u00e9dige": 7621,
    "\u2581terrace": 7622,
    "\u2581m\u00e9canique": 7623,
    "Afrique": 7624,
    "\u2581diaper": 7625,
    "\u2581Harlem": 7626,
    "\u2581pressure": 7627,
    "\u2581\u00e9trang\u00e8re": 7628,
    "\u2581eatery": 7629,
    "\u2581matin\u00e9e": 7630,
    "\u2581raconte": 7631,
    "\u2581carriole": 7632,
    "\u2581footbridge": 7633,
    "\u2581mermaid": 7634,
    "\u2581mariachi": 7635,
    "\u2581llama": 7636,
    "\u2581prestation": 7637,
    "\u2581coiffeuse": 7638,
    "\u2581compl\u00e8tement": 7639,
    "\u2581b\u00e9tonni\u00e8re": 7640,
    "\u2581jewelery": 7641,
    "\u2581Parade": 7642,
    "\u2581Water": 7643,
    "\u2581d\u00e9corative": 7644,
    "\u2581henn\u00e9": 7645,
    "\u2581bookbag": 7646,
    "\u2581minivan": 7647,
    "\u2581phare": 7648,
    "\u2581Bank": 7649,
    "\u2581boutonn\u00e9e": 7650,
    "\u2581notice": 7651,
    "\u2581procession": 7652,
    "\u2581western": 7653,
    "\u2581memorial": 7654,
    "\u2581cityscape": 7655,
    "\u2581glissi\u00e8re": 7656,
    "\u2581buoy": 7657,
    "\u2581farine": 7658,
    "\u2581weeds": 7659,
    "\u2581miniskirt": 7660,
    "\u2581protestation": 7661,
    "\u2581spiral": 7662,
    "essence": 7663,
    "\u2581playpen": 7664,
    "\u2581suspect": 7665,
    "abeille": 7666,
    "\u2581oxen": 7667,
    "\u2581corgi": 7668,
    "\u2581appara\u00eet": 7669,
    "\u2581View": 7670,
    "\u2581bookstore": 7671,
    "\u2581diable": 7672,
    "\u2581moquette": 7673,
    "\u2581guidon": 7674,
    "orah": 7675,
    "\u2581Jeep": 7676,
    "\u2581Photo": 7677,
    "\u2581bunker": 7678,
    "\u2581partner": 7679,
    "\u2581bavardent": 7680,
    "\u2581balconies": 7681,
    "\u2581trek": 7682,
    "\u2581Marx": 7683,
    "agility": 7684,
    "\u2581p\u00e9dalo": 7685,
    "\u2581stationary": 7686,
    "\u2581sunbathers": 7687,
    "\u2581col\u00e8re": 7688,
    "\u2581t\u00e9l\u00e9command\u00e9": 7689,
    "\u2581workbench": 7690,
    "\u2581Jackson": 7691,
    "\u2581ginger": 7692,
    "\u2581acc\u00e9l\u00e9r": 7693,
    "\u2581knock": 7694,
    "ssenger": 7695,
    "\u2581inhabituelle": 7696,
    "\u2581winning": 7697,
    "enthusiastically": 7698,
    "\u2581Giant": 7699,
    "\u2581hurlant": 7700,
    "vious": 7701,
    "\u2581coq": 7702,
    "\u2581matelass\u00e9": 7703,
    "\u2581beaut\u00e9": 7704,
    "\u2581isol\u00e9": 7705,
    "\u2581drift": 7706,
    "\u2581Snowboarder": 7707,
    "\u2581corral": 7708,
    "\u2581communication": 7709,
    "\u2581boucherie": 7710,
    "\u2581dealer": 7711,
    "\u2581paperasse": 7712,
    "\u2581unidentifi": 7713,
    "\u2581skimboard": 7714,
    "endort": 7715,
    "\u2581spectate": 7716,
    "\u2581mollet": 7717,
    "\u2581fosse": 7718,
    "\u2581Swimmer": 7719,
    "\u2581stalks": 7720,
    "\u2581sant\u00e9": 7721,
    "\u2581relev\u00e9": 7722,
    "\u2581Station": 7723,
    "\u2581campus": 7724,
    "\u2581spear": 7725,
    "\u2581slum": 7726,
    "\u2581came": 7727,
    "\u2581roadwork": 7728,
    "\u2581apparel": 7729,
    "\u2581scared": 7730,
    "\u2581extended": 7731,
    "\u2581outfielder": 7732,
    "\u2581Heal": 7733,
    "\u2581mesh": 7734,
    "\u2581except": 7735,
    "\u2581else": 7736,
    "\u2581d\u00e9ambulant": 7737,
    "\u2581runway": 7738,
    "\u2581d\u00e9jeunent": 7739,
    "\u2581tra\u00eenent": 7740,
    "\u2581violinist": 7741,
    "\u2581metro": 7742,
    "\u2581bondissant": 7743,
    "\u2581enfon": 7744,
    "\u2581conduire": 7745,
    "\u2581montagneuse": 7746,
    "\u2581percuter": 7747,
    "\u2581plaisanc": 7748,
    "\u2581Fast": 7749,
    "Carol": 7750,
    "\u2581Iz": 7751,
    "\u2581tightly": 7752,
    "\u2581elevator": 7753,
    "\u2581guest": 7754,
    "\u2581pastries": 7755,
    "\u2581curling": 7756,
    "panish": 7757,
    "\u2581steal": 7758,
    "\u2581puces": 7759,
    "\u00e9chauffent": 7760,
    "\u2581Latino": 7761,
    "\u2581p\u00e8se": 7762,
    "\u2581tuiles": 7763,
    "\u2581prizes": 7764,
    "\u2581b\u00e9quilles": 7765,
    "\u2581Stones": 7766,
    "\u2581sponge": 7767,
    "\u2581Mom": 7768,
    "\u2581ceme": 7769,
    "\u2581mixte": 7770,
    "\u2581placard": 7771,
    "\u2581surgeons": 7772,
    "\u2581Petit": 7773,
    "\u2581Notre": 7774,
    "\u2581bloom": 7775,
    "\u2581manual": 7776,
    "\u2581bassiste": 7777,
    "\u2581gesticule": 7778,
    "\u2581marelle": 7779,
    "\u2581massage": 7780,
    "\u2581sheepdog": 7781,
    "UFC": 7782,
    "\u2581humaine": 7783,
    "\u2581countertop": 7784,
    "\u2581mock": 7785,
    "\u2581overcoat": 7786,
    "\u2581known": 7787,
    "\u2581roadway": 7788,
    "\u2581contra": 7789,
    "\u2581a\u00e9rien": 7790,
    "\u2581mime": 7791,
    "rmy": 7792,
    "\u2581attaqu": 7793,
    "\u2581\u00e9tir": 7794,
    "tted": 7795,
    "\u2581circus": 7796,
    "\u2581weathered": 7797,
    "\u2581archet": 7798,
    "\u2581d\u00e9coller": 7799,
    "\u2581mountainside": 7800,
    "\u2581gallon": 7801,
    "\u2581saluer": 7802,
    "\u2581explorer": 7803,
    "\u2581invit\u00e9s": 7804,
    "\u2581hairnet": 7805,
    "\u2581d\u00e9ploy\u00e9es": 7806,
    "usiness": 7807,
    "extr\u00eame": 7808,
    "\u2581Mc": 7809,
    "\u2581\u00e9clat": 7810,
    "\u2581cordon": 7811,
    "ados": 7812,
    "\u2581lanterne": 7813,
    "\u2581sprinting": 7814,
    "\u2581discover": 7815,
    "\u2581exposed": 7816,
    "\u2581frontale": 7817,
    "\u2581vendus": 7818,
    "\u2581troops": 7819,
    "\u2581tasting": 7820,
    "\u2581commander": 7821,
    "\u2581acrobatiques": 7822,
    "\u2581coconuts": 7823,
    "\u2581sausages": 7824,
    "\u2581allum\u00e9e": 7825,
    "\u2581hips": 7826,
    "assi": 7827,
    "\u2581loose": 7828,
    "Spring": 7829,
    "\u2581arros\u00e9": 7830,
    "\u2581element": 7831,
    "\u2581Diner": 7832,
    "\u2581topic": 7833,
    "IS": 7834,
    "appartements": 7835,
    "\u2581designe": 7836,
    "\u2581Nouve": 7837,
    "\u2581luxuriante": 7838,
    "\u2581master": 7839,
    "\u2581snorkeling": 7840,
    "\u2581Wal": 7841,
    "\u2581grown": 7842,
    "\u2581serpentin": 7843,
    "\u2581pad": 7844,
    "\u2581created": 7845,
    "mmage": 7846,
    "\u2581shield": 7847,
    "\u2581orage": 7848,
[...]
