{
  "src_word2id": {
    "<pad>": 0,
    "<s>": 1,
    "</s>": 2,
    "<unk>": 3,
    "\u2581a": 4,
    ".": 5,
    "\u2581A": 6,
    "\u2581in": 7,
    "\u2581the": 8,
    "\u2581on": 9,
    "\u2581is": 10,
    "\u2581man": 11,
    "\u2581and": 12,
    "\u2581of": 13,
    "ing": 14,
    "\u2581with": 15,
    "s": 16,
    ",": 17,
    "\u2581woman": 18,
    "\u2581are": 19,
    "\u2581to": 20,
    "\u2581Two": 21,
    "\u2581at": 22,
    "\u2581": 23,
    "\u2581wearing": 24,
    "\u2581people": 25,
    "\u2581white": 26,
    "\u2581shirt": 27,
    "\u2581young": 28,
    "\u2581black": 29,
    "\u2581his": 30,
    "\u2581an": 31,
    "\u2581while": 32,
    "\u2581blue": 33,
    "\u2581red": 34,
    "\u2581sitting": 35,
    "\u2581girl": 36,
    "\u2581dog": 37,
    "\u2581boy": 38,
    "\u2581men": 39,
    "\u2581standing": 40,
    "\u2581playing": 41,
    "\u2581group": 42,
    "\u2581street": 43,
    "e": 44,
    "\u2581down": 45,
    "\u2581look": 46,
    "\u2581walking": 47,
    "-": 48,
    "ed": 49,
    "\u2581her": 50,
    "\u2581front": 51,
    "\u2581holding": 52,
    "\u2581water": 53,
    "\u2581The": 54,
    "\u2581by": 55,
    "\u2581up": 56,
    "\u2581for": 57,
    "\u2581women": 58,
    "\u2581green": 59,
    "\u2581An": 60,
    "\u2581one": 61,
    "\u2581outside": 62,
    "\u2581child": 63,
    "y": 64,
    "\u2581Thre": 65,
    "to": 66,
    "\u2581little": 67,
    "\u2581large": 68,
    "\u2581through": 69,
    "ir": 70,
    "\u2581brown": 71,
    "\u2581yellow": 72,
    "\u2581two": 73,
    "\u2581hat": 74,
    "\u2581ball": 75,
    "\u2581from": 76,
    "\u2581person": 77,
    "\u2581over": 78,
    "\u2581other": 79,
    "\u2581children": 80,
    "\u2581next": 81,
    "d": 82,
    "\u2581small": 83,
    "\u2581dressed": 84,
    "\u2581out": 85,
    "\u2581building": 86,
    "\u2581riding": 87,
    "\u2581running": 88,
    "\u2581near": 89,
    "\u2581People": 90,
    "\u2581jacket": 91,
    "\u2581another": 92,
    "\u2581around": 93,
    "\u2581be": 94,
    "\u2581some": 95,
    "\u2581field": 96,
    "\u2581sidewalk": 97,
    "\u2581orange": 98,
    "\u2581Man": 99,
    "\u2581beach": 100,
    "\u2581crowd": 101,
    "ly": 102,
    "\u2581snow": 103,
    "\u2581pink": 104,
    "'": 105,
    "\u2581stands": 106,
    "\u2581behind": 107,
    "\u2581jumping": 108,
    "\u2581table": 109,
    "\u2581sits": 110,
    "\u2581grass": 111,
    "\u2581stand": 112,
    "\u2581background": 113,
    "\u2581bike": 114,
    "\u2581as": 115,
    "\u2581city": 116,
    "\u2581player": 117,
    "\u2581wall": 118,
    "\u2581top": 119,
    "\u2581off": 120,
    "\u2581that": 121,
    "\u2581girls": 122,
    "\u2581camera": 123,
    "\u2581dress": 124,
    "\u2581park": 125,
    "\u2581play": 126,
    "\u2581hold": 127,
    "\u2581talking": 128,
    "\u2581something": 129,
    "\u2581air": 130,
    "\u2581hand": 131,
    "\u2581dogs": 132,
    "\u2581older": 133,
    "\u2581hair": 134,
    "\u2581guitar": 135,
    "\u2581along": 136,
    "\u2581walks": 137,
    "\u2581lady": 138,
    "\u2581together": 139,
    "\u2581soccer": 140,
    "\u2581blond": 141,
    "\u2581food": 142,
    "\u2581working": 143,
    "\u2581gray": 144,
    "\u2581car": 145,
    "\u2581smiling": 146,
    "\u2581game": 147,
    "\u2581picture": 148,
    "\u2581has": 149,
    "\u2581Asian": 150,
    "\u2581boys": 151,
    "\u2581plays": 152,
    "\u2581walk": 153,
    "\u2581Four": 154,
    "\u2581carry": 155,
    "\u2581sit": 156,
    "\u2581it": 157,
    "\u2581road": 158,
    "\u2581him": 159,
    "\u2581bench": 160,
    "\u2581glasses": 161,
    "\u2581pants": 162,
    "\u2581stage": 163,
    "\u2581head": 164,
    "\u2581shorts": 165,
    "\u2581dirt": 166,
    "\u2581couple": 167,
    "\u2581tree": 168,
    "\u2581face": 169,
    "\u2581bicycle": 170,
    "\u2581them": 171,
    "\u2581baby": 172,
    "\u2581t": 173,
    "\u2581side": 174,
    "cross": 175,
    "\u2581rock": 176,
    "al": 177,
    "st": 178,
    "veral": 179,
    "\u2581old": 180,
    "\u2581pool": 181,
    "\u2581long": 182,
    "\u2581race": 183,
    "\u2581tak": 184,
    "each": 185,
    "\u2581back": 186,
    "\u2581get": 187,
    "\u2581doing": 188,
    "\u2581area": 189,
    "\u2581dark": 190,
    "\u2581male": 191,
    "\u2581jeans": 192,
    "\u2581watching": 193,
    "\u2581boat": 194,
    "\u2581middle": 195,
    "\u2581who": 196,
    "\u2581sand": 197,
    "er": 198,
    "\u2581jumps": 199,
    "\u2581ground": 200,
    "\u2581hands": 201,
    "\u2581room": 202,
    "\u2581day": 203,
    "\u2581performing": 204,
    "\u2581female": 205,
    "\u2581eating": 206,
    "\u2581guy": 207,
    "\u2581coat": 208,
    "\u2581suit": 209,
    "\u2581baseball": 210,
    "\u2581horse": 211,
    "\u2581sign": 212,
    "\u2581watch": 213,
    "\u2581using": 214,
    "\u2581mouth": 215,
    "\u2581under": 216,
    "\u2581football": 217,
    "\u2581he": 218,
    "\u2581striped": 219,
    "\u2581purple": 220,
    "\u2581store": 221,
    "\u2581band": 222,
    "haired": 223,
    "\u2581go": 224,
    "\u2581uniform": 225,
    "\u2581toward": 226,
    "\u2581enjoy": 227,
    "\u2581runs": 228,
    "\u2581mountain": 229,
    "\u2581Young": 230,
    "\u2581d": 231,
    "\u2581line": 232,
    "\u2581tennis": 233,
    "\u2581sunglasses": 234,
    "\u2581reading": 235,
    "\u2581microphone": 236,
    "\u2581S": 237,
    "shirt": 238,
    "\u2581three": 239,
    "\u2581clothing": 240,
    "\u2581There": 241,
    "\u2581basketball": 242,
    "\u2581ocean": 243,
    "\u2581players": 244,
    "es": 245,
    "\u2581helmet": 246,
    "\u2581toy": 247,
    "\u2581past": 248,
    "\u2581watches": 249,
    "\u2581On": 250,
    "\u2581work": 251,
    "\u2581train": 252,
    "\u2581restaurant": 253,
    "\u2581its": 254,
    "\u2581climbing": 255,
    "\u2581kids": 256,
    "\u2581again": 257,
    "\u2581window": 258,
    "\u2581elder": 259,
    "uring": 260,
    "\u2581try": 261,
    "\u2581team": 262,
    "\u2581sun": 263,
    "\u2581dancing": 264,
    "\u2581chair": 265,
    "\u2581show": 266,
    "\u2581throw": 267,
    "\u2581rides": 268,
    "\u2581Se": 269,
    "\u2581outdoor": 270,
    "\u2581wooden": 271,
    "\u2581posing": 272,
    "\u2581about": 273,
    "\u2581hav": 274,
    "\u2581covered": 275,
    "\u2581floor": 276,
    "\u2581trees": 277,
    "\u2581jump": 278,
    "ral": 279,
    "\u2581all": 280,
    "\u2581waiting": 281,
    "\u2581swimming": 282,
    "\u2581skateboard": 283,
    "\u2581bag": 284,
    "looking": 285,
    "\u2581or": 286,
    "\u2581construction": 287,
    "ting": 288,
    "\u2581very": 289,
    "\u2581workers": 290,
    "\u2581fence": 291,
    "\u2581ice": 292,
    "\u2581colorful": 293,
    "\u2581busy": 294,
    "\u2581singing": 295,
    "\u2581pull": 296,
    "\u2581lean": 297,
    "\u2581Woman": 298,
    "\u2581hill": 299,
    "\u2581high": 300,
    "\u2581cap": 301,
    "\u2581cart": 302,
    "\u2581tan": 303,
    "\u2581catch": 304,
    "ive": 305,
    "\u2581book": 306,
    "\u2581F": 307,
    "\u2581bus": 308,
    "\u2581truck": 309,
    "\u2581open": 310,
    "\u2581laying": 311,
    "\u2581ride": 312,
    "\u2581bright": 313,
    "\u2581Men": 314,
    "\u2581light": 315,
    "\u2581cellphone": 316,
    "\u2581path": 317,
    "\u2581kitchen": 318,
    "\u2581market": 319,
    "\u2581beard": 320,
    "\u2581inside": 321,
    "is": 322,
    "\u2581making": 323,
    "\u2581brick": 324,
    "\u2581track": 325,
    "\u2581grassy": 326,
    "\u2581stick": 327,
    "\"": 328,
    "\u2581umbrella": 329,
    "\u2581outfit": 330,
    "\u2581clothes": 331,
    "\u2581perform": 332,
    "\u2581motorcycle": 333,
    "\u2581metal": 334,
    "\u2581full": 335,
    "\u2581\"": 336,
    "\u2581body": 337,
    "\u2581swing": 338,
    "\u2581big": 339,
    "\u2581Seve": 340,
    "\u2581takes": 341,
    "\u2581night": 342,
    "\u2581se": 343,
    "\u2581paper": 344,
    "\u2581hats": 345,
    "\u2581others": 346,
    "\u2581river": 347,
    "\u2581ready": 348,
    "\u2581she": 349,
    "\u2581T": 350,
    "n": 351,
    "\u2581tank": 352,
    "\u2581lot": 353,
    "\u2581hard": 354,
    "\u2581sweater": 355,
    "\u2581piece": 356,
    "\u2581shirts": 357,
    "\u2581shop": 358,
    "\u2581trick": 359,
    "\u2581lake": 360,
    "colored": 361,
    "\u2581painting": 362,
    "\u2581surround": 363,
    "\u2581run": 364,
    "\u2581above": 365,
    "\u2581stone": 366,
    "\u2581dance": 367,
    "\u2581board": 368,
    "\u2581L": 369,
    "\u2581bar": 370,
    "\u2581vest": 371,
    "\u2581wave": 372,
    "\u2581backpack": 373,
    "\u2581shopping": 374,
    "\u2581snowy": 375,
    "\u2581worker": 376,
    "\u2581music": 377,
    "\u2581Th": 378,
    "\u2581beside": 379,
    "\u2581photo": 380,
    "\u2581uniforms": 381,
    "\u2581push": 382,
    "\u2581smiles": 383,
    "\u2581pole": 384,
    "\u2581house": 385,
    "\u2581crowded": 386,
    "\u2581gear": 387,
    "\u2581toddler": 388,
    "\u2581arm": 389,
    "\u2581kid": 390,
    "\u2581outdoors": 391,
    "\u2581phone": 392,
    "\u2581adults": 393,
    "\u25812": 394,
    "\u2581drinking": 395,
    "\u2581f": 396,
    "\u2581kick": 397,
    "\u2581short": 398,
    "t": 399,
    "\u2581gathered": 400,
    "\u2581set": 401,
    "\u2581event": 402,
    "ch": 403,
    "\u2581costume": 404,
    "\u2581hanging": 405,
    "\u2581subway": 406,
    "\u2581bridge": 407,
    "\u2581African": 408,
    "\u2581family": 409,
    "\u2581many": 410,
    "\u2581object": 411,
    "ny": 412,
    "hair": 413,
    "\u2581preparing": 414,
    "\u2581fire": 415,
    "\u2581flowers": 416,
    "\u2581arms": 417,
    "\u2581rope": 418,
    "\u2581away": 419,
    "\u2581attempt": 420,
    "\u2581hockey": 421,
    "\u2581forest": 422,
    "\u2581sleeping": 423,
    "\u2581like": 424,
    "\u2581steps": 425,
    "\u2581take": 426,
    "\u2581fountain": 427,
    "\u2581machine": 428,
    "\u2581graffiti": 429,
    "\u2581does": 430,
    "\u2581after": 431,
    "\u2581clean": 432,
    "\u2581Children": 433,
    "\u2581fishing": 434,
    "\u2581adult": 435,
    "\u2581beautiful": 436,
    "\u2581prepare": 437,
    "\u2581plai": 438,
    "\u2581pose": 439,
    "\u2581four": 440,
    "\u2581asian": 441,
    "\u2581guys": 442,
    "\u2581appear": 443,
    "\u2581pass": 444,
    "\u2581police": 445,
    "\u2581stairs": 446,
    "\u2581shoes": 447,
    "\u2581shirtless": 448,
    "\u2581selling": 449,
    "\u2581setting": 450,
    "\u2581whi": 451,
    "\u2581glass": 452,
    "\u2581Some": 453,
    "\u2581putt": 454,
    "his": 455,
    "\u2581racing": 456,
    "\u2581American": 457,
    "\u2581drink": 458,
    "on": 459,
    "\u2581slide": 460,
    "\u2581corner": 461,
    "\u2581someone": 462,
    "\u2581g": 463,
    "\u2581bet": 464,
    "\u2581tall": 465,
    "\u2581both": 466,
    "\u2581view": 467,
    "\u2581flower": 468,
    "\u2581public": 469,
    "\u2581volleyball": 470,
    "ween": 471,
    "\u2581parade": 472,
    "\u2581rocks": 473,
    "\u2581party": 474,
    "\u2581have": 475,
    "\u2581chairs": 476,
    "\u2581computer": 477,
    "\u2581flag": 478,
    "\u2581match": 479,
    "\u2581equipment": 480,
    "\u2581ladies": 481,
    "\u2581couch": 482,
    "\u2581bath": 483,
    "\u2581laughing": 484,
    "aged": 485,
    "\u2581trail": 486,
    "\u2581wood": 487,
    "\u2581ramp": 488,
    "\u2581fish": 489,
    "\u2581instruments": 490,
    "\u2581sweatshirt": 491,
    "\u2581plastic": 492,
    "\u2581statue": 493,
    "\u2581rain": 494,
    "\u2581concrete": 495,
    "\u2581playground": 496,
    "\u2581reach": 497,
    "\u2581woods": 498,
    "\u2581winter": 499,
    "\u2581dock": 500,
    "\u2581hit": 501,
    "\u2581poses": 502,
    "\u2581midair": 503,
    "\u2581yard": 504,
    "\u2581cross": 505,
    "\u2581number": 506,
    "ve": 507,
    "\u2581cowboy": 508,
    "\u2581skirt": 509,
    "\u2581pictures": 510,
    "\u2581attire": 511,
    "\u2581p": 512,
    "\u2581what": 513,
    "\u2581seated": 514,
    "just": 515,
    "\u2581reads": 516,
    "\u2581grill": 517,
    "\u2581home": 518,
    "\u2581sky": 519,
    "\u2581left": 520,
    "\u2581cream": 521,
    "\u2581distance": 522,
    "\u2581beer": 523,
    "\u2581wear": 524,
    "\u2581kneel": 525,
    "\u2581cooking": 526,
    "\u2581tent": 527,
    "\u2581rider": 528,
    "\u2581star": 529,
    "\u2581cliff": 530,
    "\u2581school": 531,
    "\u2581where": 532,
    "\u2581bed": 533,
    "\u2581cutt": 534,
    "\u2581works": 535,
    "\u2581make": 536,
    "ittle": 537,
    "\u2581bikes": 538,
    "\u2581vests": 539,
    "\u2581pick": 540,
    "\u2581instrument": 541,
    "\u2581court": 542,
    "\u2581edge": 543,
    "\u2581Boy": 544,
    "\u2581B": 545,
    "\u2581bags": 546,
    "\u2581use": 547,
    "\u2581jersey": 548,
    "\u2581scarf": 549,
    "\u2581right": 550,
    "\u2581crossing": 551,
    "\u2581cup": 552,
    "\u2581apron": 553,
    "\u2581station": 554,
    "\u2581Women": 555,
    "\u2581nearby": 556,
    "\u2581filled": 557,
    "\u2581Frisbee": 558,
    "\u2581driving": 559,
    "\u2581pile": 560,
    "\u2581mountains": 561,
    "\u2581fix": 562,
    "\u2581art": 563,
    "\u2581place": 564,
    "\u2581display": 565,
    "\u2581carrie": 566,
    "\u2581structure": 567,
    "\u2581cigarette": 568,
    "\u2581shore": 569,
    "\u2581Group": 570,
    "\u2581mother": 571,
    "\u2581door": 572,
    "\u2581bottle": 573,
    "\u2581fruit": 574,
    "\u2581leaves": 575,
    "\u2581smile": 576,
    "\u2581friends": 577,
    "\u2581bowling": 578,
    "\u2581snowboarder": 579,
    "\u2581boots": 580,
    "\u2581vendor": 581,
    "\u2581shovel": 582,
    "\u2581stop": 583,
    "\u2581no": 584,
    "\u2581net": 585,
    "\u2581buildings": 586,
    "\u2581Person": 587,
    "\u2581goggles": 588,
    "\u2581vehicle": 589,
    "\u2581skateboarder": 590,
    "\u2581horses": 591,
    "\u2581parked": 592,
    "\u2581M": 593,
    "\u2581concert": 594,
    "\u2581shot": 595,
    "\u2581time": 596,
    "\u2581marti": 597,
    "\u2581painted": 598,
    "\u2581can": 599,
    "\u2581drums": 600,
    "\u2581talks": 601,
    "\u2581paint": 602,
    "\u2581gather": 603,
    "\u2581coffee": 604,
    "\u2581smoking": 605,
    "\u2581break": 606,
    "\u2581newspaper": 607,
    "\u2581bowl": 608,
    "\u2581dresses": 609,
    "\u2581flying": 610,
    "\u2581eyes": 611,
    "\u2581rocky": 612,
    "a": 613,
    "\u2581bull": 614,
    "\u2581roof": 615,
    "\u2581conversation": 616,
    "\u2581safety": 617,
    "\u2581bunch": 618,
    "\u2581box": 619,
    "an": 620,
    "\u2581bucket": 621,
    "le": 622,
    "\u2581com": 623,
    "\u2581arts": 624,
    "\u2581cars": 625,
    "\u2581Old": 626,
    "\u2581practicing": 627,
    "\u2581gentleman": 628,
    "\u2581bicyclist": 629,
    "\u2581meal": 630,
    "\u2581spectators": 631,
    "\u2581ladder": 632,
    "\u2581wait": 633,
    "lying": 634,
    "\u2581younger": 635,
    "\u2581flags": 636,
    "\u2581gloves": 637,
    "\u2581waves": 638,
    "ew": 639,
    "ment": 640,
    "\u2581competition": 641,
    "\u2581different": 642,
    "\u2581empty": 643,
    "\u2581opposi": 644,
    "\u2581swinging": 645,
    "\u2581blanket": 646,
    "\u2581listening": 647,
    "\u2581giv": 648,
    "\u2581turn": 649,
    "\u2581v": 650,
    "\u2581costumes": 651,
    "\u2581check": 652,
    "\u2581cake": 653,
    "\u2581scene": 654,
    "\u2581sort": 655,
    "\u2581bikini": 656,
    "\u2581surfer": 657,
    "\u2581desk": 658,
    "\u2581mask": 659,
    "\u2581balloon": 660,
    "\u2581items": 661,
    "\u2581there": 662,
    "\u2581put": 663,
    "\u2581chas": 664,
    "\u2581audience": 665,
    "\u2581lawn": 666,
    "\u2581railing": 667,
    "\u2581rodeo": 668,
    "\u2581Indian": 669,
    "\u2581Someone": 670,
    "\u2581onlookers": 671,
    "m": 672,
    "\u2581Girl": 673,
    "\u2581among": 674,
    "\u2581ski": 675,
    "\u2581skateboarding": 676,
    "\u2581C": 677,
    "\u2581leaps": 678,
    "\u2581P": 679,
    "\u2581slid": 680,
    "\u2581platform": 681,
    "\u2581hot": 682,
    "\u2581surfboard": 683,
    "\u2581class": 684,
    "\u2581tattoo": 685,
    "\u2581basket": 686,
    "\u2581vegetables": 687,
    "\u2581lay": 688,
    "ix": 689,
    "\u2581pointing": 690,
    "\u2581drinks": 691,
    "\u2581rail": 692,
    "arious": 693,
    "fore": 694,
    "\u2581parking": 695,
    "\u2581flip": 696,
    "\u2581gathering": 697,
    "\u2581help": 698,
    "\u2581collar": 699,
    "\u2581feet": 700,
    "\u2581wet": 701,
    "\u2581cement": 702,
    "\u2581facing": 703,
    "\u2581bird": 704,
    "\u2581biker": 705,
    "\u2581b": 706,
    "out": 707,
    "\u2581cut": 708,
    "\u2581sports": 709,
    "\u2581lap": 710,
    "\u2581gold": 711,
    "\u2581competing": 712,
    "\u2581silver": 713,
    "\u2581wedding": 714,
    "\u2581tie": 715,
    "\u2581jackets": 716,
    "\u2581new": 717,
    "\u2581bicycles": 718,
    "\u2581purse": 719,
    "ty": 720,
    "\u2581row": 721,
    "ng": 722,
    "\u2581speaking": 723,
    "\u2581tradition": 724,
    "\u2581classroom": 725,
    "\u2581business": 726,
    "\u2581counter": 727,
    "\u2581huge": 728,
    "\u2581base": 729,
    "ers": 730,
    "man": 731,
    "\u2581lift": 732,
    "\u2581animal": 733,
    "\u2581sings": 734,
    "\u2581suits": 735,
    "\u2581students": 736,
    "\u2581wash": 737,
    "\u2581surfing": 738,
    "\u2581climbs": 739,
    "\u2581do": 740,
    "\u2581helmets": 741,
    "\u2581roll": 742,
    "\u2581mirror": 743,
    "\u2581military": 744,
    "\u2581bride": 745,
    "\u2581alley": 746,
    "\u2581stroller": 747,
    "\u2581leap": 748,
    "\u2581kissing": 749,
    "\u2581teams": 750,
    "tries": 751,
    "\u2581screen": 752,
    "\u2581violin": 753,
    "\u2581electric": 754,
    "\u2581same": 755,
    "\u2581walkway": 756,
    "\u2581writing": 757,
    "en": 758,
    "\u2581artist": 759,
    "\u2581shoulder": 760,
    "\u2581skier": 761,
    "\u2581fighting": 762,
    "\u2581talk": 763,
    "\u2581sunset": 764,
    "\u2581country": 765,
    "top": 766,
    "\u2581runner": 767,
    "\u2581chase": 768,
    "\u2581give": 769,
    "\u2581spray": 770,
    "\u2581waits": 771,
    "\u2581barefoot": 772,
    "\u2581waving": 773,
    "\u2581wheel": 774,
    "\u2581close": 775,
    "\u2581lit": 776,
    "\u2581marathon": 777,
    "\u2581seen": 778,
    "\u2581son": 779,
    "\u2581scooter": 780,
    "\u2581officer": 781,
    "id": 782,
    "\u2581leg": 783,
    "\u2581foot": 784,
    "\u2581father": 785,
    "\u2581course": 786,
    "\u2581says": 787,
    "\u2581end": 788,
    "\u2581bubbles": 789,
    "\u2581bald": 790,
    "\u2581hole": 791,
    "\u2581sell": 792,
    "\u2581females": 793,
    "\u2581fun": 794,
    "\u2581un": 795,
    "\u2581blowing": 796,
    "urban": 797,
    "\u2581life": 798,
    "\u2581leather": 799,
    "\u2581meat": 800,
    "\u2581happy": 801,
    "\u2581outfits": 802,
    "\u2581skating": 803,
    "se": 804,
    "\u2581skate": 805,
    "\u2581swim": 806,
    "\u2581balloons": 807,
    "\u2581drive": 808,
    "\u2581Construction": 809,
    "\u2581foreground": 810,
    "\u2581alone": 811,
    "\u2581In": 812,
    "\u2581five": 813,
    "\u2581brightly": 814,
    "\u2581bat": 815,
    "\u2581signs": 816,
    "\u2581musicians": 817,
    "\u2581clown": 818,
    "\u2581canoe": 819,
    "\u2581float": 820,
    "\u2581plate": 821,
    "\u2581hang": 822,
    "\u2581site": 823,
    "\u2581tire": 824,
    "\u2581helping": 825,
    "\u2581makes": 826,
    "\u2581asleep": 827,
    "\u2581desert": 828,
    "\u2581gym": 829,
    "\u2581headphones": 830,
    "\u2581made": 831,
    "\u2581lights": 832,
    "\u2581goal": 833,
    "\u2581sport": 834,
    "\u2581mud": 835,
    "\u2581legs": 836,
    "\u2581shav": 837,
    "w": 838,
    "\u2581leash": 839,
    "\u2581brush": 840,
    "\u2581office": 841,
    "\u2581stadium": 842,
    "\u2581video": 843,
    "\u2581diving": 844,
    "\u2581doorway": 845,
    "\u2581roller": 846,
    "\u2581umbrellas": 847,
    "\u2581well": 848,
    "\u2581sandals": 849,
    "\u2581musical": 850,
    "ous": 851,
    "\u2581drawing": 852,
    "\u2581speak": 853,
    "\u2581cat": 854,
    "\u2581way": 855,
    "\u2581photograph": 856,
    "o": 857,
    "te": 858,
    "\u2581golf": 859,
    "\u2581accordion": 860,
    "\u2581stuff": 861,
    "\u2581multicolored": 862,
    "\u2581photographer": 863,
    "\u2581laptop": 864,
    "\u2581falling": 865,
    "\u2581officers": 866,
    "\u2581lead": 867,
    "\u2581climb": 868,
    "\u2581Fi": 869,
    "\u2581swings": 870,
    "\u2581teenage": 871,
    "\u2581shallow": 872,
    "\u2581church": 873,
    "\u2581traffic": 874,
    "\u2581performance": 875,
    "\u2581sticks": 876,
    "\u2581van": 877,
    "\u2581Worker": 878,
    "\u2581faces": 879,
    "\u2581mat": 880,
    "\u2581kayak": 881,
    "\u2581skiing": 882,
    "\u2581tables": 883,
    "iant": 884,
    "\u2581project": 885,
    "\u2581digging": 886,
    "\u2581below": 887,
    "\u2581pond": 888,
    "\u2581hammer": 889,
    "\u2581sled": 890,
    "hiking": 891,
    "\u2581microscope": 892,
    "\u2581garden": 893,
    "\u2581friend": 894,
    "\u2581block": 895,
    "\u2581toys": 896,
    "\u2581tunnel": 897,
    "\u2581hoodie": 898,
    "\u2581hugging": 899,
    "\u2581passes": 900,
    "\u2581upside": 901,
    "\u2581relaxing": 902,
    "ping": 903,
    "\u2581stunt": 904,
    "\u2581drum": 905,
    "\u2581cloud": 906,
    "up": 907,
    "ic": 908,
    "\u2581G": 909,
    "\u2581Christmas": 910,
    "\u2581beige": 911,
    "\u2581Chinese": 912,
    "\u2581brunette": 913,
    "\u2581sleeps": 914,
    "\u2581D": 915,
    "\u2581sweeping": 916,
    "\u2581heads": 917,
    "\u2581pour": 918,
    "\u2581move": 919,
    "\u2581dancers": 920,
    "\u2581hose": 921,
    "\u2581daughter": 922,
    "\u2581blow": 923,
    "\u2581singer": 924,
    "\u2581sculpture": 925,
    "\u2581bend": 926,
    "th": 927,
    "\u2581inspect": 928,
    "\u2581eat": 929,
    "\u2581telescope": 930,
    "\u2581conversing": 931,
    "\u2581Black": 932,
    "\u2581lone": 933,
    "\u2581Guy": 934,
    "\u2581teeth": 935,
    "\u2581cafe": 936,
    "\u2581flies": 937,
    "\u2581mid": 938,
    "k": 939,
    "\u2581trunks": 940,
    "\u2581resting": 941,
    "in": 942,
    "\u2581chef": 943,
    "\u2581shoe": 944,
    "\u2581decorat": 945,
    "\u2581includ": 946,
    "\u2581streets": 947,
    "\u2581males": 948,
    "\u2581fall": 949,
    "\u2581mov": 950,
    "\u2581gun": 951,
    "ish": 952,
    "ign": 953,
    "\u2581karate": 954,
    "\u2581wrestling": 955,
    "\u2581cold": 956,
    "\u2581jogging": 957,
    "\u2581pier": 958,
    "\u2581racket": 959,
    "\u2581start": 960,
    "\u2581stack": 961,
    "\u2581mural": 962,
    "\u2581underneath": 963,
    "\u2581town": 964,
    "\u2581held": 965,
    "\u2581how": 966,
    "\u2581s": 967,
    "\u2581splashing": 968,
    "\u2581points": 969,
    "\u2581seem": 970,
    "\u2581plants": 971,
    "\u2581plant": 972,
    "\u2581string": 973,
    "\u2581cane": 974,
    "nt": 975,
    "\u2581balance": 976,
    "ids": 977,
    "\u2581cloth": 978,
    "\u2581fan": 979,
    "\u2581straw": 980,
    "\u2581stroll": 981,
    "\u2581themselves": 982,
    "\u2581hula": 983,
    "\u2581image": 984,
    "\u2581curly": 985,
    "\u2581finish": 986,
    "\u2581card": 987,
    "\u2581gate": 988,
    "\u2581cyclist": 989,
    "\u2581hiker": 990,
    "\u2581o": 991,
    "r": 992,
    "\u2581shoulders": 993,
    "mall": 994,
    "\u2581st": 995,
    "board": 996,
    "\u2581nap": 997,
    "\u2581stream": 998,
    "\u2581heavy": 999,
    "\u2581picnic": 1000,
    "\u2581trampoline": 1001,
    "\u2581kind": 1002,
    "\u2581carnival": 1003,
    "\u2581wetsuit": 1004,
    "\u2581produce": 1005,
    "\u2581crosswalk": 1006,
    "\u2581dinner": 1007,
    "\u2581makeup": 1008,
    "\u2581deep": 1009,
    "\u2581crying": 1010,
    "\u2581deck": 1011,
    "\u2581taken": 1012,
    "\u2581wooded": 1013,
    "\u2581individuals": 1014,
    "\u2581coats": 1015,
    "\u2581knee": 1016,
    "\u2581infant": 1017,
    "\u2581print": 1018,
    "\u2581surf": 1019,
    "\u2581mix": 1020,
    "\u2581nose": 1021,
    "\u2581c": 1022,
    "\u2581round": 1023,
    "\u2581O": 1024,
    "\u2581performer": 1025,
    "\u2581slope": 1026,
    "\u2581lab": 1027,
    "\u2581trash": 1028,
    "\u2581professional": 1029,
    "\u2581practice": 1030,
    "\u2581surface": 1031,
    "\u2581nice": 1032,
    "\u2581Dog": 1033,
    "\u2581center": 1034,
    "\u2581load": 1035,
    "\u2581driver": 1036,
    "\u2581sewing": 1037,
    "\u2581formal": 1038,
    "\u2581closed": 1039,
    "\u2581members": 1040,
    "etting": 1041,
    "\u2581covering": 1042,
    "\u2581button": 1043,
    "\u2581circle": 1044,
    "ion": 1045,
    "\u2581fight": 1046,
    "\u2581square": 1047,
    "\u2581cow": 1048,
    "\u2581booth": 1049,
    "\u2581al": 1050,
    "less": 1051,
    "\u2581n": 1052,
    "\u2581tricks": 1053,
    "\u2581balcony": 1054,
    "\u2581blouse": 1055,
    "\u2581himself": 1056,
    "\u2581softball": 1057,
    "\u2581third": 1058,
    "\u2581lunch": 1059,
    "\u2581speed": 1060,
    "\u2581catche": 1061,
    "\u2581ring": 1062,
    "\u2581neck": 1063,
    "\u2581pot": 1064,
    "\u2581device": 1065,
    "\u2581log": 1066,
    "\u2581athlete": 1067,
    "\u2581indoor": 1068,
    "\u2581eye": 1069,
    "\u2581robe": 1070,
    "\u2581dances": 1071,
    "\u2581see": 1072,
    "\u2581staircase": 1073,
    "\u2581festival": 1074,
    "\u2581steep": 1075,
    "\u2581wrapp": 1076,
    "\u2581boxes": 1077,
    "\u2581most": 1078,
    "\u2581shak": 1079,
    "ical": 1080,
    "\u2581balanc": 1081,
    "\u2581kiss": 1082,
    "\u2581rest": 1083,
    "\u2581opening": 1084,
    "\u2581repair": 1085,
    "\u2581w": 1086,
    "\u2581skis": 1087,
    "\u2581H": 1088,
    "or": 1089,
    "\u2581not": 1090,
    "ight": 1091,
    "\u2581frame": 1092,
    "\u2581gymnast": 1093,
    "\u2581grocery": 1094,
    "\u2581fresh": 1095,
    "\u2581puddle": 1096,
    "\u2581garb": 1097,
    "\u2581fallen": 1098,
    "\u2581paved": 1099,
    "\u2581overalls": 1100,
    "\u2581pro": 1101,
    "\u2581waterfall": 1102,
    "\u2581sea": 1103,
    "\u2581chain": 1104,
    "\u2581pitcher": 1105,
    "\u2581sheet": 1106,
    "\u2581guard": 1107,
    "\u2581jean": 1108,
    "\u2581dancer": 1109,
    "\u2581swims": 1110,
    "ian": 1111,
    "\u2581fe": 1112,
    "covered": 1113,
    "\u2581travel": 1114,
    "\u2581E": 1115,
    "ill": 1116,
    "\u2581laundry": 1117,
    "\u2581gentlemen": 1118,
    "\u2581curb": 1119,
    "\u2581porch": 1120,
    "\u2581airplane": 1121,
    "\u2581ledge": 1122,
    "\u2581stool": 1123,
    "\u2581flight": 1124,
    "\u2581figure": 1125,
    "\u2581grind": 1126,
    "\u2581fair": 1127,
    "\u2581climber": 1128,
    "\u2581I": 1129,
    "\u2581marching": 1130,
    "\u2581customers": 1131,
    "\u2581hoop": 1132,
    "\u2581laugh": 1133,
    "\u2581th": 1134,
    "\u2581fingers": 1135,
    "\u2581crouche": 1136,
    "\u2581teenagers": 1137,
    "\u2581robes": 1138,
    "\u2581podium": 1139,
    "\u2581hikers": 1140,
    "\u2581sale": 1141,
    "\u2581clear": 1142,
    "\u2581fore": 1143,
    "\u2581present": 1144,
    "\u2581khaki": 1145,
    "\u2581teenager": 1146,
    "\u2581ear": 1147,
    "\u2581snowboard": 1148,
    "\u2581birds": 1149,
    "ge": 1150,
    "\u2581pitch": 1151,
    "\u2581R": 1152,
    "\u2581ne": 1153,
    "\u2581piano": 1154,
    "\u2581paddling": 1155,
    "\u2581polo": 1156,
    "\u2581backyard": 1157,
    "\u2581Here": 1158,
    "\u2581golden": 1159,
    "\u2581attached": 1160,
    "\u2581pair": 1161,
    "\u2581ship": 1162,
    "\u2581evening": 1163,
    "\u2581books": 1164,
    "\u2581tile": 1165,
    "\u2581raft": 1166,
    "king": 1167,
    "\u2581balls": 1168,
    "\u2581pushe": 1169,
    "\u2581colors": 1170,
    "\u2581arena": 1171,
    "\u2581shooting": 1172,
    "\u2581part": 1173,
    "\u2581tongue": 1174,
    "\u2581mound": 1175,
    "\u2581cook": 1176,
    "\u2581shin": 1177,
    "\u2581blocks": 1178,
    "\u2581saxophone": 1179,
    "\u2581keyboard": 1180,
    "\u2581kicks": 1181,
    "\u2581wheelchair": 1182,
    "\u2581poster": 1183,
    "\u2581loc": 1184,
    "ese": 1185,
    "ding": 1186,
    "S": 1187,
    "ring": 1188,
    "\u2581re": 1189,
    "\u2581New": 1190,
    "\u2581warm": 1191,
    "apan": 1192,
    "\u2581Child": 1193,
    "\u2581camouflage": 1194,
    "\u2581fabric": 1195,
    "\u2581pavement": 1196,
    "\u2581position": 1197,
    "\u2581denim": 1198,
    "\u2581luggage": 1199,
    "\u2581inflatable": 1200,
    "\u2581color": 1201,
    "\u2581wine": 1202,
    "\u2581tracks": 1203,
    "\u2581post": 1204,
    "\u2581feed": 1205,
    "\u2581seat": 1206,
    "\u2581fenced": 1207,
    "\u2581cones": 1208,
    "g": 1209,
    "\u2581hurdle": 1210,
    "\u2581bottom": 1211,
    "\u2581swimsuit": 1212,
    "\u2581poles": 1213,
    "\u2581windows": 1214,
    "side": 1215,
    "\u2581shade": 1216,
    "et": 1217,
    "\u2581low": 1218,
    "\u2581fill": 1219,
    "merican": 1220,
    "ustic": 1221,
    "\u2581compete": 1222,
    "\u2581juggling": 1223,
    "\u2581referee": 1224,
    "\u2581tractor": 1225,
    "\u2581married": 1226,
    "\u2581railroad": 1227,
    "\u2581courtyard": 1228,
    "\u2581goalie": 1229,
    "\u2581discuss": 1230,
    "\u2581chest": 1231,
    "\u2581landscape": 1232,
    "\u2581dust": 1233,
    "\u2581grab": 1234,
    "\u2581name": 1235,
    "\u2581buying": 1236,
    "\u2581pack": 1237,
    "\u2581laughs": 1238,
    "\u2581eats": 1239,
    "\u2581bandanna": 1240,
    "\u2581wind": 1241,
    "\u2581pin": 1242,
    "\u2581towel": 1243,
    "\u2581live": 1244,
    "\u2581soldier": 1245,
    "\u2581musician": 1246,
    "\u2581de": 1247,
    "\u2581type": 1248,
    "\u2581protect": 1249,
    "like": 1250,
    "\u2581tub": 1251,
    "\u2581examin": 1252,
    "\u2581record": 1253,
    "\u2581suspende": 1254,
    "\u2581casual": 1255,
    "\u2581carpet": 1256,
    "\u2581Santa": 1257,
    "\u2581carriage": 1258,
    "\u2581happily": 1259,
    "\u2581club": 1260,
    "\u2581marketplace": 1261,
    "\u2581motor": 1262,
    "\u2581Male": 1263,
    "\u2581garbage": 1264,
    "ither": 1265,
    "\u2581adjust": 1266,
    "\u2581bread": 1267,
    "\u2581pajamas": 1268,
    "\u2581socks": 1269,
    "\u2581shown": 1270,
    "\u2581bucking": 1271,
    "\u2581backwards": 1272,
    "\u2581skirts": 1273,
    "\u2581aco": 1274,
    "\u2581scaffolding": 1275,
    "rient": 1276,
    "\u2581cheering": 1277,
    "\u2581come": 1278,
    "\u2581goods": 1279,
    "\u2581map": 1280,
    "\u2581tools": 1281,
    "\u2581touching": 1282,
    "\u2581soldiers": 1283,
    "\u2581you": 1284,
    "\u2581shoot": 1285,
    "\u2581step": 1286,
    "\u2581moves": 1287,
    "\u2581escalator": 1288,
    "\u2581groom": 1289,
    "\u2581dry": 1290,
    "\u2581advertisement": 1291,
    "\u2581magazine": 1292,
    "\u2581mustache": 1293,
    "\u2581direction": 1294,
    "\u2581peer": 1295,
    "\u2581bubble": 1296,
    "\u2581touch": 1297,
    "skinn": 1298,
    "\u2581fly": 1299,
    "\u2581plane": 1300,
    "alm": 1301,
    "\u2581sheep": 1302,
    "\u2581German": 1303,
    "\u2581airport": 1304,
    "\u2581athletic": 1305,
    "\u2581caught": 1306,
    "\u2581frisbee": 1307,
    "\u2581harness": 1308,
    "\u2581obstacle": 1309,
    "\u2581living": 1310,
    "\u2581model": 1311,
    "\u2581serving": 1312,
    "\u2581plaza": 1313,
    "\u2581stove": 1314,
    "\u2581rugby": 1315,
    "\u2581dining": 1316,
    "\u2581underwater": 1317,
    "\u2581White": 1318,
    "\u2581coach": 1319,
    "\u2581peace": 1320,
    "\u2581jerseys": 1321,
    "\u2581six": 1322,
    "\u2581teacher": 1323,
    "\u2581motorcycles": 1324,
    "sleeved": 1325,
    "\u2581hay": 1326,
    "\u2581welding": 1327,
    "\u2581riders": 1328,
    "\u2581raised": 1329,
    "\u2581so": 1330,
    "cy": 1331,
    "\u2581flo": 1332,
    "\u2581ru": 1333,
    "\u2581fans": 1334,
    "\u2581bare": 1335,
    "\u2581pipe": 1336,
    "A": 1337,
    "\u2581student": 1338,
    "\u2581tube": 1339,
    "\u2581animals": 1340,
    "\u2581overlook": 1341,
    "\u2581participat": 1342,
    "\u2581design": 1343,
    "\u2581form": 1344,
    "\u2581observe": 1345,
    "men": 1346,
    "\u2581paints": 1347,
    "\u2581hood": 1348,
    "\u2581direct": 1349,
    "\u2581York": 1350,
    "\u2581haircut": 1351,
    "\u2581polka": 1352,
    "\u2581jockey": 1353,
    "\u2581native": 1354,
    "\u2581gravel": 1355,
    "\u2581amuse": 1356,
    "\u2581operating": 1357,
    "\u2581thrown": 1358,
    "\u2581hooded": 1359,
    "\u2581shape": 1360,
    "age": 1361,
    "\u2581shar": 1362,
    "\u2581barbecue": 1363,
    "\u2581mudd": 1364,
    "\u2581raise": 1365,
    "\u2581wagon": 1366,
    "\u2581cover": 1367,
    "\u2581sing": 1368,
    "\u2581opponent": 1369,
    "\u2581wire": 1370,
    "\u2581individual": 1371,
    "\u2581runners": 1372,
    "\u2581cone": 1373,
    "\u2581backpacks": 1374,
    "line": 1375,
    "\u2581sleeve": 1376,
    "\u2581m": 1377,
    "\u2581farm": 1378,
    "\u2581pit": 1379,
    "ful": 1380,
    "\u2581approach": 1381,
    "\u2581serve": 1382,
    "\u2581headscarf": 1383,
    "\u2581jungle": 1384,
    "\u2581interact": 1385,
    "\u2581orchestra": 1386,
    "\u2581mom": 1387,
    "\u2581studio": 1388,
    "\u2581wide": 1389,
    "\u2581garage": 1390,
    "\u2581sink": 1391,
    "\u2581bathroom": 1392,
    "\u2581presentation": 1393,
    "\u2581hallway": 1394,
    "\u2581candy": 1395,
    "\u2581youth": 1396,
    "\u2581spread": 1397,
    "\u2581money": 1398,
    "\u2581checkered": 1399,
    "\u2581things": 1400,
    "\u2581heels": 1401,
    "\u2581saw": 1402,
    "\u2581redhead": 1403,
    "ist": 1404,
    "\u2581kite": 1405,
    "way": 1406,
    "\u2581fast": 1407,
    "\u2581du": 1408,
    "\u2581pedestrians": 1409,
    "\u2581bit": 1410,
    "\u2581grilling": 1411,
    "\u2581benches": 1412,
    "\u2581fl": 1413,
    "\u2581involv": 1414,
    "\u2581point": 1415,
    "\u2581land": 1416,
    "\u2581cyclists": 1417,
    "\u2581photographs": 1418,
    "\u2581drummer": 1419,
    "\u2581action": 1420,
    "\u2581boats": 1421,
    "\u2581sword": 1422,
    "\u2581jumpsuit": 1423,
    "\u2581racer": 1424,
    "\u2581tool": 1425,
    "ked": 1426,
    "arrow": 1427,
    "amp": 1428,
    "2": 1429,
    "\u2581vehicles": 1430,
    "\u2581but": 1431,
    "\u2581Brown": 1432,
    "\u2581ceiling": 1433,
    "\u2581entrance": 1434,
    "\u2581racetrack": 1435,
    "\u2581speech": 1436,
    "\u2581patio": 1437,
    "\u2581leaf": 1438,
    "\u2581machinery": 1439,
    "\u2581puck": 1440,
    "\u2581sack": 1441,
    "\u2581pattern": 1442,
    "\u2581summer": 1443,
    "\u2581moto": 1444,
    "\u2581policeman": 1445,
    "\u2581container": 1446,
    "\u2581examine": 1447,
    "\u2581dive": 1448,
    "\u2581passengers": 1449,
    "fully": 1450,
    "ent": 1451,
    "\u2581mall": 1452,
    "\u2581lie": 1453,
    "\u2581wi": 1454,
    "\u2581flipp": 1455,
    "\u2581free": 1456,
    "\u2581ears": 1457,
    "\u2581snowboarding": 1458,
    "\u2581read": 1459,
    "\u2581rests": 1460,
    "\u2581waters": 1461,
    "cuba": 1462,
    "\u2581ropes": 1463,
    "i": 1464,
    "\u2581sets": 1465,
    "\u2581hitt": 1466,
    "\u2581bow": 1467,
    "\u2581routine": 1468,
    "\u2581trumpet": 1469,
    "\u2581cla": 1470,
    "\u2581lane": 1471,
    "\u2581beam": 1472,
    "\u2581tag": 1473,
    "\u2581beverage": 1474,
    "\u2581craft": 1475,
    "\u2581smoke": 1476,
    "\u2581good": 1477,
    "\u2581glove": 1478,
    "\u2581buy": 1479,
    "shirts": 1480,
    "so": 1481,
    "ned": 1482,
    "\u2581rowing": 1483,
    "uff": 1484,
    "down": 1485,
    "\u2581walls": 1486,
    "\u2581bear": 1487,
    "\u2581leav": 1488,
    "ning": 1489,
    "\u2581fruits": 1490,
    "\u2581sandwich": 1491,
    "\u2581multi": 1492,
    "\u2581bro": 1493,
    "\u2581attend": 1494,
    "\u2581hall": 1495,
    "\u2581Blond": 1496,
    "\u2581Crowd": 1497,
    "\u2581hospital": 1498,
    "\u2581intersection": 1499,
    "\u2581museum": 1500,
    "\u2581ornate": 1501,
    "\u2581donkey": 1502,
    "\u2581herself": 1503,
    "\u2581rough": 1504,
    "\u2581african": 1505,
    "\u2581boardwalk": 1506,
    "\u2581discussion": 1507,
    "\u2581drill": 1508,
    "\u2581horseback": 1509,
    "\u2581half": 1510,
    "\u2581stopped": 1511,
    "\u2581possibly": 1512,
    "\u2581enter": 1513,
    "\u2581bushes": 1514,
    "\u2581song": 1515,
    "\u2581hillside": 1516,
    "\u2581wrestler": 1517,
    "\u2581keep": 1518,
    "\u2581sail": 1519,
    "\u2581spinn": 1520,
    "\u2581batter": 1521,
    "ure": 1522,
    "\u2581pet": 1523,
    "\u2581participate": 1524,
    "\u2581Lad": 1525,
    "\u2581heart": 1526,
    "\u2581medic": 1527,
    "\u2581mop": 1528,
    "\u2581stra": 1529,
    "\u2581toss": 1530,
    "\u2581cleans": 1531,
    "\u2581cheer": 1532,
    "\u2581AT": 1533,
    "\u2581pen": 1534,
    "\u2581we": 1535,
    "\u2581fold": 1536,
    "\u2581wa": 1537,
    "\u2581dune": 1538,
    "\u2581protest": 1539,
    "\u2581motorcyclist": 1540,
    "\u2581duck": 1541,
    "\u2581baskets": 1542,
    "\u2581bikers": 1543,
    "\u2581per": 1544,
    "arge": 1545,
    "\u2581celebrating": 1546,
    "\u2581fencing": 1547,
    "\u2581maroon": 1548,
    "\u2581silhouette": 1549,
    "\u2581great": 1550,
    "\u2581puppy": 1551,
    "\u2581neighborhood": 1552,
    "\u2581village": 1553,
    "\u2581cobble": 1554,
    "\u2581nav": 1555,
    "\u2581taxi": 1556,
    "\u2581film": 1557,
    "\u2581patient": 1558,
    "\u2581firetruck": 1559,
    "\u2581dig": 1560,
    "\u2581handstand": 1561,
    "\u2581outstretched": 1562,
    "\u2581squatting": 1563,
    "\u2581dishes": 1564,
    "\u2581clay": 1565,
    "rubber": 1566,
    "\u2581pan": 1567,
    "\u2581farmer": 1568,
    "ies": 1569,
    "\u2581sil": 1570,
    "\u2581war": 1571,
    "\u2581slides": 1572,
    "\u2581pett": 1573,
    "\u2581seve": 1574,
    "C": 1575,
    "\u2581seats": 1576,
    "\u2581skateboards": 1577,
    "\u2581St": 1578,
    "u": 1579,
    "\u2581ahead": 1580,
    "ped": 1581,
    "\u2581indoors": 1582,
    "\u2581splashe": 1583,
    "\u2581bin": 1584,
    "\u2581skates": 1585,
    "\u2581storefront": 1586,
    "\u2581doctor": 1587,
    "\u2581broom": 1588,
    "\u2581guitarist": 1589,
    "\u2581order": 1590,
    "\u2581belt": 1591,
    "\u2581swimmer": 1592,
    "\u2581finger": 1593,
    "\u2581item": 1594,
    "\u2581relax": 1595,
    "\u2581doll": 1596,
    "\u2581tops": 1597,
    "born": 1598,
    "\u2581buckets": 1599,
    "\u2581paddle": 1600,
    "el": 1601,
    "\u2581bottles": 1602,
    "\u2581wrestle": 1603,
    "\u2581chalk": 1604,
    "\u2581Street": 1605,
    "\u2581cricket": 1606,
    "\u2581sofa": 1607,
    "\u2581wife": 1608,
    "\u2581ballerina": 1609,
    "\u2581rink": 1610,
    "\u2581calf": 1611,
    "\u2581carving": 1612,
    "flops": 1613,
    "\u2581odd": 1614,
    "\u2581amid": 1615,
    "\u2581scenery": 1616,
    "\u2581iron": 1617,
    "\u2581moment": 1618,
    "\u2581choir": 1619,
    "\u2581lamp": 1620,
    "\u2581crew": 1621,
    "\u2581dreadlocks": 1622,
    "\u2581first": 1623,
    "\u2581dish": 1624,
    "\u2581newly": 1625,
    "\u2581gas": 1626,
    "\u2581stretching": 1627,
    "\u2581crouching": 1628,
    "\u2581cheerleaders": 1629,
    "\u2581cop": 1630,
    "\u2581stripes": 1631,
    "\u2581receiv": 1632,
    "ries": 1633,
    "\u2581hugs": 1634,
    "\u2581stares": 1635,
    "\u2581r": 1636,
    "\u2581crafts": 1637,
    "\u2581smokes": 1638,
    "\u2581bite": 1639,
    "\u2581coloring": 1640,
    "\u2581plac": 1641,
    "x": 1642,
    "more": 1643,
    "go": 1644,
    "\u2581apartment": 1645,
    "\u2581style": 1646,
    "\u2581motorbike": 1647,
    "\u2581draw": 1648,
    "\u2581snack": 1649,
    "\u2581barrel": 1650,
    "\u2581banner": 1651,
    "iz": 1652,
    "\u2581knit": 1653,
    "\u2581sweep": 1654,
    "\u2581muzzle": 1655,
    "\u2581vegetable": 1656,
    "\u2581member": 1657,
    "\u2581stones": 1658,
    "\u2581W": 1659,
    "\u2581wrap": 1660,
    "\u2581tattoos": 1661,
    "\u2581na": 1662,
    "pped": 1663,
    "irthday": 1664,
    "\u2581thin": 1665,
    "stone": 1666,
    "\u2581bowls": 1667,
    "\u2581boxing": 1668,
    "\u2581hid": 1669,
    "ple": 1670,
    "\u2581shake": 1671,
    "\u2581branch": 1672,
    "\u2581Whi": 1673,
    "\u2581Middle": 1674,
    "\u2581gymnasium": 1675,
    "\u2581liquid": 1676,
    "\u2581unicycle": 1677,
    "\u2581library": 1678,
    "\u2581crane": 1679,
    "\u2581conference": 1680,
    "\u2581material": 1681,
    "\u2581similar": 1682,
    "\u2581furniture": 1683,
    "\u2581angel": 1684,
    "\u2581derby": 1685,
    "\u2581stairway": 1686,
    "\u2581BM": 1687,
    "\u2581dead": 1688,
    "\u2581intently": 1689,
    "\u2581partially": 1690,
    "\u2581greyhound": 1691,
    "\u2581nighttime": 1692,
    "\u2581dimly": 1693,
    "\u2581castle": 1694,
    "\u2581calm": 1695,
    "ken": 1696,
    "\u2581barber": 1697,
    "\u2581tower": 1698,
    "\u2581bass": 1699,
    "\u2581cast": 1700,
    "\u2581tend": 1701,
    "\u2581moped": 1702,
    "\u2581space": 1703,
    "\u2581pigeons": 1704,
    "\u2581tied": 1705,
    "\u2581trailer": 1706,
    "\u2581tackle": 1707,
    "\u2581pret": 1708,
    "\u2581h": 1709,
    "\u2581candles": 1710,
    "\u2581lounge": 1711,
    "\u2581listens": 1712,
    "\u2581following": 1713,
    "\u2581ho": 1714,
    "\u2581cape": 1715,
    "rs": 1716,
    "l": 1717,
    "ie": 1718,
    "\u2581su": 1719,
    "\u2581focus": 1720,
    "stern": 1721,
    "\u2581N": 1722,
    "\u2581rais": 1723,
    "\u2581la": 1724,
    "\u2581control": 1725,
    "\u2581act": 1726,
    "\u2581balding": 1727,
    "\u2581wheels": 1728,
    "\u2581spoon": 1729,
    "\u2581admir": 1730,
    "\u2581bars": 1731,
    "\u2581electronic": 1732,
    "\u2581headband": 1733,
    "\u2581horn": 1734,
    "\u2581elephant": 1735,
    "\u2581ribbon": 1736,
    "\u2581necklace": 1737,
    "\u2581teammate": 1738,
    "\u2581po": 1739,
    "\u2581Girls": 1740,
    "\u2581share": 1741,
    "\u2581loung": 1742,
    "\u2581pieces": 1743,
    "sleeve": 1744,
    "ial": 1745,
    "uses": 1746,
    "\u2581colle": 1747,
    "\u2581microphones": 1748,
    "\u2581contain": 1749,
    "\u2581doors": 1750,
    "neath": 1751,
    "\u2581visit": 1752,
    "\u2581corn": 1753,
    "ake": 1754,
    "\u2581advertising": 1755,
    "\u2581jewelry": 1756,
    "\u2581mobile": 1757,
    "\u2581modern": 1758,
    "\u2581stomach": 1759,
    "\u2581learn": 1760,
    "\u2581rainbow": 1761,
    "\u2581wild": 1762,
    "\u2581billboard": 1763,
    "\u2581chew": 1764,
    "\u2581converse": 1765,
    "\u2581return": 1766,
    "\u2581television": 1767,
    "\u2581lick": 1768,
    "\u2581flute": 1769,
    "\u2581bundle": 1770,
    "\u2581exit": 1771,
    "\u2581peek": 1772,
    "\u2581tee": 1773,
    "\u2581forward": 1774,
    "\u2581observing": 1775,
    "\u2581fireman": 1776,
    "\u2581theater": 1777,
    "\u2581called": 1778,
    "\u2581far": 1779,
    "\u2581crosses": 1780,
    "\u2581got": 1781,
    "\u2581pine": 1782,
    "ggy": 1783,
    "\u2581catcher": 1784,
    "it": 1785,
    "\u2581follows": 1786,
    "led": 1787,
    "\u2581guitars": 1788,
    "ary": 1789,
    "\u2581computers": 1790,
    "able": 1791,
    "\u2581engage": 1792,
    "\u2581viewing": 1793,
    "\u2581directions": 1794,
    "ity": 1795,
    "ate": 1796,
    "\u2581shades": 1797,
    "\u2581hoops": 1798,
    "\u2581objects": 1799,
    "\u2581surrounding": 1800,
    "\u2581follow": 1801,
    "\u2581lin": 1802,
    "\u2581plates": 1803,
    "ite": 1804,
    "\u2581tug": 1805,
    "\u2581ex": 1806,
    "\u2581gift": 1807,
    "\u2581feather": 1808,
    "\u2581camel": 1809,
    "\u2581sprinkler": 1810,
    "\u2581pillow": 1811,
    "\u2581passenger": 1812,
    "\u2581ethnic": 1813,
    "\u2581trunk": 1814,
    "\u2581We": 1815,
    "ant": 1816,
    "\u2581apple": 1817,
    "\u2581size": 1818,
    "\u2581turns": 1819,
    "b": 1820,
    "\u2581operate": 1821,
    "ying": 1822,
    "\u2581nets": 1823,
    "\u2581whil": 1824,
    "\u2581shovels": 1825,
    "\u2581stor": 1826,
    "\u2581bik": 1827,
    "\u2581excited": 1828,
    "\u2581patch": 1829,
    "\u2581cool": 1830,
    "one": 1831,
    "occer": 1832,
    "\u2581fur": 1833,
    "\u2581hike": 1834,
    "\u2581drag": 1835,
    "\u2581Multip": 1836,
    "\u2581consist": 1837,
    "\u2581Caucasian": 1838,
    "\u2581Cheerleaders": 1839,
    "\u2581London": 1840,
    "\u2581scoop": 1841,
    "\u2581wheelbarrow": 1842,
    "\u2581engine": 1843,
    "\u2581steel": 1844,
    "\u2581job": 1845,
    "\u2581fisherman": 1846,
    "\u2581weaving": 1847,
    "\u2581terrain": 1848,
    "\u2581ponytail": 1849,
    "\u2581fetch": 1850,
    "\u2581airborne": 1851,
    "\u2581pizza": 1852,
    "\u2581formation": 1853,
    "\u2581slightly": 1854,
    "\u2581poor": 1855,
    "\u2581aisle": 1856,
    "\u2581kilt": 1857,
    "\u2581downtown": 1858,
    "\u2581pottery": 1859,
    "\u2581dough": 1860,
    "\u2581closeup": 1861,
    "\u2581binoculars": 1862,
    "\u2581nature": 1863,
    "\u2581complete": 1864,
    "\u2581lines": 1865,
    "\u2581Students": 1866,
    "\u2581teen": 1867,
    "\u2581brows": 1868,
    "lar": 1869,
    "\u2581beat": 1870,
    "ious": 1871,
    "\u2581photographed": 1872,
    "ky": 1873,
    "\u2581tourists": 1874,
    "\u2581teach": 1875,
    "\u2581protesting": 1876,
    "\u2581was": 1877,
    "\u2581tur": 1878,
    "\u2581repairs": 1879,
    "il": 1880,
    "\u2581tin": 1881,
    "\u2581City": 1882,
    "\u2581fashion": 1883,
    "\u2581camp": 1884,
    "\u2581guns": 1885,
    "\u2581chefs": 1886,
    "re": 1887,
    "ance": 1888,
    "anie": 1889,
    "\u2581photos": 1890,
    "\u2581co": 1891,
    "\u2581jet": 1892,
    "\u2581hug": 1893,
    "\u2581ha": 1894,
    "lies": 1895,
    "\u2581barrier": 1896,
    "\u2581shadow": 1897,
    "\u2581customer": 1898,
    "\u2581official": 1899,
    "weight": 1900,
    "\u2581entertain": 1901,
    "ur": 1902,
    "cular": 1903,
    "\u2581sh": 1904,
    "ation": 1905,
    "\u2581ea": 1906,
    "\u2581bounc": 1907,
    "\u2581papers": 1908,
    "\u2581tea": 1909,
    "\u2581exhibit": 1910,
    "science": 1911,
    "\u2581burgundy": 1912,
    "\u2581debris": 1913,
    "\u2581groceries": 1914,
    "\u2581rickshaw": 1915,
    "\u2581sniff": 1916,
    "\u2581Elder": 1917,
    "\u2581Europe": 1918,
    "\u2581dusk": 1919,
    "\u2581trop": 1920,
    "\u2581chainsaw": 1921,
    "\u2581crawl": 1922,
    "\u2581loom": 1923,
    "\u2581mug": 1924,
    "\u2581spotted": 1925,
    "if": 1926,
    "\u2581dunk": 1927,
    "\u2581lecture": 1928,
    "\u2581score": 1929,
    "\u2581attention": 1930,
    "\u2581telephone": 1931,
    "\u2581factory": 1932,
    "\u2581wings": 1933,
    "\u2581coaster": 1934,
    "\u2581sneakers": 1935,
    "\u2581bleachers": 1936,
    "\u2581tape": 1937,
    "\u2581movie": 1938,
    "\u2581waterfront": 1939,
    "\u2581overhead": 1940,
    "\u2581ceremony": 1941,
    "\u2581bound": 1942,
    "\u2581pay": 1943,
    "\u2581messy": 1944,
    "\u2581flu": 1945,
    "\u2581oven": 1946,
    "\u2581studying": 1947,
    "\u2581waterway": 1948,
    "\u2581dis": 1949,
    "\u2581lower": 1950,
    "\u2581praying": 1951,
    "\u2581tents": 1952,
    "\u2581Mi": 1953,
    "ling": 1954,
    "\u2581gestures": 1955,
    "\u2581eggs": 1956,
    "\u2581firefighters": 1957,
    "\u2581meeting": 1958,
    "\u2581create": 1959,
    "om": 1960,
    "\u2581swimmers": 1961,
    "\u2581bra": 1962,
    "\u2581vari": 1963,
    "\u2581careful": 1964,
    "ar": 1965,
    "\u2581protecti": 1966,
    "\u2581landing": 1967,
    "\u2581burn": 1968,
    "\u2581observes": 1969,
    "ke": 1970,
    "\u2581real": 1971,
    "ted": 1972,
    "\u2581machines": 1973,
    "\u2581strap": 1974,
    "\u2581laptops": 1975,
    "\u2581tires": 1976,
    "\u2581listen": 1977,
    "\u2581houses": 1978,
    "\u2581funn": 1979,
    "p": 1980,
    "\u2581exercise": 1981,
    "\u2581target": 1982,
    "\u2581snowsuit": 1983,
    "\u2581training": 1984,
    "\u2581flips": 1985,
    "\u2581boulder": 1986,
    "\u2581chicken": 1987,
    "\u2581suitcase": 1988,
    "\u2581meet": 1989,
    "\u2581begin": 1990,
    "\u2581scaffold": 1991,
    "\u2581tourist": 1992,
    "\u2581backs": 1993,
    "\u2581shops": 1994,
    "lit": 1995,
    "D": 1996,
    "made": 1997,
    "wood": 1998,
    "\u2581chopp": 1999,
    "at": 2000,
    "\u2581spin": 2001,
    "\u2581juggle": 2002,
    "\u2581process": 2003,
    "\u2581descend": 2004,
    "\u2581stoop": 2005,
    "\u2581Female": 2006,
    "\u2581backdrop": 2007,
    "\u2581bamboo": 2008,
    "\u2581banjo": 2009,
    "\u2581experiment": 2010,
    "\u2581knife": 2011,
    "\u2581merchandise": 2012,
    "\u2581monument": 2013,
    "\u2581poodle": 2014,
    "\u2581second": 2015,
    "\u2581umpire": 2016,
    "\u2581unique": 2017,
    "\u2581yoga": 2018,
    "quoi": 2019,
    "\u2581China": 2020,
    "\u2581trolley": 2021,
    "\u2581celebration": 2022,
    "\u2581juice": 2023,
    "\u2581blood": 2024,
    "\u2581lacrosse": 2025,
    "\u2581sailboat": 2026,
    "\u2581emergency": 2027,
    "\u2581semi": 2028,
    "\u2581brother": 2029,
    "\u2581motion": 2030,
    "\u2581forehead": 2031,
    "\u2581soap": 2032,
    "\u2581chess": 2033,
    "\u2581eight": 2034,
    "\u2581clapping": 2035,
    "\u2581location": 2036,
    "\u2581paperwork": 2037,
    "\u2581wheelie": 2038,
    "\u2581hotel": 2039,
    "\u2581alleyway": 2040,
    "\u2581countryside": 2041,
    "\u2581teal": 2042,
    "\u2581Police": 2043,
    "\u2581world": 2044,
    "\u2581strange": 2045,
    "\u2581mow": 2046,
    "\u2581firemen": 2047,
    "\u2581label": 2048,
    "\u2581It": 2049,
    "\u2581case": 2050,
    "\u2581pigtails": 2051,
    "\u2581wares": 2052,
    "\u2581mower": 2053,
    "\u2581Bear": 2054,
    "\u2581cups": 2055,
    "\u2581bystanders": 2056,
    "\u2581link": 2057,
    "\u2581gymnastics": 2058,
    "\u2581creat": 2059,
    "\u2581bagpipes": 2060,
    "\u2581stare": 2061,
    "\u2581securi": 2062,
    "\u2581Red": 2063,
    "\u2581rust": 2064,
    "\u2581shadows": 2065,
    "\u2581Arm": 2066,
    "\u2581pillows": 2067,
    "\u2581incline": 2068,
    "\u2581caps": 2069,
    "\u2581paddles": 2070,
    "\u2581cr": 2071,
    "\u2581beverages": 2072,
    "\u2581wires": 2073,
    "\u2581featur": 2074,
    "ll": 2075,
    "ging": 2076,
    "ily": 2077,
    "\u2581shower": 2078,
    "\u2581knees": 2079,
    "\u2581performers": 2080,
    "tical": 2081,
    "\u2581sha": 2082,
    "us": 2083,
    "T": 2084,
    "ton": 2085,
    "\u2581me": 2086,
    "ated": 2087,
    "\u2581scooters": 2088,
    "\u2581diver": 2089,
    "\u2581menu": 2090,
    "\u2581aim": 2091,
    "\u2581soda": 2092,
    "\u2581rod": 2093,
    "ohn": 2094,
    "\u2581fell": 2095,
    "\u2581tricycle": 2096,
    "\u2581trip": 2097,
    "\u2581hut": 2098,
    "\u2581tackl": 2099,
    "\u2581celebrate": 2100,
    "\u2581parachute": 2101,
    "\u2581cheek": 2102,
    "\u2581tray": 2103,
    "\u2581firefighter": 2104,
    "\u2581arch": 2105,
    "\u2581rollerskat": 2106,
    "\u2581reflect": 2107,
    "\u2581blankets": 2108,
    "com": 2109,
    "\u2581bu": 2110,
    "style": 2111,
    "American": 2112,
    "\u2581newspapers": 2113,
    "\u2581typ": 2114,
    "\u2581weather": 2115,
    "\u2581vendors": 2116,
    "\u2581coast": 2117,
    "rench": 2118,
    "and": 2119,
    "\u2581comfort": 2120,
    "\u2581aqua": 2121,
    "\u2581medium": 2122,
    "\u2581auditorium": 2123,
    "\u2581butcher": 2124,
    "\u2581christmas": 2125,
    "\u2581laundromat": 2126,
    "\u2581rapids": 2127,
    "\u2581separate": 2128,
    "\u2581unusual": 2129,
    "\u2581yarn": 2130,
    "\u2581arcade": 2131,
    "\u2581salon": 2132,
    "\u2581cheese": 2133,
    "\u2581huddle": 2134,
    "\u2581surgery": 2135,
    "\u2581puppies": 2136,
    "\u2581supplies": 2137,
    "\u2581rice": 2138,
    "\u2581expression": 2139,
    "\u2581underwear": 2140,
    "\u2581grand": 2141,
    "\u2581suspenders": 2142,
    "\u2581cello": 2143,
    "\u2581stall": 2144,
    "\u2581chalkboard": 2145,
    "\u2581chatting": 2146,
    "\u2581descent": 2147,
    "\u2581lens": 2148,
    "\u2581handrail": 2149,
    "\u2581sunlight": 2150,
    "\u2581shoreline": 2151,
    "\u2581visible": 2152,
    "\u2581homeless": 2153,
    "\u2581test": 2154,
    "\u2581bank": 2155,
    "\u2581highway": 2156,
    "\u2581Runners": 2157,
    "\u2581joy": 2158,
    "\u2581guide": 2159,
    "tered": 2160,
    "\u2581rollerblading": 2161,
    "\u2581screaming": 2162,
    "\u2581ador": 2163,
    "\u2581snowshoes": 2164,
    "\u2581range": 2165,
    "\u2581folded": 2166,
    "\u2581ballet": 2167,
    "\u2581bush": 2168,
    "war": 2169,
    "\u2581closely": 2170,
    "\u2581stir": 2171,
    "\u2581single": 2172,
    "\u2581larger": 2173,
    "\u2581carve": 2174,
    "\u2581Blu": 2175,
    "\u2581tights": 2176,
    "\u2581furr": 2177,
    "\u2581pre": 2178,
    "\u2581skaters": 2179,
    "\u2581stepp": 2180,
    "E": 2181,
    "\u2581mus": 2182,
    "\u2581thumbs": 2183,
    "\u2581lifted": 2184,
    "\u2581camping": 2185,
    "\u2581motorcyclists": 2186,
    "\u2581crossed": 2187,
    "uck": 2188,
    "\u2581ja": 2189,
    "ried": 2190,
    "\u2581en": 2191,
    "\u2581magazines": 2192,
    "\u2581spike": 2193,
    "\u2581swimsuits": 2194,
    "\u2581khakis": 2195,
    "\u2581dad": 2196,
    "ig": 2197,
    "\u2581logs": 2198,
    "\u2581lighted": 2199,
    "\u2581offer": 2200,
    "ab": 2201,
    "nel": 2202,
    "cial": 2203,
    "\u2581athletes": 2204,
    "\u2581ma": 2205,
    "\u2581floats": 2206,
    "ender": 2207,
    "\u2581sta": 2208,
    "\u2581flor": 2209,
    "\u2581mark": 2210,
    "rimmed": 2211,
    "\u2581bras": 2212,
    "\u2581l": 2213,
    "\u2581trib": 2214,
    "\u2581heavi": 2215,
    "\u2581skiers": 2216,
    "\u2581squat": 2217,
    "\u2581watched": 2218,
    "\u2581chin": 2219,
    "\u2581cree": 2220,
    "\u2581news": 2221,
    "\u2581support": 2222,
    "\u2581cage": 2223,
    "\u2581leotard": 2224,
    "\u2581portrait": 2225,
    "\u2581ticket": 2226,
    "\u2581treat": 2227,
    "\u2581service": 2228,
    "\u2581vacuum": 2229,
    "\u2581padd": 2230,
    "\u2581march": 2231,
    "\u2581hotdog": 2232,
    "\u2581goat": 2233,
    "\u2581thumb": 2234,
    "\u2581monitor": 2235,
    "\u2581egg": 2236,
    "\u2581candle": 2237,
    "\u2581skater": 2238,
    "\u2581upward": 2239,
    "\u2581even": 2240,
    "ally": 2241,
    "\u2581gaze": 2242,
    "of": 2243,
    "\u2581punch": 2244,
    "land": 2245,
    "\u2581gathers": 2246,
    "\u2581cans": 2247,
    "\u2581races": 2248,
    "ched": 2249,
    "ok": 2250,
    "\u2581cab": 2251,
    "\u2581da": 2252,
    "\u2581await": 2253,
    "hepherd": 2254,
    "pectators": 2255,
    "edestrians": 2256,
    "\u2581apart": 2257,
    "\u2581headdress": 2258,
    "\u2581torch": 2259,
    "loseup": 2260,
    "\u2581sculpt": 2261,
    "\u2581Couple": 2262,
    "\u2581Square": 2263,
    "\u2581activity": 2264,
    "\u2581bouquet": 2265,
    "\u2581canvas": 2266,
    "\u2581contraption": 2267,
    "\u2581embracing": 2268,
    "\u2581gallery": 2269,
    "\u2581senior": 2270,
    "\u2581workshop": 2271,
    "\u2581frozen": 2272,
    "\u2581quarterback": 2273,
    "\u2581tutu": 2274,
    "\u2581leggings": 2275,
    "\u2581valley": 2276,
    "\u2581earphones": 2277,
    "\u2581lobby": 2278,
    "\u2581trashcan": 2279,
    "\u2581monkey": 2280,
    "\u2581snap": 2281,
    "\u2581passersby": 2282,
    "\u2581tripod": 2283,
    "\u2581transportation": 2284,
    "\u2581sideways": 2285,
    "\u2581staff": 2286,
    "\u2581highchair": 2287,
    "\u2581blazer": 2288,
    "\u2581stilts": 2289,
    "\u2581dumpster": 2290,
    "\u2581pedal": 2291,
    "\u2581spotlight": 2292,
    "\u2581facility": 2293,
    "\u2581driveway": 2294,
    "\u2581Band": 2295,
    "\u2581rally": 2296,
    "\u2581maneuver": 2297,
    "\u2581section": 2298,
    "\u2581quickly": 2299,
    "\u2581injured": 2300,
    "\u2581collect": 2301,
    "\u2581rooftop": 2302,
    "\u2581branches": 2303,
    "\u2581than": 2304,
    "\u2581venue": 2305,
    "\u2581approaches": 2306,
    "\u2581Lot": 2307,
    "\u2581done": 2308,
    "\u2581roadside": 2309,
    "\u2581pl": 2310,
    "\u2581Asia": 2311,
    "\u2581workout": 2312,
    "\u2581scarves": 2313,
    "\u2581mess": 2314,
    "\u2581Player": 2315,
    "\u2581rag": 2316,
    "\u2581artwork": 2317,
    "\u2581my": 2318,
    "\u2581interesting": 2319,
    "\u2581picks": 2320,
    "\u2581Easter": 2321,
    "ten": 2322,
    "\u2581power": 2323,
    "\u2581bricks": 2324,
    "\u2581navigate": 2325,
    "\u2581tail": 2326,
    "\u2581painter": 2327,
    "\u2581battl": 2328,
    "\u2581Olympics": 2329,
    "\u2581reflecti": 2330,
    "\u2581Canad": 2331,
    "\u2581strike": 2332,
    "\u2581products": 2333,
    "\u2581washer": 2334,
    "\u2581gazes": 2335,
    "\u2581sprayed": 2336,
    "\u2581cowboys": 2337,
    "ron": 2338,
    "\u2581cute": 2339,
    "ap": 2340,
    "\u2581autumn": 2341,
    "\u2581carts": 2342,
    "\u2581belts": 2343,
    "tter": 2344,
    "\u2581Mar": 2345,
    "\u2581divers": 2346,
    "rying": 2347,
    "ine": 2348,
    "\u2581racers": 2349,
    "\u2581handle": 2350,
    "\u2581str": 2351,
    "\u2581splash": 2352,
    "bing": 2353,
    "\u2581ba": 2354,
    "\u2581press": 2355,
    "\u2581pins": 2356,
    "\u2581comm": 2357,
    "\u2581rafting": 2358,
    "tage": 2359,
    "\u2581pots": 2360,
    "\u2581cards": 2361,
    "ce": 2362,
    "wed": 2363,
    "\u2581kayaking": 2364,
    "\u2581va": 2365,
    "\u2581bicycl": 2366,
    "\u2581yo": 2367,
    "ence": 2368,
    "\u2581fo": 2369,
    "ack": 2370,
    "\u2581k": 2371,
    "\u2581classic": 2372,
    "im": 2373,
    "\u2581rifle": 2374,
    "\u2581reflection": 2375,
    "\u2581sweat": 2376,
    "ear": 2377,
    "ude": 2378,
    "\u2581pumpkin": 2379,
    "\u2581engag": 2380,
    "\u2581wig": 2381,
    "\u2581task": 2382,
    "\u2581pale": 2383,
    "\u2581spot": 2384,
    "\u2581product": 2385,
    "\u2581tight": 2386,
    "\u2581turban": 2387,
    "\u2581crash": 2388,
    "\u2581fla": 2389,
    "\u2581shad": 2390,
    "\u2581drop": 2391,
    "\u2581circu": 2392,
    "body": 2393,
    "striped": 2394,
    "most": 2395,
    "mic": 2396,
    "\u2581win": 2397,
    "\u2581sw": 2398,
    "\u2581own": 2399,
    "\u2581gaz": 2400,
    "\u2581scen": 2401,
    "aking": 2402,
    "\u2581displays": 2403,
    "hind": 2404,
    "miling": 2405,
    "\u2581contest": 2406,
    "\u2581horizon": 2407,
    "\u2581mechanic": 2408,
    "\u2581unhappy": 2409,
    "\u2581School": 2410,
    "\u2581Skateboarder": 2411,
    "\u2581afternoon": 2412,
    "\u2581bathtub": 2413,
    "\u2581breakdancing": 2414,
    "\u2581built": 2415,
    "\u2581caucasian": 2416,
    "\u2581chocolate": 2417,
    "\u2581chopsticks": 2418,
    "\u2581congregate": 2419,
    "\u2581foliage": 2420,
    "\u2581gesturing": 2421,
    "\u2581pinata": 2422,
    "\u2581shawl": 2423,
    "\u2581smooth": 2424,
    "\u2581squeez": 2425,
    "\u2581synchroniz": 2426,
    "\u2581cannon": 2427,
    "\u2581illuminat": 2428,
    "\u2581lasso": 2429,
    "\u2581morning": 2430,
    "\u2581cherry": 2431,
    "\u2581industr": 2432,
    "\u2581numer": 2433,
    "\u2581helicopter": 2434,
    "\u2581border": 2435,
    "\u2581sparring": 2436,
    "\u2581every": 2437,
    "\u2581pencil": 2438,
    "\u2581unload": 2439,
    "\u2581Hockey": 2440,
    "\u2581stump": 2441,
    "\u2581riot": 2442,
    "\u2581raincoat": 2443,
    "\u2581grasp": 2444,
    "\u2581bedroom": 2445,
    "\u2581beret": 2446,
    "\u2581pretend": 2447,
    "\u2581waist": 2448,
    "\u2581monk": 2449,
    "\u2581rollerblades": 2450,
    "\u2581icy": 2451,
    "\u2581cott": 2452,
    "\u2581butterfly": 2453,
    "\u2581pilot": 2454,
    "\u2581letter": 2455,
    "\u2581cave": 2456,
    "\u2581want": 2457,
    "awaii": 2458,
    "\u2581Shepherd": 2459,
    "\u2581sad": 2460,
    "\u2581content": 2461,
    "\u2581pathway": 2462,
    "\u2581trench": 2463,
    "\u2581belongings": 2464,
    "\u2581decorations": 2465,
    "ital": 2466,
    "\u2581miss": 2467,
    "\u2581checkers": 2468,
    "\u2581hook": 2469,
    "\u2581braid": 2470,
    "ded": 2471,
    "\u2581He": 2472,
    "\u2581brushes": 2473,
    "\u2581think": 2474,
    "\u2581parasailing": 2475,
    "op": 2476,
    "\u2581plain": 2477,
    "\u2581fishes": 2478,
    "\u2581acrobatic": 2479,
    "\u2581scouts": 2480,
    "\u2581pads": 2481,
    "\u2581writes": 2482,
    "\u2581mur": 2483,
    "dults": 2484,
    "\u2581jogs": 2485,
    "F": 2486,
    "\u2581crates": 2487,
    "\u2581waiter": 2488,
    "\u2581parents": 2489,
    "\u2581jumper": 2490,
    "ened": 2491,
    "ro": 2492,
    "\u2581She": 2493,
    "\u2581ro": 2494,
    "\u2581scale": 2495,
    "\u2581begins": 2496,
    "\u2581locat": 2497,
    "\u2581scrap": 2498,
    "\u2581numbers": 2499,
    "ered": 2500,
    "\u2581package": 2501,
    "\u2581displayed": 2502,
    "\u2581Nat": 2503,
    "ather": 2504,
    "ohawk": 2505,
    "\u2581ducks": 2506,
    "\u2581late": 2507,
    "\u2581played": 2508,
    "\u2581designs": 2509,
    "\u2581types": 2510,
    "tti": 2511,
    "ster": 2512,
    "\u2581rings": 2513,
    "\u2581booths": 2514,
    "h": 2515,
    "\u2581curve": 2516,
    "\u2581appl": 2517,
    "\u2581cameras": 2518,
    "rd": 2519,
    "ter": 2520,
    "ick": 2521,
    "\u2581clouds": 2522,
    "ex": 2523,
    "aby": 2524,
    "\u2581dot": 2525,
    "ung": 2526,
    "\u2581tow": 2527,
    "\u2581port": 2528,
    "\u2581us": 2529,
    "\u2581lad": 2530,
    "gie": 2531,
    "\u2581skinn": 2532,
    "otted": 2533,
    "\u2581i": 2534,
    "\u2581ca": 2535,
    "\u2581Ra": 2536,
    "light": 2537,
    "nny": 2538,
    "f": 2539,
    "ocal": 2540,
    "\u2581say": 2541,
    "\u2581sleep": 2542,
    "ard": 2543,
    "house": 2544,
    "\u2581boards": 2545,
    "\u2581call": 2546,
    "\u2581diner": 2547,
    "\u2581human": 2548,
    "\u2581wakeboard": 2549,
    "\u2581pocket": 2550,
    "\u2581notebook": 2551,
    "\u2581bo": 2552,
    "\u2581dump": 2553,
    "\u2581rug": 2554,
    "\u2581gown": 2555,
    "\u2581column": 2556,
    "\u2581Olympic": 2557,
    "\u2581gesture": 2558,
    "\u2581receive": 2559,
    "\u2581nail": 2560,
    "\u2581speaker": 2561,
    "P": 2562,
    "\u2581Car": 2563,
    "dress": 2564,
    "\u2581vin": 2565,
    "mount": 2566,
    "cause": 2567,
    "\u2581writ": 2568,
    "green": 2569,
    "paved": 2570,
    "\u2581harvest": 2571,
    "\u2581measur": 2572,
    "ature": 2573,
    "pard": 2574,
    "\u2581potato": 2575,
    "\u2581India": 2576,
    "irefighters": 2577,
    "\u2581clut": 2578,
    "\u2581Mexic": 2579,
    "\u2581rack": 2580,
    "\u2581complex": 2581,
    "\u2581tarp": 2582,
    "\u2581aquarium": 2583,
    "\u2581chisel": 2584,
    "\u2581cycling": 2585,
    "\u2581destination": 2586,
    "\u2581dinosaur": 2587,
    "\u2581elaborate": 2588,
    "\u2581hammock": 2589,
    "\u2581harmonica": 2590,
    "\u2581mannequin": 2591,
    "\u2581register": 2592,
    "\u2581toothbrush": 2593,
    "\u2581treadmill": 2594,
    "\u2581vibrant": 2595,
    "\u2581victory": 2596,
    "\u2581warehouse": 2597,
    "\u2581xylophone": 2598,
    "\u2581accident": 2599,
    "\u2581connect": 2600,
    "\u2581laboratory": 2601,
    "\u2581marble": 2602,
    "\u2581powder": 2603,
    "\u2581sample": 2604,
    "\u2581tuxedo": 2605,
    "\u2581babies": 2606,
    "\u2581find": 2607,
    "\u2581greet": 2608,
    "\u2581jeep": 2609,
    "\u2581envi": 2610,
    "\u2581cigar": 2611,
    "\u2581religious": 2612,
    "\u2581scrubs": 2613,
    "\u2581campfire": 2614,
    "\u2581easel": 2615,
    "\u2581Yellow": 2616,
    "\u2581establishment": 2617,
    "\u2581maintenance": 2618,
    "\u2581hydrant": 2619,
    "\u2581turtle": 2620,
    "\u2581surg": 2621,
    "\u2581NY": 2622,
    "\u2581conductor": 2623,
    "\u2581ATM": 2624,
    "\u2581Look": 2625,
    "\u2581year": 2626,
    "\u2581Brit": 2627,
    "\u2581tournament": 2628,
    "\u2581tracksuit": 2629,
    "\u2581turkey": 2630,
    "\u2581yell": 2631,
    "\u2581mohawk": 2632,
    "\u2581Musician": 2633,
    "\u2581compan": 2634,
    "\u2581rake": 2635,
    "\u2581lion": 2636,
    "\u2581stance": 2637,
    "\u2581America": 2638,
    "\u2581split": 2639,
    "\u2581underground": 2640,
    "\u2581Spanish": 2641,
    "\u2581bib": 2642,
    "\u2581abandoned": 2643,
    "\u2581cries": 2644,
    "\u2581shout": 2645,
    "\u2581daytime": 2646,
    "\u2581bowtie": 2647,
    "\u2581State": 2648,
    "\u2581projector": 2649,
    "\u2581vend": 2650,
    "\u2581pony": 2651,
    "\u2581flock": 2652,
    "\u2581stretches": 2653,
    "\u2581sledding": 2654,
    "league": 2655,
    "\u2581plank": 2656,
    "\u2581Elmo": 2657,
    "\u2581tell": 2658,
    "\u2581flat": 2659,
    "\u2581rush": 2660,
    "\u2581carrier": 2661,
    "\u2581cheerlead": 2662,
    "\u2581flame": 2663,
    "\u2581logo": 2664,
    "\u2581shoppers": 2665,
    "\u2581Texas": 2666,
    "Bo": 2667,
    "\u2581sari": 2668,
    "\u2581company": 2669,
    "\u2581waterskiing": 2670,
    "\u2581bad": 2671,
    "\u2581upset": 2672,
    "\u2581pause": 2673,
    "\u2581explor": 2674,
    "\u2581mixer": 2675,
    "ctors": 2676,
    "\u2581our": 2677,
    "\u2581indian": 2678,
    "\u2581aprons": 2679,
    "\u2581purchase": 2680,
    "\u2581skies": 2681,
    "den": 2682,
    "\u2581stay": 2683,
    "\u2581beads": 2684,
    "\u2581judges": 2685,
    "\u2581canal": 2686,
    "\u2581owner": 2687,
    "\u2581Time": 2688,
    "\u2581crayons": 2689,
    "\u2581lips": 2690,
    "\u2581tackled": 2691,
    "\u2581notes": 2692,
    "\u2581camper": 2693,
    "ress": 2694,
    "\u2581cre": 2695,
    "other": 2696,
    "\u2581skills": 2697,
    "\u2581nurses": 2698,
    "\u2581tour": 2699,
    "\u2581columns": 2700,
    "erous": 2701,
    "\u2581crashing": 2702,
    "\u2581ver": 2703,
    "\u2581le": 2704,
    "\u2581arrow": 2705,
    "ift": 2706,
    "\u2581suck": 2707,
    "\u2581lighting": 2708,
    "tery": 2709,
    "\u2581wade": 2710,
    "\u2581trucks": 2711,
    "\u2581hun": 2712,
    "io": 2713,
    "\u2581organiz": 2714,
    "ri": 2715,
    "\u2581teammates": 2716,
    "\u2581banners": 2717,
    "\u2581sp": 2718,
    "\u2581tags": 2719,
    "ular": 2720,
    "round": 2721,
    "ator": 2722,
    "\u2581peers": 2723,
    "\u2581too": 2724,
    "\u2581washe": 2725,
    "ry": 2726,
    "fashioned": 2727,
    "\u2581sl": 2728,
    "size": 2729,
    "\u2581Bu": 2730,
    "\u2581secur": 2731,
    "\u2581ra": 2732,
    "v": 2733,
    "\u2581fog": 2734,
    "unk": 2735,
    "sh": 2736,
    "\u2581fry": 2737,
    "O": 2738,
    "\u2581gardening": 2739,
    "ugging": 2740,
    "\u2581stretch": 2741,
    "ma": 2742,
    "ef": 2743,
    "partment": 2744,
    "ize": 2745,
    "\u2581clowns": 2746,
    "\u2581canoes": 2747,
    "\u2581feature": 2748,
    "\u2581Num": 2749,
    "\u2581tri": 2750,
    "\u2581spr": 2751,
    "\u2581pal": 2752,
    "per": 2753,
    "\u2581spik": 2754,
    "\u2581varie": 2755,
    "\u2581depart": 2756,
    "\u2581squa": 2757,
    "ade": 2758,
    "do": 2759,
    "\u2581bi": 2760,
    "\u2581Bo": 2761,
    "\u2581La": 2762,
    "\u2581games": 2763,
    "B": 2764,
    "\u2581purses": 2765,
    "\u2581sunbath": 2766,
    "\u2581launch": 2767,
    "set": 2768,
    "hoe": 2769,
    "\u2581remov": 2770,
    "\u2581season": 2771,
    "\u2581strik": 2772,
    "\u2581masks": 2773,
    "\u2581twirl": 2774,
    "day": 2775,
    "val": 2776,
    "\u2581pirate": 2777,
    "\u2581defender": 2778,
    "red": 2779,
    "\u2581character": 2780,
    "\u2581employee": 2781,
    "\u2581crown": 2782,
    "\u2581nurse": 2783,
    "\u2581skill": 2784,
    "\u2581parent": 2785,
    "\u2581cheerleader": 2786,
    "\u2581capture": 2787,
    "W": 2788,
    "\u2581stripe": 2789,
    "redi": 2790,
    "ul": 2791,
    "\u2581complet": 2792,
    "vil": 2793,
    "ges": 2794,
    "\u2581boxer": 2795,
    "I": 2796,
    "N": 2797,
    "turn": 2798,
    "country": 2799,
    "camera": 2800,
    "cart": 2801,
    "mo": 2802,
    "shape": 2803,
    "\u2581mini": 2804,
    "\u2581crack": 2805,
    "\u2581sip": 2806,
    "rn": 2807,
    "\u2581colli": 2808,
    "\u2581weight": 2809,
    "\u2581quiet": 2810,
    "\u2581blurr": 2811,
    "\u2581sold": 2812,
    "\u2581weigh": 2813,
    "\u2581disc": 2814,
    "\u2581though": 2815,
    "\u2581confe": 2816,
    "\u2581instruct": 2817,
    "\u2581mitt": 2818,
    "\u2581select": 2819,
    "runette": 2820,
    "aseball": 2821,
    "\u2581mass": 2822,
    "ustomers": 2823,
    "\u2581equ": 2824,
    "\u2581transport": 2825,
    "embers": 2826,
    "enga": 2827,
    "\u2581Muslim": 2828,
    "\u2581Walmart": 2829,
    "\u2581activities": 2830,
    "\u2581bongo": 2831,
    "\u2581bulldozer": 2832,
    "\u2581cathedral": 2833,
    "\u2581dessert": 2834,
    "\u2581exercising": 2835,
    "\u2581extreme": 2836,
    "\u2581harbor": 2837,
    "\u2581mascot": 2838,
    "\u2581meadow": 2839,
    "\u2581parallel": 2840,
    "\u2581puppet": 2841,
    "\u2581pyramid": 2842,
    "\u2581reception": 2843,
    "\u2581seafood": 2844,
    "\u2581snorkel": 2845,
    "\u2581supermarket": 2846,
    "\u2581wilderness": 2847,
    "\u2581Sooner": 2848,
    "\u2581expans": 2849,
    "\u2581major": 2850,
    "\u2581slacks": 2851,
    "\u2581temple": 2852,
    "\u2581terminal": 2853,
    "\u2581videotap": 2854,
    "\u2581visor": 2855,
    "\u2581double": 2856,
    "\u2581embrace": 2857,
    "\u2581mattress": 2858,
    "\u2581tiger": 2859,
    "\u2581Coca": 2860,
    "\u2581fedora": 2861,
    "\u2581trophy": 2862,
    "\u2581backseat": 2863,
    "\u2581maybe": 2864,
    "\u2581resort": 2865,
    "\u2581casino": 2866,
    "\u2581citizen": 2867,
    "\u2581install": 2868,
    "\u2581miniature": 2869,
    "\u2581flow": 2870,
    "\u2581scientist": 2871,
    "\u2581buffet": 2872,
    "\u2581bodysuit": 2873,
    "\u2581nun": 2874,
    "\u2581Dark": 2875,
    "\u2581demonstration": 2876,
    "\u2581special": 2877,
    "\u2581mule": 2878,
    "\u2581paw": 2879,
    "\u2581tablecloth": 2880,
    "\u2581arrangement": 2881,
    "\u2581trotting": 2882,
    "\u2581hour": 2883,
    "\u2581oil": 2884,
    "\u2581main": 2885,
    "\u2581damage": 2886,
    "\u2581sunhat": 2887,
    "\u2581Food": 2888,
    "\u2581Star": 2889,
    "\u2581bump": 2890,
    "\u2581Protest": 2891,
    "\u2581clutch": 2892,
    "\u2581rustic": 2893,
    "\u2581woodland": 2894,
    "\u2581elevat": 2895,
    "\u2581historic": 2896,
    "\u2581oar": 2897,
    "\u2581shack": 2898,
    "\u2581skyline": 2899,
    "\u2581Cafe": 2900,
    "\u2581level": 2901,
    "\u2581transit": 2902,
    "\u2581broad": 2903,
    "avor": 2904,
    "\u2581somewhere": 2905,
    "\u2581care": 2906,
    "\u2581plow": 2907,
    "\u2581downhill": 2908,
    "\u2581marker": 2909,
    "\u2581fat": 2910,
    "\u2581polish": 2911,
    "\u2581soar": 2912,
    "endors": 2913,
    "\u2581crops": 2914,
    "\u2581skydiving": 2915,
    "\u2581starring": 2916,
    "\u2581lush": 2917,
    "\u2581mounted": 2918,
    "\u2581search": 2919,
    "\u2581jar": 2920,
    "\u2581rollerskates": 2921,
    "\u2581dryer": 2922,
    "Cola": 2923,
    "\u2581zip": 2924,
    "\u2581sidelines": 2925,
    "\u2581mountaintop": 2926,
    "\u2581scal": 2927,
    "\u2581fit": 2928,
    "\u2581kn": 2929,
    "right": 2930,
    "\u2581bounce": 2931,
    "\u2581topless": 2932,
    "\u2581drawn": 2933,
    "\u2581skim": 2934,
    "agged": 2935,
    "\u2581conducting": 2936,
    "\u2581flash": 2937,
    "\u2581dropp": 2938,
    "\u2581cameraman": 2939,
    "\u2581lanterns": 2940,
    "\u2581Tourists": 2941,
    "\u2581bananas": 2942,
    "\u2581watermelons": 2943,
    "\u2581vocal": 2944,
    "\u2581panel": 2945,
    "\u2581peaks": 2946,
    "skier": 2947,
    "try": 2948,
    "ort": 2949,
    "\u2581characters": 2950,
    "\u2581employees": 2951,
    "nnel": 2952,
    "\u2581dribble": 2953,
    "\u2581gi": 2954,
    "\u2581sides": 2955,
    "\u2581rid": 2956,
    "\u2581flee": 2957,
    "\u2581armor": 2958,
    "lot": 2959,
    "\u2581fro": 2960,
    "\u2581remove": 2961,
    "were": 2962,
    "\u2581monitors": 2963,
    "\u2581hotdogs": 2964,
    "\u2581punching": 2965,
    "\u2581vacuuming": 2966,
    "\u2581attracti": 2967,
    "\u2581cellphones": 2968,
    "\u2581upwards": 2969,
    "\u2581need": 2970,
    "\u2581con": 2971,
    "\u2581prepared": 2972,
    "ents": 2973,
    "\u2581force": 2974,
    "\u2581litter": 2975,
    "\u2581kisse": 2976,
    "\u2581camels": 2977,
    "\u2581colorfully": 2978,
    "\u2581necklaces": 2979,
    "\u2581snacks": 2980,
    "\u2581barrels": 2981,
    "aving": 2982,
    "\u2581dolls": 2983,
    "\u2581ordering": 2984,
    "uzz": 2985,
    "\u2581bake": 2986,
    "\u2581pans": 2987,
    "\u2581pops": 2988,
    "mint": 2989,
    "\u2581hills": 2990,
    "\u2581Y": 2991,
    "os": 2992,
    "\u2581lo": 2993,
    "\u2581advertisements": 2994,
    "\u2581drying": 2995,
    "\u2581inter": 2996,
    "\u2581award": 2997,
    "\u2581seating": 2998,
    "\u2581tap": 2999,
    "\u2581guards": 3000,
    "\u2581recline": 3001,
    "\u2581concentrate": 3002,
    "ac": 3003,
    "\u2581angle": 3004,
    "\u2581fountains": 3005,
    "\u2581strings": 3006,
    "ha": 3007,
    "\u2581crouch": 3008,
    "\u2581drap": 3009,
    "\u2581Arab": 3010,
    "\u2581ga": 3011,
    "lic": 3012,
    "\u2581sculptures": 3013,
    "lly": 3014,
    "\u2581shine": 3015,
    "hand": 3016,
    "nding": 3017,
    "ler": 3018,
    "ze": 3019,
    "\u2581build": 3020,
    "\u2581mu": 3021,
    "the": 3022,
    "erry": 3023,
    "\u2581slic": 3024,
    "zz": 3025,
    "\u2581artists": 3026,
    "ddy": 3027,
    "\u2581fork": 3028,
    "\u2581text": 3029,
    "\u2581app": 3030,
    "\u2581medi": 3031,
    "\u2581hear": 3032,
    "\u2581strip": 3033,
    "head": 3034,
    "\u2581sca": 3035,
    "hoop": 3036,
    "\u2581cont": 3037,
    "\u2581railings": 3038,
    "\u2581desks": 3039,
    "\u2581fa": 3040,
    "\u2581handbag": 3041,
    "\u2581briefcase": 3042,
    "\u2581skull": 3043,
    "\u2581ascend": 3044,
    "hose": 3045,
    "\u2581love": 3046,
    "\u2581musta": 3047,
    "\u2581accompani": 3048,
    "\u2581pillar": 3049,
    "\u2581lemon": 3050,
    "\u2581steer": 3051,
    "\u2581conveni": 3052,
    "\u2581McDonald": 3053,
    "\u2581weapon": 3054,
    "\u2581cable": 3055,
    "\u2581sc": 3056,
    "gle": 3057,
    "\u2581crate": 3058,
    "\u2581pigeon": 3059,
    "\u2581peak": 3060,
    "\u2581pray": 3061,
    "lime": 3062,
    "hole": 3063,
    "range": 3064,
    "air": 3065,
    "\u2581social": 3066,
    "\u2581slip": 3067,
    "\u2581stair": 3068,
    "ome": 3069,
    "storm": 3070,
    "\u2581Work": 3071,
    "held": 3072,
    "girl": 3073,
    "finish": 3074,
    "filled": 3075,
    "piece": 3076,
    "high": 3077,
    "cement": 3078,
    "five": 3079,
    "lad": 3080,
    "med": 3081,
    "\u2581chip": 3082,
    "mer": 3083,
    "\u2581poli": 3084,
    "\u2581interview": 3085,
    "eep": 3086,
    "dressed": 3087,
    "erie": 3088,
    "\u2581ceremon": 3089,
    "ami": 3090,
    "\u2581arriv": 3091,
    "oddler": 3092,
    "ennis": 3093,
    "\u2581trim": 3094,
    "\u2581tomato": 3095,
    "cient": 3096,
    "ootball": 3097,
    "eautiful": 3098,
    "SA": 3099,
    "\u2581Cowboy": 3100,
    "\u2581Legos": 3101,
    "\u2581Surfer": 3102,
    "\u2581alcohol": 3103,
    "\u2581breast": 3104,
    "\u2581breath": 3105,
    "\u2581brindle": 3106,
    "\u2581bronco": 3107,
    "\u2581clarinet": 3108,
    "\u2581cycle": 3109,
    "\u2581glacier": 3110,
    "\u2581information": 3111,
    "\u2581kiosk": 3112,
    "\u2581lipstick": 3113,
    "\u2581liquor": 3114,
    "\u2581magnif": 3115,
    "\u2581marsh": 3116,
    "\u2581nightclub": 3117,
    "\u2581ornament": 3118,
    "\u2581professor": 3119,
    "\u2581progress": 3120,
    "\u2581quad": 3121,
    "\u2581razor": 3122,
    "\u2581recreat": 3123,
    "\u2581relay": 3124,
    "\u2581scissors": 3125,
    "\u2581submerge": 3126,
    "\u2581symbol": 3127,
    "\u2581system": 3128,
    "\u2581civil": 3129,
    "\u2581enclos": 3130,
    "\u2581limb": 3131,
    "\u2581milk": 3132,
    "\u2581ravine": 3133,
    "\u2581spatula": 3134,
    "\u2581sunshine": 3135,
    "\u2581talent": 3136,
    "\u2581cell": 3137,
    "\u2581curious": 3138,
    "\u2581husband": 3139,
    "\u2581attack": 3140,
    "\u2581frown": 3141,
    "\u2581Subway": 3142,
    "\u2581accept": 3143,
    "\u2581scratch": 3144,
    "\u2581flaming": 3145,
    "\u2581Claus": 3146,
    "cept": 3147,
    "\u2581wonder": 3148,
    "\u2581chunk": 3149,
    "\u2581cash": 3150,
    "\u2581cardigan": 3151,
    "\u2581radio": 3152,
    "\u2581goatee": 3153,
    "\u2581pub": 3154,
    "\u2581seesaw": 3155,
    "\u2581operation": 3156,
    "\u2581clap": 3157,
    "\u2581haul": 3158,
    "\u2581assistant": 3159,
    "\u2581riverbank": 3160,
    "\u2581tunic": 3161,
    "\u2581cowgirl": 3162,
    "\u2581saddle": 3163,
    "\u2581badge": 3164,
    "\u2581suburb": 3165,
    "\u2581archway": 3166,
    "\u2581flood": 3167,
    "\u2581crab": 3168,
    "\u2581burger": 3169,
    "\u2581Dirt": 3170,
    "\u2581drain": 3171,
    "\u2581plush": 3172,
    "\u2581wineglasses": 3173,
    "\u2581chat": 3174,
    "\u2581Walk": 3175,
    "\u2581sound": 3176,
    "\u2581sharp": 3177,
    "\u2581Gray": 3178,
    "\u2581rise": 3179,
    "\u2581soup": 3180,
    "\u2581utili": 3181,
    "\u2581assembled": 3182,
    "\u2581sailor": 3183,
    "\u2581dragon": 3184,
    "\u2581tomatoes": 3185,
    "\u2581swan": 3186,
    "\u2581puff": 3187,
    "\u2581jo": 3188,
    "\u2581occup": 3189,
    "\u2581zone": 3190,
    "\u2581eager": 3191,
    "\u2581Green": 3192,
    "haps": 3193,
    "\u2581policemen": 3194,
    "\u2581antique": 3195,
    "\u2581snowball": 3196,
    "amily": 3197,
    "\u2581socializing": 3198,
    "\u2581bring": 3199,
    "\u2581mittens": 3200,
    "\u2581Bikers": 3201,
    "\u2581fireworks": 3202,
    "\u2581boo": 3203,
    "\u2581hairstyle": 3204,
    "\u2581girlfriend": 3205,
    "\u2581glider": 3206,
    "\u2581Hol": 3207,
    "\u2581Skier": 3208,
    "\u2581cigarettes": 3209,
    "cking": 3210,
    "\u2581constructed": 3211,
    "\u2581belly": 3212,
    "\u2581sash": 3213,
    "\u2581completely": 3214,
    "\u2581excitedly": 3215,
    "escent": 3216,
    "yro": 3217,
    "\u2581bridesmaids": 3218,
    "\u2581knitting": 3219,
    "\u2581decide": 3220,
    "\u2581blower": 3221,
    "opcorn": 3222,
    "\u2581may": 3223,
    "\u2581soak": 3224,
    "\u2581piercing": 3225,
    "\u2581Nin": 3226,
    "\u2581cha": 3227,
    "\u2581framed": 3228,
    "\u2581sipp": 3229,
    "bab": 3230,
    "\u2581patrons": 3231,
    "\u2581words": 3232,
    "\u2581tips": 3233,
    "tation": 3234,
    "\u2581mic": 3235,
    "\u2581waterside": 3236,
    "\u2581assisting": 3237,
    "live": 3238,
    "\u2581axe": 3239,
    "\u2581texting": 3240,
    "\u2581wipe": 3241,
    "tic": 3242,
    "\u2581pie": 3243,
    "\u2581boxers": 3244,
    "\u2581clothed": 3245,
    "\u2581gowns": 3246,
    "\u2581nails": 3247,
    "\u2581slam": 3248,
    "\u2581rugs": 3249,
    "\u2581dots": 3250,
    "its": 3251,
    "\u2581emerge": 3252,
    "leng": 3253,
    "\u2581spots": 3254,
    "robe": 3255,
    "na": 3256,
    "\u2581couples": 3257,
    "ble": 3258,
    "homa": 3259,
    "\u2581gr": 3260,
    "\u2581Fire": 3261,
    "\u2581barriers": 3262,
    "\u2581checked": 3263,
    "ond": 3264,
    "\u2581sprinklers": 3265,
    "cal": 3266,
    "ellow": 3267,
    "\u2581let": 3268,
    "\u2581ribbons": 3269,
    "\u2581ge": 3270,
    "\u2581shave": 3271,
    "\u2581beers": 3272,
    "ls": 3273,
    "\u2581brooms": 3274,
    "\u2581Re": 3275,
    "\u2581doctors": 3276,
    "\u2581prom": 3277,
    "\u2581pop": 3278,
    "ood": 3279,
    "\u2581hearts": 3280,
    "\u2581lanes": 3281,
    "\u2581bows": 3282,
    "\u2581beams": 3283,
    "anyon": 3284,
    "\u2581swords": 3285,
    "\u2581jumpsuits": 3286,
    "\u2581trimm": 3287,
    "\u2581lands": 3288,
    "\u2581wor": 3289,
    "Y": 3290,
    "\u2581sleeves": 3291,
    "ture": 3292,
    "nder": 3293,
    "ci": 3294,
    "\u2581pipes": 3295,
    "\u2581tubes": 3296,
    "tan": 3297,
    "\u2581bottoms": 3298,
    "\u2581wheelchairs": 3299,
    "\u2581rafts": 3300,
    "\u2581presents": 3301,
    "cting": 3302,
    "ari": 3303,
    "\u2581hung": 3304,
    "ngry": 3305,
    "\u2581secure": 3306,
    "\u2581devices": 3307,
    "ied": 3308,
    "\u2581slopes": 3309,
    "\u2581noses": 3310,
    "\u2581grip": 3311,
    "pris": 3312,
    "als": 3313,
    "\u2581Be": 3314,
    "\u2581spi": 3315,
    "\u2581stunts": 3316,
    "od": 3317,
    "\u2581blocking": 3318,
    "\u2581microscopes": 3319,
    "wish": 3320,
    "\u2581Ele": 3321,
    "ol": 3322,
    "\u2581sprinkl": 3323,
    "\u2581faci": 3324,
    "\u2581cats": 3325,
    "\u2581barbecu": 3326,
    "as": 3327,
    "\u2581Pa": 3328,
    "\u2581cro": 3329,
    "\u2581drape": 3330,
    "oven": 3331,
    "\u2581fort": 3332,
    "\u2581release": 3333,
    "\u2581glid": 3334,
    "let": 3335,
    "\u2581bunn": 3336,
    "ota": 3337,
    "\u2581Am": 3338,
    "\u2581slop": 3339,
    "tch": 3340,
    "\u2581trains": 3341,
    "\u2581strollers": 3342,
    "wards": 3343,
    "bs": 3344,
    "\u2581relaxe": 3345,
    "\u2581walker": 3346,
    "\u2581buck": 3347,
    "dy": 3348,
    "\u2581rails": 3349,
    "risk": 3350,
    "\u2581ties": 3351,
    "\u2581tumbl": 3352,
    "ilitary": 3353,
    "ultim": 3354,
    "\u2581bikinis": 3355,
    "stle": 3356,
    "\u2581sister": 3357,
    "\u2581message": 3358,
    "\u2581pig": 3359,
    "ctively": 3360,
    "\u2581toilet": 3361,
    "\u2581cord": 3362,
    "\u2581stock": 3363,
    "\u2581Bicyclist": 3364,
    "\u2581assist": 3365,
    "\u2581Tourist": 3366,
    "\u2581banana": 3367,
    "\u2581watermelon": 3368,
    "\u2581jog": 3369,
    "\u2581bagpipe": 3370,
    "\u2581baton": 3371,
    "\u2581pedestrian": 3372,
    "skating": 3373,
    "ong": 3374,
    "ama": 3375,
    "\u2581cooler": 3376,
    "\u2581backward": 3377,
    "\u2581para": 3378,
    "\u2581lea": 3379,
    "ham": 3380,
    "nna": 3381,
    "ame": 3382,
    "work": 3383,
    "\u2581East": 3384,
    "ball": 3385,
    "G": 3386,
    "M": 3387,
    "wheeler": 3388,
    "neck": 3389,
    "cker": 3390,
    "break": 3391,
    "ches": 3392,
    "niversity": 3393,
    "stand": 3394,
    "\u2581struggl": 3395,
    "\u2581barb": 3396,
    "\u2581construct": 3397,
    "\u2581brid": 3398,
    "\u2581multicolor": 3399,
    "ored": 3400,
    "ional": 3401,
    "\u2581curl": 3402,
    "\u2581competitive": 3403,
    "\u2581soft": 3404,
    "mber": 3405,
    "capp": 3406,
    "\u2581deli": 3407,
    "\u2581know": 3408,
    "\u2581arti": 3409,
    "adles": 3410,
    "harp": 3411,
    "asketball": 3412,
    "ility": 3413,
    "arathon": 3414,
    "estrian": 3415,
    "\u2581blossom": 3416,
    "\u2581bronze": 3417,
    "\u2581depict": 3418,
    "\u2581nibbl": 3419,
    "\u2581refresh": 3420,
    "\u2581remote": 3421,
    "\u2581represent": 3422,
    "\u2581respond": 3423,
    "Obama": 3424,
    "\u2581Concert": 3425,
    "\u2581Dancers": 3426,
    "\u2581Halloween": 3427,
    "\u2581High": 3428,
    "\u2581Rodeo": 3429,
    "\u2581Soldier": 3430,
    "\u2581Speedo": 3431,
    "\u2581apparatus": 3432,
    "\u2581asphalt": 3433,
    "\u2581automobile": 3434,
    "\u2581bookshelf": 3435,
    "\u2581champagne": 3436,
    "\u2581community": 3437,
    "\u2581cruis": 3438,
    "\u2581curtain": 3439,
    "\u2581dolphin": 3440,
    "\u2581dramatic": 3441,
    "\u2581elbow": 3442,
    "\u2581excitement": 3443,
    "\u2581exciting": 3444,
    "\u2581merchant": 3445,
    "\u2581monopoly": 3446,
    "\u2581overhang": 3447,
    "\u2581pacifier": 3448,
    "\u2581passionate": 3449,
    "\u2581peacock": 3450,
    "\u2581possession": 3451,
    "\u2581rehears": 3452,
    "\u2581robot": 3453,
    "\u2581tambourine": 3454,
    "\u2581tiara": 3455,
    "\u2581tightrope": 3456,
    "\u2581unidentifi": 3457,
    "\u2581unknown": 3458,
    "\u2581vegetation": 3459,
    "\u2581watercraft": 3460,
    "\u2581zebra": 3461,
    "\u2581Photographer": 3462,
    "\u2581cockpit": 3463,
    "\u2581consult": 3464,
    "\u2581javelin": 3465,
    "\u2581priest": 3466,
    "\u2581Gentlem": 3467,
    "\u2581sweatsuit": 3468,
    "\u2581iPod": 3469,
    "\u2581Apple": 3470,
    "\u2581answer": 3471,
    "\u2581bracelet": 3472,
    "\u2581carousel": 3473,
    "\u2581pride": 3474,
    "\u2581quilt": 3475,
    "\u2581escape": 3476,
    "\u2581identical": 3477,
    "\u2581Mouse": 3478,
    "\u2581contemplat": 3479,
    "\u2581drunk": 3480,
    "\u2581wool": 3481,
    "\u2581salad": 3482,
    "\u2581campsite": 3483,
    "\u2581fingernail": 3484,
    "\u2581rowboat": 3485,
    "\u2581trap": 3486,
    "\u2581volunteer": 3487,
    "\u2581impress": 3488,
    "\u2581kitten": 3489,
    "\u2581poke": 3490,
    "\u2581vacation": 3491,
    "\u2581Wall": 3492,
    "\u2581scantily": 3493,
    "\u2581Cyclist": 3494,
    "\u2581amaz": 3495,
    "\u2581clock": 3496,
    "\u2581combat": 3497,
    "\u2581fireplace": 3498,
    "\u2581solo": 3499,
    "\u2581passerby": 3500,
    "\u2581cartoon": 3501,
    "\u2581cinder": 3502,
    "\u2581assort": 3503,
    "\u2581parachuting": 3504,
    "\u2581Colle": 3505,
    "\u2581steam": 3506,
    "\u2581stylish": 3507,
    "\u2581eyeglasses": 3508,
    "\u2581gum": 3509,
    "\u2581rubble": 3510,
    "\u2581shelves": 3511,
    "\u2581tread": 3512,
    "\u2581slab": 3513,
    "\u2581swamp": 3514,
    "\u2581shoeshine": 3515,
    "\u2581cattle": 3516,
    "\u2581defens": 3517,
    "\u2581delic": 3518,
    "\u2581spend": 3519,
    "\u2581cartwheel": 3520,
    "\u2581nine": 3521,
    "\u2581Park": 3522,
    "taught": 3523,
    "\u2581weave": 3524,
    "\u2581snake": 3525,
    "\u2581exhibition": 3526,
    "\u2581Deer": 3527,
    "\u2581selection": 3528,
    "\u2581ref": 3529,
    "\u2581terrier": 3530,
    "\u2581attendant": 3531,
    "\u2581bathrobe": 3532,
    "\u2581husky": 3533,
    "\u2581patrol": 3534,
    "\u2581canopy": 3535,
    "quaint": 3536,
    "\u2581garment": 3537,
    "\u2581attraction": 3538,
    "\u2581backstroke": 3539,
    "\u2581deliver": 3540,
    "\u2581Long": 3541,
    "\u2581blindfolded": 3542,
    "\u2581attentively": 3543,
    "\u2581floaties": 3544,
    "\u2581intense": 3545,
    "\u2581Orient": 3546,
    "\u2581Ice": 3547,
    "\u2581earth": 3548,
    "\u2581confused": 3549,
    "\u2581whistle": 3550,
    "\u2581bakery": 3551,
    "\u2581web": 3552,
    "\u2581mind": 3553,
    "\u2581begg": 3554,
    "\u2581flour": 3555,
    "\u2581peel": 3556,
    "\u2581pump": 3557,
    "\u2581Seattle": 3558,
    "\u2581South": 3559,
    "\u2581convention": 3560,
    "\u2581solder": 3561,
    "\u2581daylight": 3562,
    "\u2581marches": 3563,
    "\u2581greenery": 3564,
    "apid": 3565,
    "\u2581dil": 3566,
    "\u2581You": 3567,
    "\u2581butt": 3568,
    "\u2581sight": 3569,
    "\u2581flier": 3570,
    "\u2581lost": 3571,
    "\u2581solid": 3572,
    "\u2581gallop": 3573,
    "\u2581squirt": 3574,
    "\u2581lovely": 3575,
    "\u2581clothesline": 3576,
    "\u2581cutout": 3577,
    "pplies": 3578,
    "\u2581headset": 3579,
    "\u2581recent": 3580,
    "\u2581ruins": 3581,
    "\u2581torches": 3582,
    "\u2581competitors": 3583,
    "ponge": 3584,
    "\u2581legged": 3585,
    "\u2581page": 3586,
    "elve": 3587,
    "\u2581safe": 3588,
    "\u2581oversize": 3589,
    "\u2581cargo": 3590,
    "\u2581upper": 3591,
    "\u2581lid": 3592,
    "\u2581medal": 3593,
    "\u2581tongs": 3594,
    "\u2581interviewed": 3595,
    "\u2581foam": 3596,
    "\u2581era": 3597,
    "\u2581Nik": 3598,
    "\u2581collide": 3599,
    "\u2581Rollerblades": 3600,
    "\u2581conditions": 3601,
    "\u2581kimonos": 3602,
    "\u2581pursu": 3603,
    "\u2581leashes": 3604,
    "\u2581struggles": 3605,
    "\u2581given": 3606,
    "\u2581taste": 3607,
    "\u2581shingles": 3608,
    "\u2581bones": 3609,
    "\u2581imp": 3610,
    "yo": 3611,
    "\u2581entertainer": 3612,
    "blade": 3613,
    "\u2581served": 3614,
    "\u2581sn": 3615,
    "\u2581early": 3616,
    "\u2581dist": 3617,
    "\u2581file": 3618,
    "ven": 3619,
    "\u2581keys": 3620,
    "\u2581earrings": 3621,
    "\u2581pout": 3622,
    "antly": 3623,
    "\u2581fine": 3624,
    "\u2581stre": 3625,
    "\u2581storm": 3626,
    "raz": 3627,
    "\u2581tear": 3628,
    "cla": 3629,
    "\u2581seagulls": 3630,
    "\u2581cookies": 3631,
    "\u2581cause": 3632,
    "\u2581fairy": 3633,
    "muff": 3634,
    "\u2581completed": 3635,
    "\u2581informal": 3636,
    "\u2581snowman": 3637,
    "ran": 3638,
    "superman": 3639,
    "\u2581En": 3640,
    "\u2581coolers": 3641,
    "\u2581gar": 3642,
    "\u2581barking": 3643,
    "\u2581fighter": 3644,
    "ell": 3645,
    "ice": 3646,
    "arents": 3647,
    "\u2581chips": 3648,
    "ts": 3649,
    "\u2581weapons": 3650,
    "\u2581McDonalds": 3651,
    "ff": 3652,
    "\u2581strawberr": 3653,
    "\u2581stars": 3654,
    "\u2581rollerskater": 3655,
    "\u2581crowns": 3656,
    "\u2581chil": 3657,
    "\u2581tribe": 3658,
    "\u2581comb": 3659,
    "\u2581fashionabl": 3660,
    "litary": 3661,
    "hirtless": 3662,
    "\u2581send": 3663,
    "\u2581saying": 3664,
    "\u2581ka": 3665,
    "\u2581carried": 3666,
    "\u2581accompanie": 3667,
    "\u2581goats": 3668,
    "\u2581handles": 3669,
    "\u2581marking": 3670,
    "\u2581demonstrat": 3671,
    "\u2581wheeler": 3672,
    "\u2581retriev": 3673,
    "\u2581trays": 3674,
    "\u2581cheeks": 3675,
    "\u2581parachutes": 3676,
    "ucking": 3677,
    "\u2581suitcases": 3678,
    "ver": 3679,
    "ag": 3680,
    "\u2581bark": 3681,
    "\u2581char": 3682,
    "pping": 3683,
    "ut": 3684,
    "\u2581feathers": 3685,
    "\u2581apples": 3686,
    "\u2581Ma": 3687,
    "\u2581elephants": 3688,
    "\u2581whe": 3689,
    "\u2581gra": 3690,
    "\u2581motorbikes": 3691,
    "\u2581handl": 3692,
    "\u2581Ca": 3693,
    "\u2581storefronts": 3694,
    "\u2581admire": 3695,
    "\u2581Wi": 3696,
    "\u2581signing": 3697,
    "\u2581raining": 3698,
    "ft": 3699,
    "\u2581pa": 3700,
    "\u2581perch": 3701,
    "\u2581opponents": 3702,
    "tle": 3703,
    "\u2581Har": 3704,
    "ot": 3705,
    "rk": 3706,
    "py": 3707,
    "ney": 3708,
    "\u2581bung": 3709,
    "\u2581towels": 3710,
    "folding": 3711,
    "ortable": 3712,
    "\u2581posts": 3713,
    "\u2581curren": 3714,
    "\u2581include": 3715,
    "dding": 3716,
    "\u2581parts": 3717,
    "by": 3718,
    "em": 3719,
    "\u2581posters": 3720,
    "ica": 3721,
    "ello": 3722,
    "\u2581clearing": 3723,
    "ters": 3724,
    "\u2581chains": 3725,
    "\u2581sheets": 3726,
    "coal": 3727,
    "imate": 3728,
    "anging": 3729,
    "\u2581toast": 3730,
    "\u2581swa": 3731,
    "ward": 3732,
    "\u2581cows": 3733,
    "he": 3734,
    "\u2581count": 3735,
    "\u2581cal": 3736,
    "\u2581ori": 3737,
    "\u2581cle": 3738,
    "z": 3739,
    "ore": 3740,
    "\u2581ferr": 3741,
    "\u2581via": 3742,
    "cub": 3743,
    "\u2581cloths": 3744,
    "tric": 3745,
    "\u2581starts": 3746,
    "R": 3747,
    "\u2581barre": 3748,
    "la": 3749,
    "ang": 3750,
    "\u2581bea": 3751,
    "\u2581focuse": 3752,
    "\u2581singers": 3753,
    "\u2581ta": 3754,
    "\u2581mats": 3755,
    "\u2581east": 3756,
    "\u2581skin": 3757,
    "\u2581Lea": 3758,
    "bout": 3759,
    "\u2581te": 3760,
    "rect": 3761,
    "ised": 3762,
    "\u2581photographing": 3763,
    "\u2581Lo": 3764,
    "\u2581add": 3765,
    "\u2581No": 3766,
    "oting": 3767,
    "een": 3768,
    "\u2581holes": 3769,
    "\u2581si": 3770,
    "fter": 3771,
    "lender": 3772,
    "hawk": 3773,
    "oney": 3774,
    "hat": 3775,
    "me": 3776,
    "pane": 3777,
    "\u2581shap": 3778,
    "\u2581Ste": 3779,
    "\u2581scra": 3780,
    "\u2581rop": 3781,
    "L": 3782,
    "\u2581styl": 3783,
    "nd": 3784,
    "\u2581fle": 3785,
    "ren": 3786,
    "\u2581pu": 3787,
    "rge": 3788,
    "\u2581ri": 3789,
    "\u2581prepar": 3790,
    "orn": 3791,
    "\u2581demonstrate": 3792,
    "bell": 3793,
    "\u2581dye": 3794,
    "\u2581Race": 3795,
    "\u2581emerg": 3796,
    "sses": 3797,
    "ber": 3798,
    "alter": 3799,
    "\u2581dribbl": 3800,
    "icle": 3801,
    "\u2581communicat": 3802,
    "\u2581write": 3803,
    "\u2581tip": 3804,
    "cas": 3805,
    "\u2581thought": 3806,
    "ump": 3807,
    "teen": 3808,
    "son": 3809,
    "\u2581super": 3810,
    "\u2581pol": 3811,
    "\u2581surfers": 3812,
    "\u2581ran": 3813,
    "\u2581fu": 3814,
    "\u2581weld": 3815,
    "\u2581vault": 3816,
    "\u2581wrist": 3817,
    "\u2581brochure": 3818,
    "\u2581question": 3819,
    "\u2581pancake": 3820,
    "\u2581sweet": 3821,
    "\u2581instructor": 3822,
    "ficial": 3823,
    "\u2581holiday": 3824,
    "\u2581pad": 3825,
    "ull": 3826,
    "\u2581rabbit": 3827,
    "\u2581cupcake": 3828,
    "\u2581seagull": 3829,
    "\u2581lock": 3830,
    "\u2581hum": 3831,
    "\u2581patron": 3832,
    "\u2581cookie": 3833,
    "\u2581lip": 3834,
    "\u2581crayon": 3835,
    "\u2581shield": 3836,
    "\u2581brow": 3837,
    "\u2581scout": 3838,
    "\u2581gymnastic": 3839,
    "\u2581lantern": 3840,
    "\u2581interest": 3841,
    "guards": 3842,
    "for": 3843,
    "\u2581word": 3844,
    "\u2581rub": 3845,
    "\u2581kiddi": 3846,
    "\u2581mon": 3847,
    "front": 3848,
    "olks": 3849,
    "\u2581sew": 3850,
    "\u2581kit": 3851,
    "bucks": 3852,
    "jo": 3853,
    "ppy": 3854,
    "nches": 3855,
    "where": 3856,
    "ashore": 3857,
    "\u2581streetlight": 3858,
    "time": 3859,
    "\u2581purchas": 3860,
    "H": 3861,
    "drawn": 3862,
    "back": 3863,
    "scarves": 3864,
    "type": 3865,
    "white": 3866,
    "keep": 3867,
    "cast": 3868,
    "well": 3869,
    "roll": 3870,
    "bl": 3871,
    "\u2581organ": 3872,
    "pool": 3873,
    "care": 3874,
    "ution": 3875,
    "wearing": 3876,
    "deep": 3877,
    "\u2581desp": 3878,
    "\u2581explore": 3879,
    "ashing": 3880,
    "\u2581occurr": 3881,
    "pong": 3882,
    "\u2581extend": 3883,
    "\u2581tram": 3884,
    "\u2581Teenage": 3885,
    "\u2581puzzle": 3886,
    "handed": 3887,
    "\u2581unpa": 3888,
    "\u2581quick": 3889,
    "overalls": 3890,
    "ssenger": 3891,
    "\u2581enthusiast": 3892,
    "\u2581ceme": 3893,
    "itness": 3894,
    "\u2581react": 3895,
    "ispanic": 3896,
    "\u2581Bike": 3897,
    "mergency": 3898,
    "\u2581metro": 3899,
    "\u2581brief": 3900,
    "pproximate": 3901,
    "egas": 3902,
    "regnant": 3903,
    "\u2581Brazil": 3904,
    "\u2581Hiker": 3905,
    "\u2581Individual": 3906,
    "\u2581Spider": 3907,
    "\u2581aircraft": 3908,
    "\u2581balconies": 3909,
    "\u2581bloom": 3910,
    "\u2581bookbag": 3911,
    "\u2581cafeteria": 3912,
    "\u2581chubby": 3913,
    "\u2581cluster": 3914,
    "\u2581convertible": 3915,
    "\u2581crib": 3916,
    "\u2581crutches": 3917,
    "\u2581diaper": 3918,
    "\u2581dominoes": 3919,
    "\u2581frustrated": 3920,
    "\u2581hopscotch": 3921,
    "\u2581llama": 3922,
    "\u2581magic": 3923,
    "\u2581mascara": 3924,
    "\u2581megaphone": 3925,
    "\u2581mermaid": 3926,
    "\u2581napkin": 3927,
    "\u2581octopus": 3928,
    "\u2581paintbrush": 3929,
    "\u2581parasol": 3930,
    "\u2581piggyback": 3931,
    "\u2581pineapple": 3932,
    "\u2581playpen": 3933,
    "\u2581poverty": 3934,
    "\u2581satchel": 3935,
    "\u2581screwdriver": 3936,
    "\u2581seaweed": 3937,
    "\u2581sombrero": 3938,
    "\u2581stalks": 3939,
    "\u2581substance": 3940,
    "\u2581sunrise": 3941,
    "\u2581technique": 3942,
    "\u2581technology": 3943,
    "\u2581terrace": 3944,
    "\u2581trombone": 3945,
    "\u2581ukulele": 3946,
    "\u2581workbench": 3947,
    "\u2581consider": 3948,
    "\u2581kettle": 3949,
    "\u2581skeleton": 3950,
    "\u2581studies": 3951,
    "\u2581Disney": 3952,
    "\u2581final": 3953,
    "\u2581health": 3954,
    "\u2581honor": 3955,
    "\u2581mailbox": 3956,
    "\u2581Life": 3957,
    "\u2581flatbed": 3958,
    "\u2581hairnet": 3959,
    "\u2581foundation": 3960,
    "\u2581Hotel": 3961,
    "\u2581apparel": 3962,
    "\u2581triangle": 3963,
    "\u2581Water": 3964,
    "\u2581else": 3965,
    "\u2581Picture": 3966,
    "\u2581partner": 3967,
    "\u2581guest": 3968,
    "\u2581memorial": 3969,
    "\u2581minivan": 3970,
    "\u2581motorboat": 3971,
    "\u2581tether": 3972,
    "\u2581footbridge": 3973,
    "\u2581Ocean": 3974,
    "\u2581mock": 3975,
    "\u2581Snowboarder": 3976,
    "\u2581buoy": 3977,
    "\u2581stairwell": 3978,
    "\u2581thread": 3979,
    "\u2581drift": 3980,
    "\u2581session": 3981,
    "\u2581Island": 3982,
    "\u2581swimwear": 3983,
    "\u2581landmark": 3984,
    "\u2581jug": 3985,
    "\u2581frolic": 3986,
    "\u2581metropoli": 3987,
    "\u2581loose": 3988,
    "\u2581Parade": 3989,
    "\u2581pounc": 3990,
    "\u2581crush": 3991,
    "\u2581hispanic": 3992,
    "\u2581knock": 3993,
    "\u2581miniskirt": 3994,
    "\u2581spear": 3995,
    "MC": 3996,
    "kla": 3997,
    "itchen": 3998,
    "\u2581bookstore": 3999,
    "\u2581prun": 4000,
    "\u2581mesh": 4001,
    "\u2581spectate": 4002,
    "\u2581master": 4003,
    "\u2581notice": 4004,
    "\u2581manual": 4005,
    "\u2581pressure": 4006,
    "\u2581cabinet": 4007,
    "\u2581element": 4008,
    "\u2581appre": 4009,
    "\u2581oxen": 4010,
    "\u2581eatery": 4011,
    "vious": 4012,
    "\u2581winning": 4013,
    "\u2581contestant": 4014,
    "\u2581prim": 4015,
    "\u2581cabin": 4016,
    "\u2581collection": 4017,
    "\u2581spill": 4018,
    "\u2581paintball": 4019,
    "\u2581soil": 4020,
    "\u2581flap": 4021,
    "\u2581sheepdog": 4022,
    "ckey": 4023,
    "\u2581weeds": 4024,
    "\u2581dealer": 4025,
    "\u2581vac": 4026,
    "\u2581Latino": 4027,
    "\u2581observers": 4028,
    "\u2581sunbathers": 4029,
    "\u2581ginger": 4030,
    "\u2581cityscape": 4031,
    "\u2581pulley": 4032,
    "\u2581rear": 4033,
    "kart": 4034,
    "\u2581Photo": 4035,
    "\u2581jewelery": 4036,
    "eisha": 4037,
    "\u2581elevator": 4038,
    "\u2581vig": 4039,
    "\u2581dozen": 4040,
    "\u2581zoom": 4041,
    "\u2581simpl": 4042,
    "\u2581discover": 4043,
    "\u2581buggy": 4044,
    "\u2581boss": 4045,
    "\u2581sno": 4046,
    "\u2581feel": 4047,
    "\u2581Toy": 4048,
    "\u2581known": 4049,
    "\u2581mill": 4050,
    "\u2581detail": 4051,
    "\u2581festive": 4052,
    "\u2581sponge": 4053,
    "\u2581smell": 4054,
    "\u2581slum": 4055,
    "\u2581stationary": 4056,
    "\u2581Teen": 4057,
    "\u2581outfielder": 4058,
    "\u2581pain": 4059,
    "\u2581overcoat": 4060,
    "\u2581zoo": 4061,
    "\u2581steal": 4062,
    "\u2581Mom": 4063,
    "\u2581Swimmer": 4064,
    "riends": 4065,
    "\u2581Station": 4066,
    "\u2581Mich": 4067,
    "\u2581roadwork": 4068,
    "\u2581grown": 4069,
    "\u2581Day": 4070,
    "\u2581jack": 4071,
    "\u2581tun": 4072,
    "\u2581Happy": 4073,
    "\u2581dash": 4074,
    "\u2581violinist": 4075,
    "\u2581closer": 4076,
    "\u2581came": 4077,
    "enthusiastically": 4078,
    "\u2581countertop": 4079,
    "\u2581runway": 4080,
    "\u2581comfortable": 4081,
    "\u2581vast": 4082,
    "\u2581seeds": 4083,
    "\u2581Teenager": 4084,
    "\u2581grid": 4085,
    "\u2581pastries": 4086,
    "lance": 4087,
    "come": 4088,
    "\u2581graduate": 4089,
    "\u2581basement": 4090,
    "\u2581scared": 4091,
    "\u2581siding": 4092,
    "\u2581exposed": 4093,
    "hoppers": 4094,
    "\u2581prizes": 4095,
    "\u2581Sports": 4096,
    "\u2581kickboxing": 4097,
    "\u2581surgeons": 4098,
    "ould": 4099,
    "\u2581steaks": 4100,
    "\u2581Bill": 4101,
    "\u2581tuba": 4102,
    "wag": 4103,
    "\u2581spon": 4104,
    "\u2581tightly": 4105,
    "\u2581extended": 4106,
    "\u2581stride": 4107,
    "\u2581mingl": 4108,
    "\u2581mad": 4109,
    "\u2581chart": 4110,
    "\u2581glanc": 4111,
    "\u2581mountainside": 4112,
    "rowing": 4113,
    "\u2581Met": 4114,
    "mage": 4115,
    "\u2581Hand": 4116,
    "\u2581Colorful": 4117,
    "\u2581stocking": 4118,
    "\u2581evil": 4119,
    "\u2581roadway": 4120,
    "\u2581pace": 4121,
    "\u2581dropped": 4122,
    "reyhound": 4123,
    "\u2581coconuts": 4124,
    "\u2581sausages": 4125,
    "\u2581troops": 4126,
    "\u2581cram": 4127,
    "\u2581sm": 4128,
    "\u2581strain": 4129,
    "\u2581kayakers": 4130,
    "\u2581flexi": 4131,
    "\u2581tatt": 4132,
    "dish": 4133,
    "\u2581partly": 4134,
    "issue": 4135,
    "\u2581weathered": 4136,
    "ailing": 4137,
    "\u2581sprinting": 4138,
    "\u2581tipp": 4139,
    "\u2581hips": 4140,
    "\u2581sat": 4141,
    "\u2581rode": 4142,
    "\u2581tasting": 4143,
    "\u2581skateboarders": 4144,
    "\u2581roses": 4145,
    "\u2581topic": 4146,
    "\u2581Do": 4147,
    "\u2581rappe": 4148,
    "\u2581mount": 4149,
    "seen": 4150,
    "\u2581don": 4151,
    "\u2581grins": 4152,
    "\u2581aerial": 4153,
    "\u2581available": 4154,
    "\u2581adventur": 4155,
    "\u2581shields": 4156,
    "\u2581cupcakes": 4157,
    "\u2581rabbits": 4158,
    "\u2581stockings": 4159,
    "uit": 4160,
    "\u2581viewer": 4161,
    "\u2581bearer": 4162,
    "\u2581taller": 4163,
    "ault": 4164,
    "\u2581peach": 4165,
    "\u2581note": 4166,
    "\u2581created": 4167,
    "\u2581qu": 4168,
    "\u2581inflated": 4169,
    "rot": 4170,
    "\u2581grin": 4171,
    "panish": 4172,
    "\u2581Bicyclists": 4173,
    "\u2581mates": 4174,
    "nds": 4175,
    "\u2581cock": 4176,
    "otic": 4177,
    "\u2581prevent": 4178,
    "\u2581ox": 4179,
    "rena": 4180,
    "uch": 4181,
    "\u2581cables": 4182,
    "\u2581pillars": 4183,
    "\u2581lemons": 4184,
    "\u2581steers": 4185,
    "\u2581texts": 4186,
    "\u2581Mr": 4187,
    "\u2581cooked": 4188,
    "\u2581buses": 4189,
    "\u2581vine": 4190,
    "\u2581save": 4191,
    "lin": 4192,
    "\u2581ob": 4193,
    "\u2581pirates": 4194,
    "\u2581defenders": 4195,
    "\u2581dri": 4196,
    "\u2581interior": 4197,
    "\u2581ac": 4198,
    "\u2581calling": 4199,
    "\u2581sandal": 4200,
    "oose": 4201,
    "\u2581circus": 4202,
    "\u2581wigs": 4203,
    "\u2581Rac": 4204,
    "\u2581Mo": 4205,
    "\u2581fir": 4206,
    "\u2581Fisherm": 4207,
    "llowing": 4208,
    "no": 4209,
    "\u2581graduati": 4210,
    "\u2581dip": 4211,
    "oe": 4212,
    "\u2581bun": 4213,
    "\u2581arid": 4214,
    "\u2581celebrates": 4215,
    "\u2581Ch": 4216,
    "\u2581awe": 4217,
    "\u2581glo": 4218,
    "\u2581retai": 4219,
    "\u2581stores": 4220,
    "\u2581chickens": 4221,
    "\u2581boulders": 4222,
    "\u2581hitch": 4223,
    "rel": 4224,
    "\u2581washed": 4225,
    "\u2581trad": 4226,
    "pass": 4227,
    "ston": 4228,
    "iet": 4229,
    "\u2581once": 4230,
    "\u2581lose": 4231,
    "\u2581electronics": 4232,
    "\u2581headbands": 4233,
    "\u2581mouths": 4234,
    "\u2581controls": 4235,
    "\u2581horns": 4236,
    "temporary": 4237,
    "\u2581cler": 4238,
    "\u2581muzzles": 4239,
    "\u2581slice": 4240,
    "\u2581surroundings": 4241,
    "\u2581guitarists": 4242,
    "rincess": 4243,
    "ever": 4244,
    "\u2581dunes": 4245,
    "end": 4246,
    "rest": 4247,
    "\u2581releas": 4248,
    "lk": 4249,
    "EL": 4250,
    "\u2581patriot": 4251,
    "iller": 4252,
    "stretched": 4253,
    "\u2581sweatshirts": 4254,
    "der": 4255,
    "\u2581sur": 4256,
    "\u2581spark": 4257,
    "\u2581shed": 4258,
    "\u2581spa": 4259,
    "umber": 4260,
    "\u2581Bal": 4261,
    "zard": 4262,
    "\u2581handed": 4263,
    "\u2581mustach": 4264,
    "hinese": 4265,
    "tted": 4266,
    "\u2581shapes": 4267,
    "\u2581sprinkle": 4268,
    "\u2581grooms": 4269,
    "\u2581sa": 4270,
    "potted": 4271,
    "\u2581sticker": 4272,
    "\u2581Co": 4273,
    "\u2581pant": 4274,
    "\u2581theme": 4275,
    "\u2581sales": 4276,
    "og": 4277,
    "ors": 4278,
    "\u2581hooping": 4279,
    "voi": 4280,
    "\u2581pitchers": 4281,
    "ora": 4282,
    "aut": 4283,
    "tt": 4284,
    "\u2581Ya": 4285,
    "\u2581tr": 4286,
    "imi": 4287,
    "\u2581Asians": 4288,
    "\u2581decorate": 4289,
    "pa": 4290,
    "\u2581squares": 4291,
    "\u2581rounds": 4292,
    "\u2581floors": 4293,
    "last": 4294,
    "lem": 4295,
    "\u2581arrange": 4296,
    "ugh": 4297,
    "\u2581prints": 4298,
    "tly": 4299,
    "\u2581slow": 4300,
    "postal": 4301,
    "\u2581seeming": 4302,
    "\u2581des": 4303,
    "terior": 4304,
    "\u2581Cast": 4305,
    "\u2581daughters": 4306,
    "\u2581hu": 4307,
    "\u2581challenge": 4308,
    "\u2581squ": 4309,
    "ti": 4310,
    "ka": 4311,
    "fortun": 4312,
    "des": 4313,
    "our": 4314,
    "ently": 4315,
    "da": 4316,
    "\u2581pictured": 4317,
    "\u2581scri": 4318,
    "ak": 4319,
    "\u2581shu": 4320,
    "eye": 4321,
    "\u2581photographers": 4322,
    "rm": 4323,
    "lling": 4324,
    "\u2581ways": 4325,
    "\u2581bee": 4326,
    "enai": 4327,
    "\u2581provide": 4328,
    "rill": 4329,
    "orm": 4330,
    "\u2581trained": 4331,
    "gue": 4332,
    "ming": 4333,
    "un": 4334,
    "shirted": 4335,
    "\u2581bats": 4336,
    "ug": 4337,
    "\u2581fre": 4338,
    "\u2581fac": 4339,
    "di": 4340,
    "ette": 4341,
    "\u2581thr": 4342,
    "mble": 4343,
    "rry": 4344,
    "\u2581wo": 4345,
    "bo": 4346,
    "eam": 4347,
    "\u2581ax": 4348,
    "\u2581sons": 4349,
    "\u2581strum": 4350,
    "long": 4351,
    "\u2581Su": 4352,
    "\u2581cu": 4353,
    "utumn": 4354,
    "\u2581bl": 4355,
    "arket": 4356,
    "\u2581hol": 4357,
    "gi": 4358,
    "ties": 4359,
    "vel": 4360,
    "lated": 4361,
    "bble": 4362,
    "que": 4363,
    "\u2581eng": 4364,
    "\u2581retrieve": 4365,
    "ta": 4366,
    "ne": 4367,
    "ker": 4368,
    "\u2581statu": 4369,
    "\u2581Fisher": 4370,
    "ement": 4371,
    "\u2581attach": 4372,
    "mat": 4373,
    "car": 4374,
    "\u2581mos": 4375,
    "\u2581gri": 4376,
    "list": 4377,
    "\u2581chine": 4378,
    "names": 4379,
    "mong": 4380,
    "\u2581bur": 4381,
    "vo": 4382,
    "llow": 4383,
    "ree": 4384,
    "\u2581twi": 4385,
    "\u2581Bur": 4386,
    "berry": 4387,
    "\u2581navigat": 4388,
    "phone": 4389,
    "dog": 4390,
    "\u2581pr": 4391,
    "prints": 4392,
    "ndy": 4393,
    "ities": 4394,
    "\u2581charg": 4395,
    "view": 4396,
    "boarder": 4397,
    "\u2581tast": 4398,
    "\u2581stumbl": 4399,
    "\u2581plan": 4400,
    "lue": 4401,
    "\u2581Ba": 4402,
    "ntal": 4403,
    "\u2581Athlete": 4404,
    "\u2581jackhammer": 4405,
    "\u2581blind": 4406,
    "\u2581jogger": 4407,
    "\u2581hedge": 4408,
    "walk": 4409,
    "\u2581glow": 4410,
    "\u2581defend": 4411,
    "\u2581sorts": 4412,
    "\u2581noodle": 4413,
    "\u2581barricade": 4414,
    "\u2581hamburger": 4415,
    "\u2581poncho": 4416,
    "\u2581zombie": 4417,
    "\u2581lei": 4418,
    "\u2581sparkler": 4419,
    "dies": 4420,
    "\u2581hip": 4421,
    "\u2581sweaters": 4422,
    "\u2581state": 4423,
    "\u2581rose": 4424,
    "\u2581conduct": 4425,
    "\u2581pierc": 4426,
    "\u2581parasail": 4427,
    "\u2581judge": 4428,
    "\u2581scream": 4429,
    "\u2581study": 4430,
    "gar": 4431,
    "\u2581snowshoe": 4432,
    "\u2581fist": 4433,
    "\u2581Student": 4434,
    "\u2581sock": 4435,
    "\u2581onlooker": 4436,
    "\u2581earring": 4437,
    "\u2581awning": 4438,
    "\u2581overall": 4439,
    "hood": 4440,
    "lift": 4441,
    "crop": 4442,
    "\u2581protester": 4443,
    "\u2581bead": 4444,
    "friend": 4445,
    "field": 4446,
    "\u2581bug": 4447,
    "\u2581cli": 4448,
    "\u2581crashe": 4449,
    "stroke": 4450,
    "dot": 4451,
    "cle": 4452,
    "\u2581address": 4453,
    "room": 4454,
    "completed": 4455,
    "foam": 4456,
    "water": 4457,
    "file": 4458,
    "\u2581golfer": 4459,
    "za": 4460,
    "layers": 4461,
    "point": 4462,
    "fast": 4463,
    "circle": 4464,
    "\u2581ladders": 4465,
    "daughter": 4466,
    "screen": 4467,
    "woman": 4468,
    "jump": 4469,
    "shake": 4470,
    "blue": 4471,
    "The": 4472,
    "book": 4473,
    "\u2581key": 4474,
    "vin": 4475,
    "saw": 4476,
    "xcited": 4477,
    "ground": 4478,
    "thnic": 4479,
    "\u2581Run": 4480,
    "\u2581Ski": 4481,
    "iew": 4482,
    "\u2581natur": 4483,
    "unning": 4484,
    "\u2581cry": 4485,
    "ivid": 4486,
    "fort": 4487,
    "\u2581colo": 4488,
    "\u2581expos": 4489,
    "xy": 4490,
    "\u2581sparse": 4491,
    "\u2581proud": 4492,
    "iki": 4493,
    "ower": 4494,
    "\u2581report": 4495,
    "\u2581boa": 4496,
    "\u2581Latin": 4497,
    "\u2581Africa": 4498,
    "iretrucks": 4499,
    "ozen": 4500,
    "ymnast": 4501,
    "\u2581graffit": 4502,
    "izza": 4503,
    "\u2581acrobat": 4504,
    "ugby": 4505,
    "\u2581Roller": 4506,
    "vice": 4507,
    "\u2581equip": 4508,
    "\u2581improv": 4509,
    "\u2581suspens": 4510,
    "\u2581Batman": 4511,
    "\u2581Berlin": 4512,
    "\u2581California": 4513,
    "\u2581Commuter": 4514,
    "\u2581Earth": 4515,
    "\u2581Employee": 4516,
    "\u2581Flag": 4517,
    "\u2581Monopoly": 4518,
    "\u2581Road": 4519,
    "\u2581advantage": 4520,
    "\u2581aluminum": 4521,
    "\u2581arguing": 4522,
    "\u2581baggage": 4523,
    "\u2581blacksmith": 4524,
    "\u2581bonnet": 4525,
    "\u2581camcorder": 4526,
    "\u2581cereal": 4527,
    "\u2581concession": 4528,
    "\u2581condom": 4529,
    "\u2581congregating": 4530,
    "\u2581corridor": 4531,
    "\u2581crocodile": 4532,
    "\u2581crystal": 4533,
    "\u2581cushion": 4534,
    "\u2581dandelion": 4535,
    "\u2581dishwasher": 4536,
    "\u2581document": 4537,
    "\u2581dustpan": 4538,
    "\u2581earbuds": 4539,
    "\u2581enthusiasm": 4540,
    "\u2581explain": 4541,
    "\u2581fiddle": 4542,
    "\u2581fierce": 4543,
    "\u2581fingertips": 4544,
    "\u2581flamboyant": 4545,
    "\u2581grandmother": 4546,
    "\u2581grimacing": 4547,
    "\u2581gypsy": 4548,
    "\u2581halloween": 4549,
    "\u2581handkerchief": 4550,
    "\u2581headgear": 4551,
    "\u2581heartbeat": 4552,
    "\u2581hijab": 4553,
    "\u2581huddling": 4554,
    "\u2581innertube": 4555,
    "\u2581limo": 4556,
    "\u2581livestock": 4557,
    "\u2581lizard": 4558,
    "\u2581lodge": 4559,
    "\u2581lollipop": 4560,
    "\u2581mushroom": 4561,
    "\u2581ninja": 4562,
    "\u2581ollie": 4563,
    "\u2581opinion": 4564,
    "\u2581opportunity": 4565,
    "\u2581outstreached": 4566,
    "\u2581parlor": 4567,
    "\u2581pelican": 4568,
    "\u2581pharmac": 4569,
    "\u2581program": 4570,
    "\u2581racquet": 4571,
    "\u2581reluctant": 4572,
    "\u2581research": 4573,
    "\u2581salmon": 4574,
    "\u2581sauna": 4575,
    "\u2581secret": 4576,
    "\u2581shampoo": 4577,
    "\u2581shelter": 4578,
    "\u2581shrimp": 4579,
    "\u2581simultaneous": 4580,
    "\u2581skewer": 4581,
    "\u2581sleigh": 4582,
    "\u2581smirking": 4583,
    "\u2581snowflake": 4584,
    "\u2581stethoscope": 4585,
    "\u2581sunflower": 4586,
    "\u2581swoop": 4587,
    "\u2581texas": 4588,
    "\u2581tobacco": 4589,
    "\u2581transformer": 4590,
    "\u2581traverse": 4591,
    "\u2581trinket": 4592,
    "\u2581trouble": 4593,
    "\u2581tulips": 4594,
    "\u2581waterproof": 4595,
    "\u2581wildflowers": 4596,
    "\u2581Crouch": 4597,
    "\u2581Perform": 4598,
    "\u2581loaf": 4599,
    "\u2581nip": 4600,
    "\u2581remain": 4601,
    "\u2581seamstress": 4602,
    "\u2581textile": 4603,
    "\u2581Angels": 4604,
    "\u2581Buddh": 4605,
    "\u2581Grouch": 4606,
    "\u2581Minne": 4607,
    "\u2581banquet": 4608,
    "\u2581cleats": 4609,
    "\u2581darkness": 4610,
    "\u2581emotion": 4611,
    "\u2581execut": 4612,
    "\u2581explosion": 4613,
    "\u2581families": 4614,
    "\u2581nursing": 4615,
    "\u2581timber": 4616,
    "\u2581Lakers": 4617,
    "\u2581forearm": 4618,
    "\u2581ritual": 4619,
    "\u2581wrangle": 4620,
    "Skater": 4621,
    "tivate": 4622,
    "\u2581decals": 4623,
    "\u2581refuge": 4624,
    "\u2581carpent": 4625,
    "\u2581europe": 4626,
    "\u2581trough": 4627,
    "\u2581glitter": 4628,
    "\u2581route": 4629,
    "\u2581junk": 4630,
    "\u2581liberty": 4631,
    "\u2581shock": 4632,
    "\u2581shelf": 4633,
    "\u2581France": 4634,
    "\u2581swerv": 4635,
    "\u2581unison": 4636,
    "\u2581speck": 4637,
    "\u2581sym": 4638,
    "\u2581ankle": 4639,
    "\u2581knives": 4640,
    "\u2581Scout": 4641,
    "\u2581presum": 4642,
    "\u2581remember": 4643,
    "\u2581animated": 4644,
    "\u2581dentist": 4645,
    "\u2581forklift": 4646,
    "\u2581applau": 4647,
    "\u2581Horse": 4648,
    "mura": 4649,
    "\u2581manicure": 4650,
    "\u2581horizontal": 4651,
    "\u2581canister": 4652,
    "\u2581machete": 4653,
    "\u2581powerpoint": 4654,
    "\u2581arrest": 4655,
    "\u2581mold": 4656,
    "\u2581clog": 4657,
    "\u2581donuts": 4658,
    "\u2581dugout": 4659,
    "uvre": 4660,
    "ockey": 4661,
    "\u2581Coffee": 4662,
    "\u2581Chef": 4663,
    "\u2581toenail": 4664,
    "\u2581government": 4665,
    "\u2581urg": 4666,
    "\u2581frosting": 4667,
    "\u2581pleasant": 4668,
    "clips": 4669,
    "\u2581wheat": 4670,
    "\u2581rins": 4671,
    "\u2581affection": 4672,
    "\u2581wield": 4673,
    "\u2581smock": 4674,
    "\u2581sketch": 4675,
    "\u2581wristband": 4676,
    "\u2581self": 4677,
    "\u2581applied": 4678,
    "\u2581flashlight": 4679,
    "\u2581price": 4680,
    "\u2581mob": 4681,
    "\u2581Company": 4682,
    "\u2581fatigue": 4683,
    "\u2581Wii": 4684,
    "\u2581sax": 4685,
    "olate": 4686,
    "\u2581Cook": 4687,
    "\u2581Diner": 4688,
    "\u2581trek": 4689,
    "Pant": 4690,
    "\u2581Thai": 4691,
    "\u2581cutoff": 4692,
    "\u2581loop": 4693,
    "MA": 4694,
    "\u2581BMW": 4695,
    "\u2581captain": 4696,
    "\u2581itself": 4697,
    "\u2581Spain": 4698,
    "\u2581technician": 4699,
    "\u2581cact": 4700,
    "\u2581gig": 4701,
    "\u2581plume": 4702,
    "omeless": 4703,
    "\u2581exam": 4704,
    "\u2581Artist": 4705,
    "\u2581cork": 4706,
    "\u2581sandpit": 4707,
    "\u2581bushel": 4708,
    "\u2581corral": 4709,
    "\u2581mail": 4710,
    "\u2581specialize": 4711,
    "\u2581graphic": 4712,
    "\u2581insect": 4713,
    "\u2581blast": 4714,
    "\u2581clasp": 4715,
    "\u2581mac": 4716,
    "\u2581digger": 4717,
    "achi": 4718,
    "\u2581join": 4719,
    "\u2581hurry": 4720,
    "\u2581rig": 4721,
    "ux": 4722,
    "\u2581Com": 4723,
    "\u2581moon": 4724,
    "cific": 4725,
    "\u2581Br": 4726,
    "\u2581hoist": 4727,
    "\u2581Pro": 4728,
    "\u2581Deli": 4729,
    "\u2581geese": 4730,
    "\u2581procession": 4731,
    "\u2581poker": 4732,
    "\u2581waffle": 4733,
    "\u2581Stone": 4734,
    "\u2581Tye": 4735,
    "\u2581Mexico": 4736,
    "\u2581placard": 4737,
    "\u2581Fast": 4738,
    "\u2581Even": 4739,
    "oster": 4740,
    "\u2581plaster": 4741,
    "\u2581freeway": 4742,
    "\u2581Dr": 4743,
    "\u2581snowbank": 4744,
    "\u2581Sco": 4745,
    "\u2581ditch": 4746,
    "\u2581spout": 4747,
    "\u2581fern": 4748,
    "\u2581rescu": 4749,
    "\u2581wr": 4750,
    "\u2581fixture": 4751,
    "\u2581assembly": 4752,
    "\u2581Well": 4753,
    "\u2581lav": 4754,
    "mbu": 4755,
    "\u2581director": 4756,
    "itcher": 4757,
    "\u2581hipster": 4758,
    "\u2581Rock": 4759,
    "\u2581oversee": 4760,
    "\u2581might": 4761,
    "\u2581talkie": 4762,
    "\u2581recliner": 4763,
    "\u2581mosque": 4764,
    "\u2581proper": 4765,
    "\u2581entertainment": 4766,
    "\u2581Dressed": 4767,
    "\u2581kill": 4768,
    "\u2581Rider": 4769,
    "\u2581trot": 4770,
    "udio": 4771,
    "\u2581Ital": 4772,
    "\u2581align": 4773,
    "\u2581buff": 4774,
    "\u2581sledge": 4775,
    "orous": 4776,
    "\u2581Giant": 4777,
    "\u2581role": 4778,
    "\u2581Rod": 4779,
    "\u2581retriever": 4780,
    "\u2581Dad": 4781,
    "\u2581proudly": 4782,
    "\u2581dominate": 4783,
    "\u2581French": 4784,
    "\u2581butter": 4785,
    "\u2581Centr": 4786,
    "\u2581creative": 4787,
    "\u2581Ford": 4788,
    "\u2581beaker": 4789,
    "\u2581arrival": 4790,
    "owling": 4791,
    "\u2581uphill": 4792,
    "\u2581spir": 4793,
    "yard": 4794,
    "\u2581Sam": 4795,
    "\u2581fool": 4796,
    "\u2581maintain": 4797,
    "\u2581Grand": 4798,
    "\u2581potatoes": 4799,
    "\u2581unic": 4800,
    "\u2581hurt": 4801,
    "\u2581change": 4802,
    "\u2581media": 4803,
    "itive": 4804,
    "\u2581soon": 4805,
    "\u2581become": 4806,
    "\u2581tv": 4807,
    "\u2581goof": 4808,
    "\u2581cola": 4809,
    "\u2581windsurfer": 4810,
    "\u2581specta": 4811,
    "\u2581bullet": 4812,
    "\u2581DS": 4813,
    "\u2581lace": 4814,
    "\u2581Pain": 4815,
    "\u2581tuck": 4816,
    "\u2581pastel": 4817,
    "\u2581inner": 4818,
    "\u2581playhouse": 4819,
    "\u2581patches": 4820,
    "\u2581Hous": 4821,
    "\u2581lakeside": 4822,
    "chipper": 4823,
    "\u2581trans": 4824,
    "\u2581pasture": 4825,
    "\u2581moor": 4826,
    "\u2581bouncer": 4827,
    "\u2581darts": 4828,
    "\u2581twigs": 4829,
    "\u2581dreads": 4830,
    "\u2581handlebars": 4831,
    "\u2581utensils": 4832,
    "\u2581Pen": 4833,
    "\u2581youngsters": 4834,
    "\u2581woodworking": 4835,
    "\u2581meditating": 4836,
    "\u2581yawning": 4837,
    "\u2581Wait": 4838,
    "key": 4839,
    "\u2581Mad": 4840,
    "nitor": 4841,
    "alcon": 4842,
    "culin": 4843,
    "\u2581sprint": 4844,
    "\u2581rad": 4845,
    "\u2581juggler": 4846,
    "\u2581underway": 4847,
    "\u2581miner": 4848,
    "\u2581region": 4849,
    "\u2581Camp": 4850,
    "\u2581sewer": 4851,
    "\u2581welder": 4852,
    "\u2581Nav": 4853,
    "\u2581blurry": 4854,
    "tically": 4855,
    "\u2581pastor": 4856,
    "\u2581bunk": 4857,
    "ki": 4858,
    "\u2581ston": 4859,
    "\u2581indig": 4860,
    "\u2581Dar": 4861,
    "\u2581Tw": 4862,
    "wn": 4863,
    "over": 4864,
    "\u2581console": 4865,
    "\u2581fri": 4866,
    "\u2581pebble": 4867,
    "\u2581Hug": 4868,
    "\u2581blown": 4869,
    "\u2581lifeguard": 4870,
    "\u2581stroke": 4871,
    "fringe": 4872,
    "Doo": 4873,
    "ridge": 4874,
    "oned": 4875,
    "\u2581needed": 4876,
    "gers": 4877,
    "ddresses": 4878,
    "viewing": 4879,
    "ined": 4880,
    "\u2581braces": 4881,
    "\u2581participants": 4882,
    "\u2581happening": 4883,
    "\u2581measure": 4884,
    "\u2581Le": 4885,
    "\u2581mist": 4886,
    "egret": 4887,
    "era": 4888,
    "\u2581wallet": 4889,
    "\u2581sick": 4890,
    "\u2581litera": 4891,
    "\u2581ashore": 4892,
    "ments": 4893,
    "\u2581showcas": 4894,
    "platter": 4895,
    "\u2581Care": 4896,
    "\u2581prepp": 4897,
    "\u2581cho": 4898,
    "spe": 4899,
    "\u2581ripp": 4900,
    "\u2581headlight": 4901,
    "eaks": 4902,
    "\u2581beans": 4903,
    "velop": 4904,
    "\u2581moss": 4905,
    "\u2581defends": 4906,
    "\u2581awnings": 4907,
    "\u2581barricades": 4908,
    "\u2581hamburgers": 4909,
    "\u2581ponchos": 4910,
    "\u2581zombies": 4911,
    "\u2581states": 4912,
    "\u2581sparklers": 4913,
    "\u2581fists": 4914,
    "stron": 4915,
    "ks": 4916,
    "\u2581protesters": 4917,
    "av": 4918,
    "\u2581leis": 4919,
    "\u2581entertained": 4920,
    "ns": 4921,
    "\u2581chemis": 4922,
    "\u2581noodles": 4923,
    "\u2581bell": 4924,
    "\u2581carton": 4925,
    "gin": 4926,
    "\u2581picker": 4927,
    "\u2581creep": 4928,
    "\u2581prob": 4929,
    "\u2581adolescent": 4930,
    "\u2581holidays": 4931,
    "nos": 4932,
    "ames": 4933,
    "\u2581streetlights": 4934,
    "\u2581snowboarders": 4935,
    "raw": 4936,
    "\u2581bowed": 4937,
    "hoops": 4938,
    "\u2581peruse": 4939,
    "\u2581batons": 4940,
    "\u2581bust": 4941,
    "\u2581toilets": 4942,
    "\u2581structures": 4943,
    "\u2581fra": 4944,
    "izer": 4945,
    "essing": 4946,
    "inting": 4947,
    "\u2581cords": 4948,
    "Love": 4949,
    "\u2581Russia": 4950,
    "\u2581parka": 4951,
    "sks": 4952,
    "\u2581ensu": 4953,
    "nti": 4954,
    "ctic": 4955,
    "Bron": 4956,
    "\u2581mo": 4957,
    "itch": 4958,
    "rates": 4959,
    "\u2581scar": 4960,
    "\u2581twirls": 4961,
    "aring": 4962,
    "\u2581mate": 4963,
    "\u2581sling": 4964,
    "itting": 4965,
    "ike": 4966,
    "\u2581attache": 4967,
    "\u2581cors": 4968,
    "ird": 4969,
    "\u2581dumps": 4970,
    "\u2581res": 4971,
    "ank": 4972,
    "\u2581pockets": 4973,
    "\u2581notebooks": 4974,
    "\u2581wal": 4975,
    "ates": 4976,
    "\u2581speakers": 4977,
    "\u2581gla": 4978,
    "lt": 4979,
    "\u2581packages": 4980,
    "pe": 4981,
    "\u2581beautifully": 4982,
    "\u2581turbans": 4983,
    "\u2581pumpkins": 4984,
    "\u2581tasks": 4985,
    "\u2581sweating": 4986,
    "rom": 4987,
    "\u2581leader": 4988,
    "ating": 4989,
    "\u2581ent": 4990,
    "\u2581marks": 4991,
    "\u2581Sal": 4992,
    "\u2581treats": 4993,
    "\u2581services": 4994,
    "\u2581leotards": 4995,
    "\u2581portraits": 4996,
    "\u2581cages": 4997,
    "\u2581tickets": 4998,
    "ricate": 4999,
    "\u2581signal": 5000,
    "\u2581launche": 5001,
    "\u2581Pe": 5002,
    "ox": 5003,
    "\u2581trips": 5004,
    "\u2581tricycles": 5005,
    "\u2581huts": 5006,
    "\u2581rods": 5007,
    "\u2581mes": 5008,
    "\u2581deter": 5009,
    "\u2581Tea": 5010,
    "uma": 5011,
    "ilot": 5012,
    "\u2581moved": 5013,
    "ise": 5014,
    "fi": 5015,
    "\u2581amused": 5016,
    "\u2581Fan": 5017,
    "\u2581led": 5018,
    "ms": 5019,
    "obs": 5020,
    "race": 5021,
    "\u2581helper": 5022,
    "\u2581Motorcycl": 5023,
    "\u2581lat": 5024,
    "inder": 5025,
    "\u2581sizes": 5026,
    "\u2581gifts": 5027,
    "\u2581cheerful": 5028,
    "\u2581Adult": 5029,
    "\u2581gu": 5030,
    "lers": 5031,
    "\u2581excavat": 5032,
    "amper": 5033,
    "\u2581blacktop": 5034,
    "truck": 5035,
    "\u2581reci": 5036,
    "\u2581numbered": 5037,
    "\u2581ar": 5038,
    "ited": 5039,
    "\u2581ste": 5040,
    "hio": 5041,
    "\u2581Ric": 5042,
    "nce": 5043,
    "eva": 5044,
    "\u2581trumpets": 5045,
    "ani": 5046,
    "\u2581Hu": 5047,
    "\u2581Not": 5048,
    "\u2581statues": 5049,
    "\u2581tre": 5050,
    "\u2581ramps": 5051,
    "c": 5052,
    "IN": 5053,
    "stro": 5054,
    "lov": 5055,
    "evil": 5056,
    "RO": 5057,
    "\u2581Dan": 5058,
    "\u2581darkly": 5059,
    "une": 5060,
    "sion": 5061,
    "\u2581expe": 5062,
    "\u2581El": 5063,
    "\u2581lives": 5064,
    "ace": 5065,
    "gu": 5066,
    "\u2581challeng": 5067,
    "min": 5068,
    "\u2581emp": 5069,
    "uth": 5070,
    "nations": 5071,
    "\u2581Over": 5072,
    "\u2581hurdles": 5073,
    "\u2581prop": 5074,
    "\u2581Con": 5075,
    "\u2581clim": 5076,
    "ger": 5077,
    "\u2581keyboards": 5078,
    "\u2581saxophones": 5079,
    "\u2581Medi": 5080,
    "\u2581Bir": 5081,
    "rious": 5082,
    "\u2581grate": 5083,
    "\u2581tiles": 5084,
    "ians": 5085,
    "\u2581em": 5086,
    "\u2581arrang": 5087,
    "got": 5088,
    "\u2581fed": 5089,
    "gy": 5090,
    "tar": 5091,
    "rina": 5092,
    "take": 5093,
    "rine": 5094,
    "\u2581mari": 5095,
    "\u2581vo": 5096,
    "tting": 5097,
    "est": 5098,
    "hen": 5099,
    "\u2581curv": 5100,
    "nake": 5101,
    "\u2581die": 5102,
    "\u2581wh": 5103,
    "\u2581Te": 5104,
    "\u2581reclin": 5105,
    "\u2581concentrat": 5106,
    "\u2581Si": 5107,
    "act": 5108,
    "\u2581infants": 5109,
    "ith": 5110,
    "pens": 5111,
    "\u2581appearing": 5112,
    "obe": 5113,
    "\u2581bean": 5114,
    "verhead": 5115,
    "\u2581supervise": 5116,
    "\u2581pane": 5117,
    "\u2581Ne": 5118,
    "\u2581reg": 5119,
    "ery": 5120,
    "be": 5121,
    "ain": 5122,
    "\u2581sees": 5123,
    "\u2581shoo": 5124,
    "gard": 5125,
    "\u2581hal": 5126,
    "ern": 5127,
    "ncy": 5128,
    "love": 5129,
    "lway": 5130,
    "\u2581hoses": 5131,
    "\u2581canes": 5132,
    "oul": 5133,
    "ia": 5134,
    "ay": 5135,
    "ca": 5136,
    "ON": 5137,
    "\u2581Pan": 5138,
    "\u2581So": 5139,
    "\u2581San": 5140,
    "devil": 5141,
    "\u2581cl": 5142,
    "ffles": 5143,
    "\u2581involve": 5144,
    "some": 5145,
    "\u2581Mon": 5146,
    "OI": 5147,
    "\u2581Che": 5148,
    "vi": 5149,
    "\u2581till": 5150,
    "\u2581For": 5151,
    "lution": 5152,
    "\u2581Las": 5153,
    "\u2581suite": 5154,
    "ept": 5155,
    "co": 5156,
    "\u2581Chi": 5157,
    "pid": 5158,
    "panes": 5159,
    "tail": 5160,
    "\u2581scr": 5161,
    "\u2581def": 5162,
    "ative": 5163,
    "bil": 5164,
    "hine": 5165,
    "\u2581organize": 5166,
    "\u2581rocker": 5167,
    "\u2581Gr": 5168,
    "\u2581due": 5169,
    "\u2581perche": 5170,
    "\u2581pou": 5171,
    "even": 5172,
    "\u2581peddl": 5173,
    "\u2581pe": 5174,
    "are": 5175,
    "rade": 5176,
    "opsicle": 5177,
    "\u2581ends": 5178,
    "mused": 5179,
    "\u2581ju": 5180,
    "\u2581tux": 5181,
    "bbing": 5182,
    "ttracti": 5183,
    "j": 5184,
    "ummer": 5185,
    "\u2581flan": 5186,
    "sel": 5187,
    "endo": 5188,
    "ink": 5189,
    "\u2581Da": 5190,
    "ue": 5191,
    "anada": 5192,
    "tory": 5193,
    "\u2581int": 5194,
    "eek": 5195,
    "ray": 5196,
    "rows": 5197,
    "\u2581skip": 5198,
    "\u2581mart": 5199,
    "\u2581Mac": 5200,
    "east": 5201,
    "\u2581abs": 5202,
    "\u2581pee": 5203,
    "\u2581pea": 5204,
    "oth": 5205,
    "thletes": 5206,
    "formal": 5207,
    "hill": 5208,
    "ense": 5209,
    "ader": 5210,
    "doors": 5211,
    "powered": 5212,
    "rid": 5213,
    "\u2581dim": 5214,
    "eedle": 5215,
    "gent": 5216,
    "\u2581wea": 5217,
    "nger": 5218,
    "\u2581adventure": 5219,
    "cent": 5220,
    "wheel": 5221,
    "\u2581supervis": 5222,
    "bike": 5223,
    "step": 5224,
    "\u2581Down": 5225,
    "ador": 5226,
    "\u2581surfboards": 5227,
    "pad": 5228,
    "\u2581Tim": 5229,
    "worker": 5230,
    "\u2581chemi": 5231,
    "bul": 5232,
    "bject": 5233,
    "ik": 5234,
    "ult": 5235,
    "fight": 5236,
    "count": 5237,
    "all": 5238,
    "\u2581bandage": 5239,
    "sm": 5240,
    "\u2581Mu": 5241,
    "ans": 5242,
    "shes": 5243,
    "\u2581Cost": 5244,
    "lookers": 5245,
    "rit": 5246,
    "\u2581snowmobil": 5247,
    "\u2581Garden": 5248,
    "\u2581locomotive": 5249,
    "\u2581melon": 5250,
    "\u2581chore": 5251,
    "\u2581circuit": 5252,
    "ces": 5253,
    "\u2581Farmer": 5254,
    "\u2581wav": 5255,
    "\u2581grain": 5256,
    "\u2581reporter": 5257,
    "uzzled": 5258,
    "alo": 5259,
    "owl": 5260,
    "\u2581troop": 5261,
    "\u2581participant": 5262,
    "\u2581twin": 5263,
    "\u2581chi": 5264,
    "\u2581locker": 5265,
    "\u2581brace": 5266,
    "\u2581decid": 5267,
    "\u2581decor": 5268,
    "\u2581coconut": 5269,
    "\u2581sausage": 5270,
    "\u2581Side": 5271,
    "ssed": 5272,
    "\u2581kimono": 5273,
    "\u2581condition": 5274,
    "\u2581Rollerblade": 5275,
    "\u2581happen": 5276,
    "\u2581Na": 5277,
    "\u2581bridesmaid": 5278,
    "\u2581rollerblad": 5279,
    "oy": 5280,
    "\u2581penguin": 5281,
    "empt": 5282,
    "\u2581bystander": 5283,
    "\u2581pajama": 5284,
    "\u2581bone": 5285,
    "\u2581hugg": 5286,
    "\u2581shingle": 5287,
    "Ex": 5288,
    "\u2581unwrap": 5289,
    "serves": 5290,
    "\u2581drawer": 5291,
    "bli": 5292,
    "rader": 5293,
    "rain": 5294,
    "iner": 5295,
    "\u2581guid": 5296,
    "beater": 5297,
    "loud": 5298,
    "\u2581comic": 5299,
    "Guitar": 5300,
    "heel": 5301,
    "Wel": 5302,
    "lock": 5303,
    "color": 5304,
    "posing": 5305,
    "\u2581Color": 5306,
    "ecker": 5307,
    "hold": 5308,
    "plane": 5309,
    "stride": 5310,
    "legged": 5311,
    "safe": 5312,
    "national": 5313,
    "mark": 5314,
    "ier": 5315,
    "box": 5316,
    "venue": 5317,
    "nail": 5318,
    "thumbs": 5319,
    "chase": 5320,
    "bound": 5321,
    "operate": 5322,
    "load": 5323,
    "Easter": 5324,
    "first": 5325,
    "ship": 5326,
    "task": 5327,
    "bread": 5328,
    "free": 5329,
    "scooter": 5330,
    "flip": 5331,
    "block": 5332,
    "\u2581Play": 5333,
    "golf": 5334,
    "school": 5335,
    "distance": 5336,
    "hammer": 5337,
    "floor": 5338,
    "crowded": 5339,
    "horse": 5340,
    "pole": 5341,
    "stairs": 5342,
    "pants": 5343,
    "shade": 5344,
    "fire": 5345,
    "bra": 5346,
    "wall": 5347,
    "game": 5348,
    "off": 5349,
    "raised": 5350,
    "boo": 5351,
    "class": 5352,
    "gun": 5353,
    "fo": 5354,
    "\u2581downward": 5355,
    "\u2581blur": 5356,
    "\u2581zi": 5357,
    "nded": 5358,
    "phon": 5359,
    "spectac": 5360,
    "\u2581gallo": 5361,
    "umb": 5362,
    "\u2581architectur": 5363,
    "away": 5364,
    "\u2581windsurf": 5365,
    "\u2581cam": 5366,
    "older": 5367,
    "\u2581inflat": 5368,
    "\u2581crow": 5369,
    "\u2581injur": 5370,
    "\u2581bikin": 5371,
    "\u2581sideline": 5372,
    "\u2581struggle": 5373,
    "inde": 5374,
    "\u2581Lou": 5375,
    "boy": 5376,
    "oker": 5377,
    "\u2581possibl": 5378,
    "\u2581descri": 5379,
    "ushi": 5380,
    "\u2581kil": 5381,
    "semble": 5382,
    "coat": 5383,
    "umbl": 5384,
    "\u2581breakdance": 5385,
    "aint": 5386,
    "ngu": 5387,
    "\u2581ele": 5388,
    "burn": 5389,
    "\u2581blank": 5390,
    "\u2581baker": 5391,
    "uggling": 5392,
    "\u2581respective": 5393,
    "oggers": 5394,
    "\u2581gam": 5395,
    "\u2581attentive": 5396,
    "\u2581speci": 5397,
    "pee": 5398,
    "\u2581Farm": 5399,
    "\u2581cultur": 5400,
    "lons": 5401,
    "oc": 5402,
    "\u2581should": 5403,
    "\u2581wineglass": 5404,
    "\u2581Shop": 5405,
    "dam": 5406,
    "\u2581crayo": 5407,
    "\u2581Music": 5408,
    "reeze": 5409,
    "raphic": 5410,
    "\u2581clos": 5411,
    "actory": 5412,
    "\u2581squir": 5413,
    "\u2581enthusiastic": 5414,
    "unglasses": 5415,
    "climbing": 5416,
    "\u2581technic": 5417,
    "horts": 5418,
    "eteran": 5419,
    "\u2581quarte": 5420,
    "\u2581express": 5421,
    "ridesmaids": 5422,
    "\u2581parachuti": 5423,
    "\u2581bru": 5424,
    "\u2581sauce": 5425,
    "blading": 5426,
    "ircus": 5427,
    "\u2581sac": 5428,
    "\u2581hydra": 5429,
    "source": 5430,
    "\u2581affect": 5431,
    "aintenance": 5432,
    "xford": 5433,
    "\u2581repel": 5434,
    "ibbon": 5435,
    "bum": 5436,
    "cussion": 5437,
    "\u2581residen": 5438,
    "\u2581euro": 5439,
    "\u2581Euro": 5440,
    "\u2581Isla": 5441,
    "\u2581neighbor": 5442,
    "awasaki": 5443,
    "\u2581pleas": 5444,
    "painting": 5445,
    "udweiser": 5446,
    "\u2581spaghetti": 5447,
    "\u2581appropriate": 5448,
    "\u2581eccentric": 5449,
    "\u2581exhaust": 5450,
    "\u2581expectant": 5451,
    "\u2581experienc": 5452,
    "\u2581intertwin": 5453,
    "\u2581majestic": 5454,
    "\u2581mischievous": 5455,
    "\u2581obstruct": 5456,
    "\u2581refrigerat": 5457,
    "\u2581terrori": 5458,
    "EGO": 5459,
    "altitude": 5460,
    "ggressive": 5461,
    "immigration": 5462,
    "labradoodle": 5463,
    "mputee": 5464,
    "ographed": 5465,
    "rancisco": 5466,
    "\u2581Alaska": 5467,
    "\u2581Angeles": 5468,
    "\u2581Atlanta": 5469,
    "\u2581Camel": 5470,
    "\u2581Challenge": 5471,
    "\u2581Cricket": 5472,
    "\u2581Crocs": 5473,
    "\u2581David": 5474,
    "\u2581Doberman": 5475,
    "\u2581Engine": 5476,
    "\u2581Golden": 5477,
    "\u2581Heineken": 5478,
    "\u2581Iowa": 5479,
    "\u2581Israel": 5480,
    "\u2581Pokemon": 5481,
    "\u2581SWAT": 5482,
    "\u2581Seahawks": 5483,
    "\u2581World": 5484,
    "\u2581Yankee": 5485,
    "\u2581amplifier": 5486,
    "\u2581anticipati": 5487,
    "\u2581assignment": 5488,
    "\u2581awkward": 5489,
    "\u2581bazaar": 5490,
    "\u2581beanbag": 5491,
    "\u2581billiard": 5492,
    "\u2581bonfire": 5493,
    "\u2581boutique": 5494,
    "\u2581broccoli": 5495,
    "\u2581burrito": 5496,
    "\u2581certificate": 5497,
    "\u2581clipboard": 5498,
    "\u2581collaps": 5499,
    "\u2581condiment": 5500,
    "\u2581congregation": 5501,
    "\u2581conveyor": 5502,
    "\u2581cucumber": 5503,
    "\u2581dagger": 5504,
    "\u2581demolishe": 5505,
    "\u2581diagram": 5506,
    "\u2581diamond": 5507,
    "\u2581didgeridoo": 5508,
    "\u2581difficult": 5509,
    "\u2581diploma": 5510,
    "\u2581distracted": 5511,
    "\u2581district": 5512,
    "\u2581entrepreneur": 5513,
    "\u2581espresso": 5514,
    "\u2581eyebrow": 5515,
    "\u2581eyeliner": 5516,
    "\u2581fundraiser": 5517,
    "\u2581grandparents": 5518,
    "\u2581igloo": 5519,
    "\u2581irritated": 5520,
    "\u2581kabob": 5521,
    "\u2581knoll": 5522,
    "\u2581lettuce": 5523,
    "\u2581london": 5524,
    "\u2581loudspeaker": 5525,
    "\u2581manipulat": 5526,
    "\u2581masonry": 5527,
    "\u2581memorabilia": 5528,
    "\u2581mortar": 5529,
    "\u2581mulch": 5530,
    "\u2581obscur": 5531,
    "\u2581occasion": 5532,
    "\u2581pamphlet": 5533,
    "\u2581pearls": 5534,
    "\u2581peppers": 5535,
    "\u2581pomeranian": 5536,
    "\u2581pompoms": 5537,
    "\u2581private": 5538,
    "\u2581reason": 5539,
    "\u2581recoil": 5540,
    "\u2581restaraunt": 5541,
    "\u2581saxophonist": 5542,
    "\u2581scientific": 5543,
    "\u2581seminar": 5544,
    "\u2581sequence": 5545,
    "\u2581skyscraper": 5546,
    "\u2581snooze": 5547,
    "\u2581snowdrift": 5548,
    "\u2581success": 5549,
    "\u2581superior": 5550,
    "\u2581suspect": 5551,
    "\u2581syrup": 5552,
    "\u2581thousands": 5553,
    "\u2581tortillas": 5554,
    "\u2581typewriter": 5555,
    "\u2581vessel": 5556,
    "\u2581volcano": 5557,
    "\u2581wreck": 5558,
    "\u2581chute": 5559,
    "\u2581drumstick": 5560,
    "\u2581shoelaces": 5561,
    "\u2581Heavy": 5562,
    "\u2581Hopper": 5563,
    "\u2581Pipe": 5564,
    "\u2581Scooby": 5565,
    "\u2581agitate": 5566,
    "\u2581bombard": 5567,
    "\u2581chinatown": 5568,
    "\u2581conceal": 5569,
    "\u2581conifer": 5570,
    "\u2581declare": 5571,
    "\u2581extinguish": 5572,
    "\u2581illustrati": 5573,
    "\u2581martini": 5574,
    "\u2581moutain": 5575,
    "\u2581neatly": 5576,
    "\u2581remodel": 5577,
    "\u2581renovat": 5578,
    "\u2581shrubbery": 5579,
    "ingbird": 5580,
    "\u2581Ballerina": 5581,
    "\u2581advanc": 5582,
    "\u2581anorak": 5583,
    "\u2581incense": 5584,
    "\u2581kerchief": 5585,
    "\u2581plywood": 5586,
    "\u2581rugged": 5587,
    "\u2581slingshot": 5588,
    "spiration": 5589,
    "\u2581bulb": 5590,
    "\u2581correct": 5591,
    "\u2581generat": 5592,
    "\u2581fishnet": 5593,
    "OME": 5594,
    "\u2581expert": 5595,
    "\u2581shuttle": 5596,
    "\u2581custody": 5597,
    "\u2581keg": 5598,
    "\u2581mime": 5599,
    "\u2581slouch": 5600,
    "ictoria": 5601,
    "\u2581identif": 5602,
    "\u2581incredibl": 5603,
    "\u2581karaoke": 5604,
    "randfather": 5605,
    "\u2581author": 5606,
    "\u2581grimace": 5607,
    "\u2581hops": 5608,
    "\u2581ignore": 5609,
    "\u2581ecstatically": 5610,
    "\u2581jagged": 5611,
    "\u2581Sunday": 5612,
    "\u2581swirl": 5613,
    "\u2581tickl": 5614,
    "buster": 5615,
    "\u2581knead": 5616,
    "\u2581worship": 5617,
    "\u2581humorous": 5618,
    "arshmallow": 5619,
    "\u2581cashier": 5620,
    "\u2581compos": 5621,
    "aneous": 5622,
    "\u2581Forever": 5623,
    "\u2581reenact": 5624,
    "\u2581edible": 5625,
    "\u2581icicle": 5626,
    "\u2581astonish": 5627,
    "\u2581hippie": 5628,
    "\u2581perfume": 5629,
    "\u2581violence": 5630,
    "\u2581cleav": 5631,
    "\u2581tilted": 5632,
    "\u2581residence": 5633,
    "\u2581urinal": 5634,
    "\u2581postcards": 5635,
    "\u2581wounds": 5636,
    "\u2581revers": 5637,
    "\u2581warrior": 5638,
    "\u2581seashell": 5639,
    "\u2581necktie": 5640,
    "\u2581collision": 5641,
    "\u2581ribs": 5642,
    "\u2581Smoke": 5643,
    "\u2581misc": 5644,
    "\u2581spider": 5645,
    "\u2581stapl": 5646,
    "\u2581masterpiece": 5647,
    "\u2581repelling": 5648,
    "\u2581lesson": 5649,
    "\u2581Musta": 5650,
    "\u2581whale": 5651,
    "orah": 5652,
    "\u2581management": 5653,
    "\u2581recital": 5654,
    "\u2581tinsel": 5655,
    "\u2581Wheel": 5656,
    "\u2581volley": 5657,
    "lpin": 5658,
    "\u2581function": 5659,
    "\u2581silverware": 5660,
    "\u2581piling": 5661,
    "\u2581peanut": 5662,
    "\u2581faith": 5663,
    "\u2581winks": 5664,
    "IG": 5665,
    "\u2581scoring": 5666,
    "ulture": 5667,
    "plica": 5668,
    "\u2581cornfield": 5669,
    "\u2581resource": 5670,
    "\u2581plaque": 5671,
    "\u2581Coke": 5672,
    "\u2581starfish": 5673,
    "\u2581Every": 5674,
    "\u2581Egy": 5675,
    "\u2581Harlem": 5676,
    "\u2581restrain": 5677,
    "ackson": 5678,
    "\u2581Domino": 5679,
    "\u2581access": 5680,
    "\u2581convi": 5681,
    "\u2581Broad": 5682,
    "\u2581squash": 5683,
    "\u2581smart": 5684,
    "\u2581oxford": 5685,
    "\u2581saucer": 5686,
    "\u2581assistance": 5687,
    "\u2581pork": 5688,
    "\u2581mara": 5689,
    "uz": 5690,
    "\u2581chur": 5691,
    "\u2581hardware": 5692,
    "EN": 5693,
    "\u2581protectors": 5694,
    "igan": 5695,
    "\u2581crag": 5696,
    "\u2581unlock": 5697,
    "\u2581Redhead": 5698,
    "\u2581dalmatian": 5699,
    "\u2581fairground": 5700,
    "\u2581Pelo": 5701,
    "\u2581entry": 5702,
    "AL": 5703,
    "\u2581vict": 5704,
    "\u2581viking": 5705,
    "\u2581veteran": 5706,
    "\u2581wander": 5707,
    "AR": 5708,
    "iffe": 5709,
    "\u2581lovers": 5710,
    "\u2581commute": 5711,
    "AM": 5712,
    "\u2581riverbed": 5713,
    "\u2581witness": 5714,
    "\u2581Human": 5715,
    "\u2581reaction": 5716,
    "\u2581dachshund": 5717,
    "\u2581oak": 5718,
    "\u2581Block": 5719,
    "\u2581slim": 5720,
    "\u2581budget": 5721,
    "\u2581crim": 5722,
    "\u2581Hind": 5723,
    "ible": 5724,
    "\u2581dragster": 5725,
    "\u2581Peter": 5726,
    "\u2581camo": 5727,
    "\u2581Row": 5728,
    "diction": 5729,
    "\u2581hitchhiking": 5730,
    "ayaker": 5731,
    "nual": 5732,
    "\u2581grownup": 5733,
    "\u2581teeter": 5734,
    "\u2581propeller": 5735,
    "\u2581kickboxer": 5736,
    "\u2581Out": 5737,
    "\u2581Swan": 5738,
    "\u2581thong": 5739,
    "\u2581colonial": 5740,
    "\u2581sedan": 5741,
    "\u2581Bank": 5742,
    "\u2581lava": 5743,
    "gant": 5744,
    "Phone": 5745,
    "\u2581Ori": 5746,
    "\u2581Bra": 5747,
    "\u2581cob": 5748,
    "\u2581bales": 5749,
    "\u2581farmland": 5750,
    "\u2581slant": 5751,
    "fact": 5752,
    "\u2581newscaster": 5753,
    "\u2581oval": 5754,
    "alia": 5755,
    "\u2581DI": 5756,
    "mates": 5757,
    "urses": 5758,
    "\u2581communication": 5759,
    "\u2581stories": 5760,
    "\u2581flick": 5761,
    "ER": 5762,
    "\u2581turf": 5763,
    "\u2581saro": 5764,
    "\u2581trudg": 5765,
    "AGA": 5766,
    "\u2581examination": 5767,
    "usiness": 5768,
    "\u2581dumb": 5769,
    "\u2581thro": 5770,
    "\u2581Snow": 5771,
    "\u2581ranch": 5772,
    "\u2581disco": 5773,
    "\u2581Mc": 5774,
    "\u2581bored": 5775,
    "\u2581Port": 5776,
    "\u2581innocen": 5777,
    "\u2581intern": 5778,
    "tial": 5779,
    "derate": 5780,
    "\u2581travelling": 5781,
    "\u2581Chan": 5782,
    "\u2581trooper": 5783,
    "\u2581Story": 5784,
    "\u2581halfway": 5785,
    "\u2581spice": 5786,
    "inspir": 5787,
    "\u2581Bug": 5788,
    "\u2581ram": 5789,
    "\u2581crus": 5790,
    "\u2581creation": 5791,
    "\u2581hunter": 5792,
    "\u2581slipper": 5793,
    "ication": 5794,
    "\u2581parti": 5795,
    "\u2581rim": 5796,
    "\u2581meter": 5797,
    "\u2581twenty": 5798,
    "\u2581resembl": 5799,
    "ACE": 5800,
    "\u2581Bright": 5801,
    "\u2581wetland": 5802,
    "bby": 5803,
    "\u2581fam": 5804,
    "\u2581hamm": 5805,
    "\u2581dodg": 5806,
    "\u2581treatment": 5807,
    "\u2581handhold": 5808,
    "\u2581weightlift": 5809,
    "\u2581Engl": 5810,
    "very": 5811,
    "scope": 5812,
    "\u2581manner": 5813,
    "Watch": 5814,
    "\u2581Tree": 5815,
    "Cyclone": 5816,
    "yellow": 5817,
    "\u2581blankly": 5818,
    "\u2581respectively": 5819,
    "\u2581Pret": 5820,
    "\u2581consume": 5821,
    "affe": 5822,
    "\u2581median": 5823,
    "\u2581hous": 5824,
    "\u2581spare": 5825,
    "\u2581breakdancer": 5826,
    "\u2581later": 5827,
    "\u2581fran": 5828,
    "\u2581massage": 5829,
    "tilts": 5830,
    "\u2581labor": 5831,
    "escription": 5832,
    "uve": 5833,
    "\u2581linens": 5834,
    "\u2581bask": 5835,
    "\u2581corgi": 5836,
    "\u2581troll": 5837,
    "\u2581dollar": 5838,
    "\u2581fasten": 5839,
    "\u2581exchang": 5840,
    "\u2581projection": 5841,
    "\u2581fitting": 5842,
    "\u2581met": 5843,
    "\u2581carrot": 5844,
    "\u2581scan": 5845,
    "\u2581Top": 5846,
    "\u2581congr": 5847,
    "lub": 5848,
    "\u2581sparsely": 5849,
    "ffer": 5850,
    "\u2581capital": 5851,
    "\u2581Ore": 5852,
    "\u2581Ha": 5853,
    "\u2581pastry": 5854,
    "\u2581grave": 5855,
    "irway": 5856,
    "\u2581motorist": 5857,
    "\u2581masses": 5858,
    "\u2581carol": 5859,
    "\u2581kayaker": 5860,
    "chief": 5861,
    "\u2581hors": 5862,
    "\u2581beaut": 5863,
    "\u2581par": 5864,
    "\u2581nuts": 5865,
    "\u2581dapple": 5866,
    "\u2581journal": 5867,
    "\u2581crank": 5868,
    "\u2581Cor": 5869,
    "\u2581vision": 5870,
    "\u2581Wood": 5871,
    "chu": 5872,
    "\u2581Nor": 5873,
    "\u2581divide": 5874,
    "\u2581visitor": 5875,
    "\u2581cuddl": 5876,
    "\u2581passage": 5877,
    "\u2581Gen": 5878,
    "\u2581architecture": 5879,
    "\u2581Italy": 5880,
    "\u2581culture": 5881,
    "\u2581competitively": 5882,
    "\u2581softly": 5883,
    "ford": 5884,
    "\u2581headdresses": 5885,
    "icken": 5886,
    "\u2581Heal": 5887,
    "\u2581puzzled": 5888,
    "\u2581dingy": 5889,
    "ormal": 5890,
    "pace": 5891,
    "\u2581fencers": 5892,
    "ordin": 5893,
    "\u2581physical": 5894,
    "\u2581heel": 5895,
    "elp": 5896,
    "\u2581law": 5897,
    "\u2581shark": 5898,
    "rapher": 5899,
    "\u2581retr": 5900,
    "eners": 5901,
    "tude": 5902,
    "anda": 5903,
    "errier": 5904,
    "\u2581mine": 5905,
    "\u2581spat": 5906,
    "ield": 5907,
    "abst": 5908,
    "\u2581potter": 5909,
    "\u2581fanny": 5910,
    "\u2581tackler": 5911,
    "crunch": 5912,
    "\u2581quietly": 5913,
    "HL": 5914,
    "\u2581logger": 5915,
    "\u2581figurines": 5916,
    "\u2581roots": 5917,
    "\u2581colleagues": 5918,
    "\u2581Outdoors": 5919,
    "\u2581instructions": 5920,
    "\u2581olympics": 5921,
    "\u2581metalworking": 5922,
    "\u2581scrubbing": 5923,
    "\u2581recycling": 5924,
    "\u2581saluting": 5925,
    "\u2581snarling": 5926,
    "\u2581tru": 5927,
    "\u2581bill": 5928,
    "\u2581Sled": 5929,
    "\u2581shell": 5930,
    "\u2581filed": 5931,
    "tions": 5932,
    "\u2581galo": 5933,
    "\u2581giggl": 5934,
    "gen": 5935,
    "\u2581vi": 5936,
    "\u2581peddler": 5937,
    "\u2581setup": 5938,
    "\u2581populat": 5939,
    "\u2581folders": 5940,
    "\u2581Patro": 5941,
    "\u2581Her": 5942,
    "\u2581sandwiches": 5943,
    "addle": 5944,
    "Carol": 5945,
    "\u2581May": 5946,
    "\u2581occurred": 5947,
    "\u2581warmers": 5948,
    "\u2581Guitar": 5949,
    "\u2581inspector": 5950,
    "\u2581national": 5951,
    "tails": 5952,
    "\u2581Wel": 5953,
    "\u2581reference": 5954,
    "\u2581continue": 5955,
    "\u2581investigate": 5956,
    "\u2581loud": 5957,
    "\u2581streamers": 5958,
    "\u2581cent": 5959,
    "\u2581lungi": 5960,
    "\u2581Wo": 5961,
    "\u2581jou": 5962,
    "\u2581movement": 5963,
    "\u2581recorder": 5964,
    "What": 5965,
    "rawl": 5966,
    "fighting": 5967,
    "oles": 5968,
    "atory": 5969,
    "\u2581unwrapp": 5970,
    "\u2581vat": 5971,
    "opy": 5972,
    "\u2581height": 5973,
    "quet": 5974,
    "\u2581Padd": 5975,
    "\u2581rocket": 5976,
    "esco": 5977,
    "\u2581Chevro": 5978,
    "tioning": 5979,
    "\u2581univers": 5980,
    "sea": 5981,
    "\u2581gna": 5982,
    "acky": 5983,
    "ctive": 5984,
    "\u2581list": 5985,
    "idewalk": 5986,
    "ICE": 5987,
    "\u2581comical": 5988,
    "\u2581drumm": 5989,
    "OR": 5990,
    "\u2581fisherm": 5991,
    "them": 5992,
    "\u2581leak": 5993,
    "\u2581grains": 5994,
    "\u2581twins": 5995,
    "\u2581penguins": 5996,
    "\u2581chores": 5997,
    "\u2581Gardens": 5998,
    "\u2581locomotives": 5999,
    "\u2581melons": 6000,
    "\u2581circuits": 6001,
    "\u2581Farmers": 6002,
    "\u2581snowmobiling": 6003,
    "\u2581reporters": 6004,
    "tive": 6005,
    "iers": 6006,
    "\u2581lockers": 6007,
    "fro": 6008,
    "\u2581caged": 6009,
    "\u2581intri": 6010,
    "lush": 6011,
    "\u2581sliced": 6012,
    "\u2581dangl": 6013,
    "\u2581harvested": 6014,
    "\u2581drawers": 6015,
    "fit": 6016,
    "\u2581sous": 6017,
    "ild": 6018,
    "\u2581straddl": 6019,
    "eath": 6020,
    "Spring": 6021,
    "\u2581alter": 6022,
    "\u2581Col": 6023,
    "\u2581deal": 6024,
    "\u2581folk": 6025,
    "Twister": 6026,
    "\u2581hide": 6027,
    "\u2581hides": 6028,
    "\u2581Newly": 6029,
    "jac": 6030,
    "HO": 6031,
    "Paris": 6032,
    "\u2581props": 6033,
    "\u2581cracker": 6034,
    "\u2581min": 6035,
    "\u2581Del": 6036,
    "rubs": 6037,
    "\u2581blinds": 6038,
    "\u2581jackhammers": 6039,
    "\u2581hedges": 6040,
    "\u2581joggers": 6041,
    "\u2581chopped": 6042,
    "\u2581Cal": 6043,
    "\u2581glowing": 6044,
    "\u2581taped": 6045,
    "\u2581Pee": 6046,
    "zing": 6047,
    "\u2581bout": 6048,
    "\u2581Fin": 6049,
    "\u2581bulls": 6050,
    "\u2581Nes": 6051,
    "\u2581golfers": 6052,
    "tables": 6053,
    "chest": 6054,
    "lack": 6055,
    "\u2581downwards": 6056,
    "wister": 6057,
    "\u2581Per": 6058,
    "across": 6059,
    "\u2581cutter": 6060,
    "aris": 6061,
    "\u2581operat": 6062,
    "\u2581Beach": 6063,
    "\u2581med": 6064,
    "\u2581Lab": 6065,
    "\u2581leave": 6066,
    "\u2581imme": 6067,
    "\u2581matches": 6068,
    "\u2581archaeologi": 6069,
    "\u2581average": 6070,
    "nse": 6071,
    "\u2581sweets": 6072,
    "\u2581pancakes": 6073,
    "\u2581brochures": 6074,
    "\u2581questions": 6075,
    "\u2581wrists": 6076,
    "\u2581instructors": 6077,
    "painted": 6078,
    "\u2581pla": 6079,
    "same": 6080,
    "win": 6081,
    "\u2581audi": 6082,
    "inker": 6083,
    "lease": 6084,
    "rests": 6085,
    "\u2581stan": 6086,
    "\u2581unk": 6087,
    "\u2581clipp": 6088,
    "\u2581vaulting": 6089,
    "\u2581passer": 6090,
    "\u2581wit": 6091,
    "uation": 6092,
    "\u2581charge": 6093,
    "TE": 6094,
    "\u2581spher": 6095,
    "\u2581bas": 6096,
    "\u2581relaxed": 6097,
    "oun": 6098,
    "\u2581di": 6099,
    "dj": 6100,
    "mp": 6101,
    "\u2581pigs": 6102,
    "\u2581sisters": 6103,
    "\u2581messages": 6104,
    "\u2581collective": 6105,
    "tal": 6106,
    "lights": 6107,
    "\u2581thoughtful": 6108,
    "\u2581captur": 6109,
    "show": 6110,
    "\u2581emb": 6111,
    "\u2581communicate": 6112,
    "orts": 6113,
    "oyed": 6114,
    "\u2581hunt": 6115,
    "tics": 6116,
    "eeps": 6117,
    "\u2581De": 6118,
    "ques": 6119,
    "\u2581ascends": 6120,
    "\u2581skulls": 6121,
    "\u2581briefcases": 6122,
    "\u2581handbags": 6123,
    "\u2581strips": 6124,
    "\u2581beater": 6125,
    "rics": 6126,
    "enya": 6127,
    "Mari": 6128,
    "stead": 6129,
    "tard": 6130,
    "\u2581Astro": 6131,
    "\u2581Teach": 6132,
    "mas": 6133,
    "gg": 6134,
    "\u2581Gre": 6135,
    "\u2581ten": 6136,
    "\u2581loves": 6137,
    "\u2581bucks": 6138,
    "\u2581weights": 6139,
    "\u2581Ship": 6140,
    "\u2581seasoning": 6141,
    "\u2581topping": 6142,
    "\u2581tumble": 6143,
    "overing": 6144,
    "hing": 6145,
    "\u2581toil": 6146,
    "houses": 6147,
    "ators": 6148,
    "omp": 6149,
    "ow": 6150,
    "\u2581controll": 6151,
    "ove": 6152,
    "\u2581sole": 6153,
    "\u2581throughout": 6154,
    "\u2581humans": 6155,
    "\u2581wakeboards": 6156,
    "\u2581diners": 6157,
    "att": 6158,
    "flated": 6159,
    "asse": 6160,
    "HS": 6161,
    "andy": 6162,
    "\u2581humm": 6163,
    "rick": 6164,
    "\u2581started": 6165,
    "sung": 6166,
    "cura": 6167,
    "\u2581Ge": 6168,
    "\u2581shooter": 6169,
    "\u2581pic": 6170,
    "\u2581rifles": 6171,
    "\u2581reflections": 6172,
    "leading": 6173,
    "urs": 6174,
    "\u2581patt": 6175,
    "\u2581Wh": 6176,
    "DA": 6177,
    "\u2581wrapper": 6178,
    "\u2581My": 6179,
    "\u2581traveler": 6180,
    "\u2581supports": 6181,
    "\u2581sunbathe": 6182,
    "ars": 6183,
    "tribut": 6184,
    "aker": 6185,
    "\u2581rippl": 6186,
    "ide": 6187,
    "\u2581cupp": 6188,
    "\u2581allow": 6189,
    "\u2581pitche": 6190,
    "ubble": 6191,
    "\u2581ethnicit": 6192,
    "ohns": 6193,
    "\u2581sodas": 6194,
    "Birthday": 6195,
    "\u2581alo": 6196,
    "\u2581knitt": 6197,
    "rum": 6198,
    "ril": 6199,
    "\u2581screened": 6200,
    "\u2581toll": 6201,
    "\u2581playful": 6202,
    "\u2581blackboard": 6203,
    "\u2581dies": 6204,
    "opping": 6205,
    "\u2581Ho": 6206,
    "\u2581targets": 6207,
    "\u2581exercises": 6208,
    "\u2581snowsuits": 6209,
    "itz": 6210,
    "\u2581ve": 6211,
    "\u2581Sw": 6212,
    "ngs": 6213,
    "\u2581mea": 6214,
    "\u2581Dep": 6215,
    "\u2581stuc": 6216,
    "\u2581jets": 6217,
    "\u2581officials": 6218,
    "trick": 6219,
    "\u2581viole": 6220,
    "\u2581camps": 6221,
    "tanding": 6222,
    "apa": 6223,
    "now": 6224,
    "olution": 6225,
    "shed": 6226,
    "builder": 6227,
    "rec": 6228,
    "onto": 6229,
    "\u2581glide": 6230,
    "sary": 6231,
    "cue": 6232,
    "\u2581slee": 6233,
    "icles": 6234,
    "\u2581spoons": 6235,
    "dio": 6236,
    "\u2581Gla": 6237,
    "Bell": 6238,
    "uffle": 6239,
    "\u2581Live": 6240,
    "\u2581provid": 6241,
    "bee": 6242,
    "exic": 6243,
    "\u2581cos": 6244,
    "\u2581croc": 6245,
    "ley": 6246,
    "tract": 6247,
    "ev": 6248,
    "dan": 6249,
    "gains": 6250,
    "\u2581Rev": 6251,
    "twe": 6252,
    "ists": 6253,
    "ins": 6254,
    "\u2581routines": 6255,
    "\u2581Ro": 6256,
    "\u2581Mark": 6257,
    "\u2581til": 6258,
    "\u2581Loca": 6259,
    "ascar": 6260,
    "\u2581Iz": 6261,
    "\u2581rec": 6262,
    "\u2581stro": 6263,
    "\u2581actions": 6264,
    "\u2581drummers": 6265,
    "uss": 6266,
    "ican": 6267,
    "\u2581Bar": 6268,
    "lli": 6269,
    "lie": 6270,
    "\u2581Spar": 6271,
    "\u2581Sun": 6272,
    "\u2581ye": 6273,
    "eta": 6274,
    "\u2581wagons": 6275,
    "hal": 6276,
    "\u2581Sp": 6277,
    "\u2581Di": 6278,
    "tin": 6279,
    "\u2581Lam": 6280,
    "dul": 6281,
    "\u2581Roo": 6282,
    "ough": 6283,
    "\u2581planes": 6284,
    "\u2581escalators": 6285,
    "tem": 6286,
    "lowly": 6287,
    "hook": 6288,
    "inted": 6289,
    "umming": 6290,
    "\u2581packs": 6291,
    "\u2581shi": 6292,
    "\u2581helm": 6293,
    "\u2581winds": 6294,
    "aches": 6295,
    "\u2581bandannas": 6296,
    "scape": 6297,
    "\u2581sou": 6298,
    "rod": 6299,
    "pac": 6300,
    "\u2581Lin": 6301,
    "nts": 6302,
    "ions": 6303,
    "ther": 6304,
    "\u2581mixe": 6305,
    "\u2581supervisi": 6306,
    "ngles": 6307,
    "\u2581mounds": 6308,
    "\u2581tongues": 6309,
    "\u2581tote": 6310,
    "ole": 6311,
    "\u2581coun": 6312,
    "\u2581pens": 6313,
    "ho": 6314,
    "gym": 6315,
    "jects": 6316,
    "ets": 6317,
    "\u2581podiums": 6318,
    "\u2581Sub": 6319,
    "\u2581Is": 6320,
    "\u2581uni": 6321,
    "\u2581dent": 6322,
    "tu": 6323,
    "\u2581sla": 6324,
    "enna": 6325,
    "ribe": 6326,
    "\u2581seas": 6327,
    "\u2581Dor": 6328,
    "\u2581waterfalls": 6329,
    "boards": 6330,
    "\u2581forge": 6331,
    "park": 6332,
    "waits": 6333,
    "gets": 6334,
    "Read": 6335,
    "umble": 6336,
    "\u2581vie": 6337,
    "use": 6338,
    "\u2581nation": 6339,
    "\u2581necks": 6340,
    "\u2581stil": 6341,
    "\u2581rav": 6342,
    "ead": 6343,
    "tis": 6344,
    "hit": 6345,
    "\u2581swi": 6346,
    "\u2581buttons": 6347,
    "\u2581circles": 6348,
    "\u2581stylis": 6349,
    "\u2581openings": 6350,
    "\u2581viol": 6351,
    "\u2581curr": 6352,
    "tor": 6353,
    "ndo": 6354,
    "moo": 6355,
    "\u2581bud": 6356,
    "\u2581confus": 6357,
    "gri": 6358,
    "\u2581haz": 6359,
    "scar": 6360,
    "\u2581fr": 6361,
    "\u2581sparkl": 6362,
    "\u2581j": 6363,
    "bank": 6364,
    "mming": 6365,
    "tre": 6366,
    "con": 6367,
    "\u2581patrioti": 6368,
    "lo": 6369,
    "lass": 6370,
    "\u2581To": 6371,
    "low": 6372,
    "\u2581pri": 6373,
    "\u2581Prince": 6374,
    "lee": 6375,
    "Oh": 6376,
    "\u2581plug": 6377,
    "\u2581Gra": 6378,
    "\u2581Pat": 6379,
    "art": 6380,
    "\u2581dir": 6381,
    "\u2581Coun": 6382,
    "eat": 6383,
    "\u2581gl": 6384,
    "emporary": 6385,
    "\u2581bal": 6386,
    "\u2581inclin": 6387,
    "tain": 6388,
    "pti": 6389,
    "Fr": 6390,
    "ume": 6391,
    "eak": 6392,
    "termin": 6393,
    "gain": 6394,
    "\u2581swe": 6395,
    "pit": 6396,
    "\u2581compa": 6397,
    "\u2581waterski": 6398,
    "falls": 6399,
    "otorcyclist": 6400,
    "ams": 6401,
    "ct": 6402,
    "\u2581observ": 6403,
    "atyl": 6404,
    "\u2581tw": 6405,
    "\u2581signif": 6406,
    "\u2581arc": 6407,
    "\u2581Count": 6408,
    "pressing": 6409,
    "\u2581Swi": 6410,
    "rie": 6411,
    "\u2581Bi": 6412,
    "\u2581Stan": 6413,
    "\u2581Fa": 6414,
    "\u2581Fair": 6415,
    "zer": 6416,
    "\u2581Gi": 6417,
    "igger": 6418,
    "ouch": 6419,
    "du": 6420,
    "horn": 6421,
    "\u2581graduat": 6422,
    "\u2581stru": 6423,
    "\u2581ripple": 6424,
    "mod": 6425,
    "\u2581pat": 6426,
    "LO": 6427,
    "oma": 6428,
    "vention": 6429,
    "mine": 6430,
    "cur": 6431,
    "riff": 6432,
    "ket": 6433,
    "ope": 6434,
    "nning": 6435,
    "aders": 6436,
    "old": 6437,
    "\u2581Shel": 6438,
    "\u2581ham": 6439,
    "qui": 6440,
    "\u2581cul": 6441,
    "\u2581Shi": 6442,
    "\u2581cor": 6443,
    "\u2581Cr": 6444,
    "ect": 6445,
    "\u2581cra": 6446,
    "ravag": 6447,
    "angle": 6448,
    "nion": 6449,
    "lac": 6450,
    "\u2581Shirt": 6451,
    "how": 6452,
    "\u2581extra": 6453,
    "\u2581Hea": 6454,
    "\u2581packag": 6455,
    "\u2581hi": 6456,
    "\u2581Par": 6457,
    "\u2581tu": 6458,
    "ripe": 6459,
    "ltim": 6460,
    "bor": 6461,
    "night": 6462,
    "\u2581cata": 6463,
    "ateway": 6464,
    "esigner": 6465,
    "IS": 6466,
    "\u2581ban": 6467,
    "dye": 6468,
    "\u2581thre": 6469,
    "resses": 6470,
    "\u2581Wal": 6471,
    "law": 6472,
    "wling": 6473,
    "\u2581Russ": 6474,
    "pack": 6475,
    "rish": 6476,
    "ttle": 6477,
    "sphere": 6478,
    "\u2581sli": 6479,
    "rags": 6480,
    "nu": 6481,
    "\u2581spac": 6482,
    "\u2581situat": 6483,
    "rgan": 6484,
    "ncil": 6485,
    "eezer": 6486,
    "\u2581birth": 6487,
    "ots": 6488,
    "lipper": 6489,
    "\u2581voca": 6490,
    "verage": 6491,
    "rchaeologi": 6492,
    "rder": 6493,
    "obes": 6494,
    "udi": 6495,
    "combs": 6496,
    "\u2581blu": 6497,
    "nda": 6498,
    "dolescent": 6499,
    "fr": 6500,
    "\u2581Gri": 6501,
    "road": 6502,
    "vailable": 6503,
    "\u2581amus": 6504,
    "\u2581Fr": 6505,
    "ction": 6506,
    "\u2581assembl": 6507,
    "\u2581proc": 6508,
    "crobatic": 6509,
    "ht": 6510,
    "rtwork": 6511,
    "bak": 6512,
    "\u2581Rail": 6513,
    "\u2581landscap": 6514,
    "ease": 6515,
    "ita": 6516,
    "ck": 6517,
    "lley": 6518,
    "town": 6519,
    "\u2581spani": 6520,
    "\u2581soli": 6521,
    "ccompanie": 6522,
    "urf": 6523,
    "mate": 6524,
    "ails": 6525,
    "mmer": 6526,
    "mi": 6527,
    "iness": 6528,
    "\u2581purs": 6529,
    "lope": 6530,
    "trona": 6531,
    "\u2581Oh": 6532,
    "erial": 6533,
    "oration": 6534,
    "ddles": 6535,
    "ended": 6536,
    "media": 6537,
    "lashes": 6538,
    "fant": 6539,
    "\u2581seam": 6540,
    "ski": 6541,
    "q": 6542,
    "cons": 6543,
    "hy": 6544,
    "vision": 6545,
    "ottery": 6546,
    "\u2581fil": 6547,
    "par": 6548,
    "\u2581Or": 6549,
    "\u2581dev": 6550,
    "ater": 6551,
    "hre": 6552,
    "\u2581Pops": 6553,
    "\u2581lect": 6554,
    "awing": 6555,
    "here": 6556,
    "fall": 6557,
    "corn": 6558,
    "pper": 6559,
    "ckle": 6560,
    "EF": 6561,
    "IC": 6562,
    "\u2581Turk": 6563,
    "yhound": 6564,
    "table": 6565,
    "bal": 6566,
    "\u2581Op": 6567,
    "hibi": 6568,
    "\u2581Sta": 6569,
    "umm": 6570,
    "\u2581Chev": 6571,
    "\u2581teache": 6572,
    "rou": 6573,
    "topped": 6574,
    "bed": 6575,
    "band": 6576,
    "lantern": 6577,
    "crew": 6578,
    "\u2581Hil": 6579,
    "shot": 6580,
    "ager": 6581,
    "\u2581pebbl": 6582,
    "\u2581consol": 6583,
    "\u2581Spri": 6584,
    "\u2581rubb": 6585,
    "ph": 6586,
    "ggle": 6587,
    "fish": 6588,
    "case": 6589,
    "\u2581doz": 6590,
    "paint": 6591,
    "own": 6592,
    "rac": 6593,
    "uperman": 6594,
    "hur": 6595,
    "cool": 6596,
    "acket": 6597,
    "\u2581meda": 6598,
    "hin": 6599,
    "\u2581continu": 6600,
    "\u2581investigat": 6601,
    "\u2581referenc": 6602,
    "\u2581san": 6603,
    "oo": 6604,
    "comb": 6605,
    "\u2581intent": 6606,
    "mple": 6607,
    "ock": 6608,
    "ayak": 6609,
    "climb": 6610,
    "real": 6611,
    "Conn": 6612,
    "ehicle": 6613,
    "ai": 6614,
    "urn": 6615,
    "ret": 6616,
    "print": 6617,
    "AN": 6618,
    "wear": 6619,
    "onald": 6620,
    "unch": 6621,
    "\u2581snarl": 6622,
    "\u2581recycl": 6623,
    "\u2581scrubb": 6624,
    "\u2581salut": 6625,
    "\u2581Outdoor": 6626,
    "\u2581colleague": 6627,
    "\u2581olympic": 6628,
    "\u2581figurine": 6629,
    "\u2581root": 6630,
    "\u2581smok": 6631,
    "AH": 6632,
    "\u2581clo": 6633,
    "\u2581instruction": 6634,
    "dition": 6635,
    "\u2581yawn": 6636,
    "\u2581meditat": 6637,
    "\u2581Wai": 6638,
    "\u2581handlebar": 6639,
    "\u2581utensil": 6640,
    "pons": 6641,
    "\u2581feat": 6642,
    "pic": 6643,
    "hopper": 6644,
    "\u2581spo": 6645,
    "\u2581twig": 6646,
    "\u2581dread": 6647,
    "\u2581surgeon": 6648,
    "\u2581Sport": 6649,
    "\u2581prize": 6650,
    "\u2581steak": 6651,
    "rus": 6652,
    "\u2581kickbox": 6653,
    "\u2581competitor": 6654,
    "\u2581dart": 6655,
    "\u2581skydiv": 6656,
    "ctor": 6657,
    "ashioned": 6658,
    "rails": 6659,
    "\u2581sneaker": 6660,
    "\u2581pigtail": 6661,
    "\u2581binocular": 6662,
    "change": 6663,
    "\u2581dreadlock": 6664,
    "\u2581bleacher": 6665,
    "mb": 6666,
    "\u2581Biker": 6667,
    "amm": 6668,
    "\u2581spectator": 6669,
    "endor": 6670,
    "\u2581woodwork": 6671,
    "\u2581discus": 6672,
    "\u2581metalwork": 6673,
    "\u2581physic": 6674,
    "\u2581attra": 6675,
    "\u2581Runner": 6676,
    "skaters": 6677,
    "Pop": 6678,
    "cul": 6679,
    "\u2581mar": 6680,
    "graphy": 6681,
    "\u2581goggle": 6682,
    "\u2581belong": 6683,
    "\u2581figur": 6684,
    "bre": 6685,
    "\u2581opp": 6686,
    "spani": 6687,
    "Olympi": 6688,
    "\u2581mitten": 6689,
    "purs": 6690,
    "praying": 6691,
    "Bar": 6692,
    "Sub": 6693,
    "gro": 6694,
    "\u2581firework": 6695,
    "rrible": 6696,
    "Ri": 6697,
    "run": 6698,
    "undre": 6699,
    "\u2581Texa": 6700,
    "hous": 6701,
    "hakes": 6702,
    "zone": 6703,
    "iving": 6704,
    "ripple": 6705,
    "Live": 6706,
    "\u2581antiqu": 6707,
    "controll": 6708,
    "populat": 6709,
    "tru": 6710,
    "can": 6711,
    "\u2581wedd": 6712,
    "nuts": 6713,
    "tative": 6714,
    "fashion": 6715,
    "vaulting": 6716,
    "journal": 6717,
    "crank": 6718,
    "dapple": 6719,
    "enthusiastic": 6720,
    "cultur": 6721,
    "penguin": 6722,
    "shell": 6723,
    "blaz": 6724,
    "ption": 6725,
    "raise": 6726,
    "cords": 6727,
    "lu": 6728,
    "\u2581shopper": 6729,
    "pain": 6730,
    "\u2581cou": 6731,
    "\u2581boot": 6732,
    "Mac": 6733,
    "\u2581ruin": 6734,
    "cloth": 6735,
    "blown": 6736,
    "Pain": 6737,
    "noodles": 6738,
    "maintain": 6739,
    "Grand": 6740,
    "parent": 6741,
    "\u2581Du": 6742,
    "serv": 6743,
    "covering": 6744,
    "cards": 6745,
    "\u2581headphone": 6746,
    "cock": 6747,
    "cooked": 6748,
    "Happy": 6749,
    "comfortable": 6750,
    "interest": 6751,
    "grown": 6752,
    "rafting": 6753,
    "shield": 6754,
    "pie": 6755,
    "America": 6756,
    "zoo": 6757,
    "Seattle": 6758,
    "South": 6759,
    "shingles": 6760,
    "convention": 6761,
    "appearing": 6762,
    "\u2581Haw": 6763,
    "bones": 6764,
    "glo": 6765,
    "stra": 6766,
    "\u2581decoration": 6767,
    "framed": 6768,
    "jack": 6769,
    "Green": 6770,
    "piercing": 6771,
    "occup": 6772,
    "rugs": 6773,
    "imp": 6774,
    "Work": 6775,
    "blower": 6776,
    "place": 6777,
    "transit": 6778,
    "Cafe": 6779,
    "Elmo": 6780,
    "Texas": 6781,
    "post": 6782,
    "broad": 6783,
    "skirts": 6784,
    "axe": 6785,
    "tags": 6786,
    "maneuver": 6787,
    "bath": 6788,
    "picker": 6789,
    "Police": 6790,
    "world": 6791,
    "rush": 6792,
    "service": 6793,
    "bush": 6794,
    "telephone": 6795,
    "paddles": 6796,
    "monitor": 6797,
    "play": 6798,
    "Hous": 6799,
    "writ": 6800,
    "pick": 6801,
    "factory": 6802,
    "pattern": 6803,
    "spread": 6804,
    "member": 6805,
    "half": 6806,
    "checkered": 6807,
    "peace": 6808,
    "plant": 6809,
    "check": 6810,
    "cafe": 6811,
    "pose": 6812,
    "float": 6813,
    "visible": 6814,
    "course": 6815,
    "vation": 6816,
    "scene": 6817,
    "cloud": 6818,
    "glass": 6819,
    "smoking": 6820,
    "Wo": 6821,
    "grassy": 6822,
    "something": 6823,
    "boat": 6824,
    "section": 6825,
    "building": 6826,
    "women": 6827,
    "ools": 6828,
    "blowing": 6829,
    "paper": 6830,
    "mouth": 6831,
    "Terri": 6832,
    "jacket": 6833,
    "brick": 6834,
    "clear": 6835,
    "bend": 6836,
    "two": 6837,
    "beard": 6838,
    "hockey": 6839,
    "rocks": 6840,
    "feed": 6841,
    "pour": 6842,
    "watch": 6843,
    "person": 6844,
    "gold": 6845,
    "bowl": 6846,
    "laught": 6847,
    "kel": 6848,
    "stool": 6849,
    "mask": 6850,
    "fork": 6851,
    "pro": 6852,
    "beside": 6853,
    "railing": 6854,
    "who": 6855,
    "cake": 6856,
    "far": 6857,
    "fur": 6858,
    "laus": 6859,
    "bull": 6860,
    "level": 6861,
    "bow": 6862,
    "face": 6863,
    "\u2581happ": 6864,
    "both": 6865,
    "DS": 6866,
    "cage": 6867,
    "drive": 6868,
    "\u2581explo": 6869,
    "corner": 6870,
    "vat": 6871,
    "child": 6872,
    "dash": 6873,
    "torch": 6874,
    "medic": 6875,
    "mart": 6876,
    "Ga": 6877,
    "cheek": 6878,
    "zo": 6879,
    "what": 6880,
    "\u2581domin": 6881,
    "money": 6882,
    "AT": 6883,
    "\u2581tran": 6884,
    "helme": 6885,
    "page": 6886,
    "\u2581prep": 6887,
    "\u2581Swimm": 6888,
    "orange": 6889,
    "kick": 6890,
    "full": 6891,
    "Man": 6892,
    "river": 6893,
    "\u2581Cycl": 6894,
    "ext": 6895,
    "iped": 6896,
    "gate": 6897,
    "\u2581festiv": 6898,
    "\u2581Reg": 6899,
    "trikes": 6900,
    "decorate": 6901,
    "\u2581consum": 6902,
    "\u2581america": 6903,
    "\u2581massag": 6904,
    "ready": 6905,
    "\u2581circl": 6906,
    "\u2581smel": 6907,
    "another": 6908,
    "\u2581bubbl": 6909,
    "\u2581mot": 6910,
    "lamp": 6911,
    "\u2581grav": 6912,
    "ou": 6913,
    "\u2581blindfold": 6914,
    "\u2581saf": 6915,
    "\u2581peopl": 6916,
    "\u2581comfortabl": 6917,
    "\u2581abandon": 6918,
    "around": 6919,
    "\u2581whistl": 6920,
    "rban": 6921,
    "\u2581spar": 6922,
    "flying": 6923,
    "oung": 6924,
    "bald": 6925,
    "\u2581hor": 6926,
    "served": 6927,
    "\u2581Prote": 6928,
    "\u2581twent": 6929,
    "para": 6930,
    "\u2581jeweler": 6931,
    "ashed": 6932,
    "\u2581husk": 6933,
    "Ball": 6934,
    "atch": 6935,
    "chef": 6936,
    "hard": 6937,
    "handi": 6938,
    "\u2581butterfl": 6939,
    "lake": 6940,
    "eager": 6941,
    "col": 6942,
    "\u2581facilit": 6943,
    "\u2581celebr": 6944,
    "udge": 6945,
    "dough": 6946,
    "\u2581deco": 6947,
    "fere": 6948,
    "\u2581pedd": 6949,
    "It": 6950,
    "roke": 6951,
    "ums": 6952,
    "about": 6953,
    "\u2581patien": 6954,
    "aroo": 6955,
    "lions": 6956,
    "Bi": 6957,
    "ravel": 6958,
    "\u2581lou": 6959,
    "axi": 6960,
    "olf": 6961,
    "Cent": 6962,
    "\u2581mis": 6963,
    "NE": 6964,
    "\u2581adolescen": 6965,
    "ournament": 6966,
    "ickets": 6967,
    "ggling": 6968,
    "elevision": 6969,
    "\u2581brigh": 6970,
    "raffic": 6971,
    "\u2581exten": 6972,
    "rucks": 6973,
    "attoo": 6974,
    "\u2581Artis": 6975,
    "\u2581propell": 6976,
    "bu": 6977,
    "\u2581coloni": 6978,
    "\u2581shelv": 6979,
    "achshund": 6980,
    "\u2581custo": 6981,
    "foli": 6982,
    "ancing": 6983,
    "owel": 6984,
    "\u2581Chris": 6985,
    "emonstrat": 6986,
    "\u2581eyeglass": 6987,
    "ifferent": 6988,
    "oorway": 6989,
    "\u2581africa": 6990,
    "\u2581respect": 6991,
    "\u2581differen": 6992,
    "ountain": 6993,
    "\u2581Fri": 6994,
    "atigue": 6995,
    "visib": 6996,
    "oalie": 6997,
    "raffiti": 6998,
    "hysical": 6999,
    "peakers": 7000
  },
  "tgt_word2id": {
    "<pad>": 0,
    "<s>": 1,
    "</s>": 2,
    "<unk>": 3,
    ".": 4,
    "\u2581Un": 5,
    "\u2581un": 6,
    "'": 7,
    "\u2581de": 8,
    "\u2581une": 9,
    "\u2581": 10,
    "\u2581en": 11,
    "\u2581d": 12,
    "\u2581dans": 13,
    "e": 14,
    "\u2581sur": 15,
    "\u2581homme": 16,
    "\u2581et": 17,
    "\u2581avec": 18,
    "s": 19,
    "\u2581des": 20,
    "\u2581la": 21,
    "\u00e0": 22,
    ",": 23,
    "\u2581De": 24,
    "\u2581femme": 25,
    "un": 26,
    "\u2581l": 27,
    "ant": 28,
    "ux": 29,
    "-": 30,
    "\u2581le": 31,
    "\u2581est": 32,
    "une": 33,
    "is": 34,
    "\u2581se": 35,
    "\u2581debout": 36,
    "\u2581sont": 37,
    "\u2581personnes": 38,
    "\u2581jeune": 39,
    "\u2581au": 40,
    "\u2581devant": 41,
    "\u2581fille": 42,
    "\u2581assis": 43,
    "\u2581gar\u00e7on": 44,
    "\u2581groupe": 45,
    "\u2581du": 46,
    "\u2581chien": 47,
    "\u2581hommes": 48,
    "\u2581son": 49,
    "\u2581rue": 50,
    "\u2581rouge": 51,
    "\u2581les": 52,
    "\u2581qu": 53,
    "\u2581noir": 54,
    "\u2581tand": 55,
    "shirt": 56,
    "\u2581blanc": 57,
    "portant": 58,
    "\u2581pour": 59,
    "\u2581T": 60,
    "nt": 61,
    "\u2581gens": 62,
    "\u2581train": 63,
    "\u2581bleu": 64,
    "eau": 65,
    "\u2581fait": 66,
    "\u2581par": 67,
    "\u2581petit": 68,
    "\u2581femmes": 69,
    "\u2581sa": 70,
    "\u2581enfant": 71,
    "\u2581qui": 72,
    "\u2581c\u00f4t\u00e9": 73,
    "\u2581a": 74,
    "\u2581tient": 75,
    "\u2581regarde": 76,
    "\u2581Tro": 77,
    "\u2581que": 78,
    "\u2581enfants": 79,
    "\u2581joue": 80,
    "\u2581s": 81,
    "\u2581pr\u00e8s": 82,
    "\u2581deux": 83,
    "\u2581personne": 84,
    "\u2581v\u00eatu": 85,
    "\u2581jouant": 86,
    "\u2581ten": 87,
    "\u2581photo": 88,
    "\u2581Le": 89,
    "\u2581jaune": 90,
    "\u2581chemise": 91,
    "\u2581v\u00e9lo": 92,
    "\u2581jeunes": 93,
    "r": 94,
    "\u2581t": 95,
    "\u2581jouent": 96,
    "\u2581petite": 97,
    "\u2581regardant": 98,
    "\u2581porte": 99,
    "\u2581lors": 100,
    "\u2581marche": 101,
    "\u2581b\u00e2timent": 102,
    "\u2581dehors": 103,
    "\u2581tout": 104,
    "\u2581blanche": 105,
    "\u2581lunettes": 106,
    "\u2581veste": 107,
    "air": 108,
    "\u2581trottoir": 109,
    "\u2581saute": 110,
    "\u2581fais": 111,
    "\u2581regardent": 112,
    "\u2581autre": 113,
    "\u2581cheveux": 114,
    "\u2581assise": 115,
    "\u2581foule": 116,
    "\u2581arri\u00e8re": 117,
    "\u2581ses": 118,
    "\u2581vert": 119,
    "\u2581marchant": 120,
    "\u2581derri\u00e8re": 121,
    "\u2581plage": 122,
    "\u2581court": 123,
    "\u2581bleue": 124,
    "\u2581table": 125,
    "\u2581ballon": 126,
    "\u2581neige": 127,
    "\u2581main": 128,
    "andis": 129,
    "plan": 130,
    "\u2581quelque": 131,
    "\u2581rose": 132,
    "sieurs": 133,
    "\u2581grand": 134,
    "\u2581chose": 135,
    "\u2581brun": 136,
    "\u2581tenue": 137,
    "\u2581vers": 138,
    "herbe": 139,
    "\u2581leur": 140,
    "dessus": 141,
    "\u2581orange": 142,
    "\u2581marchent": 143,
    "\u2581filles": 144,
    "\u2581chapeau": 145,
    "re": 146,
    "\u2581football": 147,
    "\u2581sous": 148,
    "il": 149,
    "\u2581mur": 150,
    "\u2581ville": 151,
    "\u2581chiens": 152,
    "u": 153,
    "\u2581autour": 154,
    "\u2581robe": 155,
    "\u2581soleil": 156,
    "\u2581balle": 157,
    "\u2581guitare": 158,
    "\u2581noire": 159,
    "\u2581font": 160,
    "ent": 161,
    "\u2581parc": 162,
    "autre": 163,
    "\u2581sac": 164,
    "\u2581course": 165,
    "\u2581bois": 166,
    "\u2581assises": 167,
    "\u2581marron": 168,
    "\u2581ensemble": 169,
    "\u2581gar\u00e7ons": 170,
    "\u2581sc\u00e8ne": 171,
    "\u2581long": 172,
    "\u2581terre": 173,
    "\u2581joueur": 174,
    "\u2581Quat": 175,
    "\u2581banc": 176,
    "\u2581haut": 177,
    "\u2581maillot": 178,
    "\u2581gars": 179,
    "\u2581terrain": 180,
    "\u2581asiatique": 181,
    "\u2581Pl": 182,
    "\u2581lui": 183,
    "\u2581v\u00eatue": 184,
    "\u2581jean": 185,
    "\u2581pantalon": 186,
    "\u2581gris": 187,
    "\u2581voiture": 188,
    "\u2581t\u00eate": 189,
    "\u2581costume": 190,
    "\u2581bord": 191,
    "\u2581casque": 192,
    "\u2581tr\u00e8s": 193,
    "\u2581y": 194,
    "\u2581casquette": 195,
    "\u2581short": 196,
    "\u2581La": 197,
    "\u2581dos": 198,
    "\u2581couple": 199,
    "\u2581route": 200,
    "\u2581verte": 201,
    "t": 202,
    "\u2581b\u00e9b\u00e9": 203,
    "\u2581L": 204,
    "\u2581cheval": 205,
    "elle": 206,
    "\u2581grande": 207,
    "\u2581C": 208,
    "\u2581match": 209,
    "autres": 210,
    "\u2581v\u00eatements": 211,
    "\u2581gros": 212,
    "\u2581trois": 213,
    "\u2581t\u00e9l\u00e9phone": 214,
    "\u2581bateau": 215,
    "aux": 216,
    "\u2581magasin": 217,
    "\u2581sautant": 218,
    "\u2581pendant": 219,
    "\u2581piscine": 220,
    "\u2581champ": 221,
    "\u2581sable": 222,
    "\u2581sol": 223,
    "\u2581nourriture": 224,
    "\u2581prend": 225,
    "eux": 226,
    "\u2581milieu": 227,
    "\u2581courant": 228,
    "\u2581Il": 229,
    "nent": 230,
    "\u2581rouges": 231,
    "homme": 232,
    "\u2581faire": 233,
    "\u2581sweat": 234,
    "\u2581parle": 235,
    "\u2581manteau": 236,
    "\u2581skateboard": 237,
    "\u2581bras": 238,
    "\u2581contre": 239,
    "\u2581gilet": 240,
    "\u2581passe": 241,
    "\u2581blonde": 242,
    "\u2581journ\u00e9e": 243,
    "\"": 244,
    "\u2581visage": 245,
    "\u2581\u00e2g\u00e9": 246,
    "\u2581tente": 247,
    "\u2581vieil": 248,
    "\u2581souriant": 249,
    "es": 250,
    "\u2581courent": 251,
    "\u2581\"": 252,
    "\u2581face": 253,
    "\u2581tennis": 254,
    "\u2581restaurant": 255,
    "\u2581micro": 256,
    "\u2581lit": 257,
    "\u2581noirs": 258,
    "\u2581travers": 259,
    "\u2581salle": 260,
    "\u2581sourit": 261,
    "\u2581blancs": 262,
    "\u2581portable": 263,
    "ment": 264,
    "\u2581pren": 265,
    "oc\u00e9an": 266,
    "\u2581arbre": 267,
    "\u2581montagne": 268,
    "\u2581moto": 269,
    "\u2581pose": 270,
    "ont": 271,
    "\u2581chemin": 272,
    "\u2581o": 273,
    "\u2581piste": 274,
    "\u2581D": 275,
    "\u2581attend": 276,
    "\u2581mains": 277,
    "\u2581fleurs": 278,
    "\u2581jeu": 279,
    "\u2581travaille": 280,
    "\u2581plein": 281,
    "\u2581cuisine": 282,
    "\u2581\u00e2g\u00e9e": 283,
    "\u2581bain": 284,
    "\u2581plu": 285,
    "\u2581march\u00e9": 286,
    "leurs": 287,
    "\u2581baseball": 288,
    "\u2581apr\u00e8s": 289,
    "\u2581autres": 290,
    "\u00f9": 291,
    "\u2581parlant": 292,
    "ext\u00e9rieur": 293,
    "\u2581nu": 294,
    "\u00e9": 295,
    "\u2581utilise": 296,
    "\u00eatre": 297,
    "\u2581plan": 298,
    "\u2581torse": 299,
    "\u2581semble": 300,
    "\u2581ray\u00e9": 301,
    "\u2581habill\u00e9": 302,
    "\u2581tenues": 303,
    "\u2581jouer": 304,
    "\u2581bas": 305,
    "\u2581camion": 306,
    "\u2581nuit": 307,
    "\u2581jouet": 308,
    "\u2581travaillant": 309,
    "hommes": 310,
    "\u2581livre": 311,
    "\u2581planche": 312,
    "\u2581rampe": 313,
    "\u2581d\u00e9bardeur": 314,
    "\u2581joueurs": 315,
    "\u2581pr\u00e9pare": 316,
    "\u2581v\u00eatus": 317,
    "\u2581tien": 318,
    "\u2581air": 319,
    "\u2581figure": 320,
    "\u2581ou": 321,
    "\u2581gueule": 322,
    "\u2581pi\u00e8ce": 323,
    "\u2581bus": 324,
    "\u2581travaillent": 325,
    "\u2581rivi\u00e8re": 326,
    "\u2581violet": 327,
    "\u2581rocher": 328,
    "\u2581am\u00e9ricain": 329,
    "enfants": 330,
    "\u2581musique": 331,
    "\u2581ouvriers": 332,
    "\u2581fen\u00eatre": 333,
    "\u2581cycliste": 334,
    "\u2581montre": 335,
    "\u2581maison": 336,
    "\u2581chaise": 337,
    "\u2581pierre": 338,
    "er": 339,
    "\u2581dessus": 340,
    "\u2581trouve": 341,
    "\u2581blanches": 342,
    "\u2581pont": 343,
    "\u2581spectateurs": 344,
    "\u2581point": 345,
    "inq": 346,
    "\u2581basket": 347,
    "\u2581lac": 348,
    "\u2581appareil": 349,
    "\u2581cl\u00f4ture": 350,
    "\u2581chante": 351,
    "\u2581entre": 352,
    "\u2581pelouse": 353,
    "\u2581plus": 354,
    "\u2581corde": 355,
    "\u2581bleus": 356,
    "objectif": 357,
    "\u2581public": 358,
    "\u2581bonnet": 359,
    "\u2581\u00e9quipe": 360,
    "\u2581f\u00eate": 361,
    "mi": 362,
    "\u2581combinaison": 363,
    "\u2581balan\u00e7oire": 364,
    "\u2581coup": 365,
    "\u2581stand": 366,
    "\u2581vend": 367,
    "ils": 368,
    "\u2581glace": 369,
    "\u2581traverse": 370,
    "\u2581polo": 371,
    "\u2581objet": 372,
    "\u2581allong\u00e9": 373,
    "\u2581vague": 374,
    "\u2581manger": 375,
    "\u2581costumes": 376,
    "\u2581m\u00e9tro": 377,
    "\u2581zone": 378,
    "\u2581chariot": 379,
    "\u2581posent": 380,
    "\u2581adultes": 381,
    "\u2581saut": 382,
    "\u2581marches": 383,
    "\u2581couleur": 384,
    "\u2581b\u00e2ton": 385,
    "\u2581famille": 386,
    "\u2581ce": 387,
    "\u2581regarder": 388,
    "\u2581for\u00eat": 389,
    "\u2581machine": 390,
    "int\u00e9rieur": 391,
    "\u2581parlent": 392,
    "\u2581pull": 393,
    "\u2581briques": 394,
    "\u2581elle": 395,
    "\u2581beige": 396,
    "\u2581sacs": 397,
    "\u2581quai": 398,
    "\u2581pieds": 399,
    "\u2581chaussures": 400,
    "\u2581colline": 401,
    "\u2581habill\u00e9e": 402,
    "\u2581sorte": 403,
    "\u2581arbres": 404,
    "\u2581peint": 405,
    "\u2581verre": 406,
    "\u2581monte": 407,
    "\u2581passent": 408,
    "\u2581base": 409,
    "ball": 410,
    "\u2581fontaine": 411,
    "\u2581canap\u00e9": 412,
    "\u2581carreaux": 413,
    "\u2581prendre": 414,
    "\u2581oranges": 415,
    "\u2581jupe": 416,
    "\u2581tire": 417,
    "\u2581vieux": 418,
    "\u2581utilis": 419,
    "\u2581enneig\u00e9e": 420,
    "\u2581eux": 421,
    "\u2581pente": 422,
    "\u2581ext\u00e9rieur": 423,
    "\u2581longs": 424,
    "\u2581blond": 425,
    "\u2581parapluie": 426,
    "\u2581S": 427,
    "\u2581casques": 428,
    "lors": 429,
    "\u2581hockey": 430,
    "\u2581cour": 431,
    "\u2581pousse": 432,
    "\u2581tous": 433,
    "\u2581graffitis": 434,
    "\u2581quelqu": 435,
    "\u2581vif": 436,
    "\u2581ensoleill\u00e9e": 437,
    "\u2581papier": 438,
    "\u2581travail": 439,
    "\u2581essay": 440,
    "\u2581caf\u00e9": 441,
    "\u2581asiatiques": 442,
    "\u2581jaunes": 443,
    "\u2581sommet": 444,
    "\u2581bouche": 445,
    "\u2581donne": 446,
    "ucoup": 447,
    "\u2581quatre": 448,
    "\u2581rempli": 449,
    "\u2581bruns": 450,
    "\u2581noires": 451,
    "\u2581feu": 452,
    "\u2581p\u00eache": 453,
    "\u2581barbe": 454,
    "\u2581grosse": 455,
    "\u2581fruits": 456,
    "\u2581attraper": 457,
    "\u2581photos": 458,
    "\u2581num\u00e9ro": 459,
    "\u2581loin": 460,
    "\u2581frisbee": 461,
    "\u2581escalier": 462,
    "\u2581statue": 463,
    "\u2581pied": 464,
    "\u2581adulte": 465,
    "\u2581b\u00e9ton": 466,
    "\u2581nombreuse": 467,
    "\u2581attendent": 468,
    "\u2581il": 469,
    "\u2581nombreux": 470,
    "\u2581ouvrier": 471,
    "en": 472,
    "\u2581panneau": 473,
    "\u00e2ge": 474,
    "\u2581plastique": 475,
    "\u2581genoux": 476,
    "\u2581frapper": 477,
    "\u2581toit": 478,
    "\u2581beau": 479,
    "\u2581ski": 480,
    "\u2581bureau": 481,
    "\u2581descend": 482,
    "\u2581clair": 483,
    "\u2581tas": 484,
    "\u2581pleine": 485,
    "\u2581bleues": 486,
    "\u2581passant": 487,
    "\u2581proximit\u00e9": 488,
    "\u2581sans": 489,
    "\u2581lance": 490,
    "i": 491,
    "\u2581entour\u00e9": 492,
    "\u2581cyclistes": 493,
    "\u2581uniforme": 494,
    "arri\u00e8re": 495,
    "\u2581nus": 496,
    "\u2581ligne": 497,
    "\u2581place": 498,
    "\u2581airs": 499,
    "shirts": 500,
    "\u2581dansent": 501,
    "\u2581pancarte": 502,
    "\u2581v\u00eatues": 503,
    "\u2581structure": 504,
    "\u2581posant": 505,
    "appr\u00eate": 506,
    "\u2581lisant": 507,
    "est": 508,
    "\u2581vue": 509,
    "\u2581met": 510,
    "ier": 511,
    "\u2581spectacle": 512,
    "\u2581drapeau": 513,
    "\u2581foot": 514,
    "\u2581belle": 515,
    "\u2581feuilles": 516,
    "\u2581journal": 517,
    "te": 518,
    "\u2581ciel": 519,
    "\u2581m\u00e9tallique": 520,
    "\u2581rochers": 521,
    "\u2581m\u00e8re": 522,
    "\u2581avant": 523,
    "\u2581sport": 524,
    "\u2581d\u00e9fil\u00e9": 525,
    "\u2581s\u00e9curit\u00e9": 526,
    "\u2581dort": 527,
    "hiver": 528,
    "\u2581escalade": 529,
    "\u2581fr\u00e9quent\u00e9e": 530,
    "\u2581yeux": 531,
    "\u2581montagnes": 532,
    "\u2581sautent": 533,
    "\u2581prom\u00e8ne": 534,
    "\u2581bar": 535,
    "ur": 536,
    "\u2581repas": 537,
    "\u2581lancer": 538,
    "\u2581mangeant": 539,
    "\u2581sauter": 540,
    "\u2581\u00e9crit": 541,
    "\u2581chaises": 542,
    "\u2581fonc\u00e9s": 543,
    "\u2581bi\u00e8re": 544,
    "\u2581classe": 545,
    "\u2581fauteuil": 546,
    "\u2581coin": 547,
    "\u2581barbu": 548,
    "\u2581sourient": 549,
    "\u2581tapis": 550,
    "\u2581\u00e9v\u00e9nement": 551,
    "\u2581vendeur": 552,
    "\u2581pilote": 553,
    "\u00e9quipe": 554,
    "\u2581nombre": 555,
    "\u2581ordinateur": 556,
    "\u2581moyen": 557,
    "\u2581rod\u00e9o": 558,
    "\u2581chapeaux": 559,
    "\u2581vieille": 560,
    "\u2581maillots": 561,
    "\u2581concert": 562,
    "\u2581sentier": 563,
    "\u2581instruments": 564,
    "\u2581\u00e9t": 565,
    "puis": 566,
    "\u2581comme": 567,
    "\u2581panier": 568,
    "x": 569,
    "\u2581glisse": 570,
    "\u2581comp\u00e9tition": 571,
    "\u2581uniformes": 572,
    "\u2581tablier": 573,
    "\u2581No\u00ebl": 574,
    "\u2581toboggan": 575,
    "\u2581l\u00e9gumes": 576,
    "\u2581frappe": 577,
    "ne": 578,
    "\u2581pr\u00e9par": 579,
    "\u2581gauche": 580,
    "\u2581paysage": 581,
    "coup": 582,
    "\u2581cigarette": 583,
    "\u2581cow": 584,
    "\u2581voitures": 585,
    "\u2581quelques": 586,
    "\u2581mett": 587,
    "\u2581surf": 588,
    "\u2581jardin": 589,
    "\u2581buvant": 590,
    "\u2581Quelqu": 591,
    "\u2581chantant": 592,
    "\u2581skateur": 593,
    "arbres": 594,
    "\u2581cours": 595,
    "\u2581pluie": 596,
    "\u2581blonds": 597,
    "\u2581morceau": 598,
    "\u2581Bea": 599,
    "\u2581c\u00f4te": 600,
    "\u2581bien": 601,
    "\u2581rocheuse": 602,
    "\u2581bottes": 603,
    "\u2581artiste": 604,
    "\u2581v\u00e9hicule": 605,
    "\u2581doigt": 606,
    "\u2581gants": 607,
    "\u2581brune": 608,
    "\u2581couleurs": 609,
    "\u2581falaise": 610,
    "ix": 611,
    "\u2581cam\u00e9ra": 612,
    "\u2581longue": 613,
    "\u2581drapeaux": 614,
    "\u2581v\u00e9los": 615,
    "\u2581roulant": 616,
    "\u2581battent": 617,
    "\u2581dame": 618,
    "\u2581P": 619,
    "\u2581color\u00e9s": 620,
    "\u2581forme": 621,
    "\u2581peinture": 622,
    "\u2581poteau": 623,
    "\u2581produits": 624,
    "\u2581fonc\u00e9": 625,
    "boy": 626,
    "\u2581construction": 627,
    "\u2581snowboardeur": 628,
    "\u2581bouteille": 629,
    "\u2581habill\u00e9s": 630,
    "\u2581instrument": 631,
    "\u2581\u00e2g\u00e9es": 632,
    "\u2581membre": 633,
    "\u2581but": 634,
    "\u2581rassemblent": 635,
    "\u2581surfeur": 636,
    "\u2581jeux": 637,
    "\u2581mange": 638,
    "a": 639,
    "\u2581m\u00eame": 640,
    "\u2581grise": 641,
    "\u2581peu": 642,
    "\u2581centre": 643,
    "\u2581martiaux": 644,
    "\u2581essaie": 645,
    "art": 646,
    "\u2581policier": 647,
    "\u2581couvert": 648,
    "\u2581penche": 649,
    "attraper": 650,
    "\u2581bowling": 651,
    "\u2581l\u00e8ve": 652,
    "\u2581temps": 653,
    "\u2581vitrine": 654,
    "\u2581boule": 655,
    "\u2581masque": 656,
    "\u2581nage": 657,
    "\u2581parler": 658,
    "\u2581ballons": 659,
    "\u2581musiciens": 660,
    "\u2581participe": 661,
    "\u2581capuche": 662,
    "\u2581chevaux": 663,
    "\u2581certain": 664,
    "\u2581poussette": 665,
    "\u2581coupe": 666,
    "\u2581verts": 667,
    "\u2581couverture": 668,
    "\u2581fils": 669,
    "\u2581seau": 670,
    "\u2581chantier": 671,
    "\u2581lire": 672,
    "\u2581mangent": 673,
    "ayant": 674,
    "entre": 675,
    "\u2581pav\u00e9e": 676,
    "\u2581lieu": 677,
    "\u2581afro": 678,
    "\u2581p\u00e8re": 679,
    "\u2581B": 680,
    "\u2581joueuse": 681,
    "\u2581\u00e9tendue": 682,
    "\u2581collier": 683,
    "\u2581canne": 684,
    "\u2581filet": 685,
    "arts": 686,
    "\u2581ouverte": 687,
    "ette": 688,
    "\u2581longues": 689,
    "\u2581espace": 690,
    "\u2581balance": 691,
    "\u2581\u00e9chelle": 692,
    "\u2581skieur": 693,
    "\u2581Ce": 694,
    "\u2581traversant": 695,
    "\u00e9e": 696,
    "\u2581courses": 697,
    "age": 698,
    "\u2581mat\u00e9riel": 699,
    "\u2581premier": 700,
    "\u2581motocross": 701,
    "\u2581robes": 702,
    "\u2581manches": 703,
    "\u2581bulles": 704,
    "\u2581photographe": 705,
    "\u2581bikini": 706,
    "\u2581poisson": 707,
    "\u2581laisse": 708,
    "\u2581Quelque": 709,
    "\u2581rivage": 710,
    "\u2581batterie": 711,
    "\u2581pas": 712,
    "\u2581grands": 713,
    "\u2581b\u00e2timents": 714,
    "\u2581vertes": 715,
    "\u2581adolescent": 716,
    "\u2581sombre": 717,
    "\u2581droite": 718,
    "\u2581tour": 719,
    "\u2581descendant": 720,
    "\u2581jus": 721,
    "\u2581remplie": 722,
    "o": 723,
    "\u2581g\u00e2teau": 724,
    "\u2581brandi": 725,
    "\u2581diff\u00e9rentes": 726,
    "\u2581discutent": 727,
    "\u2581taille": 728,
    "\u2581petites": 729,
    "\u2581pompiers": 730,
    "\u2581repose": 731,
    "\u2581ray\u00e9e": 732,
    "\u2581\u00e2g\u00e9s": 733,
    "\u2581recouverte": 734,
    "\u2581parking": 735,
    "\u2581mer": 736,
    "\u2581cascade": 737,
    "\u2581violette": 738,
    "\u2581vie": 739,
    "\u2581immeuble": 740,
    "\u2581vagues": 741,
    "\u2581peluche": 742,
    "\u2581foulard": 743,
    "\u2581conversation": 744,
    "\u2581station": 745,
    "\u2581allong\u00e9e": 746,
    "\u2581\u00e9quilibre": 747,
    "\u2581montr": 748,
    "\u2581tir": 749,
    "\u2581boissons": 750,
    "que": 751,
    "\u2581marcher": 752,
    "\u2581skate": 753,
    "oit": 754,
    "\u2581taureau": 755,
    "\u2581violon": 756,
    "\u2581terrasse": 757,
    "\u2581nettoie": 758,
    "\u2581cinq": 759,
    "\u2581coucher": 760,
    "\u2581comptoir": 761,
    "\u2581\u00e9charpe": 762,
    "\u2581roses": 763,
    "\u2581traverser": 764,
    "elles": 765,
    "on": 766,
    "\u2581amis": 767,
    "\u2581anim\u00e9e": 768,
    "\u2581elles": 769,
    "\u2581boue": 770,
    "\u2581chauve": 771,
    "\u2581pause": 772,
    "\u2581profite": 773,
    "\u2581hors": 774,
    "\u2581recouvert": 775,
    "\u2581tableau": 776,
    "\u2581clients": 777,
    "\u2581boisson": 778,
    "\u2581color\u00e9": 779,
    "\u2581pelle": 780,
    "\u2581affiche": 781,
    "\u2581employ\u00e9": 782,
    "\u2581attrape": 783,
    "\u2581roule": 784,
    "\u2581mariage": 785,
    "\u2581b": 786,
    "\u2581\u00e9cran": 787,
    "\u2581sort": 788,
    "le": 789,
    "qu": 790,
    "\u2581policiers": 791,
    "\u2581snowboard": 792,
    "\u2581rousse": 793,
    "\u2581randonn\u00e9e": 794,
    "\u2581ciment": 795,
    "\u2581jette": 796,
    "y": 797,
    "\u2581tasse": 798,
    "\u2581avoir": 799,
    "\u2581cravate": 800,
    "\u2581vole": 801,
    "\u2581conduit": 802,
    "\u2581mari\u00e9e": 803,
    "\u2581voie": 804,
    "\u2581va": 805,
    "escalade": 806,
    "\u2581kayak": 807,
    "\u2581promenant": 808,
    "\u2581rassembl\u00e9es": 809,
    "\u2581cuir": 810,
    "\u2581\u00e9lectrique": 811,
    "\u2581roller": 812,
    "\u2581coureur": 813,
    "\u2581p": 814,
    "\u2581vive": 815,
    "ez": 816,
    "\u2581dents": 817,
    "\u2581cordes": 818,
    "\u2581effectue": 819,
    "\u2581\u00e9quipes": 820,
    "\u2581surfe": 821,
    "\u2581fond": 822,
    "\u2581grimpe": 823,
    "\u2581barbecue": 824,
    "pom": 825,
    "\u2581couch\u00e9": 826,
    "\u2581signe": 827,
    "\u2581rit": 828,
    "\u2581seul": 829,
    "\u2581miroir": 830,
    "\u2581jet": 831,
    "\u2581coureurs": 832,
    "\u2581m\u00e9tal": 833,
    "\u2581volley": 834,
    "\u2581trou": 835,
    "\u2581chemis": 836,
    "\u2581ch": 837,
    "\u2581paroi": 838,
    "\u2581effectu": 839,
    "\u2581clown": 840,
    "\u2581motard": 841,
    "\u2581suspendu": 842,
    "\u2581surplomb": 843,
    "\u2581profit": 844,
    "\u2581marathon": 845,
    "\u2581type": 846,
    "\u2581monsieur": 847,
    "\u2581protection": 848,
    "\u2581endormi": 849,
    "\u2581oiseau": 850,
    "\u2581transport": 851,
    "\u2581danseuse": 852,
    "\u2581avion": 853,
    "\u2581aide": 854,
    "\u2581passage": 855,
    "\u00e8re": 856,
    "\u2581golf": 857,
    "\u2581fume": 858,
    "\u2581pom": 859,
    "\u2581blouse": 860,
    "\u2581discutant": 861,
    "\u2581prairie": 862,
    "\u2581promenade": 863,
    "\u2581viande": 864,
    "\u2581stade": 865,
    "\u2581salon": 866,
    "\u2581\u00e9couteurs": 867,
    "\u2581examine": 868,
    "\u2581jouets": 869,
    "\u2581\u00e9quipement": 870,
    "\u2581tourne": 871,
    "\u2581cou": 872,
    "\u2581chef": 873,
    "\u2581profonde": 874,
    "\u2581pouss": 875,
    "\u2581souriante": 876,
    "\u2581projet": 877,
    "\u2581man\u00e8ge": 878,
    "\u2581rang\u00e9e": 879,
    "\u2581sandales": 880,
    "\u2581orchestre": 881,
    "\u2581d\u00e9sert": 882,
    "\u2581microscope": 883,
    "tirant": 884,
    "\u2581pierres": 885,
    "\u2581port": 886,
    "\u2581batte": 887,
    "\u2581ruelle": 888,
    "onnant": 889,
    "\u2581\u00e9paules": 890,
    "\u2581chat": 891,
    "arbre": 892,
    "n": 893,
    "\u2581plonge": 894,
    "ombre": 895,
    "\u2581kaki": 896,
    "\u2581quartier": 897,
    "\u2581tunnel": 898,
    "petit": 899,
    "\u2581entour\u00e9e": 900,
    "\u2581A": 901,
    "\u2581plantes": 902,
    "\u2581peign": 903,
    "\u2581brosse": 904,
    "\u2581vide": 905,
    "\u2581mouvement": 906,
    "\u2581raquette": 907,
    "\u2581barri\u00e8re": 908,
    "\u2581bea": 909,
    "\u00e7ant": 910,
    "\u2581ne": 911,
    "\u2581laboratoire": 912,
    "\u2581tuyau": 913,
    "\u2581pays": 914,
    "\u2581repr\u00e9sentant": 915,
    "\u00e9loigne": 916,
    "\u2581peut": 917,
    "\u2581tape": 918,
    "\u2581r\u00e9unis": 919,
    "avant": 920,
    "\u2581d\u00e9": 921,
    "\u2581tronc": 922,
    "\u2581sculpture": 923,
    "\u2581Cet": 924,
    "\u2581multicolore": 925,
    "\u2581endroit": 926,
    "\u2581objets": 927,
    "\u2581toute": 928,
    "\u2581pench\u00e9": 929,
    "\u2581accroupi": 930,
    "\u2581poubelle": 931,
    "\u2581sauvetage": 932,
    "\u2581t\u00e9lescope": 933,
    "\u2581virage": 934,
    "\u2581courir": 935,
    "\u2581assiette": 936,
    "\u2581\u00e9norme": 937,
    "\u2581animal": 938,
    "aide": 939,
    "\u2581bord\u00e9e": 940,
    "\u2581scooter": 941,
    "\u2581dessin": 942,
    "\u2581caisse": 943,
    "\u2581bo\u00eete": 944,
    "arr\u00eate": 945,
    "enfant": 946,
    "\u2581karat\u00e9": 947,
    "\u2581ruban": 948,
    "\u2581trampoline": 949,
    "\u2581sieste": 950,
    "\u2581cadre": 951,
    "\u2581basketteur": 952,
    "\u2581fumant": 953,
    "\u2581c\u00e9r\u00e9monie": 954,
    "\u2581batteur": 955,
    "\u2581ruisseau": 956,
    "\u2581vendre": 957,
    "\u2581park": 958,
    "\u2581agent": 959,
    "\u2581travailler": 960,
    "\u2581all\u00e9e": 961,
    "\u2581color\u00e9e": 962,
    "\u2581balustrade": 963,
    "cette": 964,
    "\u2581nageant": 965,
    "\u2581participant": 966,
    "\u2581produit": 967,
    "au": 968,
    "\u2581b\u00e2tons": 969,
    "\u2581escalad": 970,
    "\u2581jambe": 971,
    "\u2581tables": 972,
    "\u2581seule": 973,
    "\u2581vestes": 974,
    "\u2581pique": 975,
    "ement": 976,
    "\u2581tissu": 977,
    "\u2581fa\u00e7on": 978,
    "\u2581police": 979,
    "\u2581nettoyant": 980,
    "\u2581volleyball": 981,
    "\u2581d\u00e9place": 982,
    "\u2581voir": 983,
    "\u2581remorque": 984,
    "\u2581touche": 985,
    "\u2581prom\u00e8nent": 986,
    "\u2581partage": 987,
    "\u2581\u00e9tudiants": 988,
    "\u2581bol": 989,
    "\u2581enneig\u00e9": 990,
    "i\u00e8me": 991,
    "\u2581adolescents": 992,
    "\u2581gymnase": 993,
    "\u2581solitaire": 994,
    "\u2581campagne": 995,
    "\u2581roulettes": 996,
    "\u2581soir\u00e9e": 997,
    "\u2581rient": 998,
    "\u2581paille": 999,
    "\u2581Voic": 1000,
    "\u2581motifs": 1001,
    "\u2581balaie": 1002,
    "\u2581cercle": 1003,
    "\u2581girls": 1004,
    "am\u00e9ricain": 1005,
    "\u2581vin": 1006,
    "\u2581escaliers": 1007,
    "forme": 1008,
    "\u2581chinois": 1009,
    "\u2581just": 1010,
    "\u2581gardien": 1011,
    "\u2581pi\u00e9tons": 1012,
    "\u2581gliss": 1013,
    "\u2581roue": 1014,
    "\u2581lumi\u00e8re": 1015,
    "\u2581barre": 1016,
    "\u2581courts": 1017,
    "\u2581dirige": 1018,
    "\u2581fa\u00e7ade": 1019,
    "\u2581gymnaste": 1020,
    "\u2581riant": 1021,
    "\u2581voit": 1022,
    "\u2581fresque": 1023,
    "\u2581moment": 1024,
    "\u2581voile": 1025,
    "\u2581nez": 1026,
    "\u2581gare": 1027,
    "\u2581roux": 1028,
    "l": 1029,
    "appuie": 1030,
    "\u2581En": 1031,
    "\u2581descendent": 1032,
    "\u2581vol": 1033,
    "\u2581couper": 1034,
    "\u2581sale": 1035,
    "\u2581partie": 1036,
    "\u2581obstacle": 1037,
    "\u2581part": 1038,
    "accord\u00e9on": 1039,
    "\u2581mari\u00e9": 1040,
    "\u2581lumi\u00e8res": 1041,
    "\u2581plat": 1042,
    "\u2581gonflable": 1043,
    "\u2581color\u00e9es": 1044,
    "\u2581bond\u00e9e": 1045,
    "\u2581militaire": 1046,
    "\u2581chevauche": 1047,
    "ordinateur": 1048,
    "ssant": 1049,
    "\u2581doigts": 1050,
    "d": 1051,
    "\u2581combat": 1052,
    "\u2581nouveau": 1053,
    "ork": 1054,
    "\u2581cowboy": 1055,
    "\u2581queue": 1056,
    "\u2581cherche": 1057,
    "\u2581r\u00e9pare": 1058,
    "\u2581roulent": 1059,
    "ept": 1060,
    "\u2581souffle": 1061,
    "\u2581soldats": 1062,
    "\u2581urbain": 1063,
    "\u2581bond\u00e9": 1064,
    "\u2581patin": 1065,
    "\u2581balcon": 1066,
    "\u2581guitariste": 1067,
    "\u2581cano\u00eb": 1068,
    "\u2581adverse": 1069,
    "\u2581randonneur": 1070,
    "\u2581pompier": 1071,
    "\u2581boi": 1072,
    "\u2581int\u00e9rieur": 1073,
    "\u2581gril": 1074,
    "\u2581grille": 1075,
    "nique": 1076,
    "\u2581\u00e9coute": 1077,
    "\u2581bout": 1078,
    "\u2581marteau": 1079,
    "\u2581ach\u00e8te": 1080,
    "\u2581ressemble": 1081,
    "\u2581lanceur": 1082,
    "\u2581manteaux": 1083,
    "\u2581jet\u00e9e": 1084,
    "\u2581\u00e9glise": 1085,
    "\u2581tend": 1086,
    "M": 1087,
    "\u2581montent": 1088,
    "lan\u00e7": 1089,
    "\u2581sourire": 1090,
    "\u2581randonneurs": 1091,
    "\u2581pav\u00e9": 1092,
    "\u2581jambes": 1093,
    "\u2581vache": 1094,
    "\u2581pr\u00eat": 1095,
    "\u2581hautes": 1096,
    "eaux": 1097,
    "\u2581divers": 1098,
    "\u2581monticule": 1099,
    "\u2581supermarch\u00e9": 1100,
    "\u2581tabouret": 1101,
    "\u2581festival": 1102,
    "\u2581poutre": 1103,
    "\u2581travaux": 1104,
    "\u2581monde": 1105,
    "\u2581On": 1106,
    "\u2581produis": 1107,
    "\u2581indienne": 1108,
    "\u2581langue": 1109,
    "\u2581bagages": 1110,
    "\u2581\u00e9coutant": 1111,
    "\u2581montant": 1112,
    "\u2581parcours": 1113,
    "\u2581t\u00eates": 1114,
    "\u2581quad": 1115,
    "\u2581rassembl\u00e9s": 1116,
    "\u2581plateau": 1117,
    "\u2581surface": 1118,
    "\u2581chanteur": 1119,
    "\u2581traditionnels": 1120,
    "\u2581hauts": 1121,
    "\u2581saxophone": 1122,
    "\u2581couverte": 1123,
    "\u2581tatouage": 1124,
    "\u2581musicien": 1125,
    "\u2581frapp": 1126,
    "\u2581pot": 1127,
    "\u2581Dan": 1128,
    "\u2581peau": 1129,
    "\u2581ami": 1130,
    "\u2581appuy\u00e9": 1131,
    "\u2581circulation": 1132,
    "\u2581couloir": 1133,
    "\u2581salto": 1134,
    "\u2581publique": 1135,
    "\u2581New": 1136,
    "\u2581conduis": 1137,
    "eur": 1138,
    "\u2581heureux": 1139,
    "\u2581arr\u00eat": 1140,
    "it": 1141,
    "\u2581chantent": 1142,
    "\u2581couvre": 1143,
    "\u2581balai": 1144,
    "\u2581plate": 1145,
    "\u2581direction": 1146,
    "\u2581cavalier": 1147,
    "\u2581parasol": 1148,
    "\u2581pi\u00e9ton": 1149,
    "\u2581ma": 1150,
    "\u2581\u00e9paule": 1151,
    "\u2581bon": 1152,
    "\u2581appr\u00e9ci": 1153,
    "\u2581tombe": 1154,
    "\u2581tena": 1155,
    "\u2581jogging": 1156,
    "\u2581salopette": 1157,
    "\u2581luge": 1158,
    "\u2581vid\u00e9o": 1159,
    "\u2581cot\u00e9": 1160,
    "\u2581gamin": 1161,
    "\u2581passerelle": 1162,
    "\u2581professionnelle": 1163,
    "affrontent": 1164,
    "\u2581c\u00e2lin": 1165,
    "\u2581\u00e9tang": 1166,
    "\u2581pantalons": 1167,
    "\u2581livres": 1168,
    "\u2581jour": 1169,
    "r\u00e9parer": 1170,
    "\u2581comment": 1171,
    "\u2581observe": 1172,
    "enant": 1173,
    "appareil": 1174,
    "\u2581m": 1175,
    "\u2581fonc\u00e9e": 1176,
    "\u2581militaires": 1177,
    "\u2581ouvre": 1178,
    "\u2581rugby": 1179,
    "\u2581fer": 1180,
    "\u2581mouill\u00e9": 1181,
    "\u2581accroch\u00e9": 1182,
    "ation": 1183,
    "\u2581carton": 1184,
    "\u2581athl\u00e8te": 1185,
    "\u2581shorts": 1186,
    "\u2581volant": 1187,
    "appr\u00eat": 1188,
    "\u2581cadeau": 1189,
    "\u2581VTT": 1190,
    "\u2581camouflage": 1191,
    "\u2581chaussette": 1192,
    "\u2581cuisinier": 1193,
    "\u2581imposant": 1194,
    "\u2581pyjama": 1195,
    "\u2581humide": 1196,
    "\u2581pratique": 1197,
    "\u2581flaque": 1198,
    "\u2581bandana": 1199,
    "\u2581pile": 1200,
    "\u2581\u00e9claboussures": 1201,
    "\u2581tenir": 1202,
    "\u2581pois": 1203,
    "amusent": 1204,
    "\u2581pattes": 1205,
    "\u2581touristes": 1206,
    "\u2581jolie": 1207,
    "\u2581parapluies": 1208,
    "\u2581serre": 1209,
    "de": 1210,
    "\u2581argent": 1211,
    "ter": 1212,
    "\u2581rame": 1213,
    "\u2581\u00e9t\u00e9": 1214,
    "\u2581chambre": 1215,
    "\u2581rambarde": 1216,
    "\u2581serviette": 1217,
    "\u2581alimentaire": 1218,
    "\u2581rollers": 1219,
    "\u2581si\u00e8ge": 1220,
    "\u2581soldat": 1221,
    "\u2581dit": 1222,
    "\u2581feuille": 1223,
    "ve": 1224,
    "\u2581arbitre": 1225,
    "\u2581pos\u00e9": 1226,
    "\u2581attach\u00e9": 1227,
    "\u2581haute": 1228,
    "\u2581piano": 1229,
    "\u2581softball": 1230,
    "\u2581soul\u00e8ve": 1231,
    "\u2581balade": 1232,
    "\u2581attentivement": 1233,
    "atteindre": 1234,
    "\u2581rayures": 1235,
    "\u2581cha\u00eene": 1236,
    "\u2581d\u00eener": 1237,
    "\u2581Si": 1238,
    "\u2581diff\u00e9rents": 1239,
    "amusant": 1240,
    "\u2581commercial": 1241,
    "\u2581c": 1242,
    "\u2581chevauch": 1243,
    "\u2581agenouill\u00e9": 1244,
    "\u2581plaque": 1245,
    "\u2581d\u00e9cor": 1246,
    "\u2581parachute": 1247,
    "sert": 1248,
    "\u2581f": 1249,
    "ure": 1250,
    "\u2581\u00e9clair\u00e9e": 1251,
    "\u2581dorm": 1252,
    "\u2581indien": 1253,
    "\u2581radeau": 1254,
    "\u2581podium": 1255,
    "\u2581fris\u00e9": 1256,
    "\u2581rock": 1257,
    "\u2581clavier": 1258,
    "\u2581joyeusement": 1259,
    "\u2581boivent": 1260,
    "\u2581rassemblement": 1261,
    "\u2581berger": 1262,
    "\u2581nouvelle": 1263,
    "\u2581tracteur": 1264,
    "\u2581conf\u00e9rence": 1265,
    "\u2581boire": 1266,
    "\u2581m\u00e9lange": 1267,
    "\u2581descendre": 1268,
    "\u2581linge": 1269,
    "\u2581articles": 1270,
    "\u2581nageur": 1271,
    "\u2581regard": 1272,
    "\u2581outils": 1273,
    "\u2581cha": 1274,
    "\u2581footballeurs": 1275,
    "talons": 1276,
    "entr\u00e9e": 1277,
    "\u2581verres": 1278,
    "\u2581caresse": 1279,
    "\u2581motos": 1280,
    "\u2581surfant": 1281,
    "\u2581pointe": 1282,
    "\u2581fr\u00e9quent\u00e9": 1283,
    "\u2581pain": 1284,
    "\u2581trottinette": 1285,
    "\u2581prise": 1286,
    "\u2581publicit\u00e9": 1287,
    "\u2581footballeur": 1288,
    "\u2581d\u00e9serte": 1289,
    "\u00e9t\u00e9": 1290,
    "\u2581bande": 1291,
    "\u2581acoustique": 1292,
    "\u2581allemand": 1293,
    "\u2581ambulant": 1294,
    "\u2581blouson": 1295,
    "\u2581chauss\u00e9e": 1296,
    "\u2581sapin": 1297,
    "\u2581ceinture": 1298,
    "\u2581natation": 1299,
    "\u2581chacun": 1300,
    "\u2581garage": 1301,
    "\u2581camionnette": 1302,
    "\u2581poussi\u00e8re": 1303,
    "\u2581coudre": 1304,
    "\u2581adversaire": 1305,
    "\u2581ferm\u00e9s": 1306,
    "n\u00e9": 1307,
    "\u2581alpiniste": 1308,
    "\u2581mord": 1309,
    "\u2581chemises": 1310,
    "\u2581mais": 1311,
    "\u2581pancartes": 1312,
    "\u2581perche": 1313,
    "\u2581skis": 1314,
    "\u2581inspecte": 1315,
    "\u2581file": 1316,
    "\u2581ajuste": 1317,
    "\u2581brillant": 1318,
    "\u2581or": 1319,
    "\u2581b\u00e9ret": 1320,
    "\u2581M": 1321,
    "\u2581danser": 1322,
    "\u2581position": 1323,
    "\u2581poil": 1324,
    "\u2581Je": 1325,
    "\u2581gradins": 1326,
    "\u2581pagaie": 1327,
    "\u2581pouce": 1328,
    "\u2581corpulent": 1329,
    "\u2581foin": 1330,
    "\u2581club": 1331,
    "\u2581rebord": 1332,
    "\u2581bassin": 1333,
    "\u2581battant": 1334,
    "\u2581front": 1335,
    "\u2581compos\u00e9": 1336,
    "\u2581discuter": 1337,
    "\u2581ar\u00e8ne": 1338,
    "\u2581buissons": 1339,
    "\u2581escalator": 1340,
    "\u00e9l\u00e8ves": 1341,
    "\u2581aid": 1342,
    "\u2581tirer": 1343,
    "\u2581blocs": 1344,
    "\u2581passer": 1345,
    "\u2581soude": 1346,
    "\u2581cartes": 1347,
    "\u2581repos": 1348,
    "argent": 1349,
    "\u2581savoure": 1350,
    "embrassant": 1351,
    "\u2581dur": 1352,
    "O": 1353,
    "volant": 1354,
    "ir": 1355,
    "\u2581pr\u00e9": 1356,
    "\u2581serr": 1357,
    "\u2581vives": 1358,
[...]
