<unk>	0
<s>	0
</s>	0
▁a	-2.53337
.	-2.70105
▁A	-3.15465
▁in	-3.27403
▁the	-3.63935
▁on	-3.91803
▁is	-4.00266
▁man	-4.02128
▁and	-4.02326
▁of	-4.09482
ing	-4.18918
▁with	-4.19371
s	-4.21603
,	-4.64354
▁woman	-4.68185
▁are	-4.70863
▁to	-4.86722
▁Two	-4.8842
▁at	-4.95509
▁	-5.03027
▁wearing	-5.05912
▁people	-5.0862
▁white	-5.22635
▁shirt	-5.24922
▁young	-5.29105
▁black	-5.33479
▁his	-5.34369
▁an	-5.34902
▁while	-5.36265
▁blue	-5.39365
▁red	-5.46337
▁sitting	-5.46738
▁girl	-5.49648
▁dog	-5.50553
▁boy	-5.51957
▁men	-5.54216
▁standing	-5.54789
▁playing	-5.56544
▁group	-5.6098
▁street	-5.64784
e	-5.68841
▁down	-5.68987
▁look	-5.69089
▁walking	-5.7055
-	-5.72266
ed	-5.73338
▁her	-5.76916
▁front	-5.78153
▁holding	-5.81396
▁water	-5.93663
▁The	-5.9534
▁by	-5.97753
▁up	-6.07817
▁for	-6.10607
▁women	-6.10702
▁green	-6.10707
▁An	-6.11032
▁one	-6.14245
▁outside	-6.1608
▁child	-6.16191
y	-6.17407
▁Thre	-6.17763
to	-6.18553
▁little	-6.1923
▁large	-6.21258
▁through	-6.22838
ir	-6.23035
▁brown	-6.27259
▁yellow	-6.27518
▁two	-6.28423
▁hat	-6.32479
▁ball	-6.32504
▁from	-6.34181
▁person	-6.37974
▁over	-6.41329
▁other	-6.4214
▁children	-6.42514
▁next	-6.43265
d	-6.44113
▁small	-6.44787
▁dressed	-6.47945
▁out	-6.48902
▁building	-6.51675
▁riding	-6.5615
▁running	-6.56651
▁near	-6.57168
▁People	-6.57169
▁jacket	-6.58021
▁another	-6.59991
▁around	-6.60091
▁be	-6.60342
▁some	-6.63616
▁field	-6.63992
▁sidewalk	-6.64921
▁orange	-6.65864
▁Man	-6.6682
▁beach	-6.67781
▁crowd	-6.68618
ly	-6.69771
▁snow	-6.72276
▁pink	-6.72513
'	-6.72715
▁stands	-6.73441
▁behind	-6.73735
▁jumping	-6.73822
▁table	-6.73956
▁sits	-6.74034
▁grass	-6.77281
▁stand	-6.79593
▁background	-6.79853
▁bike	-6.82186
▁as	-6.84992
▁city	-6.8614
▁player	-6.86154
▁wall	-6.89458
▁top	-6.89726
▁off	-6.92265
▁that	-6.92603
▁girls	-6.93854
▁camera	-6.94466
▁dress	-6.95254
▁park	-6.95352
▁play	-6.97192
▁hold	-6.97528
▁talking	-6.98642
▁something	-6.98983
▁air	-6.99194
▁hand	-7.00575
▁dogs	-7.00794
▁older	-7.0089
▁hair	-7.01547
▁guitar	-7.01582
▁along	-7.01715
▁walks	-7.03182
▁lady	-7.03845
▁together	-7.04118
▁soccer	-7.04119
▁blond	-7.04674
▁food	-7.04954
▁working	-7.05453
▁gray	-7.0665
▁car	-7.08783
▁smiling	-7.08949
▁game	-7.09305
▁picture	-7.09377
▁has	-7.1047
▁Asian	-7.12967
▁boys	-7.13555
▁plays	-7.14488
▁walk	-7.15219
▁Four	-7.17769
▁carry	-7.18113
▁sit	-7.1842
▁it	-7.18674
▁road	-7.18715
▁him	-7.18727
▁bench	-7.19314
▁glasses	-7.20689
▁pants	-7.2069
▁stage	-7.21665
▁head	-7.22223
▁shorts	-7.22509
▁dirt	-7.22993
▁couple	-7.24629
▁tree	-7.2497
▁face	-7.24974
▁bicycle	-7.25077
▁them	-7.25236
▁baby	-7.26052
▁t	-7.26157
▁side	-7.27109
cross	-7.2743
▁rock	-7.27983
al	-7.2974
st	-7.30071
veral	-7.30402
▁old	-7.30589
▁pool	-7.30655
▁long	-7.31016
▁race	-7.3102
▁tak	-7.31241
each	-7.32081
▁back	-7.34008
▁get	-7.34095
▁doing	-7.34613
▁area	-7.36482
▁dark	-7.36843
▁male	-7.37101
▁jeans	-7.37532
▁watching	-7.37875
▁boat	-7.38283
▁middle	-7.38545
▁who	-7.39769
▁sand	-7.41659
er	-7.41767
▁jumps	-7.42295
▁ground	-7.43364
▁hands	-7.4377
▁room	-7.44188
▁day	-7.4462
▁performing	-7.4586
▁female	-7.46104
▁eating	-7.46916
▁guy	-7.47402
▁coat	-7.47836
▁suit	-7.48814
▁baseball	-7.48842
▁horse	-7.50065
▁sign	-7.50375
▁watch	-7.50524
▁using	-7.50645
▁mouth	-7.50929
▁under	-7.51024
▁football	-7.51036
▁he	-7.51868
▁striped	-7.52415
▁purple	-7.53277
▁store	-7.53719
▁band	-7.54668
haired	-7.5673
▁go	-7.56743
▁uniform	-7.56952
▁toward	-7.57069
▁enjoy	-7.57444
▁runs	-7.58287
▁mountain	-7.58373
▁Young	-7.58395
▁d	-7.58634
▁line	-7.58641
▁tennis	-7.59839
▁sunglasses	-7.60322
▁reading	-7.60457
▁microphone	-7.60832
▁S	-7.60868
shirt	-7.61735
▁three	-7.61795
▁clothing	-7.62034
▁There	-7.63309
▁basketball	-7.64801
▁ocean	-7.65311
▁players	-7.65422
es	-7.65758
▁helmet	-7.65932
▁toy	-7.66185
▁past	-7.66317
▁watches	-7.66404
▁On	-7.66907
▁work	-7.67033
▁train	-7.67769
▁restaurant	-7.67902
▁its	-7.68159
▁climbing	-7.6821
▁kids	-7.6874
▁again	-7.69005
▁window	-7.70193
▁elder	-7.71102
uring	-7.71264
▁try	-7.71602
▁team	-7.71849
▁sun	-7.72142
▁dancing	-7.72192
▁chair	-7.72977
▁show	-7.741
▁throw	-7.74378
▁rides	-7.74474
▁Se	-7.747
▁outdoor	-7.76966
▁wooden	-7.77255
▁posing	-7.77257
▁about	-7.78015
▁hav	-7.78083
▁covered	-7.79151
▁floor	-7.79281
▁trees	-7.79691
▁jump	-7.80216
ral	-7.8046
▁all	-7.80463
▁waiting	-7.80696
▁swimming	-7.80769
▁skateboard	-7.80785
▁bag	-7.8137
looking	-7.81817
▁or	-7.82222
▁construction	-7.83186
ting	-7.83512
▁very	-7.84433
▁workers	-7.84864
▁fence	-7.84872
▁ice	-7.85062
▁colorful	-7.85531
▁busy	-7.85856
▁singing	-7.86485
▁pull	-7.86926
▁lean	-7.86934
▁Woman	-7.87561
▁hill	-7.88016
▁high	-7.88223
▁cap	-7.89161
▁cart	-7.90732
▁tan	-7.91034
▁catch	-7.91374
ive	-7.9186
▁book	-7.92042
▁F	-7.92372
▁bus	-7.92578
▁truck	-7.92691
▁open	-7.92692
▁laying	-7.93341
▁ride	-7.93409
▁bright	-7.94041
▁Men	-7.9417
▁light	-7.94375
▁cellphone	-7.94742
▁path	-7.95534
▁kitchen	-7.95539
▁market	-7.95539
▁beard	-7.95607
▁inside	-7.96194
is	-7.96225
▁making	-7.96934
▁brick	-7.97585
▁track	-7.97604
▁grassy	-7.97623
▁stick	-7.98051
"	-7.98326
▁umbrella	-7.9833
▁outfit	-7.98332
▁clothes	-7.98354
▁perform	-7.98966
▁motorcycle	-7.99046
▁metal	-7.99059
▁full	-7.99787
▁"	-7.998
▁body	-7.99825
▁swing	-7.99862
▁big	-7.99908
▁Seve	-8.00414
▁takes	-8.00944
▁night	-8.01239
▁se	-8.01808
▁paper	-8.01987
▁hats	-8.02341
▁others	-8.02371
▁river	-8.02713
▁ready	-8.02744
▁she	-8.04098
▁T	-8.05011
n	-8.05025
▁tank	-8.05741
▁lot	-8.06566
▁hard	-8.08059
▁sweater	-8.08093
▁piece	-8.08199
▁shirts	-8.0836
▁shop	-8.08949
▁trick	-8.0899
▁lake	-8.09633
colored	-8.09905
▁painting	-8.10372
▁surround	-8.10567
▁run	-8.10842
▁above	-8.11243
▁stone	-8.1237
▁dance	-8.13071
▁board	-8.1324
▁L	-8.1327
▁bar	-8.13809
▁vest	-8.13934
▁wave	-8.13936
▁backpack	-8.14762
▁shopping	-8.15384
▁snowy	-8.15398
▁worker	-8.15741
▁music	-8.16104
▁Th	-8.16216
▁beside	-8.16255
▁photo	-8.18204
▁uniforms	-8.18847
▁push	-8.19433
▁smiles	-8.19645
▁pole	-8.20028
▁house	-8.2004
▁crowded	-8.20261
▁gear	-8.20574
▁toddler	-8.20575
▁arm	-8.21027
▁kid	-8.21873
▁outdoors	-8.21909
▁phone	-8.22384
▁adults	-8.22445
▁2	-8.22495
▁drinking	-8.22643
▁f	-8.23282
▁kick	-8.23664
▁short	-8.23676
t	-8.24126
▁gathered	-8.25303
▁set	-8.25576
▁event	-8.26055
ch	-8.26361
▁costume	-8.265
▁hanging	-8.26645
▁subway	-8.26996
▁bridge	-8.26996
▁African	-8.26996
▁family	-8.27949
▁many	-8.28166
▁object	-8.28406
ny	-8.28498
hair	-8.28834
▁preparing	-8.28962
▁fire	-8.28974
▁flowers	-8.29161
▁arms	-8.29497
▁rope	-8.29665
▁away	-8.30526
▁attempt	-8.30861
▁hockey	-8.30865
▁forest	-8.30894
▁sleeping	-8.30972
▁like	-8.31032
▁steps	-8.3119
▁take	-8.31297
▁fountain	-8.31336
▁machine	-8.31369
▁graffiti	-8.31851
▁does	-8.3188
▁after	-8.32153
▁clean	-8.32395
▁Children	-8.32851
▁fishing	-8.33089
▁adult	-8.33438
▁beautiful	-8.33715
▁prepare	-8.33788
▁plai	-8.34359
▁pose	-8.345
▁four	-8.34882
▁asian	-8.34954
▁guys	-8.35239
▁appear	-8.3534
▁pass	-8.3684
▁police	-8.36935
▁stairs	-8.3705
▁shoes	-8.38544
▁shirtless	-8.39245
▁selling	-8.39776
▁setting	-8.40203
▁whi	-8.40811
▁glass	-8.41182
▁Some	-8.41232
▁putt	-8.41543
his	-8.41959
▁racing	-8.42336
▁American	-8.42479
▁drink	-8.42773
on	-8.42973
▁slide	-8.43409
▁corner	-8.43458
▁someone	-8.43463
▁g	-8.43787
▁bet	-8.44255
▁tall	-8.44501
▁both	-8.44572
▁view	-8.45312
▁flower	-8.45421
▁public	-8.45703
▁volleyball	-8.45703
ween	-8.45704
▁parade	-8.45705
▁rocks	-8.45756
▁party	-8.4577
▁have	-8.46375
▁chairs	-8.46385
▁computer	-8.46538
▁flag	-8.46567
▁match	-8.46797
▁equipment	-8.46852
▁ladies	-8.46852
▁couch	-8.46853
▁bath	-8.46894
▁laughing	-8.47311
aged	-8.47887
▁trail	-8.47899
▁wood	-8.48693
▁ramp	-8.48763
▁fish	-8.48838
▁instruments	-8.49224
▁sweatshirt	-8.50014
▁plastic	-8.50382
▁statue	-8.51194
▁rain	-8.51259
▁concrete	-8.51587
▁playground	-8.51589
▁reach	-8.51645
▁woods	-8.51853
▁winter	-8.52806
▁dock	-8.52806
▁hit	-8.53116
▁poses	-8.53304
▁midair	-8.54041
▁yard	-8.54064
▁cross	-8.54621
▁number	-8.54667
ve	-8.55046
▁cowboy	-8.5506
▁skirt	-8.55093
▁pictures	-8.55153
▁attire	-8.55291
▁p	-8.58932
▁what	-8.59143
▁seated	-8.59249
just	-8.59329
▁reads	-8.59496
▁grill	-8.60303
▁home	-8.60446
▁sky	-8.60453
▁left	-8.60453
▁cream	-8.60453
▁distance	-8.60468
▁beer	-8.60684
▁wear	-8.61694
▁kneel	-8.61866
▁cooking	-8.62295
▁tent	-8.63056
▁rider	-8.63067
▁star	-8.63132
▁cliff	-8.63138
▁school	-8.63153
▁where	-8.63173
▁bed	-8.63246
▁cutt	-8.63376
▁works	-8.64164
▁make	-8.6455
ittle	-8.64593
▁bikes	-8.65082
▁vests	-8.6552
▁pick	-8.65768
▁instrument	-8.65858
▁court	-8.65896
▁edge	-8.659
▁Boy	-8.65917
▁B	-8.66357
▁bags	-8.66435
▁use	-8.67675
▁jersey	-8.68718
▁scarf	-8.68734
▁right	-8.68802
▁crossing	-8.69011
▁cup	-8.69923
▁apron	-8.7014
▁station	-8.70182
▁Women	-8.70183
▁nearby	-8.70194
▁filled	-8.70357
▁Frisbee	-8.71653
▁driving	-8.71653
▁pile	-8.71656
▁mountains	-8.71659
▁fix	-8.71671
▁art	-8.71826
▁place	-8.7259
▁display	-8.72816
▁carrie	-8.72842
▁structure	-8.73028
▁cigarette	-8.73123
▁shore	-8.73141
▁Group	-8.73146
▁mother	-8.73148
▁door	-8.73182
▁bottle	-8.73187
▁fruit	-8.7319
▁leaves	-8.73193
▁smile	-8.73216
▁friends	-8.73974
▁bowling	-8.74519
▁snowboarder	-8.74594
▁boots	-8.74674
▁vendor	-8.74707
▁shovel	-8.74717
▁stop	-8.748
▁no	-8.74938
▁net	-8.7504
▁buildings	-8.75661
▁Person	-8.76199
▁goggles	-8.76213
▁vehicle	-8.76293
▁skateboarder	-8.76327
▁horses	-8.7653
▁parked	-8.76598
▁M	-8.77028
▁concert	-8.77762
▁shot	-8.77783
▁time	-8.77807
▁marti	-8.77933
▁painted	-8.78094
▁can	-8.78519
▁drums	-8.78606
▁talks	-8.78875
▁paint	-8.79175
▁gather	-8.79291
▁coffee	-8.79349
▁smoking	-8.79369
▁break	-8.79403
▁newspaper	-8.79468
▁bowl	-8.79707
▁dresses	-8.79711
▁flying	-8.79915
▁eyes	-8.80041
▁rocky	-8.80297
a	-8.80577
▁bull	-8.80871
▁roof	-8.8095
▁conversation	-8.80962
▁safety	-8.80963
▁bunch	-8.80974
▁box	-8.8099
an	-8.81061
▁bucket	-8.81127
le	-8.81771
▁com	-8.82033
▁arts	-8.82547
▁cars	-8.82551
▁Old	-8.82602
▁practicing	-8.82602
▁gentleman	-8.82602
▁bicyclist	-8.82604
▁meal	-8.82615
▁spectators	-8.82618
▁ladder	-8.82633
▁wait	-8.82866
lying	-8.82972
▁younger	-8.82985
▁flags	-8.83012
▁gloves	-8.83049
▁waves	-8.83813
ew	-8.84024
ment	-8.84219
▁competition	-8.84268
▁different	-8.84269
▁empty	-8.84269
▁opposi	-8.84271
▁swinging	-8.84287
▁blanket	-8.84469
▁listening	-8.84559
▁giv	-8.84563
▁turn	-8.84643
▁v	-8.84865
▁costumes	-8.85153
▁check	-8.855
▁cake	-8.85973
▁scene	-8.86018
▁sort	-8.86043
▁bikini	-8.86127
▁surfer	-8.8613
▁desk	-8.86148
▁mask	-8.8617
▁balloon	-8.86234
▁items	-8.86376
▁there	-8.86792
▁put	-8.8722
▁chas	-8.87245
▁audience	-8.87687
▁lawn	-8.87688
▁railing	-8.89319
▁rodeo	-8.89442
▁Indian	-8.89447
▁Someone	-8.89447
▁onlookers	-8.89562
m	-8.89744
▁Girl	-8.89747
▁among	-8.89801
▁ski	-8.89846
▁skateboarding	-8.90206
▁C	-8.90703
▁leaps	-8.90729
▁P	-8.90748
▁slid	-8.90847
▁platform	-8.91227
▁hot	-8.91231
▁surfboard	-8.91343
▁class	-8.91559
▁tattoo	-8.91568
▁basket	-8.91571
▁vegetables	-8.91637
▁lay	-8.91664
ix	-8.91703
▁pointing	-8.91756
▁drinks	-8.91759
▁rail	-8.91846
arious	-8.92197
fore	-8.92317
▁parking	-8.92468
▁flip	-8.92798
▁gathering	-8.92881
▁help	-8.93019
▁collar	-8.93047
▁feet	-8.9305
▁wet	-8.93056
▁cement	-8.93121
▁facing	-8.93123
▁bird	-8.93436
▁biker	-8.93516
▁b	-8.93663
out	-8.93778
▁cut	-8.94112
▁sports	-8.94165
▁lap	-8.94887
▁gold	-8.94893
▁competing	-8.94897
▁silver	-8.94897
▁wedding	-8.94913
▁tie	-8.95071
▁jackets	-8.95112
▁new	-8.95169
▁bicycles	-8.95255
▁purse	-8.95302
ty	-8.95718
▁row	-8.9576
ng	-8.95976
▁speaking	-8.96026
▁tradition	-8.96784
▁classroom	-8.96785
▁business	-8.96785
▁counter	-8.96786
▁huge	-8.96867
▁base	-8.9698
ers	-8.97359
man	-8.97702
▁lift	-8.98411
▁animal	-8.992
▁sings	-8.993
▁suits	-8.99305
▁students	-8.9932
▁wash	-8.99333
▁surfing	-8.99619
▁climbs	-8.99825
▁do	-8.9987
▁helmets	-9.00251
▁roll	-9.00644
▁mirror	-9.00668
▁military	-9.00669
▁bride	-9.00699
▁alley	-9.00762
▁stroller	-9.01146
▁leap	-9.01261
▁kissing	-9.01544
▁teams	-9.01923
tries	-9.01983
▁screen	-9.02281
▁violin	-9.02657
▁electric	-9.02668
▁same	-9.02692
▁walkway	-9.02701
▁writing	-9.02889
en	-9.02949
▁artist	-9.03183
▁shoulder	-9.03252
▁skier	-9.03372
▁fighting	-9.03611
▁talk	-9.03861
▁sunset	-9.04715
▁country	-9.04802
top	-9.04863
▁runner	-9.05323
▁chase	-9.05414
▁give	-9.06461
▁spray	-9.06464
▁waits	-9.06538
▁barefoot	-9.06792
▁waving	-9.06841
▁wheel	-9.072
▁close	-9.08621
▁lit	-9.08632
▁marathon	-9.0892
▁seen	-9.09035
▁son	-9.09578
▁scooter	-9.09622
▁officer	-9.09647
id	-9.09804
▁leg	-9.09879
▁foot	-9.11093
▁father	-9.11098
▁course	-9.11103
▁says	-9.11339
▁end	-9.1173
▁bubbles	-9.11822
▁bald	-9.11828
▁hole	-9.11842
▁sell	-9.11863
▁females	-9.11971
▁fun	-9.12098
▁un	-9.12171
▁blowing	-9.12269
urban	-9.1324
▁life	-9.13268
▁leather	-9.13316
▁meat	-9.13317
▁happy	-9.13319
▁outfits	-9.13365
▁skating	-9.13392
se	-9.13581
▁skate	-9.14089
▁swim	-9.14122
▁balloons	-9.15226
▁drive	-9.15571
▁Construction	-9.15589
▁foreground	-9.15589
▁alone	-9.15591
▁In	-9.15621
▁five	-9.1575
▁brightly	-9.16007
▁bat	-9.16012
▁signs	-9.16162
▁musicians	-9.16385
▁clown	-9.16386
▁canoe	-9.16387
▁float	-9.16434
▁plate	-9.16434
▁hang	-9.16464
▁site	-9.16681
▁tire	-9.16921
▁helping	-9.17439
▁makes	-9.17884
▁asleep	-9.17914
▁desert	-9.17914
▁gym	-9.17934
▁headphones	-9.17934
▁made	-9.18144
▁lights	-9.18173
▁goal	-9.18262
▁sport	-9.18844
▁mud	-9.19476
▁legs	-9.19493
▁shav	-9.19773
w	-9.20201
▁leash	-9.20235
▁brush	-9.20237
▁office	-9.20293
▁stadium	-9.20295
▁video	-9.20295
▁diving	-9.20296
▁doorway	-9.20304
▁roller	-9.20306
▁umbrellas	-9.2035
▁well	-9.2036
▁sandals	-9.20429
▁musical	-9.20616
ous	-9.20693
▁drawing	-9.20853
▁speak	-9.21191
▁cat	-9.21308
▁way	-9.21552
▁photograph	-9.21737
o	-9.2201
te	-9.22383
▁golf	-9.22675
▁accordion	-9.22734
▁stuff	-9.22738
▁multicolored	-9.22785
▁photographer	-9.23652
▁laptop	-9.23758
▁falling	-9.23985
▁officers	-9.24399
▁lead	-9.24445
▁climb	-9.24613
▁Fi	-9.25043
▁swings	-9.25211
▁teenage	-9.25223
▁shallow	-9.25234
▁church	-9.25235
▁traffic	-9.25235
▁performance	-9.25246
▁sticks	-9.2531
▁van	-9.25339
▁Worker	-9.2535
▁faces	-9.25718
▁mat	-9.25738
▁kayak	-9.26177
▁skiing	-9.27397
▁tables	-9.27631
iant	-9.27738
▁project	-9.27782
▁digging	-9.278
▁below	-9.27803
▁pond	-9.27827
▁hammer	-9.27833
▁sled	-9.27845
hiking	-9.27869
▁microscope	-9.28866
▁garden	-9.28883
▁friend	-9.2903
▁block	-9.301
▁toys	-9.30118
▁tunnel	-9.3043
▁hoodie	-9.30441
▁hugging	-9.30492
▁passes	-9.30574
▁upside	-9.30584
▁relaxing	-9.31106
ping	-9.31126
▁stunt	-9.31568
▁drum	-9.31604
▁cloud	-9.31626
up	-9.31735
ic	-9.32219
▁G	-9.32759
▁Christmas	-9.33133
▁beige	-9.33133
▁Chinese	-9.33135
▁brunette	-9.33135
▁sleeps	-9.33439
▁D	-9.33557
▁sweeping	-9.33767
▁heads	-9.33949
▁pour	-9.3401
▁move	-9.34132
▁dancers	-9.34258
▁hose	-9.3429
▁daughter	-9.3432
▁blow	-9.34328
▁singer	-9.3435
▁sculpture	-9.34367
▁bend	-9.3453
th	-9.35421
▁inspect	-9.35867
▁eat	-9.35895
▁telescope	-9.3591
▁conversing	-9.35911
▁Black	-9.35911
▁lone	-9.35912
▁Guy	-9.35914
▁teeth	-9.35914
▁cafe	-9.35922
▁flies	-9.35927
▁mid	-9.35934
k	-9.35966
▁trunks	-9.36471
▁resting	-9.37118
in	-9.37152
▁chef	-9.3729
▁shoe	-9.37326
▁decorat	-9.37417
▁includ	-9.3758
▁streets	-9.37755
▁males	-9.3795
▁fall	-9.37969
▁mov	-9.38393
▁gun	-9.38436
ish	-9.38593
ign	-9.3875
▁karate	-9.38768
▁wrestling	-9.38768
▁cold	-9.38768
▁jogging	-9.38768
▁pier	-9.38769
▁racket	-9.38769
▁start	-9.38773
▁stack	-9.38773
▁mural	-9.38791
▁underneath	-9.38791
▁town	-9.38847
▁held	-9.38888
▁how	-9.39104
▁s	-9.39107
▁splashing	-9.39169
▁points	-9.39612
▁seem	-9.40086
▁plants	-9.40204
▁plant	-9.40313
▁string	-9.40558
▁cane	-9.40599
nt	-9.40712
▁balance	-9.40941
ids	-9.41254
▁cloth	-9.41255
▁fan	-9.41267
▁straw	-9.41444
▁stroll	-9.41636
▁themselves	-9.41709
▁hula	-9.41709
▁image	-9.41709
▁curly	-9.41737
▁finish	-9.41831
▁card	-9.41861
▁gate	-9.43047
▁cyclist	-9.43267
▁hiker	-9.43279
▁o	-9.43286
r	-9.43616
▁shoulders	-9.43859
mall	-9.43941
▁st	-9.4397
board	-9.44338
▁nap	-9.4453
▁stream	-9.44616
▁heavy	-9.44739
▁picnic	-9.44739
▁trampoline	-9.44739
▁kind	-9.44739
▁carnival	-9.44739
▁wetsuit	-9.44739
▁produce	-9.44739
▁crosswalk	-9.44741
▁dinner	-9.44741
▁makeup	-9.44759
▁deep	-9.44827
▁crying	-9.44861
▁deck	-9.44887
▁taken	-9.44961
▁wooded	-9.45584
▁individuals	-9.45672
▁coats	-9.458
▁knee	-9.46181
▁infant	-9.462
▁print	-9.46226
▁surf	-9.46284
▁mix	-9.46303
▁nose	-9.46333
▁c	-9.46401
▁round	-9.46428
▁O	-9.46493
▁performer	-9.46627
▁slope	-9.47079
▁lab	-9.47842
▁trash	-9.47864
▁professional	-9.47864
▁practice	-9.47864
▁surface	-9.47864
▁nice	-9.47865
▁Dog	-9.47866
▁center	-9.47868
▁load	-9.47913
▁driver	-9.47922
▁sewing	-9.4803
▁formal	-9.4806
▁closed	-9.48119
▁members	-9.48592
etting	-9.48741
▁covering	-9.4886
▁button	-9.4913
▁circle	-9.49189
ion	-9.49335
▁fight	-9.49414
▁square	-9.4945
▁cow	-9.49495
▁booth	-9.49572
▁al	-9.4982
less	-9.50083
▁n	-9.50167
▁tricks	-9.50514
▁balcony	-9.5109
▁blouse	-9.5109
▁himself	-9.5109
▁softball	-9.5109
▁third	-9.51091
▁lunch	-9.51093
▁speed	-9.51095
▁catche	-9.51409
▁ring	-9.51837
▁neck	-9.52556
▁pot	-9.52665
▁device	-9.52858
▁log	-9.52867
▁athlete	-9.5292
▁indoor	-9.52945
▁eye	-9.53049
▁robe	-9.53096
▁dances	-9.53587
▁see	-9.54213
▁staircase	-9.54423
▁festival	-9.54425
▁steep	-9.54425
▁wrapp	-9.54537
▁boxes	-9.54541
▁most	-9.5468
▁shak	-9.54906
ical	-9.54968
▁balanc	-9.55302
▁kiss	-9.55676
▁rest	-9.56351
▁opening	-9.56354
▁repair	-9.56382
▁w	-9.56451
▁skis	-9.5729
▁H	-9.57359
or	-9.57513
▁not	-9.57516
ight	-9.57649
▁frame	-9.57699
▁gymnast	-9.57864
▁grocery	-9.57871
▁fresh	-9.57872
▁puddle	-9.57872
▁garb	-9.57873
▁fallen	-9.57887
▁paved	-9.58068
▁overalls	-9.58091
▁pro	-9.59136
▁waterfall	-9.59476
▁sea	-9.59501
▁chain	-9.59858
▁pitcher	-9.59859
▁sheet	-9.59875
▁guard	-9.59893
▁jean	-9.60001
▁dancer	-9.60027
▁swims	-9.60144
ian	-9.60334
▁fe	-9.60462
covered	-9.60711
▁travel	-9.60776
▁E	-9.61356
ill	-9.61427
▁laundry	-9.61443
▁gentlemen	-9.61443
▁curb	-9.61443
▁porch	-9.61443
▁airplane	-9.61449
▁ledge	-9.61458
▁stool	-9.6146
▁flight	-9.61465
▁figure	-9.61471
▁grind	-9.61554
▁fair	-9.61648
▁climber	-9.61815
▁I	-9.61864
▁marching	-9.61961
▁customers	-9.62119
▁hoop	-9.62135
▁laugh	-9.62212
▁th	-9.623
▁fingers	-9.62333
▁crouche	-9.62842
▁teenagers	-9.6288
▁robes	-9.63036
▁podium	-9.63187
▁hikers	-9.63203
▁sale	-9.63505
▁clear	-9.63548
▁fore	-9.63549
▁present	-9.63592
▁khaki	-9.63642
▁teenager	-9.63696
▁ear	-9.63804
▁snowboard	-9.63818
▁birds	-9.6435
ge	-9.64371
▁pitch	-9.64497
▁R	-9.64684
▁ne	-9.64868
▁piano	-9.65147
▁paddling	-9.65148
▁polo	-9.65149
▁backyard	-9.65153
▁Here	-9.6517
▁golden	-9.65172
▁attached	-9.65194
▁pair	-9.65205
▁ship	-9.65249
▁evening	-9.65684
▁books	-9.65758
▁tile	-9.65837
▁raft	-9.65876
king	-9.66111
▁balls	-9.66125
▁pushe	-9.66248
▁colors	-9.66356
▁arena	-9.66407
▁shooting	-9.66438
▁part	-9.67004
▁tongue	-9.67035
▁mound	-9.67036
▁cook	-9.67152
▁shin	-9.67167
▁blocks	-9.67228
▁saxophone	-9.67261
▁keyboard	-9.67261
▁kicks	-9.67351
▁wheelchair	-9.67427
▁poster	-9.67457
▁loc	-9.67468
ese	-9.67664
ding	-9.67665
S	-9.68002
ring	-9.68076
▁re	-9.68158
▁New	-9.68839
▁warm	-9.68887
apan	-9.68973
▁Child	-9.68992
▁camouflage	-9.68993
▁fabric	-9.68993
▁pavement	-9.68993
▁position	-9.68993
▁denim	-9.68993
▁luggage	-9.68993
▁inflatable	-9.68993
▁color	-9.69108
▁wine	-9.69157
▁tracks	-9.69172
▁post	-9.69189
▁feed	-9.69515
▁seat	-9.69656
▁fenced	-9.7002
▁cones	-9.702
g	-9.70527
▁hurdle	-9.71261
▁bottom	-9.71426
▁swimsuit	-9.71489
▁poles	-9.71537
▁windows	-9.71714
side	-9.71918
▁shade	-9.72359
et	-9.72592
▁low	-9.72719
▁fill	-9.7272
merican	-9.72781
ustic	-9.7299
▁compete	-9.72993
▁juggling	-9.72993
▁referee	-9.72993
▁tractor	-9.72993
▁married	-9.72993
▁railroad	-9.72993
▁courtyard	-9.72995
▁goalie	-9.73
▁discuss	-9.7302
▁chest	-9.73037
▁landscape	-9.73198
▁dust	-9.73199
▁grab	-9.73514
▁name	-9.73601
▁buying	-9.74132
▁pack	-9.74309
▁laughs	-9.74625
▁eats	-9.7512
▁bandanna	-9.75205
▁wind	-9.75398
▁pin	-9.7545
▁towel	-9.75566
▁live	-9.75633
▁soldier	-9.75691
▁musician	-9.75738
▁de	-9.75785
▁type	-9.75902
▁protect	-9.7591
like	-9.76424
▁tub	-9.76725
▁examin	-9.76985
▁record	-9.77083
▁suspende	-9.77155
▁casual	-9.77159
▁carpet	-9.77159
▁Santa	-9.7716
▁carriage	-9.7716
▁happily	-9.7716
▁club	-9.7716
▁marketplace	-9.7716
▁motor	-9.77162
▁Male	-9.77164
▁garbage	-9.77166
ither	-9.77168
▁adjust	-9.77201
▁bread	-9.77208
▁pajamas	-9.77256
▁socks	-9.77319
▁shown	-9.77448
▁bucking	-9.77455
▁backwards	-9.77462
▁skirts	-9.77849
▁aco	-9.77862
▁scaffolding	-9.77896
rient	-9.78069
▁cheering	-9.78301
▁come	-9.78312
▁goods	-9.78331
▁map	-9.78336
▁tools	-9.78397
▁touching	-9.78604
▁soldiers	-9.7865
▁you	-9.79233
▁shoot	-9.79345
▁step	-9.79457
▁moves	-9.79517
▁escalator	-9.79555
▁groom	-9.79867
▁dry	-9.79893
▁advertisement	-9.79961
▁magazine	-9.80002
▁mustache	-9.80025
▁direction	-9.80027
▁peer	-9.80034
▁bubble	-9.80062
▁touch	-9.80208
skinn	-9.80606
▁fly	-9.80765
▁plane	-9.81266
alm	-9.81463
▁sheep	-9.81505
▁German	-9.81507
▁airport	-9.81507
▁athletic	-9.81507
▁caught	-9.81507
▁frisbee	-9.81507
▁harness	-9.81507
▁obstacle	-9.81507
▁living	-9.81507
▁model	-9.81507
▁serving	-9.81507
▁plaza	-9.81508
▁stove	-9.81508
▁rugby	-9.81508
▁dining	-9.81509
▁underwater	-9.81514
▁White	-9.81514
▁coach	-9.81522
▁peace	-9.81526
▁jerseys	-9.81556
▁six	-9.81561
▁teacher	-9.81592
▁motorcycles	-9.81595
sleeved	-9.81613
▁hay	-9.81629
▁welding	-9.81743
▁riders	-9.81845
▁raised	-9.81929
▁so	-9.82393
cy	-9.825
▁flo	-9.82966
▁ru	-9.82993
▁fans	-9.83539
▁bare	-9.84459
▁pipe	-9.84486
A	-9.84532
▁student	-9.846
▁tube	-9.84859
▁animals	-9.84882
▁overlook	-9.84892
▁participat	-9.84953
▁design	-9.84957
▁form	-9.85268
▁observe	-9.85505
men	-9.85524
▁paints	-9.85636
▁hood	-9.85797
▁direct	-9.86037
▁York	-9.86053
▁haircut	-9.86053
▁polka	-9.86053
▁jockey	-9.86053
▁native	-9.86054
▁gravel	-9.86054
▁amuse	-9.86106
▁operating	-9.86179
▁thrown	-9.86367
▁hooded	-9.86398
▁shape	-9.86551
age	-9.87018
▁shar	-9.87314
▁barbecue	-9.87634
▁mudd	-9.87825
▁raise	-9.88026
▁wagon	-9.88867
▁cover	-9.88918
▁sing	-9.89141
▁opponent	-9.89218
▁wire	-9.89321
▁individual	-9.89354
▁runners	-9.89377
▁cone	-9.89459
▁backpacks	-9.89501
line	-9.8977
▁sleeve	-9.89779
▁m	-9.89833
▁farm	-9.904
▁pit	-9.90647
ful	-9.9075
▁approach	-9.90756
▁serve	-9.90779
▁headscarf	-9.90815
▁jungle	-9.90815
▁interact	-9.90815
▁orchestra	-9.90815
▁mom	-9.90815
▁studio	-9.90816
▁wide	-9.90816
▁garage	-9.90816
▁sink	-9.90816
▁bathroom	-9.90817
▁presentation	-9.90819
▁hallway	-9.90819
▁candy	-9.90821
▁youth	-9.90824
▁spread	-9.90835
▁money	-9.90836
▁checkered	-9.9085
▁things	-9.90851
▁heels	-9.90924
▁saw	-9.90935
▁redhead	-9.90941
ist	-9.90989
▁kite	-9.90996
way	-9.91002
▁fast	-9.91024
▁du	-9.91044
▁pedestrians	-9.91151
▁bit	-9.91227
▁grilling	-9.91374
▁benches	-9.91702
▁fl	-9.92134
▁involv	-9.92277
▁point	-9.92996
▁land	-9.93102
▁cyclists	-9.93194
▁photographs	-9.93765
▁drummer	-9.93876
▁action	-9.94131
▁boats	-9.94165
▁sword	-9.94249
▁jumpsuit	-9.94258
▁racer	-9.94434
▁tool	-9.94527
ked	-9.94699
arrow	-9.94754
amp	-9.9479
2	-9.95082
▁vehicles	-9.95508
▁but	-9.95776
▁Brown	-9.95815
▁ceiling	-9.95815
▁entrance	-9.95815
▁racetrack	-9.95815
▁speech	-9.95815
▁patio	-9.95815
▁leaf	-9.95815
▁machinery	-9.95824
▁puck	-9.95825
▁sack	-9.95835
▁pattern	-9.95836
▁summer	-9.95837
▁moto	-9.9584
▁policeman	-9.95878
▁container	-9.95929
▁examine	-9.96024
▁dive	-9.96087
▁passengers	-9.9685
fully	-9.96903
ent	-9.97057
▁mall	-9.97089
▁lie	-9.97167
▁wi	-9.97497
▁flipp	-9.9757
▁free	-9.97796
▁ears	-9.97852
▁snowboarding	-9.97879
▁read	-9.97946
▁rests	-9.98071
▁waters	-9.98147
cuba	-9.98378
▁ropes	-9.98401
i	-9.98665
▁sets	-9.98725
▁hitt	-9.98936
▁bow	-9.98944
▁routine	-9.99135
▁trumpet	-9.99348
▁cla	-9.99371
▁lane	-9.99512
▁beam	-9.99516
▁tag	-9.99534
▁beverage	-9.99583
▁craft	-9.99602
▁smoke	-9.99607
▁good	-9.9963
▁glove	-9.99636
▁buy	-9.9973
shirts	-9.99846
so	-9.99846
ned	-9.99945
▁rowing	-9.99984
uff	-10.0015
down	-10.0035
▁walls	-10.0055
▁bear	-10.0055
▁leav	-10.0063
ning	-10.0071
▁fruits	-10.0092
▁sandwich	-10.0101
▁multi	-10.0105
▁bro	-10.0107
▁attend	-10.0108
▁hall	-10.0108
▁Blond	-10.0108
▁Crowd	-10.0108
▁hospital	-10.0108
▁intersection	-10.0108
▁museum	-10.0108
▁ornate	-10.0108
▁donkey	-10.0108
▁herself	-10.0108
▁rough	-10.0108
▁african	-10.0108
▁boardwalk	-10.0108
▁discussion	-10.0109
▁drill	-10.0109
▁horseback	-10.0109
▁half	-10.0109
▁stopped	-10.0109
▁possibly	-10.011
▁enter	-10.0111
▁bushes	-10.0111
▁song	-10.0112
▁hillside	-10.0113
▁wrestler	-10.0117
▁keep	-10.0122
▁sail	-10.0126
▁spinn	-10.0128
▁batter	-10.014
ure	-10.0157
▁pet	-10.0205
▁participate	-10.0237
▁Lad	-10.0249
▁heart	-10.0259
▁medic	-10.0288
▁mop	-10.0307
▁stra	-10.0319
▁toss	-10.0331
▁cleans	-10.0357
▁cheer	-10.0372
▁AT	-10.0373
▁pen	-10.0409
▁we	-10.0412
▁fold	-10.0415
▁wa	-10.0432
▁dune	-10.0502
▁protest	-10.0504
▁motorcyclist	-10.0513
▁duck	-10.0534
▁baskets	-10.0555
▁bikers	-10.0557
▁per	-10.0626
arge	-10.0639
▁celebrating	-10.0663
▁fencing	-10.0663
▁maroon	-10.0663
▁silhouette	-10.0663
▁great	-10.0663
▁puppy	-10.0663
▁neighborhood	-10.0663
▁village	-10.0663
▁cobble	-10.0663
▁nav	-10.0664
▁taxi	-10.0664
▁film	-10.0664
▁patient	-10.0664
▁firetruck	-10.0665
▁dig	-10.0666
▁handstand	-10.0666
▁outstretched	-10.0667
▁squatting	-10.0668
▁dishes	-10.0669
▁clay	-10.0685
rubber	-10.0691
▁pan	-10.0705
▁farmer	-10.0713
ies	-10.0755
▁sil	-10.076
▁war	-10.0794
▁slides	-10.0806
▁pett	-10.0827
▁seve	-10.0829
C	-10.0858
▁seats	-10.0878
▁skateboards	-10.0908
▁St	-10.0924
u	-10.0927
▁ahead	-10.0947
ped	-10.0948
▁indoors	-10.0954
▁splashe	-10.0968
▁bin	-10.1037
▁skates	-10.104
▁storefront	-10.1093
▁doctor	-10.1095
▁broom	-10.1095
▁guitarist	-10.1098
▁order	-10.1098
▁belt	-10.1102
▁swimmer	-10.1102
▁finger	-10.1106
▁item	-10.1109
▁relax	-10.1153
▁doll	-10.1165
▁tops	-10.1187
born	-10.1191
▁buckets	-10.1191
▁paddle	-10.1212
el	-10.1215
▁bottles	-10.1235
▁wrestle	-10.1241
▁chalk	-10.1251
▁Street	-10.1252
▁cricket	-10.1252
▁sofa	-10.1252
▁wife	-10.1252
▁ballerina	-10.1252
▁rink	-10.1252
▁calf	-10.1252
▁carving	-10.1252
flops	-10.1252
▁odd	-10.1252
▁amid	-10.1252
▁scenery	-10.1252
▁iron	-10.1252
▁moment	-10.1253
▁choir	-10.1255
▁lamp	-10.1255
▁crew	-10.1256
▁dreadlocks	-10.1257
▁first	-10.126
▁dish	-10.1271
▁newly	-10.1292
▁gas	-10.1305
▁stretching	-10.1306
▁crouching	-10.1309
▁cheerleaders	-10.1311
▁cop	-10.1311
▁stripes	-10.1313
▁receiv	-10.132
ries	-10.134
▁hugs	-10.1366
▁stares	-10.138
▁r	-10.1392
▁crafts	-10.142
▁smokes	-10.142
▁bite	-10.1425
▁coloring	-10.1451
▁plac	-10.1482
x	-10.1519
more	-10.1557
go	-10.1652
▁apartment	-10.1655
▁style	-10.1674
▁motorbike	-10.1717
▁draw	-10.1719
▁snack	-10.1722
▁barrel	-10.1723
▁banner	-10.1723
iz	-10.1729
▁knit	-10.173
▁sweep	-10.173
▁muzzle	-10.173
▁vegetable	-10.1731
▁member	-10.1733
▁stones	-10.1737
▁W	-10.1739
▁wrap	-10.1741
▁tattoos	-10.1756
▁na	-10.1759
pped	-10.1779
irthday	-10.1791
▁thin	-10.1809
stone	-10.1818
▁bowls	-10.182
▁boxing	-10.182
▁hid	-10.1836
ple	-10.1841
▁shake	-10.1862
▁branch	-10.1871
▁Whi	-10.1876
▁Middle	-10.1877
▁gymnasium	-10.1877
▁liquid	-10.1877
▁unicycle	-10.1877
▁library	-10.1877
▁crane	-10.1877
▁conference	-10.1877
▁material	-10.1877
▁similar	-10.1877
▁furniture	-10.1877
▁angel	-10.1877
▁derby	-10.1877
▁stairway	-10.1877
▁BM	-10.1877
▁dead	-10.1877
▁intently	-10.1877
▁partially	-10.1877
▁greyhound	-10.1877
▁nighttime	-10.1877
▁dimly	-10.1878
▁castle	-10.1878
▁calm	-10.1878
ken	-10.1881
▁barber	-10.1881
▁tower	-10.1881
▁bass	-10.1891
▁cast	-10.1897
▁tend	-10.1898
▁moped	-10.1913
▁space	-10.1927
▁pigeons	-10.193
▁tied	-10.1936
▁trailer	-10.1941
▁tackle	-10.1945
▁pret	-10.1954
▁h	-10.1961
▁candles	-10.1969
▁lounge	-10.1973
▁listens	-10.199
▁following	-10.2011
▁ho	-10.2045
▁cape	-10.2086
rs	-10.2101
l	-10.2104
ie	-10.2113
▁su	-10.2129
▁focus	-10.2155
stern	-10.2161
▁N	-10.2161
▁rais	-10.2207
▁la	-10.2258
▁control	-10.2286
▁act	-10.2301
▁balding	-10.232
▁wheels	-10.2338
▁spoon	-10.235
▁admir	-10.2365
▁bars	-10.2373
▁electronic	-10.2379
▁headband	-10.2379
▁horn	-10.2383
▁elephant	-10.2384
▁ribbon	-10.2387
▁necklace	-10.2389
▁teammate	-10.239
▁po	-10.2423
▁Girls	-10.2425
▁share	-10.2437
▁loung	-10.2441
▁pieces	-10.2445
sleeve	-10.2452
ial	-10.2458
uses	-10.2461
▁colle	-10.2477
▁microphones	-10.2513
▁contain	-10.2528
▁doors	-10.2536
neath	-10.2538
▁visit	-10.2539
▁corn	-10.254
ake	-10.254
▁advertising	-10.2543
▁jewelry	-10.2543
▁mobile	-10.2543
▁modern	-10.2543
▁stomach	-10.2543
▁learn	-10.2543
▁rainbow	-10.2543
▁wild	-10.2543
▁billboard	-10.2543
▁chew	-10.2543
▁converse	-10.2543
▁return	-10.2544
▁television	-10.2544
▁lick	-10.2544
▁flute	-10.2544
▁bundle	-10.2546
▁exit	-10.2547
▁peek	-10.2547
▁tee	-10.2548
▁forward	-10.255
▁observing	-10.2551
▁fireman	-10.2552
▁theater	-10.2555
▁called	-10.2561
▁far	-10.2572
▁crosses	-10.2576
▁got	-10.2591
▁pine	-10.2602
ggy	-10.2603
▁catcher	-10.261
it	-10.2627
▁follows	-10.2686
led	-10.2697
▁guitars	-10.2709
ary	-10.2716
▁computers	-10.2732
able	-10.2742
▁engage	-10.2762
▁viewing	-10.2767
▁directions	-10.2778
ity	-10.2781
ate	-10.2803
▁shades	-10.2804
▁hoops	-10.2838
▁objects	-10.291
▁surrounding	-10.295
▁follow	-10.2957
▁lin	-10.2964
▁plates	-10.2991
ite	-10.3013
▁tug	-10.3026
▁ex	-10.3058
▁gift	-10.3086
▁feather	-10.3099
▁camel	-10.3103
▁sprinkler	-10.3103
▁pillow	-10.3107
▁passenger	-10.311
▁ethnic	-10.3111
▁trunk	-10.3112
▁We	-10.3113
ant	-10.3117
▁apple	-10.3125
▁size	-10.3131
▁turns	-10.3164
b	-10.3177
▁operate	-10.3203
ying	-10.3205
▁nets	-10.3227
▁whil	-10.3229
▁shovels	-10.323
▁stor	-10.3244
▁bik	-10.3246
▁excited	-10.3247
▁patch	-10.3251
▁cool	-10.3253
one	-10.3253
occer	-10.3255
▁fur	-10.3256
▁hike	-10.3256
▁drag	-10.3257
▁Multip	-10.3258
▁consist	-10.3258
▁Caucasian	-10.3258
▁Cheerleaders	-10.3258
▁London	-10.3258
▁scoop	-10.3258
▁wheelbarrow	-10.3258
▁engine	-10.3258
▁steel	-10.3258
▁job	-10.3258
▁fisherman	-10.3258
▁weaving	-10.3258
▁terrain	-10.3258
▁ponytail	-10.3258
▁fetch	-10.3258
▁airborne	-10.3258
▁pizza	-10.3258
▁formation	-10.3258
▁slightly	-10.3258
▁poor	-10.3258
▁aisle	-10.3259
▁kilt	-10.3259
▁downtown	-10.3259
▁pottery	-10.326
▁dough	-10.3261
▁closeup	-10.3261
▁binoculars	-10.3264
▁nature	-10.3268
▁complete	-10.3269
▁lines	-10.3281
▁Students	-10.3286
▁teen	-10.3292
▁brows	-10.3298
lar	-10.33
▁beat	-10.333
ious	-10.3351
▁photographed	-10.3357
ky	-10.3368
▁tourists	-10.3386
▁teach	-10.3427
▁protesting	-10.3457
▁was	-10.3468
▁tur	-10.3508
▁repairs	-10.3579
il	-10.3586
▁tin	-10.3587
▁City	-10.361
▁fashion	-10.362
▁camp	-10.3635
▁guns	-10.3643
▁chefs	-10.3648
re	-10.3736
ance	-10.375
anie	-10.378
▁photos	-10.378
▁co	-10.3807
▁jet	-10.3835
▁hug	-10.3843
▁ha	-10.3862
lies	-10.3867
▁barrier	-10.387
▁shadow	-10.3877
▁customer	-10.3881
▁official	-10.3883
weight	-10.3948
▁entertain	-10.3961
ur	-10.3968
cular	-10.3977
▁sh	-10.3978
ation	-10.3986
▁ea	-10.3989
▁bounc	-10.3992
▁papers	-10.4011
▁tea	-10.4013
▁exhibit	-10.4026
science	-10.4027
▁burgundy	-10.4027
▁debris	-10.4027
▁groceries	-10.4027
▁rickshaw	-10.4027
▁sniff	-10.4027
▁Elder	-10.4027
▁Europe	-10.4027
▁dusk	-10.4027
▁trop	-10.4027
▁chainsaw	-10.4027
▁crawl	-10.4027
▁loom	-10.4027
▁mug	-10.4027
▁spotted	-10.4028
if	-10.4029
▁dunk	-10.4029
▁lecture	-10.403
▁score	-10.403
▁attention	-10.403
▁telephone	-10.403
▁factory	-10.403
▁wings	-10.4032
▁coaster	-10.4032
▁sneakers	-10.4034
▁bleachers	-10.4034
▁tape	-10.4034
▁movie	-10.4034
▁waterfront	-10.4035
▁overhead	-10.4035
▁ceremony	-10.4036
▁bound	-10.4038
▁pay	-10.4039
▁messy	-10.4043
▁flu	-10.4052
▁oven	-10.4052
▁studying	-10.4058
▁waterway	-10.4072
▁dis	-10.4074
▁lower	-10.409
▁praying	-10.4098
▁tents	-10.4098
▁Mi	-10.4107
ling	-10.4108
▁gestures	-10.4118
▁eggs	-10.4142
▁firefighters	-10.4156
▁meeting	-10.4168
▁create	-10.4199
om	-10.4221
▁swimmers	-10.4228
▁bra	-10.4234
▁vari	-10.4237
▁careful	-10.424
ar	-10.425
▁protecti	-10.4266
▁landing	-10.4271
▁burn	-10.4274
▁observes	-10.4287
ke	-10.4316
▁real	-10.4348
ted	-10.4381
▁machines	-10.4421
▁strap	-10.4479
▁laptops	-10.4513
▁tires	-10.4547
▁listen	-10.4563
▁houses	-10.458
▁funn	-10.4584
p	-10.4664
▁exercise	-10.4668
▁target	-10.4668
▁snowsuit	-10.4668
▁training	-10.4673
▁flips	-10.4696
▁boulder	-10.4696
▁chicken	-10.4696
▁suitcase	-10.4701
▁meet	-10.4709
▁begin	-10.4711
▁scaffold	-10.4711
▁tourist	-10.4711
▁backs	-10.4721
▁shops	-10.4732
lit	-10.4777
D	-10.4782
made	-10.4787
wood	-10.4787
▁chopp	-10.4822
at	-10.4823
▁spin	-10.4835
▁juggle	-10.4849
▁process	-10.4859
▁descend	-10.486
▁stoop	-10.486
▁Female	-10.486
▁backdrop	-10.486
▁bamboo	-10.486
▁banjo	-10.486
▁experiment	-10.486
▁knife	-10.486
▁merchandise	-10.486
▁monument	-10.486
▁poodle	-10.486
▁second	-10.486
▁umpire	-10.486
▁unique	-10.486
▁yoga	-10.486
quoi	-10.486
▁China	-10.486
▁trolley	-10.486
▁celebration	-10.486
▁juice	-10.486
▁blood	-10.486
▁lacrosse	-10.486
▁sailboat	-10.486
▁emergency	-10.486
▁semi	-10.486
▁brother	-10.486
▁motion	-10.486
▁forehead	-10.486
▁soap	-10.4861
▁chess	-10.4861
▁eight	-10.4861
▁clapping	-10.4861
▁location	-10.4861
▁paperwork	-10.4861
▁wheelie	-10.4862
▁hotel	-10.4862
▁alleyway	-10.4862
▁countryside	-10.4863
▁teal	-10.4864
▁Police	-10.4864
▁world	-10.4864
▁strange	-10.4864
▁mow	-10.4865
▁firemen	-10.4865
▁label	-10.4865
▁It	-10.4865
▁case	-10.4866
▁pigtails	-10.4867
▁wares	-10.4869
▁mower	-10.4874
▁Bear	-10.4874
▁cups	-10.4879
▁bystanders	-10.488
▁link	-10.488
▁gymnastics	-10.4906
▁creat	-10.491
▁bagpipes	-10.492
▁stare	-10.4934
▁securi	-10.4938
▁Red	-10.4944
▁rust	-10.4996
▁shadows	-10.5026
▁Arm	-10.5031
▁pillows	-10.5039
▁incline	-10.5074
▁caps	-10.508
▁paddles	-10.5081
▁cr	-10.5099
▁beverages	-10.5106
▁wires	-10.5133
▁featur	-10.5166
ll	-10.5169
ging	-10.517
ily	-10.5229
▁shower	-10.5271
▁knees	-10.5284
▁performers	-10.5299
tical	-10.5322
▁sha	-10.5327
us	-10.5357
T	-10.5361
ton	-10.5412
▁me	-10.5421
ated	-10.546
▁scooters	-10.5475
▁diver	-10.5511
▁menu	-10.5519
▁aim	-10.5557
▁soda	-10.5577
▁rod	-10.5578
ohn	-10.5578
▁fell	-10.5588
▁tricycle	-10.5597
▁trip	-10.5597
▁hut	-10.5598
▁tackl	-10.5601
▁celebrate	-10.5606
▁parachute	-10.561
▁cheek	-10.5614
▁tray	-10.5615
▁firefighter	-10.562
▁arch	-10.5624
▁rollerskat	-10.5644
▁reflect	-10.5654
▁blankets	-10.5656
com	-10.5657
▁bu	-10.5672
style	-10.5684
American	-10.5697
▁newspapers	-10.5699
▁typ	-10.5733
▁weather	-10.5733
▁vendors	-10.5742
▁coast	-10.5763
rench	-10.5764
and	-10.5764
▁comfort	-10.5769
▁aqua	-10.5769
▁medium	-10.5769
▁auditorium	-10.5769
▁butcher	-10.5769
▁christmas	-10.5769
▁laundromat	-10.5769
▁rapids	-10.5769
▁separate	-10.5769
▁unusual	-10.5769
▁yarn	-10.5769
▁arcade	-10.5769
▁salon	-10.5769
▁cheese	-10.5769
▁huddle	-10.5769
▁surgery	-10.5769
▁puppies	-10.5769
▁supplies	-10.5769
▁rice	-10.5769
▁expression	-10.5769
▁underwear	-10.5769
▁grand	-10.577
▁suspenders	-10.577
▁cello	-10.577
▁stall	-10.577
▁chalkboard	-10.5771
▁chatting	-10.5771
▁descent	-10.5772
▁lens	-10.5772
▁handrail	-10.5772
▁sunlight	-10.5772
▁shoreline	-10.5773
▁visible	-10.5773
▁homeless	-10.5775
▁test	-10.5776
▁bank	-10.5776
▁highway	-10.5777
▁Runners	-10.5777
▁joy	-10.5781
▁guide	-10.5784
tered	-10.5786
▁rollerblading	-10.5791
▁screaming	-10.5806
▁ador	-10.5806
▁snowshoes	-10.5806
▁range	-10.581
▁folded	-10.5811
▁ballet	-10.5812
▁bush	-10.5814
war	-10.5818
▁closely	-10.5826
▁stir	-10.5835
▁single	-10.5839
▁larger	-10.5845
▁carve	-10.5867
▁Blu	-10.5871
▁tights	-10.5893
▁furr	-10.5895
▁pre	-10.5905
▁skaters	-10.5913
▁stepp	-10.5916
E	-10.5916
▁mus	-10.5917
▁thumbs	-10.5919
▁lifted	-10.5938
▁camping	-10.5958
▁motorcyclists	-10.6025
▁crossed	-10.6031
uck	-10.6034
▁ja	-10.606
ried	-10.6062
▁en	-10.6091
▁magazines	-10.6099
▁spike	-10.6114
▁swimsuits	-10.6129
▁khakis	-10.6159
▁dad	-10.619
ig	-10.6195
▁logs	-10.6204
▁lighted	-10.624
▁offer	-10.6267
ab	-10.6285
nel	-10.6304
cial	-10.6316
▁athletes	-10.6336
▁ma	-10.6347
▁floats	-10.64
ender	-10.6415
▁sta	-10.6415
▁flor	-10.6417
▁mark	-10.6454
rimmed	-10.6458
▁bras	-10.6472
▁l	-10.6486
▁trib	-10.6489
▁heavi	-10.6493
▁skiers	-10.6501
▁squat	-10.6508
▁watched	-10.651
▁chin	-10.6511
▁cree	-10.6541
▁news	-10.6555
▁support	-10.6578
▁cage	-10.6583
▁leotard	-10.6597
▁portrait	-10.6597
▁ticket	-10.6597
▁treat	-10.6597
▁service	-10.6601
▁vacuum	-10.6612
▁padd	-10.6613
▁march	-10.6615
▁hotdog	-10.6615
▁goat	-10.6617
▁thumb	-10.6619
▁monitor	-10.6619
▁egg	-10.662
▁candle	-10.6621
▁skater	-10.6623
▁upward	-10.6625
▁even	-10.6634
ally	-10.6643
▁gaze	-10.6649
of	-10.6655
▁punch	-10.6658
land	-10.6682
▁gathers	-10.6695
▁cans	-10.6701
▁races	-10.6715
ched	-10.6716
ok	-10.673
▁cab	-10.6739
▁da	-10.6754
▁await	-10.6761
hepherd	-10.6764
pectators	-10.6767
edestrians	-10.6767
▁apart	-10.6768
▁headdress	-10.6768
▁torch	-10.6768
loseup	-10.6768
▁sculpt	-10.6769
▁Couple	-10.6769
▁Square	-10.6769
▁activity	-10.6769
▁bouquet	-10.6769
▁canvas	-10.6769
▁contraption	-10.6769
▁embracing	-10.6769
▁gallery	-10.6769
▁senior	-10.6769
▁workshop	-10.6769
▁frozen	-10.6769
▁quarterback	-10.6769
▁tutu	-10.6769
▁leggings	-10.6769
▁valley	-10.6769
▁earphones	-10.6769
▁lobby	-10.6769
▁trashcan	-10.6769
▁monkey	-10.6769
▁snap	-10.6769
▁passersby	-10.6769
▁tripod	-10.6769
▁transportation	-10.6769
▁sideways	-10.6769
▁staff	-10.6769
▁highchair	-10.6769
▁blazer	-10.677
▁stilts	-10.677
▁dumpster	-10.677
▁pedal	-10.677
▁spotlight	-10.677
▁facility	-10.677
▁driveway	-10.6772
▁Band	-10.6772
▁rally	-10.6772
▁maneuver	-10.6774
▁section	-10.6774
▁quickly	-10.6774
▁injured	-10.6775
▁collect	-10.6776
▁rooftop	-10.6777
▁branches	-10.6779
▁than	-10.6781
▁venue	-10.6782
▁approaches	-10.6782
▁Lot	-10.6788
▁done	-10.6789
▁roadside	-10.679
▁pl	-10.6793
▁Asia	-10.6793
▁workout	-10.6797
▁scarves	-10.6798
▁mess	-10.68
▁Player	-10.6804
▁rag	-10.682
▁artwork	-10.6823
▁my	-10.6826
▁interesting	-10.6826
▁picks	-10.6829
▁Easter	-10.6831
ten	-10.684
▁power	-10.6848
▁bricks	-10.6852
▁navigate	-10.6862
▁tail	-10.6868
▁painter	-10.6871
▁battl	-10.6889
▁Olympics	-10.689
▁reflecti	-10.6894
▁Canad	-10.6897
▁strike	-10.6901
▁products	-10.6907
▁washer	-10.6909
▁gazes	-10.6928
▁sprayed	-10.6938
▁cowboys	-10.6964
ron	-10.6969
▁cute	-10.6972
ap	-10.6983
▁autumn	-10.7013
▁carts	-10.7018
▁belts	-10.7037
tter	-10.7057
▁Mar	-10.7057
▁divers	-10.7065
rying	-10.7071
ine	-10.7077
▁racers	-10.7098
▁handle	-10.7099
▁str	-10.7106
▁splash	-10.7131
bing	-10.7145
▁ba	-10.7146
▁press	-10.7147
▁pins	-10.7153
▁comm	-10.718
▁rafting	-10.7203
tage	-10.7219
▁pots	-10.7254
▁cards	-10.7325
ce	-10.7364
wed	-10.7404
▁kayaking	-10.7413
▁va	-10.7449
▁bicycl	-10.7468
▁yo	-10.7504
ence	-10.7577
▁fo	-10.7589
ack	-10.759
▁k	-10.7607
▁classic	-10.7684
im	-10.7685
▁rifle	-10.7689
▁reflection	-10.7693
▁sweat	-10.7694
ear	-10.7707
ude	-10.7707
▁pumpkin	-10.7708
▁engag	-10.7716
▁wig	-10.7718
▁task	-10.7721
▁pale	-10.7723
▁spot	-10.7725
▁product	-10.7729
▁tight	-10.774
▁turban	-10.7747
▁crash	-10.7758
▁fla	-10.7764
▁shad	-10.7776
▁drop	-10.7791
▁circu	-10.7802
body	-10.7807
striped	-10.7807
most	-10.7814
mic	-10.7814
▁win	-10.7819
▁sw	-10.7822
▁own	-10.7833
▁gaz	-10.7841
▁scen	-10.7847
aking	-10.7856
▁displays	-10.7876
hind	-10.7876
miling	-10.7878
▁contest	-10.788
▁horizon	-10.788
▁mechanic	-10.788
▁unhappy	-10.788
▁School	-10.788
▁Skateboarder	-10.788
▁afternoon	-10.788
▁bathtub	-10.788
▁breakdancing	-10.788
▁built	-10.788
▁caucasian	-10.788
▁chocolate	-10.788
▁chopsticks	-10.788
▁congregate	-10.788
▁foliage	-10.788
▁gesturing	-10.788
▁pinata	-10.788
▁shawl	-10.788
▁smooth	-10.788
▁squeez	-10.788
▁synchroniz	-10.788
▁cannon	-10.788
▁illuminat	-10.788
▁lasso	-10.788
▁morning	-10.788
▁cherry	-10.788
▁industr	-10.788
▁numer	-10.788
▁helicopter	-10.788
▁border	-10.788
▁sparring	-10.788
▁every	-10.788
▁pencil	-10.788
▁unload	-10.788
▁Hockey	-10.7881
▁stump	-10.7881
▁riot	-10.7881
▁raincoat	-10.7881
▁grasp	-10.7881
▁bedroom	-10.7881
▁beret	-10.7881
▁pretend	-10.7881
▁waist	-10.7881
▁monk	-10.7881
▁rollerblades	-10.7881
▁icy	-10.7881
▁cott	-10.7881
▁butterfly	-10.7882
▁pilot	-10.7882
▁letter	-10.7882
▁cave	-10.7883
▁want	-10.7885
awaii	-10.7886
▁Shepherd	-10.7886
▁sad	-10.7887
▁content	-10.7889
▁pathway	-10.7889
▁trench	-10.789
▁belongings	-10.789
▁decorations	-10.7891
ital	-10.7891
▁miss	-10.7896
▁checkers	-10.79
▁hook	-10.7901
▁braid	-10.7902
ded	-10.7902
▁He	-10.7906
▁brushes	-10.7909
▁think	-10.7921
▁parasailing	-10.7926
op	-10.7927
▁plain	-10.7927
▁fishes	-10.7939
▁acrobatic	-10.7941
▁scouts	-10.7944
▁pads	-10.7949
▁writes	-10.7951
▁mur	-10.7953
dults	-10.796
▁jogs	-10.7962
F	-10.7967
▁crates	-10.798
▁waiter	-10.7997
▁parents	-10.7999
▁jumper	-10.8004
ened	-10.8006
ro	-10.8026
▁She	-10.804
▁ro	-10.8059
▁scale	-10.8069
▁begins	-10.809
▁locat	-10.8093
▁scrap	-10.8098
▁numbers	-10.8109
ered	-10.8124
▁package	-10.8131
▁displayed	-10.8147
▁Nat	-10.8154
ather	-10.8156
ohawk	-10.8183
▁ducks	-10.82
▁late	-10.8208
▁played	-10.822
▁designs	-10.8271
▁types	-10.8319
tti	-10.8332
ster	-10.835
▁rings	-10.8414
▁booths	-10.8445
h	-10.8461
▁curve	-10.8464
▁appl	-10.8468
▁cameras	-10.8515
rd	-10.8543
ter	-10.855
ick	-10.8556
▁clouds	-10.8559
ex	-10.8587
aby	-10.8597
▁dot	-10.861
ung	-10.8625
▁tow	-10.863
▁port	-10.8636
▁us	-10.8648
▁lad	-10.8684
gie	-10.8702
▁skinn	-10.8725
otted	-10.8727
▁i	-10.8737
▁ca	-10.8738
▁Ra	-10.8743
light	-10.8811
nny	-10.8817
f	-10.8817
ocal	-10.8824
▁say	-10.8831
▁sleep	-10.8838
ard	-10.8856
house	-10.8857
▁boards	-10.8871
▁call	-10.8932
▁diner	-10.894
▁human	-10.894
▁wakeboard	-10.894
▁pocket	-10.8958
▁notebook	-10.8958
▁bo	-10.896
▁dump	-10.8968
▁rug	-10.8976
▁gown	-10.8976
▁column	-10.8977
▁Olympic	-10.8979
▁gesture	-10.8981
▁receive	-10.8982
▁nail	-10.899
▁speaker	-10.8992
P	-10.8993
▁Car	-10.9013
dress	-10.902
▁vin	-10.9033
mount	-10.9046
cause	-10.9049
▁writ	-10.9057
green	-10.9057
paved	-10.9067
▁harvest	-10.9088
▁measur	-10.9095
ature	-10.9113
pard	-10.9121
▁potato	-10.9124
▁India	-10.9126
irefighters	-10.9128
▁clut	-10.9128
▁Mexic	-10.9129
▁rack	-10.913
▁complex	-10.913
▁tarp	-10.913
▁aquarium	-10.913
▁chisel	-10.913
▁cycling	-10.913
▁destination	-10.913
▁dinosaur	-10.913
▁elaborate	-10.913
▁hammock	-10.913
▁harmonica	-10.913
▁mannequin	-10.913
▁register	-10.913
▁toothbrush	-10.913
▁treadmill	-10.913
▁vibrant	-10.913
▁victory	-10.913
▁warehouse	-10.913
▁xylophone	-10.913
▁accident	-10.913
▁connect	-10.913
▁laboratory	-10.913
▁marble	-10.913
▁powder	-10.913
▁sample	-10.913
▁tuxedo	-10.913
▁babies	-10.913
▁find	-10.913
▁greet	-10.913
▁jeep	-10.913
▁envi	-10.913
▁cigar	-10.913
▁religious	-10.913
▁scrubs	-10.913
▁campfire	-10.913
▁easel	-10.913
▁Yellow	-10.913
▁establishment	-10.913
▁maintenance	-10.913
▁hydrant	-10.913
▁turtle	-10.913
▁surg	-10.9131
▁NY	-10.9131
▁conductor	-10.9131
▁ATM	-10.9131
▁Look	-10.9131
▁year	-10.9131
▁Brit	-10.9131
▁tournament	-10.9131
▁tracksuit	-10.9131
▁turkey	-10.9131
▁yell	-10.9131
▁mohawk	-10.9131
▁Musician	-10.9131
▁compan	-10.9131
▁rake	-10.9131
▁lion	-10.9132
▁stance	-10.9132
▁America	-10.9132
▁split	-10.9132
▁underground	-10.9132
▁Spanish	-10.9133
▁bib	-10.9133
▁abandoned	-10.9133
▁cries	-10.9133
▁shout	-10.9133
▁daytime	-10.9133
▁bowtie	-10.9133
▁State	-10.9134
▁projector	-10.9134
▁vend	-10.9134
▁pony	-10.9135
▁flock	-10.9135
▁stretches	-10.9135
▁sledding	-10.9135
league	-10.9136
▁plank	-10.9136
▁Elmo	-10.9136
▁tell	-10.9137
▁flat	-10.9137
▁rush	-10.9138
▁carrier	-10.9139
▁cheerlead	-10.9139
▁flame	-10.914
▁logo	-10.9141
▁shoppers	-10.9143
▁Texas	-10.9148
Bo	-10.9148
▁sari	-10.9152
▁company	-10.9153
▁waterskiing	-10.9153
▁bad	-10.9154
▁upset	-10.9154
▁pause	-10.9155
▁explor	-10.9156
▁mixer	-10.9157
ctors	-10.9159
▁our	-10.9161
▁indian	-10.9161
▁aprons	-10.9169
▁purchase	-10.9169
▁skies	-10.9176
den	-10.9181
▁stay	-10.9182
▁beads	-10.9182
▁judges	-10.9182
▁canal	-10.9189
▁owner	-10.9192
▁Time	-10.9198
▁crayons	-10.9203
▁lips	-10.9203
▁tackled	-10.9214
▁notes	-10.9224
▁camper	-10.9225
ress	-10.9226
▁cre	-10.9234
other	-10.9246
▁skills	-10.9265
▁nurses	-10.9265
▁tour	-10.9267
▁columns	-10.9286
erous	-10.9291
▁crashing	-10.9309
▁ver	-10.9315
▁le	-10.9322
▁arrow	-10.9338
ift	-10.9341
▁suck	-10.9345
▁lighting	-10.9355
tery	-10.9358
▁wade	-10.9389
▁trucks	-10.9389
▁hun	-10.9399
io	-10.94
▁organiz	-10.9401
ri	-10.9418
▁teammates	-10.9434
▁banners	-10.9454
▁sp	-10.9476
▁tags	-10.9524
ular	-10.9529
round	-10.9591
ator	-10.9595
▁peers	-10.9603
▁too	-10.9614
▁washe	-10.9638
ry	-10.969
fashioned	-10.9712
▁sl	-10.9713
size	-10.9717
▁Bu	-10.9726
▁secur	-10.9745
▁ra	-10.9828
v	-10.9854
▁fog	-10.9864
unk	-10.9876
sh	-10.9879
▁fry	-10.9912
O	-10.9927
▁gardening	-10.9941
ugging	-10.9946
▁stretch	-10.9947
ma	-10.995
ef	-10.9981
partment	-11.0018
ize	-11.0028
▁clowns	-11.0042
▁canoes	-11.0042
▁feature	-11.0058
▁Num	-11.0064
▁tri	-11.0075
▁spr	-11.0086
▁pal	-11.0087
per	-11.0113
▁spik	-11.0115
▁varie	-11.0122
▁depart	-11.0124
▁squa	-11.0182
ade	-11.0193
do	-11.0211
▁bi	-11.0229
▁Bo	-11.0236
▁La	-11.0249
▁games	-11.0251
B	-11.0256
▁purses	-11.0268
▁sunbath	-11.0278
▁launch	-11.0294
set	-11.0335
hoe	-11.0339
▁remov	-11.0355
▁season	-11.0367
▁strik	-11.0376
▁masks	-11.0382
▁twirl	-11.0387
day	-11.0392
val	-11.0394
▁pirate	-11.0395
▁defender	-11.0397
red	-11.0398
▁character	-11.0404
▁employee	-11.0404
▁crown	-11.0405
▁nurse	-11.0406
▁skill	-11.0409
▁parent	-11.0414
▁cheerleader	-11.0418
▁capture	-11.0422
W	-11.0424
▁stripe	-11.0426
redi	-11.0426
ul	-11.0428
▁complet	-11.0436
vil	-11.0439
ges	-11.046
▁boxer	-11.0461
I	-11.0468
N	-11.0475
turn	-11.0485
country	-11.0485
camera	-11.0486
cart	-11.0488
mo	-11.0488
shape	-11.0491
▁mini	-11.0491
▁crack	-11.0492
▁sip	-11.0502
rn	-11.0518
▁colli	-11.0521
▁weight	-11.0524
▁quiet	-11.0543
▁blurr	-11.0549
▁sold	-11.0554
▁weigh	-11.0555
▁disc	-11.0556
▁though	-11.0556
▁confe	-11.0556
▁instruct	-11.0557
▁mitt	-11.0557
▁select	-11.0557
runette	-11.0557
aseball	-11.0558
▁mass	-11.0558
ustomers	-11.0558
▁equ	-11.0558
▁transport	-11.0559
embers	-11.0559
enga	-11.0559
▁Muslim	-11.0559
▁Walmart	-11.0559
▁activities	-11.0559
▁bongo	-11.0559
▁bulldozer	-11.0559
▁cathedral	-11.0559
▁dessert	-11.0559
▁exercising	-11.0559
▁extreme	-11.0559
▁harbor	-11.0559
▁mascot	-11.0559
▁meadow	-11.0559
▁parallel	-11.0559
▁puppet	-11.0559
▁pyramid	-11.0559
▁reception	-11.0559
▁seafood	-11.0559
▁snorkel	-11.0559
▁supermarket	-11.0559
▁wilderness	-11.0559
▁Sooner	-11.0559
▁expans	-11.0559
▁major	-11.0559
▁slacks	-11.0559
▁temple	-11.0559
▁terminal	-11.0559
▁videotap	-11.0559
▁visor	-11.0559
▁double	-11.0559
▁embrace	-11.0559
▁mattress	-11.0559
▁tiger	-11.0559
▁Coca	-11.0559
▁fedora	-11.0559
▁trophy	-11.0559
▁backseat	-11.0559
▁maybe	-11.0559
▁resort	-11.0559
▁casino	-11.0559
▁citizen	-11.0559
▁install	-11.0559
▁miniature	-11.0559
▁flow	-11.0559
▁scientist	-11.0559
▁buffet	-11.0559
▁bodysuit	-11.0559
▁nun	-11.0559
▁Dark	-11.0559
▁demonstration	-11.0559
▁special	-11.056
▁mule	-11.056
▁paw	-11.056
▁tablecloth	-11.056
▁arrangement	-11.056
▁trotting	-11.056
▁hour	-11.0561
▁oil	-11.0561
▁main	-11.0561
▁damage	-11.0561
▁sunhat	-11.0561
▁Food	-11.0562
▁Star	-11.0562
▁bump	-11.0562
▁Protest	-11.0562
▁clutch	-11.0562
▁rustic	-11.0562
▁woodland	-11.0562
▁elevat	-11.0564
▁historic	-11.0564
▁oar	-11.0565
▁shack	-11.0565
▁skyline	-11.0565
▁Cafe	-11.0566
▁level	-11.0566
▁transit	-11.0566
▁broad	-11.0566
avor	-11.0566
▁somewhere	-11.0567
▁care	-11.0567
▁plow	-11.0568
▁downhill	-11.0568
▁marker	-11.0568
▁fat	-11.0569
▁polish	-11.0571
▁soar	-11.0571
endors	-11.0571
▁crops	-11.0572
▁skydiving	-11.0572
▁starring	-11.0574
▁lush	-11.0576
▁mounted	-11.0577
▁search	-11.0577
▁jar	-11.0579
▁rollerskates	-11.0581
▁dryer	-11.0581
Cola	-11.0584
▁zip	-11.0593
▁sidelines	-11.0595
▁mountaintop	-11.06
▁scal	-11.0601
▁fit	-11.0601
▁kn	-11.0602
right	-11.0608
▁bounce	-11.061
▁topless	-11.061
▁drawn	-11.0611
▁skim	-11.0613
agged	-11.0618
▁conducting	-11.062
▁flash	-11.0635
▁dropp	-11.064
▁cameraman	-11.0642
▁lanterns	-11.065
▁Tourists	-11.0668
▁bananas	-11.0668
▁watermelons	-11.0668
▁vocal	-11.0685
▁panel	-11.0686
▁peaks	-11.0692
skier	-11.0695
try	-11.0712
ort	-11.0714
▁characters	-11.0716
▁employees	-11.0716
nnel	-11.0728
▁dribble	-11.0734
▁gi	-11.0735
▁sides	-11.0741
▁rid	-11.0742
▁flee	-11.075
▁armor	-11.0754
lot	-11.076
▁fro	-11.0761
▁remove	-11.0767
were	-11.0787
▁monitors	-11.0789
▁hotdogs	-11.0789
▁punching	-11.079
▁vacuuming	-11.0792
▁attracti	-11.0797
▁cellphones	-11.08
▁upwards	-11.0814
▁need	-11.0815
▁con	-11.0829
▁prepared	-11.0842
ents	-11.0843
▁force	-11.0844
▁litter	-11.0854
▁kisse	-11.086
▁camels	-11.0888
▁colorfully	-11.0889
▁necklaces	-11.0912
▁snacks	-11.0937
▁barrels	-11.0937
aving	-11.0942
▁dolls	-11.0955
▁ordering	-11.0967
uzz	-11.0977
▁bake	-11.098
▁pans	-11.0982
▁pops	-11.0991
mint	-11.1026
▁hills	-11.1027
▁Y	-11.1037
os	-11.1057
▁lo	-11.1083
▁advertisements	-11.1112
▁drying	-11.1137
▁inter	-11.1153
▁award	-11.1163
▁seating	-11.1198
▁tap	-11.1242
▁guards	-11.1287
▁recline	-11.1298
▁concentrate	-11.13
ac	-11.1308
▁angle	-11.1374
▁fountains	-11.1388
▁strings	-11.1392
ha	-11.1397
▁crouch	-11.1398
▁drap	-11.142
▁Arab	-11.1441
▁ga	-11.1441
lic	-11.1444
▁sculptures	-11.1445
lly	-11.1453
▁shine	-11.1461
hand	-11.1479
nding	-11.1494
ler	-11.1495
ze	-11.16
▁build	-11.1611
▁mu	-11.1675
the	-11.1712
erry	-11.172
▁slic	-11.1721
zz	-11.1753
▁artists	-11.1788
ddy	-11.1821
▁fork	-11.1849
▁text	-11.1903
▁app	-11.1903
▁medi	-11.1915
▁hear	-11.1928
▁strip	-11.196
head	-11.197
▁sca	-11.1976
hoop	-11.1981
▁cont	-11.1988
▁railings	-11.2007
▁desks	-11.2032
▁fa	-11.2033
▁handbag	-11.2035
▁briefcase	-11.2035
▁skull	-11.2035
▁ascend	-11.2035
hose	-11.2036
▁love	-11.2036
▁musta	-11.2044
▁accompani	-11.2054
▁pillar	-11.2062
▁lemon	-11.2062
▁steer	-11.2064
▁conveni	-11.2066
▁McDonald	-11.2066
▁weapon	-11.2066
▁cable	-11.2067
▁sc	-11.2069
gle	-11.2071
▁crate	-11.2074
▁pigeon	-11.2077
▁peak	-11.2078
▁pray	-11.2081
lime	-11.2087
hole	-11.2102
range	-11.2103
air	-11.2103
▁social	-11.2104
▁slip	-11.2115
▁stair	-11.2123
ome	-11.2131
storm	-11.2148
▁Work	-11.2151
held	-11.2152
girl	-11.2152
finish	-11.2152
filled	-11.2152
piece	-11.2152
high	-11.2152
cement	-11.2155
five	-11.2158
lad	-11.2162
med	-11.2163
▁chip	-11.2176
mer	-11.2191
▁poli	-11.2191
▁interview	-11.2191
eep	-11.2194
dressed	-11.2202
erie	-11.2203
▁ceremon	-11.2204
ami	-11.2205
▁arriv	-11.2218
oddler	-11.2218
ennis	-11.2219
▁trim	-11.2219
▁tomato	-11.222
cient	-11.2221
ootball	-11.2223
eautiful	-11.2224
SA	-11.2224
▁Cowboy	-11.2226
▁Legos	-11.2226
▁Surfer	-11.2226
▁alcohol	-11.2226
▁breast	-11.2226
▁breath	-11.2226
▁brindle	-11.2226
▁bronco	-11.2226
▁clarinet	-11.2226
▁cycle	-11.2226
▁glacier	-11.2226
▁information	-11.2226
▁kiosk	-11.2226
▁lipstick	-11.2226
▁liquor	-11.2226
▁magnif	-11.2226
▁marsh	-11.2226
▁nightclub	-11.2226
▁ornament	-11.2226
▁professor	-11.2226
▁progress	-11.2226
▁quad	-11.2226
▁razor	-11.2226
▁recreat	-11.2226
▁relay	-11.2226
▁scissors	-11.2226
▁submerge	-11.2226
▁symbol	-11.2226
▁system	-11.2226
▁civil	-11.2226
▁enclos	-11.2226
▁limb	-11.2226
▁milk	-11.2226
▁ravine	-11.2226
▁spatula	-11.2226
▁sunshine	-11.2226
▁talent	-11.2226
▁cell	-11.2226
▁curious	-11.2226
▁husband	-11.2226
▁attack	-11.2226
▁frown	-11.2226
▁Subway	-11.2226
▁accept	-11.2226
▁scratch	-11.2226
▁flaming	-11.2226
▁Claus	-11.2226
cept	-11.2226
▁wonder	-11.2226
▁chunk	-11.2226
▁cash	-11.2226
▁cardigan	-11.2226
▁radio	-11.2226
▁goatee	-11.2226
▁pub	-11.2226
▁seesaw	-11.2226
▁operation	-11.2226
▁clap	-11.2226
▁haul	-11.2226
▁assistant	-11.2226
▁riverbank	-11.2226
▁tunic	-11.2226
▁cowgirl	-11.2226
▁saddle	-11.2226
▁badge	-11.2226
▁suburb	-11.2227
▁archway	-11.2227
▁flood	-11.2227
▁crab	-11.2227
▁burger	-11.2227
▁Dirt	-11.2227
▁drain	-11.2227
▁plush	-11.2227
▁wineglasses	-11.2227
▁chat	-11.2228
▁Walk	-11.2228
▁sound	-11.2228
▁sharp	-11.2229
▁Gray	-11.2229
▁rise	-11.2229
▁soup	-11.223
▁utili	-11.223
▁assembled	-11.2231
▁sailor	-11.2231
▁dragon	-11.2231
▁tomatoes	-11.2232
▁swan	-11.2232
▁puff	-11.2232
▁jo	-11.2233
▁occup	-11.2234
▁zone	-11.2234
▁eager	-11.2234
▁Green	-11.2234
haps	-11.2235
▁policemen	-11.2236
▁antique	-11.2236
▁snowball	-11.2236
amily	-11.2237
▁socializing	-11.224
▁bring	-11.224
▁mittens	-11.2242
▁Bikers	-11.2242
▁fireworks	-11.2242
▁boo	-11.2242
▁hairstyle	-11.2244
▁girlfriend	-11.2246
▁glider	-11.2247
▁Hol	-11.225
▁Skier	-11.2251
▁cigarettes	-11.2253
cking	-11.2254
▁constructed	-11.2254
▁belly	-11.2256
▁sash	-11.2256
▁completely	-11.2258
▁excitedly	-11.2258
escent	-11.2262
yro	-11.2267
▁bridesmaids	-11.227
▁knitting	-11.2271
▁decide	-11.2272
▁blower	-11.2276
opcorn	-11.228
▁may	-11.2282
▁soak	-11.2295
▁piercing	-11.2307
▁Nin	-11.2315
▁cha	-11.2317
▁framed	-11.2324
▁sipp	-11.2325
bab	-11.2326
▁patrons	-11.2327
▁words	-11.2327
▁tips	-11.2328
tation	-11.2344
▁mic	-11.2354
▁waterside	-11.2356
▁assisting	-11.2357
live	-11.2371
▁axe	-11.2386
▁texting	-11.2389
▁wipe	-11.2407
tic	-11.2413
▁pie	-11.2427
▁boxers	-11.243
▁clothed	-11.2438
▁gowns	-11.2443
▁nails	-11.2443
▁slam	-11.2449
▁rugs	-11.2451
▁dots	-11.2455
its	-11.2464
▁emerge	-11.247
leng	-11.2471
▁spots	-11.2472
robe	-11.2478
na	-11.2488
▁couples	-11.2503
ble	-11.2507
homa	-11.2528
▁gr	-11.253
▁Fire	-11.2563
▁barriers	-11.259
▁checked	-11.2601
ond	-11.2619
▁sprinklers	-11.2622
cal	-11.263
ellow	-11.2635
▁let	-11.2642
▁ribbons	-11.265
▁ge	-11.2653
▁shave	-11.2656
▁beers	-11.266
ls	-11.2696
▁brooms	-11.271
▁Re	-11.2711
▁doctors	-11.2712
▁prom	-11.2722
▁pop	-11.2732
ood	-11.2739
▁hearts	-11.2757
▁lanes	-11.277
▁bows	-11.2773
▁beams	-11.2773
anyon	-11.2785
▁swords	-11.28
▁jumpsuits	-11.28
▁trimm	-11.2803
▁lands	-11.2806
▁wor	-11.2808
Y	-11.2814
▁sleeves	-11.2829
ture	-11.2834
nder	-11.2853
ci	-11.2854
▁pipes	-11.2861
▁tubes	-11.2887
tan	-11.2908
▁bottoms	-11.2953
▁wheelchairs	-11.2984
▁rafts	-11.3004
▁presents	-11.3014
cting	-11.3036
ari	-11.3055
▁hung	-11.3058
ngry	-11.31
▁secure	-11.3103
▁devices	-11.3107
ied	-11.3147
▁slopes	-11.3169
▁noses	-11.3171
▁grip	-11.3172
pris	-11.3184
als	-11.3258
▁Be	-11.331
▁spi	-11.3325
▁stunts	-11.3327
od	-11.3332
▁blocking	-11.3356
▁microscopes	-11.3359
wish	-11.336
▁Ele	-11.3383
ol	-11.3402
▁sprinkl	-11.344
▁faci	-11.3448
▁cats	-11.3451
▁barbecu	-11.3506
as	-11.3511
▁Pa	-11.3524
▁cro	-11.3529
▁drape	-11.3536
oven	-11.3576
▁fort	-11.3583
▁release	-11.3587
▁glid	-11.3603
let	-11.3624
▁bunn	-11.3644
ota	-11.3686
▁Am	-11.369
▁slop	-11.3692
tch	-11.3693
▁trains	-11.3754
▁strollers	-11.3759
wards	-11.3838
bs	-11.3844
▁relaxe	-11.3854
▁walker	-11.3886
▁buck	-11.3889
dy	-11.3915
▁rails	-11.3916
risk	-11.392
▁ties	-11.3939
▁tumbl	-11.3947
ilitary	-11.3988
ultim	-11.4007
▁bikinis	-11.4017
stle	-11.4022
▁sister	-11.4036
▁message	-11.4037
▁pig	-11.404
ctively	-11.4044
▁toilet	-11.4054
▁cord	-11.4059
▁stock	-11.4061
▁Bicyclist	-11.4062
▁assist	-11.407
▁Tourist	-11.4071
▁banana	-11.4071
▁watermelon	-11.4071
▁jog	-11.4074
▁bagpipe	-11.4076
▁baton	-11.4078
▁pedestrian	-11.4078
skating	-11.4079
ong	-11.4083
ama	-11.4084
▁cooler	-11.4085
▁backward	-11.4086
▁para	-11.4087
▁lea	-11.4091
ham	-11.4094
nna	-11.4101
ame	-11.4102
work	-11.4103
▁East	-11.4124
ball	-11.4134
G	-11.4141
M	-11.4143
wheeler	-11.4146
neck	-11.4151
cker	-11.4151
break	-11.4158
ches	-11.4164
niversity	-11.4172
stand	-11.4173
▁struggl	-11.4181
▁barb	-11.4186
▁construct	-11.419
▁brid	-11.4191
▁multicolor	-11.4194
ored	-11.4196
ional	-11.4205
▁curl	-11.4205
▁competitive	-11.4209
▁soft	-11.421
mber	-11.4211
capp	-11.4213
▁deli	-11.4221
▁know	-11.4221
▁arti	-11.4222
adles	-11.4222
harp	-11.4223
asketball	-11.4224
ility	-11.4224
arathon	-11.4225
estrian	-11.4225
▁blossom	-11.4226
▁bronze	-11.4226
▁depict	-11.4226
▁nibbl	-11.4226
▁refresh	-11.4226
▁remote	-11.4226
▁represent	-11.4226
▁respond	-11.4226
Obama	-11.4226
▁Concert	-11.4226
▁Dancers	-11.4226
▁Halloween	-11.4226
▁High	-11.4226
▁Rodeo	-11.4226
▁Soldier	-11.4226
▁Speedo	-11.4226
▁apparatus	-11.4226
▁asphalt	-11.4226
▁automobile	-11.4226
▁bookshelf	-11.4226
▁champagne	-11.4226
▁community	-11.4226
▁cruis	-11.4226
▁curtain	-11.4226
▁dolphin	-11.4226
▁dramatic	-11.4226
▁elbow	-11.4226
▁excitement	-11.4226
▁exciting	-11.4226
▁merchant	-11.4226
▁monopoly	-11.4226
▁overhang	-11.4226
▁pacifier	-11.4226
▁passionate	-11.4226
▁peacock	-11.4226
▁possession	-11.4226
▁rehears	-11.4226
▁robot	-11.4226
▁tambourine	-11.4226
▁tiara	-11.4226
▁tightrope	-11.4226
▁unidentifi	-11.4226
▁unknown	-11.4226
▁vegetation	-11.4226
▁watercraft	-11.4226
▁zebra	-11.4226
▁Photographer	-11.4226
▁cockpit	-11.4226
▁consult	-11.4226
▁javelin	-11.4226
▁priest	-11.4226
▁Gentlem	-11.4226
▁sweatsuit	-11.4226
▁iPod	-11.4226
▁Apple	-11.4226
▁answer	-11.4226
▁bracelet	-11.4226
▁carousel	-11.4226
▁pride	-11.4226
▁quilt	-11.4226
▁escape	-11.4226
▁identical	-11.4226
▁Mouse	-11.4226
▁contemplat	-11.4226
▁drunk	-11.4226
▁wool	-11.4226
▁salad	-11.4226
▁campsite	-11.4226
▁fingernail	-11.4226
▁rowboat	-11.4226
▁trap	-11.4226
▁volunteer	-11.4226
▁impress	-11.4226
▁kitten	-11.4226
▁poke	-11.4226
▁vacation	-11.4226
▁Wall	-11.4226
▁scantily	-11.4226
▁Cyclist	-11.4226
▁amaz	-11.4226
▁clock	-11.4226
▁combat	-11.4226
▁fireplace	-11.4226
▁solo	-11.4226
▁passerby	-11.4226
▁cartoon	-11.4226
▁cinder	-11.4226
▁assort	-11.4226
▁parachuting	-11.4226
▁Colle	-11.4226
▁steam	-11.4226
▁stylish	-11.4226
▁eyeglasses	-11.4226
▁gum	-11.4226
▁rubble	-11.4226
▁shelves	-11.4226
▁tread	-11.4226
▁slab	-11.4226
▁swamp	-11.4226
▁shoeshine	-11.4227
▁cattle	-11.4227
▁defens	-11.4227
▁delic	-11.4227
▁spend	-11.4227
▁cartwheel	-11.4227
▁nine	-11.4227
▁Park	-11.4227
taught	-11.4227
▁weave	-11.4227
▁snake	-11.4227
▁exhibition	-11.4228
▁Deer	-11.4228
▁selection	-11.4228
▁ref	-11.4228
▁terrier	-11.4228
▁attendant	-11.4228
▁bathrobe	-11.4228
▁husky	-11.4228
▁patrol	-11.4228
▁canopy	-11.4229
quaint	-11.4229
▁garment	-11.4229
▁attraction	-11.4229
▁backstroke	-11.423
▁deliver	-11.423
▁Long	-11.423
▁blindfolded	-11.423
▁attentively	-11.423
▁floaties	-11.423
▁intense	-11.423
▁Orient	-11.423
▁Ice	-11.4231
▁earth	-11.4231
▁confused	-11.4231
▁whistle	-11.4233
▁bakery	-11.4234
▁web	-11.4234
▁mind	-11.4234
▁begg	-11.4234
▁flour	-11.4235
▁peel	-11.4235
▁pump	-11.4235
▁Seattle	-11.4236
▁South	-11.4236
▁convention	-11.4236
▁solder	-11.4236
▁daylight	-11.4237
▁marches	-11.4239
▁greenery	-11.4239
apid	-11.424
▁dil	-11.424
▁You	-11.424
▁butt	-11.424
▁sight	-11.424
▁flier	-11.4241
▁lost	-11.4241
▁solid	-11.4241
▁gallop	-11.4242
▁squirt	-11.4243
▁lovely	-11.4243
▁clothesline	-11.4243
▁cutout	-11.4243
pplies	-11.4244
▁headset	-11.4244
▁recent	-11.4245
▁ruins	-11.4245
▁torches	-11.4245
▁competitors	-11.4246
ponge	-11.4253
▁legged	-11.4253
▁page	-11.4255
elve	-11.4255
▁safe	-11.4257
▁oversize	-11.4257
▁cargo	-11.4258
▁upper	-11.426
▁lid	-11.4266
▁medal	-11.4267
▁tongs	-11.4268
▁interviewed	-11.4269
▁foam	-11.4271
▁era	-11.4271
▁Nik	-11.4278
▁collide	-11.428
▁Rollerblades	-11.428
▁conditions	-11.428
▁kimonos	-11.428
▁pursu	-11.4281
▁leashes	-11.4283
▁struggles	-11.4286
▁given	-11.4287
▁taste	-11.429
▁shingles	-11.429
▁bones	-11.429
▁imp	-11.429
yo	-11.4292
▁entertainer	-11.4299
blade	-11.4306
▁served	-11.4307
▁sn	-11.4308
▁early	-11.4309
▁dist	-11.4312
▁file	-11.4312
ven	-11.4313
▁keys	-11.4315
▁earrings	-11.4315
▁pout	-11.432
antly	-11.4324
▁fine	-11.4328
▁stre	-11.433
▁storm	-11.4331
raz	-11.4334
▁tear	-11.4336
cla	-11.434
▁seagulls	-11.4352
▁cookies	-11.4354
▁cause	-11.4363
▁fairy	-11.4365
muff	-11.4367
▁completed	-11.4376
▁informal	-11.4377
▁snowman	-11.438
ran	-11.4381
superman	-11.4385
▁En	-11.4388
▁coolers	-11.4392
▁gar	-11.4394
▁barking	-11.4396
▁fighter	-11.4405
ell	-11.4405
ice	-11.4408
arents	-11.4417
▁chips	-11.4417
ts	-11.442
▁weapons	-11.4424
▁McDonalds	-11.4424
ff	-11.4428
▁strawberr	-11.443
▁stars	-11.4441
▁rollerskater	-11.4445
▁crowns	-11.446
▁chil	-11.4465
▁tribe	-11.4465
▁comb	-11.4467
▁fashionabl	-11.4468
litary	-11.447
hirtless	-11.4476
▁send	-11.4497
▁saying	-11.4504
▁ka	-11.4506
▁carried	-11.4511
▁accompanie	-11.4544
▁goats	-11.457
▁handles	-11.4571
▁marking	-11.4572
▁demonstrat	-11.4581
▁wheeler	-11.4581
▁retriev	-11.4598
▁trays	-11.4607
▁cheeks	-11.4607
▁parachutes	-11.4607
ucking	-11.4635
▁suitcases	-11.4644
ver	-11.4659
ag	-11.4661
▁bark	-11.4672
▁char	-11.4681
pping	-11.4684
ut	-11.4691
▁feathers	-11.4718
▁apples	-11.4732
▁Ma	-11.4756
▁elephants	-11.4756
▁whe	-11.477
▁gra	-11.4775
▁motorbikes	-11.4794
▁handl	-11.4807
▁Ca	-11.4808
▁storefronts	-11.4831
▁admire	-11.4831
▁Wi	-11.4836
▁signing	-11.4839
▁raining	-11.4871
ft	-11.4924
▁pa	-11.4961
▁perch	-11.498
▁opponents	-11.4984
tle	-11.5036
▁Har	-11.5039
ot	-11.5068
rk	-11.5075
py	-11.5079
ney	-11.5082
▁bung	-11.5087
▁towels	-11.5099
folding	-11.5106
ortable	-11.5108
▁posts	-11.5137
▁curren	-11.5141
▁include	-11.5182
dding	-11.5184
▁parts	-11.5184
by	-11.5185
em	-11.5185
▁posters	-11.5186
ica	-11.5204
ello	-11.5206
▁clearing	-11.5229
ters	-11.5245
▁chains	-11.5254
▁sheets	-11.5257
coal	-11.5264
imate	-11.5275
anging	-11.532
▁toast	-11.5351
▁swa	-11.5354
ward	-11.5371
▁cows	-11.5376
he	-11.538
▁count	-11.5389
▁cal	-11.5391
▁ori	-11.5395
▁cle	-11.5451
z	-11.5454
ore	-11.5468
▁ferr	-11.5468
▁via	-11.5471
cub	-11.5474
▁cloths	-11.5483
tric	-11.5504
▁starts	-11.5521
R	-11.5522
▁barre	-11.5524
la	-11.5539
ang	-11.5566
▁bea	-11.5574
▁focuse	-11.5583
▁singers	-11.5584
▁ta	-11.5605
▁mats	-11.5618
▁east	-11.5632
▁skin	-11.5675
▁Lea	-11.572
bout	-11.5751
▁te	-11.577
rect	-11.5781
ised	-11.5781
▁photographing	-11.5785
▁Lo	-11.5805
▁add	-11.5807
▁No	-11.5825
oting	-11.587
een	-11.5931
▁holes	-11.5953
▁si	-11.5969
fter	-11.5972
lender	-11.6003
hawk	-11.6029
oney	-11.6034
hat	-11.6047
me	-11.6056
pane	-11.6081
▁shap	-11.6111
▁Ste	-11.6126
▁scra	-11.6134
▁rop	-11.6135
L	-11.6141
▁styl	-11.6144
nd	-11.6148
▁fle	-11.618
ren	-11.6182
▁pu	-11.6194
rge	-11.6228
▁ri	-11.624
▁prepar	-11.627
orn	-11.6281
▁demonstrate	-11.6287
bell	-11.6316
▁dye	-11.6319
▁Race	-11.6333
▁emerg	-11.6358
sses	-11.636
ber	-11.6371
alter	-11.6385
▁dribbl	-11.6409
icle	-11.6422
▁communicat	-11.6445
▁write	-11.6447
▁tip	-11.6458
cas	-11.6464
▁thought	-11.6478
ump	-11.6479
teen	-11.6485
son	-11.6489
▁super	-11.6498
▁pol	-11.6499
▁surfers	-11.6518
▁ran	-11.6524
▁fu	-11.6532
▁weld	-11.6533
▁vault	-11.6535
▁wrist	-11.6536
▁brochure	-11.6536
▁question	-11.6536
▁pancake	-11.6536
▁sweet	-11.6537
▁instructor	-11.6538
ficial	-11.6552
▁holiday	-11.6554
▁pad	-11.6557
ull	-11.6561
▁rabbit	-11.6562
▁cupcake	-11.6562
▁seagull	-11.6566
▁lock	-11.6568
▁hum	-11.6568
▁patron	-11.6569
▁cookie	-11.6569
▁lip	-11.6573
▁crayon	-11.6574
▁shield	-11.6575
▁brow	-11.6576
▁scout	-11.6576
▁gymnastic	-11.6583
▁lantern	-11.6585
▁interest	-11.6586
guards	-11.6587
for	-11.6594
▁word	-11.6596
▁rub	-11.6596
▁kiddi	-11.6608
▁mon	-11.6613
front	-11.662
olks	-11.6621
▁sew	-11.6622
▁kit	-11.6623
bucks	-11.6628
jo	-11.6628
ppy	-11.6632
nches	-11.6637
where	-11.6638
ashore	-11.664
▁streetlight	-11.6641
time	-11.6643
▁purchas	-11.6643
H	-11.6647
drawn	-11.6648
back	-11.6648
scarves	-11.6649
type	-11.6652
white	-11.6653
keep	-11.6655
cast	-11.6655
well	-11.6656
roll	-11.666
bl	-11.6672
▁organ	-11.6674
pool	-11.6676
care	-11.6676
ution	-11.6677
wearing	-11.6679
deep	-11.6679
▁desp	-11.668
▁explore	-11.6681
ashing	-11.6682
▁occurr	-11.6684
pong	-11.6689
▁extend	-11.6692
▁tram	-11.6693
▁Teenage	-11.6703
▁puzzle	-11.6705
handed	-11.6706
▁unpa	-11.6711
▁quick	-11.6713
overalls	-11.6715
ssenger	-11.672
▁enthusiast	-11.6724
▁ceme	-11.6725
itness	-11.6725
▁react	-11.6725
ispanic	-11.6725
▁Bike	-11.6725
mergency	-11.6725
▁metro	-11.6725
▁brief	-11.6726
pproximate	-11.6726
egas	-11.6726
regnant	-11.6726
▁Brazil	-11.6726
▁Hiker	-11.6726
▁Individual	-11.6726
▁Spider	-11.6726
▁aircraft	-11.6726
▁balconies	-11.6726
▁bloom	-11.6726
▁bookbag	-11.6726
▁cafeteria	-11.6726
▁chubby	-11.6726
▁cluster	-11.6726
▁convertible	-11.6726
▁crib	-11.6726
▁crutches	-11.6726
▁diaper	-11.6726
▁dominoes	-11.6726
▁frustrated	-11.6726
▁hopscotch	-11.6726
▁llama	-11.6726
▁magic	-11.6726
▁mascara	-11.6726
▁megaphone	-11.6726
▁mermaid	-11.6726
▁napkin	-11.6726
▁octopus	-11.6726
▁paintbrush	-11.6726
▁parasol	-11.6726
▁piggyback	-11.6726
▁pineapple	-11.6726
▁playpen	-11.6726
▁poverty	-11.6726
▁satchel	-11.6726
▁screwdriver	-11.6726
▁seaweed	-11.6726
▁sombrero	-11.6726
▁stalks	-11.6726
▁substance	-11.6726
▁sunrise	-11.6726
▁technique	-11.6726
▁technology	-11.6726
▁terrace	-11.6726
▁trombone	-11.6726
▁ukulele	-11.6726
▁workbench	-11.6726
▁consider	-11.6726
▁kettle	-11.6726
▁skeleton	-11.6726
▁studies	-11.6726
▁Disney	-11.6726
▁final	-11.6726
▁health	-11.6726
▁honor	-11.6726
▁mailbox	-11.6726
▁Life	-11.6726
▁flatbed	-11.6726
▁hairnet	-11.6726
▁foundation	-11.6726
▁Hotel	-11.6726
▁apparel	-11.6726
▁triangle	-11.6726
▁Water	-11.6726
▁else	-11.6726
▁Picture	-11.6726
▁partner	-11.6726
▁guest	-11.6726
▁memorial	-11.6726
▁minivan	-11.6726
▁motorboat	-11.6726
▁tether	-11.6726
▁footbridge	-11.6726
▁Ocean	-11.6726
▁mock	-11.6726
▁Snowboarder	-11.6726
▁buoy	-11.6726
▁stairwell	-11.6726
▁thread	-11.6726
▁drift	-11.6726
▁session	-11.6726
▁Island	-11.6726
▁swimwear	-11.6726
▁landmark	-11.6726
▁jug	-11.6726
▁frolic	-11.6726
▁metropoli	-11.6726
▁loose	-11.6726
▁Parade	-11.6726
▁pounc	-11.6726
▁crush	-11.6726
▁hispanic	-11.6726
▁knock	-11.6726
▁miniskirt	-11.6726
▁spear	-11.6726
MC	-11.6726
kla	-11.6726
itchen	-11.6726
▁bookstore	-11.6726
▁prun	-11.6726
▁mesh	-11.6726
▁spectate	-11.6726
▁master	-11.6726
▁notice	-11.6727
▁manual	-11.6727
▁pressure	-11.6727
▁cabinet	-11.6727
▁element	-11.6727
▁appre	-11.6727
▁oxen	-11.6727
▁eatery	-11.6727
vious	-11.6727
▁winning	-11.6727
▁contestant	-11.6727
▁prim	-11.6727
▁cabin	-11.6727
▁collection	-11.6728
▁spill	-11.6728
▁paintball	-11.6728
▁soil	-11.6728
▁flap	-11.6728
▁sheepdog	-11.6728
ckey	-11.6728
▁weeds	-11.6728
▁dealer	-11.6728
▁vac	-11.6728
▁Latino	-11.6728
▁observers	-11.6729
▁sunbathers	-11.6729
▁ginger	-11.6729
▁cityscape	-11.6729
▁pulley	-11.6729
▁rear	-11.6729
kart	-11.6729
▁Photo	-11.6729
▁jewelery	-11.6729
eisha	-11.673
▁elevator	-11.673
▁vig	-11.673
▁dozen	-11.673
▁zoom	-11.673
▁simpl	-11.673
▁discover	-11.6731
▁buggy	-11.6731
▁boss	-11.6731
▁sno	-11.6731
▁feel	-11.6731
▁Toy	-11.6731
▁known	-11.6731
▁mill	-11.6731
▁detail	-11.6731
▁festive	-11.6732
▁sponge	-11.6732
▁smell	-11.6733
▁slum	-11.6733
▁stationary	-11.6733
▁Teen	-11.6733
▁outfielder	-11.6733
▁pain	-11.6734
▁overcoat	-11.6734
▁zoo	-11.6734
▁steal	-11.6734
▁Mom	-11.6735
▁Swimmer	-11.6735
riends	-11.6735
▁Station	-11.6736
▁Mich	-11.6736
▁roadwork	-11.6737
▁grown	-11.6738
▁Day	-11.6738
▁jack	-11.6738
▁tun	-11.6738
▁Happy	-11.6739
▁dash	-11.6739
▁violinist	-11.6742
▁closer	-11.6742
▁came	-11.6743
enthusiastically	-11.6743
▁countertop	-11.6745
▁runway	-11.6746
▁comfortable	-11.6746
▁vast	-11.6747
▁seeds	-11.6747
▁Teenager	-11.6748
▁grid	-11.6749
▁pastries	-11.6749
lance	-11.6749
come	-11.6749
▁graduate	-11.675
▁basement	-11.675
▁scared	-11.6751
▁siding	-11.6751
▁exposed	-11.6751
hoppers	-11.6752
▁prizes	-11.6752
▁Sports	-11.6752
▁kickboxing	-11.6752
▁surgeons	-11.6752
ould	-11.6752
▁steaks	-11.6753
▁Bill	-11.6754
▁tuba	-11.6755
wag	-11.6756
▁spon	-11.6757
▁tightly	-11.676
▁extended	-11.6762
▁stride	-11.6762
▁mingl	-11.6762
▁mad	-11.6763
▁chart	-11.6763
▁glanc	-11.6764
▁mountainside	-11.6767
rowing	-11.6768
▁Met	-11.6769
mage	-11.6769
▁Hand	-11.6772
▁Colorful	-11.6774
▁stocking	-11.6775
▁evil	-11.6775
▁roadway	-11.6776
▁pace	-11.6779
▁dropped	-11.6793
reyhound	-11.6795
▁coconuts	-11.6797
▁sausages	-11.6797
▁troops	-11.6797
▁cram	-11.68
▁sm	-11.6807
▁strain	-11.6814
▁kayakers	-11.6814
▁flexi	-11.6816
▁tatt	-11.682
dish	-11.6822
▁partly	-11.6829
issue	-11.683
▁weathered	-11.6834
ailing	-11.6835
▁sprinting	-11.6836
▁tipp	-11.6838
▁hips	-11.6839
▁sat	-11.684
▁rode	-11.6842
▁tasting	-11.6843
▁skateboarders	-11.6844
▁roses	-11.6845
▁topic	-11.685
▁Do	-11.6858
▁rappe	-11.6859
▁mount	-11.6873
seen	-11.6874
▁don	-11.6879
▁grins	-11.688
▁aerial	-11.6884
▁available	-11.6884
▁adventur	-11.6889
▁shields	-11.6892
▁cupcakes	-11.6892
▁rabbits	-11.6892
▁stockings	-11.6892
uit	-11.6894
▁viewer	-11.6894
▁bearer	-11.6896
▁taller	-11.6896
ault	-11.6896
▁peach	-11.69
▁note	-11.6906
▁created	-11.691
▁qu	-11.6917
▁inflated	-11.6923
rot	-11.6925
▁grin	-11.6931
panish	-11.6939
▁Bicyclists	-11.694
▁mates	-11.6942
nds	-11.6943
▁cock	-11.6947
otic	-11.6948
▁prevent	-11.6949
▁ox	-11.6949
rena	-11.6975
uch	-11.6983
▁cables	-11.6988
▁pillars	-11.6988
▁lemons	-11.6988
▁steers	-11.6988
▁texts	-11.6991
▁Mr	-11.7007
▁cooked	-11.7009
▁buses	-11.7015
▁vine	-11.7017
▁save	-11.702
lin	-11.7028
▁ob	-11.7031
▁pirates	-11.7036
▁defenders	-11.7037
▁dri	-11.7064
▁interior	-11.7069
▁ac	-11.707
▁calling	-11.7091
▁sandal	-11.7107
oose	-11.7124
▁circus	-11.7125
▁wigs	-11.7133
▁Rac	-11.7137
▁Mo	-11.714
▁fir	-11.7149
▁Fisherm	-11.7159
llowing	-11.717
no	-11.7182
▁graduati	-11.7192
▁dip	-11.7193
oe	-11.7199
▁bun	-11.721
▁arid	-11.723
▁celebrates	-11.7232
▁Ch	-11.7245
▁awe	-11.7253
▁glo	-11.726
▁retai	-11.7271
▁stores	-11.7281
▁chickens	-11.7281
▁boulders	-11.7281
▁hitch	-11.7285
rel	-11.7304
▁washed	-11.7308
▁trad	-11.731
pass	-11.7321
ston	-11.7337
iet	-11.7363
▁once	-11.7365
▁lose	-11.7379
▁electronics	-11.7432
▁headbands	-11.7433
▁mouths	-11.7437
▁controls	-11.7442
▁horns	-11.7446
temporary	-11.7446
▁cler	-11.7465
▁muzzles	-11.7477
▁slice	-11.7486
▁surroundings	-11.7493
▁guitarists	-11.7537
rincess	-11.7545
ever	-11.7551
▁dunes	-11.7584
end	-11.7595
rest	-11.7604
▁releas	-11.7609
lk	-11.761
EL	-11.7622
▁patriot	-11.7628
iller	-11.7648
stretched	-11.7654
▁sweatshirts	-11.7654
der	-11.7658
▁sur	-11.7672
▁spark	-11.7699
▁shed	-11.772
▁spa	-11.773
umber	-11.7735
▁Bal	-11.7736
zard	-11.7741
▁handed	-11.7742
▁mustach	-11.7763
hinese	-11.7786
tted	-11.7786
▁shapes	-11.7801
▁sprinkle	-11.7831
▁grooms	-11.7843
▁sa	-11.7863
potted	-11.788
▁sticker	-11.7883
▁Co	-11.7884
▁pant	-11.7983
▁theme	-11.8016
▁sales	-11.8057
og	-11.8077
ors	-11.8082
▁hooping	-11.809
voi	-11.8099
▁pitchers	-11.8123
ora	-11.8128
aut	-11.813
tt	-11.8149
▁Ya	-11.8187
▁tr	-11.8195
imi	-11.8201
▁Asians	-11.8227
▁decorate	-11.8236
pa	-11.8261
▁squares	-11.8273
▁rounds	-11.8292
▁floors	-11.8336
last	-11.8353
lem	-11.8356
▁arrange	-11.8397
ugh	-11.8416
▁prints	-11.8417
tly	-11.8424
▁slow	-11.8427
postal	-11.8431
▁seeming	-11.8458
▁des	-11.8464
terior	-11.8502
▁Cast	-11.854
▁daughters	-11.8549
▁hu	-11.8551
▁challenge	-11.8554
▁squ	-11.8576
ti	-11.8591
ka	-11.8613
fortun	-11.8618
des	-11.8678
our	-11.8693
ently	-11.8697
da	-11.8721
▁pictured	-11.8723
▁scri	-11.876
ak	-11.8765
▁shu	-11.8767
eye	-11.8774
▁photographers	-11.88
rm	-11.8801
lling	-11.8821
▁ways	-11.8833
▁bee	-11.8858
enai	-11.8858
▁provide	-11.8875
rill	-11.8892
orm	-11.8896
▁trained	-11.8897
gue	-11.8899
ming	-11.894
un	-11.8941
shirted	-11.8971
▁bats	-11.8979
ug	-11.8999
▁fre	-11.9001
▁fac	-11.9013
di	-11.9032
ette	-11.9043
▁thr	-11.9044
mble	-11.9045
rry	-11.907
▁wo	-11.9085
bo	-11.9089
eam	-11.909
▁ax	-11.9104
▁sons	-11.9106
▁strum	-11.9112
long	-11.9142
▁Su	-11.9169
▁cu	-11.9178
utumn	-11.9193
▁bl	-11.9211
arket	-11.9226
▁hol	-11.9227
gi	-11.9263
ties	-11.9276
vel	-11.9305
lated	-11.931
bble	-11.931
que	-11.9327
▁eng	-11.9408
▁retrieve	-11.9414
ta	-11.9425
ne	-11.9443
ker	-11.9467
▁statu	-11.947
▁Fisher	-11.9485
ement	-11.9526
▁attach	-11.9533
mat	-11.9537
car	-11.955
▁mos	-11.9597
▁gri	-11.9599
list	-11.9614
▁chine	-11.9641
names	-11.9654
mong	-11.9669
▁bur	-11.9676
vo	-11.9677
llow	-11.9678
ree	-11.9679
▁twi	-11.968
▁Bur	-11.9694
berry	-11.9706
▁navigat	-11.9717
phone	-11.9722
dog	-11.9748
▁pr	-11.9759
prints	-11.9806
ndy	-11.9809
ities	-11.9813
▁charg	-11.9813
view	-11.9814
boarder	-11.9819
▁tast	-11.9822
▁stumbl	-11.9826
▁plan	-11.9829
lue	-11.9845
▁Ba	-11.9845
ntal	-11.9853
▁Athlete	-11.9857
▁jackhammer	-11.987
▁blind	-11.987
▁jogger	-11.987
▁hedge	-11.987
walk	-11.9871
▁glow	-11.9872
▁defend	-11.9882
▁sorts	-11.9883
▁noodle	-11.9888
▁barricade	-11.9888
▁hamburger	-11.9888
▁poncho	-11.9888
▁zombie	-11.9888
▁lei	-11.9889
▁sparkler	-11.9891
dies	-11.9892
▁hip	-11.9896
▁sweaters	-11.9897
▁state	-11.9899
▁rose	-11.9902
▁conduct	-11.9903
▁pierc	-11.9905
▁parasail	-11.9905
▁judge	-11.9906
▁scream	-11.9907
▁study	-11.9908
gar	-11.9909
▁snowshoe	-11.991
▁fist	-11.991
▁Student	-11.9911
▁sock	-11.9914
▁onlooker	-11.9915
▁earring	-11.9916
▁awning	-11.9921
▁overall	-11.9928
hood	-11.9928
lift	-11.9931
crop	-11.9931
▁protester	-11.9936
▁bead	-11.9937
friend	-11.994
field	-11.9948
▁bug	-11.9952
▁cli	-11.9954
▁crashe	-11.9955
stroke	-11.9967
dot	-11.9968
cle	-11.9969
▁address	-11.997
room	-11.9978
completed	-11.9978
foam	-11.9978
water	-11.9981
file	-11.9982
▁golfer	-11.9982
za	-11.9982
layers	-11.9983
point	-11.9984
fast	-11.9984
circle	-11.9985
▁ladders	-11.9985
daughter	-11.9985
screen	-11.9986
woman	-11.9986
jump	-11.9986
shake	-11.9986
blue	-11.9987
The	-11.9987
book	-11.9987
▁key	-11.9987
vin	-11.9992
saw	-11.9993
xcited	-11.9993
ground	-11.9997
thnic	-11.9999
▁Run	-12.0002
▁Ski	-12.0009
iew	-12.002
▁natur	-12.0024
unning	-12.0026
▁cry	-12.0028
ivid	-12.0035
fort	-12.0038
▁colo	-12.0038
▁expos	-12.0038
xy	-12.0041
▁sparse	-12.0043
▁proud	-12.0044
iki	-12.0047
ower	-12.0049
▁report	-12.0049
▁boa	-12.0054
▁Latin	-12.0055
▁Africa	-12.0055
iretrucks	-12.0056
ozen	-12.0056
ymnast	-12.0056
▁graffit	-12.0057
izza	-12.0057
▁acrobat	-12.0058
ugby	-12.0059
▁Roller	-12.0059
vice	-12.0059
▁equip	-12.0059
▁improv	-12.0059
▁suspens	-12.0059
▁Batman	-12.0059
▁Berlin	-12.0059
▁California	-12.0059
▁Commuter	-12.0059
▁Earth	-12.0059
▁Employee	-12.0059
▁Flag	-12.0059
▁Monopoly	-12.0059
▁Road	-12.0059
▁advantage	-12.0059
▁aluminum	-12.0059
▁arguing	-12.0059
▁baggage	-12.0059
▁blacksmith	-12.0059
▁bonnet	-12.0059
▁camcorder	-12.0059
▁cereal	-12.0059
▁concession	-12.0059
▁condom	-12.0059
▁congregating	-12.0059
▁corridor	-12.0059
▁crocodile	-12.0059
▁crystal	-12.0059
▁cushion	-12.0059
▁dandelion	-12.0059
▁dishwasher	-12.0059
▁document	-12.0059
▁dustpan	-12.0059
▁earbuds	-12.0059
▁enthusiasm	-12.0059
▁explain	-12.0059
▁fiddle	-12.0059
▁fierce	-12.0059
▁fingertips	-12.0059
▁flamboyant	-12.0059
▁grandmother	-12.0059
▁grimacing	-12.0059
▁gypsy	-12.0059
▁halloween	-12.0059
▁handkerchief	-12.0059
▁headgear	-12.0059
▁heartbeat	-12.0059
▁hijab	-12.0059
▁huddling	-12.0059
▁innertube	-12.0059
▁limo	-12.0059
▁livestock	-12.0059
▁lizard	-12.0059
▁lodge	-12.0059
▁lollipop	-12.0059
▁mushroom	-12.0059
▁ninja	-12.0059
▁ollie	-12.0059
▁opinion	-12.0059
▁opportunity	-12.0059
▁outstreached	-12.0059
▁parlor	-12.0059
▁pelican	-12.0059
▁pharmac	-12.0059
▁program	-12.0059
▁racquet	-12.0059
▁reluctant	-12.0059
▁research	-12.0059
▁salmon	-12.0059
▁sauna	-12.0059
▁secret	-12.0059
▁shampoo	-12.0059
▁shelter	-12.0059
▁shrimp	-12.0059
▁simultaneous	-12.0059
▁skewer	-12.0059
▁sleigh	-12.0059
▁smirking	-12.0059
▁snowflake	-12.0059
▁stethoscope	-12.0059
▁sunflower	-12.0059
▁swoop	-12.0059
▁texas	-12.0059
▁tobacco	-12.0059
▁transformer	-12.0059
▁traverse	-12.0059
▁trinket	-12.0059
▁trouble	-12.0059
▁tulips	-12.0059
▁waterproof	-12.0059
▁wildflowers	-12.0059
▁Crouch	-12.0059
▁Perform	-12.0059
▁loaf	-12.0059
▁nip	-12.0059
▁remain	-12.0059
▁seamstress	-12.0059
▁textile	-12.0059
▁Angels	-12.0059
▁Buddh	-12.0059
▁Grouch	-12.0059
▁Minne	-12.0059
▁banquet	-12.0059
▁cleats	-12.0059
▁darkness	-12.0059
▁emotion	-12.0059
▁execut	-12.0059
▁explosion	-12.0059
▁families	-12.0059
▁nursing	-12.0059
▁timber	-12.0059
▁Lakers	-12.0059
▁forearm	-12.0059
▁ritual	-12.0059
▁wrangle	-12.0059
Skater	-12.0059
tivate	-12.0059
▁decals	-12.0059
▁refuge	-12.0059
▁carpent	-12.0059
▁europe	-12.0059
▁trough	-12.0059
▁glitter	-12.0059
▁route	-12.0059
▁junk	-12.0059
▁liberty	-12.0059
▁shock	-12.0059
▁shelf	-12.0059
▁France	-12.0059
▁swerv	-12.0059
▁unison	-12.0059
▁speck	-12.0059
▁sym	-12.0059
▁ankle	-12.0059
▁knives	-12.0059
▁Scout	-12.0059
▁presum	-12.0059
▁remember	-12.0059
▁animated	-12.0059
▁dentist	-12.0059
▁forklift	-12.0059
▁applau	-12.0059
▁Horse	-12.0059
mura	-12.0059
▁manicure	-12.0059
▁horizontal	-12.0059
▁canister	-12.0059
▁machete	-12.0059
▁powerpoint	-12.0059
▁arrest	-12.0059
▁mold	-12.0059
▁clog	-12.0059
▁donuts	-12.0059
▁dugout	-12.0059
uvre	-12.0059
ockey	-12.0059
▁Coffee	-12.0059
▁Chef	-12.0059
▁toenail	-12.0059
▁government	-12.0059
▁urg	-12.0059
▁frosting	-12.0059
▁pleasant	-12.0059
clips	-12.0059
▁wheat	-12.0059
▁rins	-12.0059
▁affection	-12.0059
▁wield	-12.0059
▁smock	-12.0059
▁sketch	-12.0059
▁wristband	-12.0059
▁self	-12.0059
▁applied	-12.0059
▁flashlight	-12.0059
▁price	-12.0059
▁mob	-12.0059
▁Company	-12.0059
▁fatigue	-12.0059
▁Wii	-12.0059
▁sax	-12.0059
olate	-12.006
▁Cook	-12.006
▁Diner	-12.006
▁trek	-12.006
Pant	-12.006
▁Thai	-12.006
▁cutoff	-12.006
▁loop	-12.006
MA	-12.006
▁BMW	-12.006
▁captain	-12.006
▁itself	-12.006
▁Spain	-12.006
▁technician	-12.006
▁cact	-12.006
▁gig	-12.006
▁plume	-12.006
omeless	-12.006
▁exam	-12.006
▁Artist	-12.0061
▁cork	-12.0061
▁sandpit	-12.0061
▁bushel	-12.0061
▁corral	-12.0061
▁mail	-12.0061
▁specialize	-12.0061
▁graphic	-12.0061
▁insect	-12.0061
▁blast	-12.0061
▁clasp	-12.0061
▁mac	-12.0061
▁digger	-12.0061
achi	-12.0061
▁join	-12.0061
▁hurry	-12.0062
▁rig	-12.0062
ux	-12.0062
▁Com	-12.0062
▁moon	-12.0062
cific	-12.0062
▁Br	-12.0062
▁hoist	-12.0062
▁Pro	-12.0062
▁Deli	-12.0063
▁geese	-12.0063
▁procession	-12.0063
▁poker	-12.0063
▁waffle	-12.0063
▁Stone	-12.0063
▁Tye	-12.0063
▁Mexico	-12.0063
▁placard	-12.0063
▁Fast	-12.0063
▁Even	-12.0063
oster	-12.0063
▁plaster	-12.0063
▁freeway	-12.0063
▁Dr	-12.0063
▁snowbank	-12.0064
▁Sco	-12.0064
▁ditch	-12.0064
▁spout	-12.0064
▁fern	-12.0064
▁rescu	-12.0064
▁wr	-12.0065
▁fixture	-12.0065
▁assembly	-12.0065
▁Well	-12.0065
▁lav	-12.0065
mbu	-12.0066
▁director	-12.0066
itcher	-12.0066
▁hipster	-12.0066
▁Rock	-12.0067
▁oversee	-12.0067
▁might	-12.0067
▁talkie	-12.0067
▁recliner	-12.0067
▁mosque	-12.0067
▁proper	-12.0067
▁entertainment	-12.0067
▁Dressed	-12.0067
▁kill	-12.0068
▁Rider	-12.0068
▁trot	-12.0069
udio	-12.0069
▁Ital	-12.0069
▁align	-12.0071
▁buff	-12.0071
▁sledge	-12.0071
orous	-12.0071
▁Giant	-12.0071
▁role	-12.0072
▁Rod	-12.0072
▁retriever	-12.0072
▁Dad	-12.0072
▁proudly	-12.0073
▁dominate	-12.0074
▁French	-12.0074
▁butter	-12.0074
▁Centr	-12.0075
▁creative	-12.0075
▁Ford	-12.0075
▁beaker	-12.0076
▁arrival	-12.0076
owling	-12.0076
▁uphill	-12.0076
▁spir	-12.0077
yard	-12.0077
▁Sam	-12.0077
▁fool	-12.0077
▁maintain	-12.0078
▁Grand	-12.0079
▁potatoes	-12.0079
▁unic	-12.0079
▁hurt	-12.0079
▁change	-12.0081
▁media	-12.0081
itive	-12.0081
▁soon	-12.0082
▁become	-12.0082
▁tv	-12.0082
▁goof	-12.0083
▁cola	-12.0083
▁windsurfer	-12.0085
▁specta	-12.0087
▁bullet	-12.0088
▁DS	-12.0089
▁lace	-12.009
▁Pain	-12.0091
▁tuck	-12.0093
▁pastel	-12.0093
▁inner	-12.0093
▁playhouse	-12.0093
▁patches	-12.0094
▁Hous	-12.0095
▁lakeside	-12.0095
chipper	-12.0095
▁trans	-12.0096
▁pasture	-12.0096
▁moor	-12.0097
▁bouncer	-12.0097
▁darts	-12.0097
▁twigs	-12.0097
▁dreads	-12.0097
▁handlebars	-12.0097
▁utensils	-12.0097
▁Pen	-12.0098
▁youngsters	-12.0098
▁woodworking	-12.0098
▁meditating	-12.0098
▁yawning	-12.0098
▁Wait	-12.0099
key	-12.01
▁Mad	-12.0105
nitor	-12.0105
alcon	-12.0107
culin	-12.0107
▁sprint	-12.0108
▁rad	-12.0108
▁juggler	-12.011
▁underway	-12.0112
▁miner	-12.0113
▁region	-12.0116
▁Camp	-12.0119
▁sewer	-12.0119
▁welder	-12.012
▁Nav	-12.0121
▁blurry	-12.0122
tically	-12.0123
▁pastor	-12.0124
▁bunk	-12.0124
ki	-12.0126
▁ston	-12.0128
▁indig	-12.013
▁Dar	-12.013
▁Tw	-12.0131
wn	-12.0132
over	-12.0132
▁console	-12.0134
▁fri	-12.0134
▁pebble	-12.0134
▁Hug	-12.0136
▁blown	-12.0142
▁lifeguard	-12.0144
▁stroke	-12.0147
fringe	-12.0149
Doo	-12.0154
ridge	-12.0155
oned	-12.0156
▁needed	-12.0156
gers	-12.0158
ddresses	-12.0158
viewing	-12.0159
ined	-12.0161
▁braces	-12.0164
▁participants	-12.0164
▁happening	-12.0165
▁measure	-12.0166
▁Le	-12.0167
▁mist	-12.017
egret	-12.017
era	-12.0173
▁wallet	-12.0173
▁sick	-12.0178
▁litera	-12.0179
▁ashore	-12.0179
ments	-12.0182
▁showcas	-12.0183
platter	-12.0184
▁Care	-12.0184
▁prepp	-12.0186
▁cho	-12.0187
spe	-12.0193
▁ripp	-12.02
▁headlight	-12.0203
eaks	-12.0212
▁beans	-12.0215
velop	-12.0228
▁moss	-12.023
▁defends	-12.0232
▁awnings	-12.0233
▁barricades	-12.0233
▁hamburgers	-12.0233
▁ponchos	-12.0233
▁zombies	-12.0233
▁states	-12.0233
▁sparklers	-12.0233
▁fists	-12.0234
stron	-12.0235
ks	-12.0237
▁protesters	-12.0244
av	-12.0245
▁leis	-12.0248
▁entertained	-12.0249
ns	-12.0249
▁chemis	-12.025
▁noodles	-12.0253
▁bell	-12.0258
▁carton	-12.0266
gin	-12.0277
▁picker	-12.0279
▁creep	-12.0283
▁prob	-12.0287
▁adolescent	-12.0294
▁holidays	-12.0302
nos	-12.0304
ames	-12.0322
▁streetlights	-12.0328
▁snowboarders	-12.033
raw	-12.0339
▁bowed	-12.0346
hoops	-12.0364
▁peruse	-12.0368
▁batons	-12.0373
▁bust	-12.0373
▁toilets	-12.0373
▁structures	-12.0373
▁fra	-12.0377
izer	-12.0379
essing	-12.0381
inting	-12.039
▁cords	-12.0392
Love	-12.0394
▁Russia	-12.0397
▁parka	-12.0428
sks	-12.0451
▁ensu	-12.0484
nti	-12.0487
ctic	-12.0488
Bron	-12.0489
▁mo	-12.05
itch	-12.0503
rates	-12.0504
▁scar	-12.0505
▁twirls	-12.0515
aring	-12.053
▁mate	-12.0535
▁sling	-12.0545
itting	-12.0549
ike	-12.0556
▁attache	-12.0562
▁cors	-12.0563
ird	-12.0569
▁dumps	-12.0586
▁res	-12.0587
ank	-12.0587
▁pockets	-12.0588
▁notebooks	-12.0588
▁wal	-12.0604
ates	-12.0609
▁speakers	-12.0615
▁gla	-12.0623
lt	-12.0634
▁packages	-12.0639
pe	-12.0646
▁beautifully	-12.0648
▁turbans	-12.066
▁pumpkins	-12.066
▁tasks	-12.0661
▁sweating	-12.0666
rom	-12.0669
▁leader	-12.0682
ating	-12.0682
▁ent	-12.0706
▁marks	-12.0723
▁Sal	-12.0729
▁treats	-12.0733
▁services	-12.0734
▁leotards	-12.0734
▁portraits	-12.0734
▁cages	-12.0735
▁tickets	-12.0736
ricate	-12.0759
▁signal	-12.0779
▁launche	-12.0781
▁Pe	-12.0792
ox	-12.0806
▁trips	-12.0807
▁tricycles	-12.0808
▁huts	-12.0809
▁rods	-12.0811
▁mes	-12.0819
▁deter	-12.0845
▁Tea	-12.085
uma	-12.0851
ilot	-12.0879
▁moved	-12.0882
ise	-12.089
fi	-12.0895
▁amused	-12.0901
▁Fan	-12.0915
▁led	-12.0922
ms	-12.0927
obs	-12.0927
race	-12.0936
▁helper	-12.0955
▁Motorcycl	-12.0965
▁lat	-12.0967
inder	-12.0992
▁sizes	-12.1029
▁gifts	-12.1033
▁cheerful	-12.1053
▁Adult	-12.115
▁gu	-12.1186
lers	-12.1218
▁excavat	-12.1218
amper	-12.1219
▁blacktop	-12.1233
truck	-12.1245
▁reci	-12.128
▁numbered	-12.134
▁ar	-12.1357
ited	-12.1362
▁ste	-12.1363
hio	-12.1376
▁Ric	-12.1396
nce	-12.14
eva	-12.142
▁trumpets	-12.1421
ani	-12.1428
▁Hu	-12.143
▁Not	-12.1454
▁statues	-12.1478
▁tre	-12.1568
▁ramps	-12.1606
c	-12.1636
IN	-12.1643
stro	-12.1654
lov	-12.1659
evil	-12.1691
RO	-12.1695
▁Dan	-12.1696
▁darkly	-12.1705
une	-12.1761
sion	-12.1776
▁expe	-12.178
▁El	-12.1796
▁lives	-12.1803
ace	-12.1804
gu	-12.1804
▁challeng	-12.1827
min	-12.185
▁emp	-12.1853
uth	-12.1868
nations	-12.1899
▁Over	-12.1906
▁hurdles	-12.1908
▁prop	-12.1909
▁Con	-12.1924
▁clim	-12.1952
ger	-12.1992
▁keyboards	-12.1992
▁saxophones	-12.1992
▁Medi	-12.1994
▁Bir	-12.1999
rious	-12.202
▁grate	-12.202
▁tiles	-12.2021
ians	-12.2038
▁em	-12.204
▁arrang	-12.2044
got	-12.2151
▁fed	-12.2158
gy	-12.2198
tar	-12.2232
rina	-12.2234
take	-12.226
rine	-12.2269
▁mari	-12.2281
▁vo	-12.2293
tting	-12.2296
est	-12.231
hen	-12.232
▁curv	-12.2341
nake	-12.2351
▁die	-12.2357
▁wh	-12.2371
▁Te	-12.238
▁reclin	-12.2425
▁concentrat	-12.2426
▁Si	-12.2454
act	-12.2468
▁infants	-12.2509
ith	-12.252
pens	-12.2539
▁appearing	-12.2547
obe	-12.2589
▁bean	-12.259
verhead	-12.2618
▁supervise	-12.2696
▁pane	-12.2713
▁Ne	-12.2713
▁reg	-12.2721
ery	-12.2726
be	-12.2727
ain	-12.2771
▁sees	-12.2776
▁shoo	-12.2787
gard	-12.2819
▁hal	-12.2825
ern	-12.2827
ncy	-12.2833
love	-12.2836
lway	-12.2863
▁hoses	-12.2881
▁canes	-12.2903
oul	-12.2906
ia	-12.2952
ay	-12.2956
ca	-12.2992
ON	-12.2994
▁Pan	-12.3057
▁So	-12.3121
▁San	-12.3149
devil	-12.3215
▁cl	-12.3222
ffles	-12.3245
▁involve	-12.3299
some	-12.3322
▁Mon	-12.3361
OI	-12.3384
▁Che	-12.3415
vi	-12.3426
▁till	-12.3469
▁For	-12.3506
lution	-12.3602
▁Las	-12.3613
▁suite	-12.3633
ept	-12.3635
co	-12.3665
▁Chi	-12.3685
pid	-12.3696
panes	-12.3726
tail	-12.3729
▁scr	-12.374
▁def	-12.3811
ative	-12.3818
bil	-12.3819
hine	-12.383
▁organize	-12.3844
▁rocker	-12.3889
▁Gr	-12.3936
▁due	-12.3961
▁perche	-12.3961
▁pou	-12.3973
even	-12.4008
▁peddl	-12.4014
▁pe	-12.4024
are	-12.4027
rade	-12.4034
opsicle	-12.4039
▁ends	-12.4057
mused	-12.4072
▁ju	-12.4096
▁tux	-12.4141
bbing	-12.4165
ttracti	-12.4184
j	-12.4191
ummer	-12.4204
▁flan	-12.4223
sel	-12.4235
endo	-12.4262
ink	-12.4275
▁Da	-12.4283
ue	-12.4304
anada	-12.431
tory	-12.4312
▁int	-12.4326
eek	-12.4342
ray	-12.4365
rows	-12.4389
▁skip	-12.4407
▁mart	-12.4431
▁Mac	-12.4454
east	-12.4472
▁abs	-12.4488
▁pee	-12.4517
▁pea	-12.4535
oth	-12.4544
thletes	-12.4552
formal	-12.4557
hill	-12.4558
ense	-12.4564
ader	-12.4566
doors	-12.4573
powered	-12.4596
rid	-12.4611
▁dim	-12.4635
eedle	-12.4682
gent	-12.4685
▁wea	-12.469
nger	-12.469
▁adventure	-12.4698
cent	-12.471
wheel	-12.4718
▁supervis	-12.4721
bike	-12.4725
step	-12.4733
▁Down	-12.4735
ador	-12.4742
▁surfboards	-12.4746
pad	-12.4753
▁Tim	-12.4757
worker	-12.4757
▁chemi	-12.4759
bul	-12.4762
bject	-12.4765
ik	-12.4787
ult	-12.4794
fight	-12.4802
count	-12.4803
all	-12.4818
▁bandage	-12.4819
sm	-12.4822
▁Mu	-12.4824
ans	-12.4829
shes	-12.4847
▁Cost	-12.4856
lookers	-12.4861
rit	-12.4863
▁snowmobil	-12.487
▁Garden	-12.4872
▁locomotive	-12.4872
▁melon	-12.4872
▁chore	-12.4873
▁circuit	-12.4875
ces	-12.488
▁Farmer	-12.488
▁wav	-12.488
▁grain	-12.4882
▁reporter	-12.4885
uzzled	-12.4886
alo	-12.4887
owl	-12.4888
▁troop	-12.489
▁participant	-12.489
▁twin	-12.489
▁chi	-12.4891
▁locker	-12.4892
▁brace	-12.4894
▁decid	-12.4894
▁decor	-12.4896
▁coconut	-12.4897
▁sausage	-12.4897
▁Side	-12.4898
ssed	-12.49
▁kimono	-12.4902
▁condition	-12.4902
▁Rollerblade	-12.4902
▁happen	-12.4903
▁Na	-12.4904
▁bridesmaid	-12.4904
▁rollerblad	-12.4905
oy	-12.4906
▁penguin	-12.4907
empt	-12.4909
▁bystander	-12.4911
▁pajama	-12.4914
▁bone	-12.4919
▁hugg	-12.4924
▁shingle	-12.4927
Ex	-12.493
▁unwrap	-12.4935
serves	-12.4937
▁drawer	-12.495
bli	-12.4959
rader	-12.4959
rain	-12.496
iner	-12.496
▁guid	-12.496
beater	-12.4961
loud	-12.4962
▁comic	-12.4962
Guitar	-12.4963
heel	-12.4964
Wel	-12.4966
lock	-12.4968
color	-12.497
posing	-12.4971
▁Color	-12.4971
ecker	-12.4972
hold	-12.4975
plane	-12.4975
stride	-12.4977
legged	-12.4979
safe	-12.4979
national	-12.498
mark	-12.4982
ier	-12.4983
box	-12.4983
venue	-12.4983
nail	-12.4984
thumbs	-12.4984
chase	-12.4984
bound	-12.4984
operate	-12.4984
load	-12.4985
Easter	-12.4985
first	-12.4985
ship	-12.4985
task	-12.4985
bread	-12.4986
free	-12.4986
scooter	-12.4986
flip	-12.4986
block	-12.4986
▁Play	-12.4986
golf	-12.4986
school	-12.4987
distance	-12.4987
hammer	-12.4987
floor	-12.4987
crowded	-12.4987
horse	-12.4987
pole	-12.4987
stairs	-12.4987
pants	-12.4987
shade	-12.4987
fire	-12.4988
bra	-12.4988
wall	-12.4988
game	-12.4989
off	-12.499
raised	-12.4993
boo	-12.4993
class	-12.4994
gun	-12.4995
fo	-12.4995
▁downward	-12.4995
▁blur	-12.4999
▁zi	-12.5
nded	-12.5006
phon	-12.5011
spectac	-12.5013
▁gallo	-12.5015
umb	-12.5015
▁architectur	-12.5015
away	-12.5016
▁windsurf	-12.5016
▁cam	-12.5017
older	-12.5019
▁inflat	-12.5023
▁crow	-12.5023
▁injur	-12.5026
▁bikin	-12.5027
▁sideline	-12.5028
▁struggle	-12.503
inde	-12.503
▁Lou	-12.503
boy	-12.5032
oker	-12.5034
▁possibl	-12.5038
▁descri	-12.5039
ushi	-12.5039
▁kil	-12.5039
semble	-12.5039
coat	-12.5039
umbl	-12.504
▁breakdance	-12.5041
aint	-12.5042
ngu	-12.5042
▁ele	-12.5042
burn	-12.5042
▁blank	-12.5043
▁baker	-12.5043
uggling	-12.5043
▁respective	-12.5044
oggers	-12.5045
▁gam	-12.5045
▁attentive	-12.5045
▁speci	-12.5047
pee	-12.505
▁Farm	-12.505
▁cultur	-12.505
lons	-12.5051
oc	-12.5051
▁should	-12.5053
▁wineglass	-12.5053
▁Shop	-12.5054
dam	-12.5054
▁crayo	-12.5055
▁Music	-12.5055
reeze	-12.5056
raphic	-12.5056
▁clos	-12.5056
actory	-12.5056
▁squir	-12.5057
▁enthusiastic	-12.5057
unglasses	-12.5057
climbing	-12.5057
▁technic	-12.5057
horts	-12.5057
eteran	-12.5057
▁quarte	-12.5057
▁express	-12.5057
ridesmaids	-12.5057
▁parachuti	-12.5057
▁bru	-12.5058
▁sauce	-12.5058
blading	-12.5058
ircus	-12.5058
▁sac	-12.5058
▁hydra	-12.5058
source	-12.5058
▁affect	-12.5058
aintenance	-12.5058
xford	-12.5058
▁repel	-12.5058
ibbon	-12.5058
bum	-12.5059
cussion	-12.5059
▁residen	-12.5059
▁euro	-12.5059
▁Euro	-12.5059
▁Isla	-12.5059
▁neighbor	-12.5059
awasaki	-12.5059
▁pleas	-12.5059
painting	-12.5059
udweiser	-12.5059
▁spaghetti	-12.5059
▁appropriate	-12.5059
▁eccentric	-12.5059
▁exhaust	-12.5059
▁expectant	-12.5059
▁experienc	-12.5059
▁intertwin	-12.5059
▁majestic	-12.5059
▁mischievous	-12.5059
▁obstruct	-12.5059
▁refrigerat	-12.5059
▁terrori	-12.5059
EGO	-12.5059
altitude	-12.5059
ggressive	-12.5059
immigration	-12.5059
labradoodle	-12.5059
mputee	-12.5059
ographed	-12.5059
rancisco	-12.5059
▁Alaska	-12.5059
▁Angeles	-12.5059
▁Atlanta	-12.5059
▁Camel	-12.5059
▁Challenge	-12.5059
▁Cricket	-12.5059
▁Crocs	-12.5059
▁David	-12.5059
▁Doberman	-12.5059
▁Engine	-12.5059
▁Golden	-12.5059
▁Heineken	-12.5059
▁Iowa	-12.5059
▁Israel	-12.5059
▁Pokemon	-12.5059
▁SWAT	-12.5059
▁Seahawks	-12.5059
▁World	-12.5059
▁Yankee	-12.5059
▁amplifier	-12.5059
▁anticipati	-12.5059
▁assignment	-12.5059
▁awkward	-12.5059
▁bazaar	-12.5059
▁beanbag	-12.5059
▁billiard	-12.5059
▁bonfire	-12.5059
▁boutique	-12.5059
▁broccoli	-12.5059
▁burrito	-12.5059
▁certificate	-12.5059
▁clipboard	-12.5059
▁collaps	-12.5059
▁condiment	-12.5059
▁congregation	-12.5059
▁conveyor	-12.5059
▁cucumber	-12.5059
▁dagger	-12.5059
▁demolishe	-12.5059
▁diagram	-12.5059
▁diamond	-12.5059
▁didgeridoo	-12.5059
▁difficult	-12.5059
▁diploma	-12.5059
▁distracted	-12.5059
▁district	-12.5059
▁entrepreneur	-12.5059
▁espresso	-12.5059
▁eyebrow	-12.5059
▁eyeliner	-12.5059
▁fundraiser	-12.5059
▁grandparents	-12.5059
▁igloo	-12.5059
▁irritated	-12.5059
▁kabob	-12.5059
▁knoll	-12.5059
▁lettuce	-12.5059
▁london	-12.5059
▁loudspeaker	-12.5059
▁manipulat	-12.5059
▁masonry	-12.5059
▁memorabilia	-12.5059
▁mortar	-12.5059
▁mulch	-12.5059
▁obscur	-12.5059
▁occasion	-12.5059
▁pamphlet	-12.5059
▁pearls	-12.5059
▁peppers	-12.5059
▁pomeranian	-12.5059
▁pompoms	-12.5059
▁private	-12.5059
▁reason	-12.5059
▁recoil	-12.5059
▁restaraunt	-12.5059
▁saxophonist	-12.5059
▁scientific	-12.5059
▁seminar	-12.5059
▁sequence	-12.5059
▁skyscraper	-12.5059
▁snooze	-12.5059
▁snowdrift	-12.5059
▁success	-12.5059
▁superior	-12.5059
▁suspect	-12.5059
▁syrup	-12.5059
▁thousands	-12.5059
▁tortillas	-12.5059
▁typewriter	-12.5059
▁vessel	-12.5059
▁volcano	-12.5059
▁wreck	-12.5059
▁chute	-12.5059
▁drumstick	-12.5059
▁shoelaces	-12.5059
▁Heavy	-12.5059
▁Hopper	-12.5059
▁Pipe	-12.5059
▁Scooby	-12.5059
▁agitate	-12.5059
▁bombard	-12.5059
▁chinatown	-12.5059
▁conceal	-12.5059
▁conifer	-12.5059
▁declare	-12.5059
▁extinguish	-12.5059
▁illustrati	-12.5059
▁martini	-12.5059
▁moutain	-12.5059
▁neatly	-12.5059
▁remodel	-12.5059
▁renovat	-12.5059
▁shrubbery	-12.5059
ingbird	-12.5059
▁Ballerina	-12.5059
▁advanc	-12.5059
▁anorak	-12.5059
▁incense	-12.5059
▁kerchief	-12.5059
▁plywood	-12.5059
▁rugged	-12.5059
▁slingshot	-12.5059
spiration	-12.5059
▁bulb	-12.5059
▁correct	-12.5059
▁generat	-12.5059
▁fishnet	-12.5059
OME	-12.5059
▁expert	-12.5059
▁shuttle	-12.5059
▁custody	-12.5059
▁keg	-12.5059
▁mime	-12.5059
▁slouch	-12.5059
ictoria	-12.5059
▁identif	-12.5059
▁incredibl	-12.5059
▁karaoke	-12.5059
randfather	-12.5059
▁author	-12.5059
▁grimace	-12.5059
▁hops	-12.5059
▁ignore	-12.5059
▁ecstatically	-12.5059
▁jagged	-12.5059
▁Sunday	-12.5059
▁swirl	-12.5059
▁tickl	-12.5059
buster	-12.5059
▁knead	-12.5059
▁worship	-12.5059
▁humorous	-12.5059
arshmallow	-12.5059
▁cashier	-12.5059
▁compos	-12.5059
aneous	-12.5059
▁Forever	-12.5059
▁reenact	-12.5059
▁edible	-12.5059
▁icicle	-12.5059
▁astonish	-12.5059
▁hippie	-12.5059
▁perfume	-12.5059
▁violence	-12.5059
▁cleav	-12.5059
▁tilted	-12.5059
▁residence	-12.5059
▁urinal	-12.5059
▁postcards	-12.5059
▁wounds	-12.5059
▁revers	-12.5059
▁warrior	-12.5059
▁seashell	-12.5059
▁necktie	-12.5059
▁collision	-12.5059
▁ribs	-12.5059
▁Smoke	-12.5059
▁misc	-12.5059
▁spider	-12.5059
▁stapl	-12.5059
▁masterpiece	-12.5059
▁repelling	-12.5059
▁lesson	-12.5059
▁Musta	-12.5059
▁whale	-12.5059
orah	-12.5059
▁management	-12.5059
▁recital	-12.5059
▁tinsel	-12.5059
▁Wheel	-12.5059
▁volley	-12.5059
lpin	-12.5059
▁function	-12.5059
▁silverware	-12.5059
▁piling	-12.5059
▁peanut	-12.5059
▁faith	-12.5059
▁winks	-12.5059
IG	-12.5059
▁scoring	-12.506
ulture	-12.506
plica	-12.506
▁cornfield	-12.506
▁resource	-12.506
▁plaque	-12.506
▁Coke	-12.506
▁starfish	-12.506
▁Every	-12.506
▁Egy	-12.506
▁Harlem	-12.506
▁restrain	-12.506
ackson	-12.506
▁Domino	-12.506
▁access	-12.506
▁convi	-12.506
▁Broad	-12.506
▁squash	-12.506
▁smart	-12.506
▁oxford	-12.506
▁saucer	-12.506
▁assistance	-12.506
▁pork	-12.506
▁mara	-12.506
uz	-12.506
▁chur	-12.506
▁hardware	-12.506
EN	-12.506
▁protectors	-12.506
igan	-12.506
▁crag	-12.506
▁unlock	-12.506
▁Redhead	-12.506
▁dalmatian	-12.506
▁fairground	-12.506
▁Pelo	-12.506
▁entry	-12.5061
AL	-12.5061
▁vict	-12.5061
▁viking	-12.5061
▁veteran	-12.5061
▁wander	-12.5061
AR	-12.5061
iffe	-12.5061
▁lovers	-12.5061
▁commute	-12.5061
AM	-12.5061
▁riverbed	-12.5061
▁witness	-12.5061
▁Human	-12.5061
▁reaction	-12.5061
▁dachshund	-12.5061
▁oak	-12.5061
▁Block	-12.5061
▁slim	-12.5061
▁budget	-12.5061
▁crim	-12.5061
▁Hind	-12.5061
ible	-12.5061
▁dragster	-12.5061
▁Peter	-12.5061
▁camo	-12.5061
▁Row	-12.5061
diction	-12.5061
▁hitchhiking	-12.5061
ayaker	-12.5061
nual	-12.5061
▁grownup	-12.5062
▁teeter	-12.5062
▁propeller	-12.5062
▁kickboxer	-12.5062
▁Out	-12.5062
▁Swan	-12.5062
▁thong	-12.5062
▁colonial	-12.5062
▁sedan	-12.5062
▁Bank	-12.5062
▁lava	-12.5062
gant	-12.5062
Phone	-12.5062
▁Ori	-12.5063
▁Bra	-12.5063
▁cob	-12.5063
▁bales	-12.5063
▁farmland	-12.5063
▁slant	-12.5063
fact	-12.5063
▁newscaster	-12.5063
▁oval	-12.5064
alia	-12.5064
▁DI	-12.5064
mates	-12.5064
urses	-12.5064
▁communication	-12.5064
▁stories	-12.5064
▁flick	-12.5064
ER	-12.5064
▁turf	-12.5065
▁saro	-12.5065
▁trudg	-12.5065
AGA	-12.5065
▁examination	-12.5065
usiness	-12.5065
▁dumb	-12.5065
▁thro	-12.5065
▁Snow	-12.5065
▁ranch	-12.5065
▁disco	-12.5065
▁Mc	-12.5065
▁bored	-12.5066
▁Port	-12.5066
▁innocen	-12.5066
▁intern	-12.5066
tial	-12.5066
derate	-12.5066
▁travelling	-12.5067
▁Chan	-12.5067
▁trooper	-12.5067
▁Story	-12.5067
▁halfway	-12.5067
▁spice	-12.5067
inspir	-12.5067
▁Bug	-12.5067
▁ram	-12.5067
▁crus	-12.5067
▁creation	-12.5067
▁hunter	-12.5067
▁slipper	-12.5068
ication	-12.5068
▁parti	-12.5068
▁rim	-12.5068
▁meter	-12.5068
▁twenty	-12.5069
▁resembl	-12.5069
ACE	-12.5069
▁Bright	-12.5069
▁wetland	-12.507
bby	-12.507
▁fam	-12.507
▁hamm	-12.507
▁dodg	-12.507
▁treatment	-12.507
▁handhold	-12.5071
▁weightlift	-12.5071
▁Engl	-12.5071
very	-12.5072
scope	-12.5072
▁manner	-12.5073
Watch	-12.5073
▁Tree	-12.5073
Cyclone	-12.5074
yellow	-12.5074
▁blankly	-12.5075
▁respectively	-12.5075
▁Pret	-12.5075
▁consume	-12.5075
affe	-12.5075
▁median	-12.5075
▁hous	-12.5075
▁spare	-12.5076
▁breakdancer	-12.5077
▁later	-12.5077
▁fran	-12.5078
▁massage	-12.5078
tilts	-12.5078
▁labor	-12.5078
escription	-12.5079
uve	-12.5079
▁linens	-12.508
▁bask	-12.508
▁corgi	-12.508
▁troll	-12.508
▁dollar	-12.5081
▁fasten	-12.5081
▁exchang	-12.5081
▁projection	-12.5082
▁fitting	-12.5082
▁met	-12.5083
▁carrot	-12.5084
▁scan	-12.5084
▁Top	-12.5084
▁congr	-12.5085
lub	-12.5085
▁sparsely	-12.5085
ffer	-12.5087
▁capital	-12.5087
▁Ore	-12.5087
▁Ha	-12.5088
▁pastry	-12.5089
▁grave	-12.5089
irway	-12.5089
▁motorist	-12.5089
▁masses	-12.509
▁carol	-12.5091
▁kayaker	-12.5091
chief	-12.5092
▁hors	-12.5092
▁beaut	-12.5092
▁par	-12.5094
▁nuts	-12.5094
▁dapple	-12.5094
▁journal	-12.5094
▁crank	-12.5095
▁Cor	-12.5095
▁vision	-12.5095
▁Wood	-12.5096
chu	-12.5097
▁Nor	-12.5098
▁divide	-12.5099
▁visitor	-12.5099
▁cuddl	-12.51
▁passage	-12.5102
▁Gen	-12.5102
▁architecture	-12.5103
▁Italy	-12.5103
▁culture	-12.5104
▁competitively	-12.5106
▁softly	-12.5106
ford	-12.5107
▁headdresses	-12.5107
icken	-12.5108
▁Heal	-12.5108
▁puzzled	-12.5109
▁dingy	-12.5109
ormal	-12.5109
pace	-12.511
▁fencers	-12.5111
ordin	-12.5112
▁physical	-12.5112
▁heel	-12.5115
elp	-12.5115
▁law	-12.5116
▁shark	-12.5116
rapher	-12.5117
▁retr	-12.5119
eners	-12.5119
tude	-12.5119
anda	-12.5121
errier	-12.5122
▁mine	-12.5122
▁spat	-12.5122
ield	-12.5122
abst	-12.5123
▁potter	-12.5124
▁fanny	-12.5124
▁tackler	-12.5124
crunch	-12.5126
▁quietly	-12.5127
HL	-12.5128
▁logger	-12.5128
▁figurines	-12.5128
▁roots	-12.5128
▁colleagues	-12.5128
▁Outdoors	-12.5128
▁instructions	-12.5128
▁olympics	-12.5129
▁metalworking	-12.5129
▁scrubbing	-12.5129
▁recycling	-12.5129
▁saluting	-12.5129
▁snarling	-12.5129
▁tru	-12.5132
▁bill	-12.5133
▁Sled	-12.5134
▁shell	-12.5135
▁filed	-12.5135
tions	-12.5137
▁galo	-12.5137
▁giggl	-12.5137
gen	-12.5139
▁vi	-12.514
▁peddler	-12.5141
▁setup	-12.5141
▁populat	-12.5141
▁folders	-12.5143
▁Patro	-12.5144
▁Her	-12.5145
▁sandwiches	-12.5147
addle	-12.5147
Carol	-12.5151
▁May	-12.5151
▁occurred	-12.5154
▁warmers	-12.5156
▁Guitar	-12.5156
▁inspector	-12.5159
▁national	-12.5159
tails	-12.516
▁Wel	-12.5162
▁reference	-12.5163
▁continue	-12.5163
▁investigate	-12.5163
▁loud	-12.5163
▁streamers	-12.5163
▁cent	-12.5171
▁lungi	-12.5171
▁Wo	-12.5173
▁jou	-12.5174
▁movement	-12.5175
▁recorder	-12.5177
What	-12.5178
rawl	-12.5178
fighting	-12.5178
oles	-12.518
atory	-12.5184
▁unwrapp	-12.5184
▁vat	-12.5189
opy	-12.5189
▁height	-12.5191
quet	-12.5195
▁Padd	-12.5197
▁rocket	-12.5199
esco	-12.5202
▁Chevro	-12.5203
tioning	-12.5206
▁univers	-12.5218
sea	-12.5219
▁gna	-12.5221
acky	-12.5224
ctive	-12.5226
▁list	-12.5226
idewalk	-12.5227
ICE	-12.5227
▁comical	-12.5239
▁drumm	-12.5239
OR	-12.5239
▁fisherm	-12.5243
them	-12.5245
▁leak	-12.5247
▁grains	-12.5248
▁twins	-12.5248
▁penguins	-12.5248
▁chores	-12.5249
▁Gardens	-12.5249
▁locomotives	-12.5249
▁melons	-12.5249
▁circuits	-12.525
▁Farmers	-12.5251
▁snowmobiling	-12.5251
▁reporters	-12.5252
tive	-12.5252
iers	-12.5253
▁lockers	-12.5253
fro	-12.5254
▁caged	-12.5256
▁intri	-12.5258
lush	-12.5259
▁sliced	-12.5261
▁dangl	-12.5262
▁harvested	-12.5264
▁drawers	-12.5266
fit	-12.5268
▁sous	-12.527
ild	-12.5272
▁straddl	-12.5273
eath	-12.5274
Spring	-12.5276
▁alter	-12.5289
▁Col	-12.5302
▁deal	-12.5307
▁folk	-12.5309
Twister	-12.531
▁hide	-12.531
▁hides	-12.5317
▁Newly	-12.5328
jac	-12.5332
HO	-12.5335
Paris	-12.5337
▁props	-12.5337
▁cracker	-12.5345
▁min	-12.5355
▁Del	-12.5356
rubs	-12.537
▁blinds	-12.5374
▁jackhammers	-12.5374
▁hedges	-12.5375
▁joggers	-12.5375
▁chopped	-12.5375
▁Cal	-12.5378
▁glowing	-12.5379
▁taped	-12.5388
▁Pee	-12.5391
zing	-12.5401
▁bout	-12.5405
▁Fin	-12.5406
▁bulls	-12.5411
▁Nes	-12.5413
▁golfers	-12.5421
tables	-12.5429
chest	-12.543
lack	-12.543
▁downwards	-12.5437
wister	-12.544
▁Per	-12.5441
across	-12.5443
▁cutter	-12.5444
aris	-12.5444
▁operat	-12.5445
▁Beach	-12.5452
▁med	-12.5458
▁Lab	-12.5462
▁leave	-12.5467
▁imme	-12.5472
▁matches	-12.5484
▁archaeologi	-12.5487
▁average	-12.5491
nse	-12.5493
▁sweets	-12.5502
▁pancakes	-12.5503
▁brochures	-12.5503
▁questions	-12.5503
▁wrists	-12.5503
▁instructors	-12.5503
painted	-12.5512
▁pla	-12.5517
same	-12.552
win	-12.5521
▁audi	-12.5521
inker	-12.5522
lease	-12.5528
rests	-12.5532
▁stan	-12.5533
▁unk	-12.5539
▁clipp	-12.5545
▁vaulting	-12.5547
▁passer	-12.555
▁wit	-12.5553
uation	-12.5556
▁charge	-12.5556
TE	-12.5584
▁spher	-12.5588
▁bas	-12.5592
▁relaxed	-12.5595
oun	-12.5602
▁di	-12.5604
dj	-12.5606
mp	-12.5617
▁pigs	-12.5633
▁sisters	-12.5633
▁messages	-12.5633
▁collective	-12.5647
tal	-12.5654
lights	-12.5656
▁thoughtful	-12.566
▁captur	-12.5683
show	-12.5704
▁emb	-12.5714
▁communicate	-12.5721
orts	-12.573
oyed	-12.5732
▁hunt	-12.5735
tics	-12.5746
eeps	-12.5752
▁De	-12.5752
ques	-12.5764
▁ascends	-12.5766
▁skulls	-12.5766
▁briefcases	-12.5766
▁handbags	-12.5766
▁strips	-12.5772
▁beater	-12.5773
rics	-12.5789
enya	-12.5789
Mari	-12.5794
stead	-12.58
tard	-12.581
▁Astro	-12.5813
▁Teach	-12.5824
mas	-12.5833
gg	-12.5861
▁Gre	-12.5866
▁ten	-12.5871
▁loves	-12.5879
▁bucks	-12.5884
▁weights	-12.5893
▁Ship	-12.5902
▁seasoning	-12.5912
▁topping	-12.5926
▁tumble	-12.5934
overing	-12.5939
hing	-12.5942
▁toil	-12.5965
houses	-12.5971
ators	-12.5988
omp	-12.5996
ow	-12.5996
▁controll	-12.6009
ove	-12.6013
▁sole	-12.6031
▁throughout	-12.6035
▁humans	-12.6038
▁wakeboards	-12.6039
▁diners	-12.6039
att	-12.6046
flated	-12.6046
asse	-12.6049
HS	-12.6053
andy	-12.6057
▁humm	-12.6061
rick	-12.6063
▁started	-12.6066
sung	-12.6069
cura	-12.6071
▁Ge	-12.6078
▁shooter	-12.6103
▁pic	-12.6136
▁rifles	-12.6178
▁reflections	-12.6179
leading	-12.6191
urs	-12.6201
▁patt	-12.6215
▁Wh	-12.6246
DA	-12.6246
▁wrapper	-12.6273
▁My	-12.6291
▁traveler	-12.6315
▁supports	-12.6316
▁sunbathe	-12.6322
ars	-12.6332
tribut	-12.6348
aker	-12.6349
▁rippl	-12.6358
ide	-12.6369
▁cupp	-12.6371
▁allow	-12.6377
▁pitche	-12.6403
ubble	-12.6411
▁ethnicit	-12.646
ohns	-12.6461
▁sodas	-12.6464
Birthday	-12.6468
▁alo	-12.6471
▁knitt	-12.6481
rum	-12.6487
ril	-12.649
▁screened	-12.6517
▁toll	-12.654
▁playful	-12.6549
▁blackboard	-12.6552
▁dies	-12.6558
opping	-12.6584
▁Ho	-12.6598
▁targets	-12.6611
▁exercises	-12.6611
▁snowsuits	-12.6612
itz	-12.6615
▁ve	-12.6657
▁Sw	-12.6658
ngs	-12.668
▁mea	-12.6715
▁Dep	-12.6715
▁stuc	-12.6743
▁jets	-12.6755
▁officials	-12.6761
trick	-12.6766
▁viole	-12.6773
▁camps	-12.6794
tanding	-12.6803
apa	-12.6804
now	-12.6868
olution	-12.6898
shed	-12.691
builder	-12.6929
rec	-12.6929
onto	-12.693
▁glide	-12.7032
sary	-12.7046
cue	-12.7053
▁slee	-12.7063
icles	-12.7064
▁spoons	-12.7066
dio	-12.7175
▁Gla	-12.7185
Bell	-12.7196
uffle	-12.7205
▁Live	-12.729
▁provid	-12.7346
bee	-12.7351
exic	-12.7361
▁cos	-12.7462
▁croc	-12.7479
ley	-12.7481
tract	-12.7548
ev	-12.7564
dan	-12.7577
gains	-12.758
▁Rev	-12.765
twe	-12.7676
ists	-12.7679
ins	-12.7711
▁routines	-12.7714
▁Ro	-12.7726
▁Mark	-12.7734
▁til	-12.7796
▁Loca	-12.7813
ascar	-12.7829
▁Iz	-12.7871
▁rec	-12.7872
▁stro	-12.7875
▁actions	-12.7881
▁drummers	-12.7885
uss	-12.7886
ican	-12.7886
▁Bar	-12.7894
lli	-12.7899
lie	-12.7962
▁Spar	-12.7993
▁Sun	-12.7997
▁ye	-12.8016
eta	-12.8051
▁wagons	-12.8054
hal	-12.8056
▁Sp	-12.8139
▁Di	-12.8243
tin	-12.8328
▁Lam	-12.8334
dul	-12.8349
▁Roo	-12.8362
ough	-12.838
▁planes	-12.8388
▁escalators	-12.8408
tem	-12.8437
lowly	-12.8461
hook	-12.8478
inted	-12.8481
umming	-12.8488
▁packs	-12.8519
▁shi	-12.8545
▁helm	-12.8547
▁winds	-12.8559
aches	-12.8583
▁bandannas	-12.8589
scape	-12.8595
▁sou	-12.8614
rod	-12.8619
pac	-12.8633
▁Lin	-12.868
nts	-12.8687
ions	-12.8687
ther	-12.8713
▁mixe	-12.8726
▁supervisi	-12.8847
ngles	-12.8954
▁mounds	-12.8958
▁tongues	-12.8962
▁tote	-12.8981
ole	-12.8988
▁coun	-12.9033
▁pens	-12.9041
ho	-12.9062
gym	-12.907
jects	-12.9082
ets	-12.9141
▁podiums	-12.9154
▁Sub	-12.9155
▁Is	-12.9189
▁uni	-12.9215
▁dent	-12.9306
tu	-12.9307
▁sla	-12.9321
enna	-12.9362
ribe	-12.9393
▁seas	-12.9395
▁Dor	-12.9408
▁waterfalls	-12.9427
boards	-12.9554
▁forge	-12.9587
park	-12.9629
waits	-12.967
gets	-12.9688
Read	-12.9715
umble	-12.9722
▁vie	-12.9748
use	-12.9758
▁nation	-12.9773
▁necks	-12.9796
▁stil	-12.9798
▁rav	-12.9807
ead	-12.9819
tis	-12.9834
hit	-12.9836
▁swi	-12.9845
▁buttons	-12.9957
▁circles	-12.9966
▁stylis	-12.9993
▁openings	-13.0035
▁viol	-13.015
▁curr	-13.0171
tor	-13.0176
ndo	-13.0184
moo	-13.0278
▁bud	-13.0366
▁confus	-13.0411
gri	-13.0432
▁haz	-13.0536
scar	-13.0561
▁fr	-13.0711
▁sparkl	-13.0722
▁j	-13.0769
bank	-13.0801
mming	-13.0875
tre	-13.0883
con	-13.0927
▁patrioti	-13.093
lo	-13.0993
lass	-13.101
▁To	-13.1104
low	-13.1214
▁pri	-13.1225
▁Prince	-13.1238
lee	-13.1303
Oh	-13.1311
▁plug	-13.1331
▁Gra	-13.1394
▁Pat	-13.1404
art	-13.1424
▁dir	-13.15
▁Coun	-13.1522
eat	-13.1579
▁gl	-13.1595
emporary	-13.1622
▁bal	-13.1644
▁inclin	-13.1644
tain	-13.1664
pti	-13.1676
Fr	-13.1687
ume	-13.1728
eak	-13.177
termin	-13.1775
gain	-13.1846
▁swe	-13.1867
pit	-13.1868
▁compa	-13.1878
▁waterski	-13.189
falls	-13.1918
otorcyclist	-13.1932
ams	-13.1955
ct	-13.198
▁observ	-13.1986
atyl	-13.2035
▁tw	-13.2071
▁signif	-13.2254
▁arc	-13.2259
▁Count	-13.2259
pressing	-13.2271
▁Swi	-13.2292
rie	-13.2327
▁Bi	-13.2328
▁Stan	-13.2363
▁Fa	-13.2439
▁Fair	-13.245
zer	-13.2463
▁Gi	-13.2478
igger	-13.2484
ouch	-13.2523
du	-13.2523
horn	-13.2557
▁graduat	-13.258
▁stru	-13.2604
▁ripple	-13.2663
mod	-13.2666
▁pat	-13.2728
LO	-13.2773
oma	-13.2791
vention	-13.2834
mine	-13.2862
cur	-13.2896
riff	-13.2931
ket	-13.2942
ope	-13.2942
nning	-13.2966
aders	-13.3021
old	-13.3027
▁Shel	-13.3068
▁ham	-13.3105
qui	-13.3106
▁cul	-13.3125
▁Shi	-13.3164
▁cor	-13.3174
▁Cr	-13.3175
ect	-13.318
▁cra	-13.3214
ravag	-13.3225
angle	-13.3275
nion	-13.329
lac	-13.3318
▁Shirt	-13.3344
how	-13.3352
▁extra	-13.3418
▁Hea	-13.3439
▁packag	-13.3454
▁hi	-13.3467
▁Par	-13.3468
▁tu	-13.3514
ripe	-13.3526
ltim	-13.3557
bor	-13.36
night	-13.3618
▁cata	-13.3659
ateway	-13.3668
esigner	-13.3686
IS	-13.3693
▁ban	-13.3712
dye	-13.3715
▁thre	-13.3723
resses	-13.374
▁Wal	-13.3741
law	-13.3745
wling	-13.3751
▁Russ	-13.3759
pack	-13.3766
rish	-13.3792
ttle	-13.3817
sphere	-13.3818
▁sli	-13.3822
rags	-13.3824
nu	-13.3832
▁spac	-13.3869
▁situat	-13.3896
rgan	-13.392
ncil	-13.3936
eezer	-13.394
▁birth	-13.3943
ots	-13.3986
lipper	-13.3989
▁voca	-13.4013
verage	-13.4022
rchaeologi	-13.4036
rder	-13.4046
obes	-13.4071
udi	-13.4075
combs	-13.4076
▁blu	-13.4083
nda	-13.4109
dolescent	-13.4137
fr	-13.4148
▁Gri	-13.4152
road	-13.4163
vailable	-13.4183
▁amus	-13.4186
▁Fr	-13.4198
ction	-13.4244
▁assembl	-13.4245
▁proc	-13.4245
crobatic	-13.4249
ht	-13.425
rtwork	-13.4254
bak	-13.4255
▁Rail	-13.4258
▁landscap	-13.4263
ease	-13.427
ita	-13.4272
ck	-13.428
lley	-13.4285
town	-13.4285
▁spani	-13.4309
▁soli	-13.4319
ccompanie	-13.432
urf	-13.4328
mate	-13.4337
ails	-13.4338
mmer	-13.4354
mi	-13.4375
iness	-13.4394
▁purs	-13.4406
lope	-13.441
trona	-13.4414
▁Oh	-13.4414
erial	-13.4417
oration	-13.4419
ddles	-13.4424
ended	-13.4436
media	-13.444
lashes	-13.4441
fant	-13.4443
▁seam	-13.4445
ski	-13.4446
q	-13.4454
cons	-13.4456
hy	-13.4506
vision	-13.4541
ottery	-13.4543
▁fil	-13.4562
par	-13.4572
▁Or	-13.4573
▁dev	-13.4574
ater	-13.4583
hre	-13.4593
▁Pops	-13.4597
▁lect	-13.4606
awing	-13.4624
here	-13.4624
fall	-13.4625
corn	-13.4626
pper	-13.4641
ckle	-13.4643
EF	-13.4647
IC	-13.4648
▁Turk	-13.4649
yhound	-13.465
table	-13.4658
bal	-13.4669
▁Op	-13.4673
hibi	-13.4676
▁Sta	-13.4689
umm	-13.4689
▁Chev	-13.47
▁teache	-13.4707
rou	-13.4713
topped	-13.4728
bed	-13.4735
band	-13.4735
lantern	-13.4742
crew	-13.4743
▁Hil	-13.4747
shot	-13.4748
ager	-13.4749
▁pebbl	-13.4752
▁consol	-13.4753
▁Spri	-13.476
▁rubb	-13.477
ph	-13.477
ggle	-13.4775
fish	-13.4775
case	-13.4775
▁doz	-13.4778
paint	-13.478
own	-13.4783
rac	-13.4784
uperman	-13.4786
hur	-13.479
cool	-13.479
acket	-13.4791
▁meda	-13.4792
hin	-13.4797
▁continu	-13.4798
▁investigat	-13.4798
▁referenc	-13.4798
▁san	-13.4801
oo	-13.4802
comb	-13.4802
▁intent	-13.4805
mple	-13.4809
ock	-13.4809
ayak	-13.4811
climb	-13.4814
real	-13.4816
Conn	-13.4818
ehicle	-13.4818
ai	-13.4819
urn	-13.4828
ret	-13.4834
print	-13.4842
AN	-13.4864
wear	-13.4864
onald	-13.4866
unch	-13.4868
▁snarl	-13.4882
▁recycl	-13.4882
▁scrubb	-13.4882
▁salut	-13.4882
▁Outdoor	-13.4884
▁colleague	-13.4884
▁olympic	-13.4884
▁figurine	-13.4884
▁root	-13.4887
▁smok	-13.4888
AH	-13.4892
▁clo	-13.4893
▁instruction	-13.4897
dition	-13.4898
▁yawn	-13.4898
▁meditat	-13.4899
▁Wai	-13.4899
▁handlebar	-13.49
▁utensil	-13.49
pons	-13.4901
▁feat	-13.4901
pic	-13.4902
hopper	-13.4904
▁spo	-13.4904
▁twig	-13.4906
▁dread	-13.4906
▁surgeon	-13.4907
▁Sport	-13.4908
▁prize	-13.4909
▁steak	-13.491
rus	-13.491
▁kickbox	-13.491
▁competitor	-13.4911
▁dart	-13.4913
▁skydiv	-13.4914
ctor	-13.4916
ashioned	-13.492
rails	-13.492
▁sneaker	-13.4921
▁pigtail	-13.4921
▁binocular	-13.4921
change	-13.4922
▁dreadlock	-13.4922
▁bleacher	-13.4922
mb	-13.4923
▁Biker	-13.4924
amm	-13.4924
▁spectator	-13.4925
endor	-13.4925
▁woodwork	-13.4925
▁discus	-13.4926
▁metalwork	-13.4927
▁physic	-13.4928
▁attra	-13.4928
▁Runner	-13.4928
skaters	-13.493
Pop	-13.493
cul	-13.4931
▁mar	-13.4933
graphy	-13.4934
▁goggle	-13.4934
▁belong	-13.4934
▁figur	-13.4935
bre	-13.4935
▁opp	-13.4936
spani	-13.4937
Olympi	-13.4937
▁mitten	-13.4937
purs	-13.494
praying	-13.4942
Bar	-13.4944
Sub	-13.4945
gro	-13.4947
▁firework	-13.4947
rrible	-13.4947
Ri	-13.495
run	-13.4952
undre	-13.4954
▁Texa	-13.4954
hous	-13.4957
hakes	-13.4957
zone	-13.4957
iving	-13.4958
ripple	-13.4958
Live	-13.4963
▁antiqu	-13.4965
controll	-13.4965
populat	-13.4965
tru	-13.4967
can	-13.4968
▁wedd	-13.4968
nuts	-13.4969
tative	-13.4969
fashion	-13.4969
vaulting	-13.497
journal	-13.497
crank	-13.497
dapple	-13.497
enthusiastic	-13.497
cultur	-13.497
penguin	-13.497
shell	-13.497
blaz	-13.4972
ption	-13.4972
raise	-13.4973
cords	-13.4973
lu	-13.4975
▁shopper	-13.4976
pain	-13.4976
▁cou	-13.4976
▁boot	-13.4976
Mac	-13.4976
▁ruin	-13.4977
cloth	-13.4978
blown	-13.4978
Pain	-13.4978
noodles	-13.4978
maintain	-13.4978
Grand	-13.4978
parent	-13.4979
▁Du	-13.498
serv	-13.498
covering	-13.498
cards	-13.498
▁headphone	-13.498
cock	-13.498
cooked	-13.4982
Happy	-13.4982
comfortable	-13.4982
interest	-13.4982
grown	-13.4982
rafting	-13.4983
shield	-13.4983
pie	-13.4983
America	-13.4983
zoo	-13.4984
Seattle	-13.4984
South	-13.4984
shingles	-13.4984
convention	-13.4984
appearing	-13.4984
▁Haw	-13.4984
bones	-13.4984
glo	-13.4984
stra	-13.4985
▁decoration	-13.4985
framed	-13.4985
jack	-13.4985
Green	-13.4985
piercing	-13.4985
occup	-13.4985
rugs	-13.4986
imp	-13.4986
Work	-13.4986
blower	-13.4986
place	-13.4986
transit	-13.4986
Cafe	-13.4986
Elmo	-13.4987
Texas	-13.4987
post	-13.4987
broad	-13.4987
skirts	-13.4987
axe	-13.4988
tags	-13.4988
maneuver	-13.4988
bath	-13.4988
picker	-13.4988
Police	-13.4989
world	-13.4989
rush	-13.4989
service	-13.4989
bush	-13.4989
telephone	-13.4989
paddles	-13.4989
monitor	-13.4989
play	-13.4989
Hous	-13.4989
writ	-13.499
pick	-13.499
factory	-13.499
pattern	-13.499
spread	-13.499
member	-13.499
half	-13.499
checkered	-13.499
peace	-13.499
plant	-13.499
check	-13.499
cafe	-13.4991
pose	-13.4991
float	-13.4991
visible	-13.4991
course	-13.4991
vation	-13.4991
scene	-13.4991
cloud	-13.4991
glass	-13.4991
smoking	-13.4991
Wo	-13.4991
grassy	-13.4991
something	-13.4991
boat	-13.4991
section	-13.4991
building	-13.4992
women	-13.4992
ools	-13.4992
blowing	-13.4992
paper	-13.4992
mouth	-13.4992
Terri	-13.4992
jacket	-13.4992
brick	-13.4992
clear	-13.4992
bend	-13.4993
two	-13.4993
beard	-13.4993
hockey	-13.4993
rocks	-13.4993
feed	-13.4993
pour	-13.4993
watch	-13.4993
person	-13.4993
gold	-13.4993
bowl	-13.4993
laught	-13.4994
kel	-13.4994
stool	-13.4994
mask	-13.4994
fork	-13.4994
pro	-13.4994
beside	-13.4995
railing	-13.4995
who	-13.4995
cake	-13.4995
far	-13.4996
fur	-13.4996
laus	-13.4997
bull	-13.4997
level	-13.4998
bow	-13.4998
face	-13.4999
▁happ	-13.4999
both	-13.4999
DS	-13.4999
cage	-13.5
drive	-13.5
▁explo	-13.5
corner	-13.5001
vat	-13.5001
child	-13.5002
dash	-13.5002
torch	-13.5003
medic	-13.5003
mart	-13.5004
Ga	-13.5004
cheek	-13.5004
zo	-13.5004
what	-13.5005
▁domin	-13.5006
money	-13.5006
AT	-13.5007
▁tran	-13.5007
helme	-13.5007
page	-13.5008
▁prep	-13.5009
▁Swimm	-13.5009
orange	-13.5009
kick	-13.501
full	-13.501
Man	-13.5011
river	-13.5012
▁Cycl	-13.5014
ext	-13.5016
iped	-13.5016
gate	-13.5016
▁festiv	-13.5017
▁Reg	-13.5017
trikes	-13.5018
decorate	-13.5018
▁consum	-13.5018
▁america	-13.5018
▁massag	-13.502
ready	-13.502
▁circl	-13.5021
▁smel	-13.5021
another	-13.5022
▁bubbl	-13.5022
▁mot	-13.5024
lamp	-13.5024
▁grav	-13.5025
ou	-13.5026
▁blindfold	-13.5026
▁saf	-13.5026
▁peopl	-13.5028
▁comfortabl	-13.5028
▁abandon	-13.5028
around	-13.5028
▁whistl	-13.5028
rban	-13.5029
▁spar	-13.503
flying	-13.503
oung	-13.503
bald	-13.503
▁hor	-13.5032
served	-13.5033
▁Prote	-13.5034
▁twent	-13.5036
para	-13.5037
▁jeweler	-13.5037
ashed	-13.5037
▁husk	-13.5038
Ball	-13.5038
atch	-13.5039
chef	-13.504
hard	-13.504
handi	-13.504
▁butterfl	-13.504
lake	-13.5041
eager	-13.5041
col	-13.5044
▁facilit	-13.5044
▁celebr	-13.5044
udge	-13.5044
dough	-13.5045
▁deco	-13.5045
fere	-13.5047
▁pedd	-13.5048
It	-13.5048
roke	-13.5048
ums	-13.5048
about	-13.5048
▁patien	-13.5049
aroo	-13.5049
lions	-13.5049
Bi	-13.505
ravel	-13.505
▁lou	-13.505
axi	-13.505
olf	-13.5051
Cent	-13.5051
▁mis	-13.5051
NE	-13.5052
▁adolescen	-13.5052
ournament	-13.5052
ickets	-13.5052
ggling	-13.5052
elevision	-13.5052
▁brigh	-13.5052
raffic	-13.5052
▁exten	-13.5052
rucks	-13.5052
attoo	-13.5052
▁Artis	-13.5053
▁propell	-13.5053
bu	-13.5053
▁coloni	-13.5053
▁shelv	-13.5053
achshund	-13.5053
▁custo	-13.5054
foli	-13.5054
ancing	-13.5054
owel	-13.5054
▁Chris	-13.5054
emonstrat	-13.5054
▁eyeglass	-13.5054
ifferent	-13.5055
oorway	-13.5055
▁africa	-13.5055
▁respect	-13.5055
▁differen	-13.5056
ountain	-13.5056
▁Fri	-13.5056
atigue	-13.5056
visib	-13.5056
oalie	-13.5057
raffiti	-13.5057
hysical	-13.5057
peakers	-13.5057
