<unk>	0
<s>	0
</s>	0
.	-2.84845
▁Un	-3.16482
▁un	-3.34268
'	-3.46983
▁de	-3.52236
▁une	-3.73688
▁	-3.83087
▁en	-3.87867
▁d	-4.02242
▁dans	-4.05932
e	-4.0641
▁sur	-4.09587
▁homme	-4.12109
▁et	-4.16522
▁avec	-4.19955
s	-4.23102
▁des	-4.44867
▁la	-4.48118
à	-4.49495
,	-4.60115
▁De	-4.60727
▁femme	-4.66347
un	-4.67486
▁l	-4.73008
ant	-4.81608
ux	-4.94736
-	-4.97692
▁le	-4.99332
▁est	-5.01518
une	-5.17006
is	-5.33198
▁se	-5.46586
▁debout	-5.48025
▁sont	-5.50777
▁personnes	-5.50803
▁jeune	-5.56151
▁au	-5.58094
▁devant	-5.58832
▁fille	-5.59183
▁assis	-5.63984
▁garçon	-5.64075
▁groupe	-5.64211
▁du	-5.6482
▁chien	-5.65881
▁hommes	-5.75019
▁son	-5.77527
▁rue	-5.78063
▁rouge	-5.78231
▁les	-5.8277
▁qu	-5.82875
▁noir	-5.83169
▁tand	-5.87366
shirt	-5.87691
▁blanc	-5.8813
portant	-5.88929
▁pour	-5.90455
▁T	-5.92823
nt	-5.94925
▁gens	-6.05192
▁train	-6.07469
▁bleu	-6.08501
eau	-6.11991
▁fait	-6.12085
▁par	-6.15434
▁petit	-6.15843
▁femmes	-6.19479
▁sa	-6.20132
▁enfant	-6.20778
▁qui	-6.22424
▁côté	-6.2535
▁a	-6.26169
▁tient	-6.27195
▁regarde	-6.30184
▁Tro	-6.30981
▁que	-6.34387
▁enfants	-6.36101
▁joue	-6.37295
▁s	-6.39537
▁près	-6.39657
▁deux	-6.39897
▁personne	-6.42202
▁vêtu	-6.43709
▁jouant	-6.47192
▁ten	-6.50624
▁photo	-6.53972
▁Le	-6.56548
▁jaune	-6.56648
▁chemise	-6.56955
▁vélo	-6.58938
▁jeunes	-6.63039
r	-6.63331
▁t	-6.63981
▁jouent	-6.65407
▁petite	-6.66297
▁regardant	-6.6721
▁porte	-6.67388
▁lors	-6.67536
▁marche	-6.68068
▁bâtiment	-6.68476
▁dehors	-6.68514
▁tout	-6.68701
▁blanche	-6.70529
▁lunettes	-6.71748
▁veste	-6.7317
air	-6.76554
▁trottoir	-6.76701
▁saute	-6.78404
▁fais	-6.78729
▁regardent	-6.79344
▁autre	-6.79711
▁cheveux	-6.79844
▁assise	-6.80369
▁foule	-6.8078
▁arrière	-6.80937
▁ses	-6.81871
▁vert	-6.82244
▁marchant	-6.84049
▁derrière	-6.84441
▁plage	-6.85031
▁court	-6.87714
▁bleue	-6.88565
▁table	-6.8906
▁ballon	-6.94039
▁neige	-6.94097
▁main	-6.9429
andis	-6.96235
plan	-6.96315
▁quelque	-6.96385
▁rose	-6.96934
sieurs	-6.97417
▁grand	-6.97943
▁chose	-6.98534
▁brun	-6.99037
▁tenue	-7.03035
▁vers	-7.03301
herbe	-7.03594
▁leur	-7.04451
dessus	-7.0478
▁orange	-7.0569
▁marchent	-7.06192
▁filles	-7.0764
▁chapeau	-7.07997
re	-7.08725
▁football	-7.09005
▁sous	-7.09273
il	-7.09671
▁mur	-7.11448
▁ville	-7.12663
▁chiens	-7.12826
u	-7.12919
▁autour	-7.1443
▁robe	-7.15452
▁soleil	-7.1657
▁balle	-7.16768
▁guitare	-7.17384
▁noire	-7.17537
▁font	-7.17934
ent	-7.18897
▁parc	-7.19045
autre	-7.21419
▁sac	-7.21914
▁course	-7.22526
▁bois	-7.23817
▁assises	-7.25907
▁marron	-7.26222
▁ensemble	-7.27421
▁garçons	-7.27512
▁scène	-7.2803
▁long	-7.288
▁terre	-7.29261
▁joueur	-7.31656
▁Quat	-7.31765
▁banc	-7.32575
▁haut	-7.32675
▁maillot	-7.32897
▁gars	-7.33327
▁terrain	-7.33334
▁asiatique	-7.36181
▁Pl	-7.36656
▁lui	-7.37572
▁vêtue	-7.38172
▁jean	-7.39228
▁pantalon	-7.39575
▁gris	-7.40196
▁voiture	-7.4027
▁tête	-7.40664
▁costume	-7.43092
▁bord	-7.43356
▁casque	-7.44176
▁très	-7.44843
▁y	-7.45342
▁casquette	-7.45996
▁short	-7.4603
▁La	-7.46182
▁dos	-7.46378
▁couple	-7.47105
▁route	-7.48882
▁verte	-7.48913
t	-7.4895
▁bébé	-7.49765
▁L	-7.5014
▁cheval	-7.50379
elle	-7.50575
▁grande	-7.51713
▁C	-7.52166
▁match	-7.52294
autres	-7.5311
▁vêtements	-7.53661
▁gros	-7.53821
▁trois	-7.54252
▁téléphone	-7.54643
▁bateau	-7.55035
aux	-7.55251
▁magasin	-7.56869
▁sautant	-7.57407
▁pendant	-7.5788
▁piscine	-7.58272
▁champ	-7.58967
▁sable	-7.5953
▁sol	-7.59849
▁nourriture	-7.59929
▁prend	-7.61533
eux	-7.61761
▁milieu	-7.62466
▁courant	-7.6322
▁Il	-7.6463
nent	-7.65665
▁rouges	-7.66485
homme	-7.68266
▁faire	-7.68649
▁sweat	-7.69105
▁parle	-7.69214
▁manteau	-7.69552
▁skateboard	-7.71421
▁bras	-7.71446
▁contre	-7.72245
▁gilet	-7.72361
▁passe	-7.72933
▁blonde	-7.73339
▁journée	-7.74271
"	-7.74478
▁visage	-7.75313
▁âgé	-7.75481
▁tente	-7.76586
▁vieil	-7.76927
▁souriant	-7.77307
es	-7.77522
▁courent	-7.78269
▁"	-7.80008
▁face	-7.80767
▁tennis	-7.8126
▁restaurant	-7.81262
▁micro	-7.8141
▁lit	-7.81939
▁noirs	-7.82409
▁travers	-7.83021
▁salle	-7.83351
▁sourit	-7.83874
▁blancs	-7.84028
▁portable	-7.84072
ment	-7.84389
▁pren	-7.84552
océan	-7.85478
▁arbre	-7.8563
▁montagne	-7.86728
▁moto	-7.87361
▁pose	-7.87469
ont	-7.87567
▁chemin	-7.8764
▁o	-7.88487
▁piste	-7.89558
▁D	-7.90098
▁attend	-7.91545
▁mains	-7.91804
▁fleurs	-7.92919
▁jeu	-7.93882
▁travaille	-7.94095
▁plein	-7.94346
▁cuisine	-7.94668
▁âgée	-7.95771
▁bain	-7.96681
▁plu	-7.96723
▁marché	-7.96887
leurs	-7.97485
▁baseball	-7.97506
▁après	-7.98146
▁autres	-7.99416
ù	-7.99954
▁parlant	-8.0122
extérieur	-8.02176
▁nu	-8.02428
é	-8.03672
▁utilise	-8.03741
être	-8.03764
▁plan	-8.04184
▁torse	-8.05067
▁semble	-8.05782
▁rayé	-8.0581
▁habillé	-8.05965
▁tenues	-8.06297
▁jouer	-8.06425
▁bas	-8.06599
▁camion	-8.06983
▁nuit	-8.07062
▁jouet	-8.07313
▁travaillant	-8.07729
hommes	-8.0816
▁livre	-8.08168
▁planche	-8.08915
▁rampe	-8.09676
▁débardeur	-8.09708
▁joueurs	-8.10061
▁prépare	-8.1066
▁vêtus	-8.10823
▁tien	-8.10848
▁air	-8.11109
▁figure	-8.11162
▁ou	-8.11401
▁gueule	-8.12465
▁pièce	-8.12548
▁bus	-8.13722
▁travaillent	-8.14304
▁rivière	-8.14697
▁violet	-8.15443
▁rocher	-8.15497
▁américain	-8.15652
enfants	-8.15767
▁musique	-8.16886
▁ouvriers	-8.17192
▁fenêtre	-8.17701
▁cycliste	-8.1773
▁montre	-8.17821
▁maison	-8.19232
▁chaise	-8.20021
▁pierre	-8.20041
er	-8.20059
▁dessus	-8.20838
▁trouve	-8.20979
▁blanches	-8.21464
▁pont	-8.22204
▁spectateurs	-8.22262
▁point	-8.22915
inq	-8.2295
▁basket	-8.23102
▁lac	-8.23872
▁appareil	-8.24406
▁clôture	-8.24553
▁chante	-8.24941
▁entre	-8.25889
▁pelouse	-8.26159
▁plus	-8.26371
▁corde	-8.264
▁bleus	-8.26896
objectif	-8.26972
▁public	-8.27067
▁bonnet	-8.27202
▁équipe	-8.27692
▁fête	-8.27865
mi	-8.29372
▁combinaison	-8.30292
▁balançoire	-8.30292
▁coup	-8.30427
▁stand	-8.3049
▁vend	-8.30768
ils	-8.31086
▁glace	-8.31445
▁traverse	-8.31882
▁polo	-8.32257
▁objet	-8.32412
▁allongé	-8.33126
▁vague	-8.33204
▁manger	-8.33809
▁costumes	-8.34529
▁métro	-8.34603
▁zone	-8.34634
▁chariot	-8.34937
▁posent	-8.35035
▁adultes	-8.35202
▁saut	-8.36235
▁marches	-8.36614
▁couleur	-8.36794
▁bâton	-8.37705
▁famille	-8.38191
▁ce	-8.38196
▁regarder	-8.3832
▁forêt	-8.39108
▁machine	-8.39543
intérieur	-8.39637
▁parlent	-8.39652
▁pull	-8.40034
▁briques	-8.4025
▁elle	-8.4026
▁beige	-8.4045
▁sacs	-8.40819
▁quai	-8.40993
▁pieds	-8.41183
▁chaussures	-8.4124
▁colline	-8.41419
▁habillée	-8.41432
▁sorte	-8.42676
▁arbres	-8.42927
▁peint	-8.43298
▁verre	-8.43392
▁monte	-8.43731
▁passent	-8.44373
▁base	-8.44572
ball	-8.44608
▁fontaine	-8.45294
▁canapé	-8.45778
▁carreaux	-8.45778
▁prendre	-8.46011
▁oranges	-8.46464
▁jupe	-8.46802
▁tire	-8.47021
▁vieux	-8.47073
▁utilis	-8.47666
▁enneigée	-8.47824
▁eux	-8.4983
▁pente	-8.49926
▁extérieur	-8.50235
▁longs	-8.50346
▁blond	-8.50406
▁parapluie	-8.50462
▁S	-8.50599
▁casques	-8.50701
lors	-8.51806
▁hockey	-8.51853
▁cour	-8.5197
▁pousse	-8.52235
▁tous	-8.52279
▁graffitis	-8.53065
▁quelqu	-8.53261
▁vif	-8.53988
▁ensoleillée	-8.54053
▁papier	-8.54725
▁travail	-8.54985
▁essay	-8.55059
▁café	-8.55077
▁asiatiques	-8.55274
▁jaunes	-8.55322
▁sommet	-8.55684
▁bouche	-8.56092
▁donne	-8.56202
ucoup	-8.56213
▁quatre	-8.56222
▁rempli	-8.56388
▁bruns	-8.5733
▁noires	-8.57724
▁feu	-8.57795
▁pêche	-8.58067
▁barbe	-8.58335
▁grosse	-8.58456
▁fruits	-8.58462
▁attraper	-8.58799
▁photos	-8.58904
▁numéro	-8.59024
▁loin	-8.59483
▁frisbee	-8.59483
▁escalier	-8.59585
▁statue	-8.602
▁pied	-8.60374
▁adulte	-8.60388
▁béton	-8.60618
▁nombreuse	-8.60658
▁attendent	-8.60806
▁il	-8.61046
▁nombreux	-8.61144
▁ouvrier	-8.61633
en	-8.6165
▁panneau	-8.61751
âge	-8.61769
▁plastique	-8.61769
▁genoux	-8.61771
▁frapper	-8.61885
▁toit	-8.61891
▁beau	-8.626
▁ski	-8.62609
▁bureau	-8.62914
▁descend	-8.62978
▁clair	-8.63148
▁tas	-8.63163
▁pleine	-8.63275
▁bleues	-8.63889
▁passant	-8.63897
▁proximité	-8.64108
▁sans	-8.64207
▁lance	-8.64318
i	-8.64971
▁entouré	-8.65091
▁cyclistes	-8.65133
▁uniforme	-8.65184
arrière	-8.65492
▁nus	-8.65508
▁ligne	-8.66308
▁place	-8.66545
▁airs	-8.66635
shirts	-8.66712
▁dansent	-8.66894
▁pancarte	-8.67545
▁vêtues	-8.67552
▁structure	-8.67723
▁posant	-8.67758
apprête	-8.67848
▁lisant	-8.67898
est	-8.68123
▁vue	-8.6821
▁met	-8.68213
ier	-8.68886
▁spectacle	-8.68957
▁drapeau	-8.68958
▁foot	-8.68974
▁belle	-8.69028
▁feuilles	-8.69404
▁journal	-8.70203
te	-8.7054
▁ciel	-8.70707
▁métallique	-8.71336
▁rochers	-8.71351
▁mère	-8.71579
▁avant	-8.72344
▁sport	-8.72571
▁défilé	-8.72755
▁sécurité	-8.72755
▁dort	-8.72941
hiver	-8.72952
▁escalade	-8.73196
▁fréquentée	-8.73288
▁yeux	-8.73322
▁montagnes	-8.73446
▁sautent	-8.73466
▁promène	-8.73784
▁bar	-8.7382
ur	-8.73868
▁repas	-8.74037
▁lancer	-8.74203
▁mangeant	-8.74691
▁sauter	-8.75023
▁écrit	-8.75085
▁chaises	-8.75132
▁foncés	-8.75205
▁bière	-8.75236
▁classe	-8.75273
▁fauteuil	-8.75285
▁coin	-8.75362
▁barbu	-8.75371
▁sourient	-8.75372
▁tapis	-8.75436
▁événement	-8.75475
▁vendeur	-8.75517
▁pilote	-8.75601
équipe	-8.75619
▁nombre	-8.76048
▁ordinateur	-8.76219
▁moyen	-8.7665
▁rodéo	-8.76703
▁chapeaux	-8.76799
▁vieille	-8.76806
▁maillots	-8.77154
▁concert	-8.78056
▁sentier	-8.78056
▁instruments	-8.781
▁ét	-8.78154
puis	-8.78912
▁comme	-8.79154
▁panier	-8.79389
x	-8.80013
▁glisse	-8.80522
▁compétition	-8.80813
▁uniformes	-8.81245
▁tablier	-8.82179
▁Noël	-8.82222
▁toboggan	-8.82222
▁légumes	-8.82292
▁frappe	-8.82547
ne	-8.82833
▁prépar	-8.83127
▁gauche	-8.83493
▁paysage	-8.83677
coup	-8.83708
▁cigarette	-8.85067
▁cow	-8.85093
▁voitures	-8.85142
▁quelques	-8.8557
▁mett	-8.8601
▁surf	-8.86356
▁jardin	-8.86558
▁buvant	-8.86571
▁Quelqu	-8.86592
▁chantant	-8.86612
▁skateur	-8.86614
arbres	-8.86629
▁cours	-8.86778
▁pluie	-8.88074
▁blonds	-8.88593
▁morceau	-8.8956
▁Bea	-8.89562
▁côte	-8.89597
▁bien	-8.89629
▁rocheuse	-8.89631
▁bottes	-8.89675
▁artiste	-8.89677
▁véhicule	-8.89696
▁doigt	-8.89708
▁gants	-8.9002
▁brune	-8.90277
▁couleurs	-8.90434
▁falaise	-8.90785
ix	-8.90932
▁caméra	-8.91146
▁longue	-8.91147
▁drapeaux	-8.91159
▁vélos	-8.91187
▁roulant	-8.91237
▁battent	-8.91281
▁dame	-8.91386
▁P	-8.9191
▁colorés	-8.92177
▁forme	-8.92337
▁peinture	-8.92688
▁poteau	-8.92761
▁produits	-8.93448
▁foncé	-8.93801
boy	-8.93935
▁construction	-8.94266
▁snowboardeur	-8.943
▁bouteille	-8.94461
▁habillés	-8.94499
▁instrument	-8.94759
▁âgées	-8.95099
▁membre	-8.95879
▁but	-8.95943
▁rassemblent	-8.95945
▁surfeur	-8.9603
▁jeux	-8.96064
▁mange	-8.96295
a	-8.96454
▁même	-8.97008
▁grise	-8.97451
▁peu	-8.97512
▁centre	-8.97532
▁martiaux	-8.97534
▁essaie	-8.97589
art	-8.97775
▁policier	-8.97784
▁couvert	-8.98335
▁penche	-8.98368
attraper	-8.98639
▁bowling	-8.99185
▁lève	-8.99207
▁temps	-8.99374
▁vitrine	-8.99395
▁boule	-8.99438
▁masque	-8.99438
▁nage	-8.99447
▁parler	-8.9967
▁ballons	-8.99811
▁musiciens	-8.99863
▁participe	-8.99948
▁capuche	-9.0088
▁chevaux	-9.0088
▁certain	-9.0088
▁poussette	-9.00904
▁coupe	-9.01145
▁verts	-9.01159
▁couverture	-9.01167
▁fils	-9.01313
▁seau	-9.01336
▁chantier	-9.02605
▁lire	-9.02868
▁mangent	-9.0289
ayant	-9.03043
entre	-9.0353
▁pavée	-9.03556
▁lieu	-9.03703
▁afro	-9.04365
▁père	-9.04428
▁B	-9.04454
▁joueuse	-9.0454
▁étendue	-9.04624
▁collier	-9.04647
▁canne	-9.04681
▁filet	-9.04746
arts	-9.04748
▁ouverte	-9.04785
ette	-9.05969
▁longues	-9.05973
▁espace	-9.06167
▁balance	-9.06255
▁échelle	-9.06288
▁skieur	-9.06571
▁Ce	-9.06862
▁traversant	-9.07112
ée	-9.07564
▁courses	-9.07731
age	-9.07803
▁matériel	-9.07962
▁premier	-9.07962
▁motocross	-9.07964
▁robes	-9.08269
▁manches	-9.0834
▁bulles	-9.08341
▁photographe	-9.0835
▁bikini	-9.08351
▁poisson	-9.08403
▁laisse	-9.09422
▁Quelque	-9.09786
▁rivage	-9.09814
▁batterie	-9.09816
▁pas	-9.10065
▁grands	-9.10107
▁bâtiments	-9.10174
▁vertes	-9.10238
▁adolescent	-9.10312
▁sombre	-9.10374
▁droite	-9.10602
▁tour	-9.10629
▁descendant	-9.11095
▁jus	-9.11139
▁remplie	-9.11208
o	-9.11393
▁gâteau	-9.11683
▁brandi	-9.11732
▁différentes	-9.1174
▁discutent	-9.11775
▁taille	-9.12515
▁petites	-9.12516
▁pompiers	-9.12549
▁repose	-9.12781
▁rayée	-9.13259
▁âgés	-9.13319
▁recouverte	-9.13578
▁parking	-9.13656
▁mer	-9.13703
▁cascade	-9.14048
▁violette	-9.14183
▁vie	-9.14214
▁immeuble	-9.14279
▁vagues	-9.14795
▁peluche	-9.1558
▁foulard	-9.15585
▁conversation	-9.15585
▁station	-9.15756
▁allongée	-9.1607
▁équilibre	-9.16473
▁montr	-9.16661
▁tir	-9.16862
▁boissons	-9.16922
que	-9.16945
▁marcher	-9.17138
▁skate	-9.17414
oit	-9.1752
▁taureau	-9.17562
▁violon	-9.17579
▁terrasse	-9.17585
▁nettoie	-9.17585
▁cinq	-9.17625
▁coucher	-9.17634
▁comptoir	-9.17709
▁écharpe	-9.17746
▁roses	-9.17968
▁traverser	-9.18011
elles	-9.18066
on	-9.18314
▁amis	-9.18375
▁animée	-9.18454
▁elles	-9.18954
▁boue	-9.1915
▁chauve	-9.19626
▁pause	-9.19626
▁profite	-9.19641
▁hors	-9.19654
▁recouvert	-9.19674
▁tableau	-9.19685
▁clients	-9.19998
▁boisson	-9.20317
▁coloré	-9.20588
▁pelle	-9.20652
▁affiche	-9.20792
▁employé	-9.20935
▁attrape	-9.21068
▁roule	-9.21377
▁mariage	-9.21712
▁b	-9.21986
▁écran	-9.2268
▁sort	-9.22946
le	-9.23144
qu	-9.23334
▁policiers	-9.23494
▁snowboard	-9.23824
▁rousse	-9.23837
▁randonnée	-9.23837
▁ciment	-9.23846
▁jette	-9.23924
y	-9.24261
▁tasse	-9.24394
▁avoir	-9.2443
▁cravate	-9.24453
▁vole	-9.24638
▁conduit	-9.24929
▁mariée	-9.25038
▁voie	-9.252
▁va	-9.25467
escalade	-9.25846
▁kayak	-9.26004
▁promenant	-9.26038
▁rassemblées	-9.26216
▁cuir	-9.26443
▁électrique	-9.26743
▁roller	-9.2682
▁coureur	-9.26842
▁p	-9.26915
▁vive	-9.26954
ez	-9.27048
▁dents	-9.27428
▁cordes	-9.27591
▁effectue	-9.27767
▁équipes	-9.27771
▁surfe	-9.27871
▁fond	-9.28203
▁grimpe	-9.28227
▁barbecue	-9.28233
pom	-9.28252
▁couché	-9.28266
▁signe	-9.28351
▁rit	-9.28458
▁seul	-9.28761
▁miroir	-9.28831
▁jet	-9.28836
▁coureurs	-9.2967
▁métal	-9.3048
▁volley	-9.30556
▁trou	-9.3061
▁chemis	-9.3069
▁ch	-9.30764
▁paroi	-9.30958
▁effectu	-9.31014
▁clown	-9.31355
▁motard	-9.31411
▁suspendu	-9.31779
▁surplomb	-9.32413
▁profit	-9.32814
▁marathon	-9.32827
▁type	-9.32831
▁monsieur	-9.32831
▁protection	-9.32832
▁endormi	-9.32833
▁oiseau	-9.33057
▁transport	-9.33411
▁danseuse	-9.33489
▁avion	-9.33918
▁aide	-9.34561
▁passage	-9.35076
ère	-9.35128
▁golf	-9.35139
▁fume	-9.35145
▁pom	-9.35157
▁blouse	-9.35212
▁discutant	-9.35212
▁prairie	-9.35212
▁promenade	-9.35212
▁viande	-9.35212
▁stade	-9.35212
▁salon	-9.35215
▁écouteurs	-9.35268
▁examine	-9.35403
▁jouets	-9.35417
▁équipement	-9.35738
▁tourne	-9.36623
▁cou	-9.3678
▁chef	-9.36813
▁profonde	-9.36942
▁pouss	-9.37236
▁souriante	-9.37467
▁projet	-9.3756
▁manège	-9.37651
▁rangée	-9.37673
▁sandales	-9.37739
▁orchestre	-9.38357
▁désert	-9.38378
▁microscope	-9.38613
tirant	-9.38739
▁pierres	-9.39714
▁port	-9.40051
▁batte	-9.40152
▁ruelle	-9.40284
onnant	-9.40971
▁épaules	-9.41142
▁chat	-9.41152
arbre	-9.41711
n	-9.41928
▁plonge	-9.42389
ombre	-9.42521
▁kaki	-9.42715
▁quartier	-9.42715
▁tunnel	-9.42715
petit	-9.43123
▁entourée	-9.43173
▁A	-9.43277
▁plantes	-9.43333
▁peign	-9.43523
▁brosse	-9.43811
▁vide	-9.43876
▁mouvement	-9.43905
▁raquette	-9.43909
▁barrière	-9.43917
▁bea	-9.44309
çant	-9.44456
▁ne	-9.45267
▁laboratoire	-9.45347
▁tuyau	-9.45362
▁pays	-9.45376
▁représentant	-9.45422
éloigne	-9.4547
▁peut	-9.45474
▁tape	-9.45493
▁réunis	-9.45554
avant	-9.46041
▁dé	-9.46204
▁tronc	-9.46559
▁sculpture	-9.46573
▁Cet	-9.46624
▁multicolore	-9.4663
▁endroit	-9.46728
▁objets	-9.47405
▁toute	-9.47745
▁penché	-9.47953
▁accroupi	-9.48017
▁poubelle	-9.48049
▁sauvetage	-9.48049
▁télescope	-9.48049
▁virage	-9.4805
▁courir	-9.48062
▁assiette	-9.48084
▁énorme	-9.48236
▁animal	-9.4852
aide	-9.48569
▁bordée	-9.49259
▁scooter	-9.49336
▁dessin	-9.49415
▁caisse	-9.49434
▁boîte	-9.49444
arrête	-9.49453
enfant	-9.50064
▁karaté	-9.50827
▁ruban	-9.50827
▁trampoline	-9.50827
▁sieste	-9.50827
▁cadre	-9.50828
▁basketteur	-9.50838
▁fumant	-9.50841
▁cérémonie	-9.50855
▁batteur	-9.50857
▁ruisseau	-9.5099
▁vendre	-9.51114
▁park	-9.5124
▁agent	-9.5133
▁travailler	-9.51457
▁allée	-9.516
▁colorée	-9.51758
▁balustrade	-9.51776
cette	-9.52058
▁nageant	-9.52173
▁participant	-9.52229
▁produit	-9.52284
au	-9.52287
▁bâtons	-9.52342
▁escalad	-9.52389
▁jambe	-9.524
▁tables	-9.52765
▁seule	-9.53083
▁vestes	-9.53091
▁pique	-9.53278
ement	-9.53485
▁tissu	-9.53685
▁façon	-9.53685
▁police	-9.53685
▁nettoyant	-9.53697
▁volleyball	-9.53712
▁déplace	-9.53719
▁voir	-9.53751
▁remorque	-9.53763
▁touche	-9.53826
▁promènent	-9.54286
▁partage	-9.543
▁étudiants	-9.55149
▁bol	-9.55178
▁enneigé	-9.5612
ième	-9.56432
▁adolescents	-9.5651
▁gymnase	-9.56626
▁solitaire	-9.56626
▁campagne	-9.56626
▁roulettes	-9.56627
▁soirée	-9.56629
▁rient	-9.56636
▁paille	-9.56661
▁Voic	-9.56751
▁motifs	-9.56859
▁balaie	-9.56925
▁cercle	-9.56933
▁girls	-9.56946
américain	-9.57013
▁vin	-9.57089
▁escaliers	-9.57339
forme	-9.57378
▁chinois	-9.5758
▁just	-9.5767
▁gardien	-9.5775
▁piétons	-9.578
▁gliss	-9.58116
▁roue	-9.58168
▁lumière	-9.58246
▁barre	-9.58359
▁courts	-9.58864
▁dirige	-9.59299
▁façade	-9.59656
▁gymnaste	-9.59656
▁riant	-9.59657
▁voit	-9.59658
▁fresque	-9.59658
▁moment	-9.59662
▁voile	-9.59696
▁nez	-9.5971
▁gare	-9.59732
▁roux	-9.59743
l	-9.59744
appuie	-9.5988
▁En	-9.5988
▁descendent	-9.59888
▁vol	-9.59944
▁couper	-9.60011
▁sale	-9.60206
▁partie	-9.60282
▁obstacle	-9.60326
▁part	-9.60368
accordéon	-9.60393
▁marié	-9.61082
▁lumières	-9.61086
▁plat	-9.61169
▁gonflable	-9.61289
▁colorées	-9.61327
▁bondée	-9.61328
▁militaire	-9.61367
▁chevauche	-9.61971
ordinateur	-9.62187
ssant	-9.62414
▁doigts	-9.6251
d	-9.62728
▁combat	-9.62775
▁nouveau	-9.62781
ork	-9.62782
▁cowboy	-9.62834
▁queue	-9.62953
▁cherche	-9.62974
▁répare	-9.63049
▁roulent	-9.63209
ept	-9.63233
▁souffle	-9.6378
▁soldats	-9.63938
▁urbain	-9.64237
▁bondé	-9.64256
▁patin	-9.64311
▁balcon	-9.6442
▁guitariste	-9.64466
▁canoë	-9.64515
▁adverse	-9.64548
▁randonneur	-9.64596
▁pompier	-9.64605
▁boi	-9.64608
▁intérieur	-9.65497
▁gril	-9.65558
▁grille	-9.65636
nique	-9.65658
▁écoute	-9.6568
▁bout	-9.65963
▁marteau	-9.6599
▁achète	-9.66007
▁ressemble	-9.66011
▁lanceur	-9.66054
▁manteaux	-9.66134
▁jetée	-9.66286
▁église	-9.66646
▁tend	-9.66652
M	-9.66793
▁montent	-9.66932
lanç	-9.66965
▁sourire	-9.67433
▁randonneurs	-9.67438
▁pavé	-9.6751
▁jambes	-9.67676
▁vache	-9.67834
▁prêt	-9.6815
▁hautes	-9.68204
eaux	-9.68528
▁divers	-9.69243
▁monticule	-9.6934
▁supermarché	-9.6934
▁tabouret	-9.6934
▁festival	-9.6934
▁poutre	-9.6934
▁travaux	-9.6934
▁monde	-9.69341
▁On	-9.69343
▁produis	-9.69352
▁indienne	-9.69354
▁langue	-9.69357
▁bagages	-9.69367
▁écoutant	-9.69383
▁montant	-9.69395
▁parcours	-9.69403
▁têtes	-9.69406
▁quad	-9.69407
▁rassemblés	-9.69417
▁plateau	-9.69428
▁surface	-9.69434
▁chanteur	-9.69561
▁traditionnels	-9.70091
▁hauts	-9.70517
▁saxophone	-9.70884
▁couverte	-9.71188
▁tatouage	-9.7136
▁musicien	-9.71387
▁frapp	-9.71431
▁pot	-9.71463
▁Dan	-9.71661
▁peau	-9.71675
▁ami	-9.71821
▁appuyé	-9.72662
▁circulation	-9.72788
▁couloir	-9.72788
▁salto	-9.72788
▁publique	-9.72788
▁New	-9.72789
▁conduis	-9.72811
eur	-9.72862
▁heureux	-9.72867
▁arrêt	-9.7292
it	-9.73679
▁chantent	-9.73995
▁couvre	-9.74272
▁balai	-9.74501
▁plate	-9.7461
▁direction	-9.74908
▁cavalier	-9.7491
▁parasol	-9.74917
▁piéton	-9.74919
▁ma	-9.75286
▁épaule	-9.7549
▁bon	-9.75728
▁appréci	-9.75789
▁tombe	-9.75945
▁tena	-9.76086
▁jogging	-9.7636
▁salopette	-9.7636
▁luge	-9.7636
▁vidéo	-9.7636
▁coté	-9.76361
▁gamin	-9.76362
▁passerelle	-9.76405
▁professionnelle	-9.76432
affrontent	-9.7644
▁câlin	-9.76487
▁étang	-9.76489
▁pantalons	-9.76583
▁livres	-9.76593
▁jour	-9.76849
réparer	-9.76988
▁comment	-9.77092
▁observe	-9.77469
enant	-9.77827
appareil	-9.77856
▁m	-9.77884
▁foncée	-9.77887
▁militaires	-9.78004
▁ouvre	-9.78033
▁rugby	-9.78075
▁fer	-9.78151
▁mouillé	-9.78199
▁accroché	-9.78366
ation	-9.78434
▁carton	-9.78638
▁athlète	-9.7876
▁shorts	-9.79358
▁volant	-9.79406
apprêt	-9.79681
▁cadeau	-9.80046
▁VTT	-9.80063
▁camouflage	-9.80063
▁chaussette	-9.80063
▁cuisinier	-9.80063
▁imposant	-9.80063
▁pyjama	-9.80063
▁humide	-9.80063
▁pratique	-9.80063
▁flaque	-9.80064
▁bandana	-9.80064
▁pile	-9.80082
▁éclaboussures	-9.80142
▁tenir	-9.80221
▁pois	-9.80226
amusent	-9.80233
▁pattes	-9.8036
▁touristes	-9.80468
▁jolie	-9.8129
▁parapluies	-9.81413
▁serre	-9.81655
de	-9.8179
▁argent	-9.81823
ter	-9.81965
▁rame	-9.81967
▁été	-9.82182
▁chambre	-9.82237
▁rambarde	-9.82323
▁serviette	-9.82398
▁alimentaire	-9.82417
▁rollers	-9.82483
▁siège	-9.825
▁soldat	-9.82503
▁dit	-9.82631
▁feuille	-9.8285
ve	-9.83458
▁arbitre	-9.83711
▁posé	-9.83858
▁attaché	-9.83886
▁haute	-9.83901
▁piano	-9.8391
▁softball	-9.8391
▁soulève	-9.8391
▁balade	-9.8391
▁attentivement	-9.8391
atteindre	-9.83911
▁rayures	-9.83941
▁chaîne	-9.83959
▁dîner	-9.83971
▁Si	-9.84064
▁différents	-9.84113
amusant	-9.84172
▁commercial	-9.84463
▁c	-9.84697
▁chevauch	-9.84919
▁agenouillé	-9.85613
▁plaque	-9.8601
▁décor	-9.86047
▁parachute	-9.86323
sert	-9.86821
▁f	-9.86893
ure	-9.86945
▁éclairée	-9.87724
▁dorm	-9.87815
▁indien	-9.87893
▁radeau	-9.87896
▁podium	-9.8791
▁frisé	-9.8791
▁rock	-9.8791
▁clavier	-9.8791
▁joyeusement	-9.87918
▁boivent	-9.87922
▁rassemblement	-9.87932
▁berger	-9.87945
▁nouvelle	-9.87955
▁tracteur	-9.87963
▁conférence	-9.88034
▁boire	-9.8808
▁mélange	-9.88173
▁descendre	-9.88212
▁linge	-9.88343
▁articles	-9.88422
▁nageur	-9.88433
▁regard	-9.89097
▁outils	-9.89124
▁cha	-9.89158
▁footballeurs	-9.89386
talons	-9.89709
entrée	-9.89779
▁verres	-9.89786
▁caresse	-9.89899
▁motos	-9.9013
▁surfant	-9.90159
▁pointe	-9.90321
▁fréquenté	-9.90341
▁pain	-9.90476
▁trottinette	-9.9049
▁prise	-9.90548
▁publicité	-9.90574
▁footballeur	-9.90767
▁déserte	-9.90815
été	-9.91073
▁bande	-9.91224
▁acoustique	-9.92076
▁allemand	-9.92076
▁ambulant	-9.92076
▁blouson	-9.92076
▁chaussée	-9.92076
▁sapin	-9.92076
▁ceinture	-9.92076
▁natation	-9.92076
▁chacun	-9.92076
▁garage	-9.92077
▁camionnette	-9.92079
▁poussière	-9.92081
▁coudre	-9.92105
▁adversaire	-9.92225
▁fermés	-9.92295
né	-9.92315
▁alpiniste	-9.92423
▁mord	-9.92487
▁chemises	-9.92535
▁mais	-9.92607
▁pancartes	-9.92696
▁perche	-9.92785
▁skis	-9.92946
▁inspecte	-9.9354
▁file	-9.94215
▁ajuste	-9.94453
▁brillant	-9.94568
▁or	-9.94586
▁béret	-9.94753
▁M	-9.95151
▁danser	-9.95532
▁position	-9.96321
▁poil	-9.96422
▁Je	-9.96424
▁gradins	-9.96424
▁pagaie	-9.96424
▁pouce	-9.96424
▁corpulent	-9.96424
▁foin	-9.96424
▁club	-9.96424
▁rebord	-9.96425
▁bassin	-9.96427
▁battant	-9.96428
▁front	-9.96436
▁composé	-9.96463
▁discuter	-9.96509
▁arène	-9.96686
▁buissons	-9.96775
▁escalator	-9.96783
élèves	-9.96851
▁aid	-9.96922
▁tirer	-9.9708
▁blocs	-9.97161
▁passer	-9.9761
▁soude	-9.9771
▁cartes	-9.97736
▁repos	-9.98033
argent	-9.98189
▁savoure	-9.98353
embrassant	-9.98623
▁dur	-9.98691
O	-9.98747
volant	-9.98748
ir	-9.98911
▁pré	-9.99021
▁serr	-9.99076
▁vives	-9.99284
▁gobelet	-9.99516
▁échafaudage	-9.99569
▁répar	-9.99827
▁poissons	-9.99875
▁agit	-10.0034
és	-10.004
▁n	-10.0089
juste	-10.0093
▁rang	-10.0093
▁kiosque	-10.0097
▁manifestation	-10.0097
▁plafond	-10.0097
▁téléphonique	-10.0097
▁wagon	-10.0097
▁adossé	-10.0097
▁jockey	-10.0097
▁fluo	-10.0097
▁large	-10.0097
▁nettoyer	-10.0097
▁rire	-10.0097
ie	-10.0098
▁cabine	-10.0103
▁bateaux	-10.0118
▁identiques	-10.012
▁ramasse	-10.0122
▁graviss	-10.0133
▁pêcheur	-10.0142
▁marchandises	-10.0154
▁herbes	-10.0158
▁ordures	-10.0167
vent	-10.0178
urs	-10.0183
▁éclairé	-10.0202
attractions	-10.0211
▁ouvert	-10.0237
▁pris	-10.0272
▁multicolores	-10.0343
▁tiré	-10.0346
▁danseurs	-10.0346
adultes	-10.0354
origine	-10.0382
▁circuit	-10.0385
▁droit	-10.039
▁glaces	-10.04
▁publicitaire	-10.0406
▁étranger	-10.0418
▁magnifique	-10.0424
▁carte	-10.0432
▁fleur	-10.0433
▁chaussure	-10.0434
▁flottant	-10.0445
▁bordé	-10.0472
ait	-10.0475
▁co	-10.0477
▁gant	-10.0505
▁bouteilles	-10.0514
▁pleure	-10.0566
▁commence	-10.057
▁gazon	-10.0571
▁construis	-10.0573
▁cuisinant	-10.0573
▁récipient	-10.0573
▁discours	-10.0573
▁ressemblant	-10.0573
▁vitesse	-10.0573
▁dormir	-10.0574
▁déjeuner	-10.0574
▁dreadlocks	-10.0579
▁toucher	-10.0597
▁tomber	-10.0597
▁passagers	-10.0626
▁ordinateurs	-10.0638
▁oiseaux	-10.0673
▁tent	-10.0683
▁cônes	-10.0696
▁jongle	-10.0723
▁frais	-10.0728
▁sièges	-10.0753
▁fl	-10.0783
▁attrap	-10.0791
école	-10.084
▁motards	-10.0874
▁allongés	-10.0879
▁suit	-10.0897
▁chaude	-10.0898
▁magazine	-10.0929
▁visages	-10.1002
▁reste	-10.1045
▁ramass	-10.1046
tte	-10.1048
▁faible	-10.1073
▁contrôle	-10.1073
▁harnais	-10.1073
▁lévrier	-10.1073
▁sandwich	-10.1073
▁silhouette	-10.1073
▁village	-10.1073
▁vététiste	-10.1073
▁trompette	-10.1073
▁circule	-10.1073
▁télévision	-10.1073
▁patinoire	-10.1073
▁récupérer	-10.1074
▁légèrement	-10.1074
▁grimpant	-10.1076
▁tatoué	-10.1077
▁pâte	-10.1079
▁réfléchissant	-10.1079
▁ca	-10.1085
embrassent	-10.1087
▁taxi	-10.1091
▁basse	-10.1092
▁fauteuils	-10.1106
▁aliments	-10.111
▁charge	-10.1132
▁partielle	-10.1138
▁chanter	-10.1159
▁travailleurs	-10.1169
américaine	-10.1181
▁africains	-10.1182
▁préparer	-10.1184
▁animaux	-10.1186
▁oreilles	-10.1219
voie	-10.123
occupe	-10.1232
▁murs	-10.1252
▁doré	-10.1254
▁sortant	-10.1271
h	-10.1275
▁prêts	-10.1294
tant	-10.1296
▁tombé	-10.1344
▁urbaine	-10.1356
▁agenouillée	-10.1369
▁pourchass	-10.1371
équilibre	-10.138
▁vu	-10.1409
▁gravier	-10.1413
▁étrange	-10.1419
▁froid	-10.1421
▁rues	-10.1424
▁tambour	-10.1426
▁arc	-10.1432
▁automatique	-10.1441
or	-10.1448
oir	-10.1449
▁pneu	-10.1455
eurs	-10.1464
▁branche	-10.1465
▁tube	-10.1476
▁boisé	-10.1482
▁filme	-10.1532
▁achet	-10.1541
▁véhicules	-10.1558
ing	-10.1563
▁détend	-10.1574
▁palet	-10.1591
▁voyage	-10.1597
▁écriv	-10.1599
▁bibliothèque	-10.1599
▁chanson	-10.1599
▁alignés	-10.1599
▁hula	-10.1599
▁peindre	-10.1599
▁crête	-10.1599
▁ballerine	-10.1599
▁lasso	-10.16
▁musée	-10.16
▁microphone	-10.16
▁camping	-10.16
▁paix	-10.16
▁maman	-10.16
▁aérienne	-10.16
▁rapidement	-10.1601
▁boueuse	-10.1601
▁chanteuse	-10.1603
▁dessine	-10.1606
▁moteur	-10.1607
▁basketball	-10.1615
▁incendie	-10.1619
▁planches	-10.163
▁métalliques	-10.1658
▁nagent	-10.1688
▁garde	-10.1708
▁go	-10.1741
▁examin	-10.1772
▁géant	-10.1805
▁cartons	-10.1807
quel	-10.1867
▁camp	-10.1903
amis	-10.1907
ciel	-10.1931
▁saisi	-10.1957
▁poitrine	-10.1968
▁lampe	-10.1968
▁vitre	-10.2007
▁accroupie	-10.2008
▁grimace	-10.201
▁vêtement	-10.2016
▁cône	-10.202
▁filets	-10.2039
▁étal	-10.2046
accroche	-10.2049
▁enseigne	-10.205
▁casquettes	-10.2052
▁moustache	-10.2052
A	-10.206
che	-10.2067
semblent	-10.2091
ting	-10.2095
▁lave	-10.2108
▁image	-10.2126
▁africaine	-10.2153
▁atelier	-10.2155
▁bijoux	-10.2155
▁billard	-10.2155
▁cabane	-10.2155
▁cricket	-10.2155
▁journaux	-10.2155
▁nautique	-10.2155
▁tramway	-10.2155
▁carnaval	-10.2155
▁coiffure	-10.2155
▁brouette	-10.2155
▁maquillage	-10.2155
▁Moyen	-10.2155
▁flanc	-10.2155
▁battre	-10.2155
▁support	-10.2155
▁foire	-10.2156
▁sportif	-10.2156
▁panneaux	-10.2164
▁décontractée	-10.2176
▁penchée	-10.2186
▁entraîneur	-10.2189
▁plongeur	-10.2193
▁action	-10.2205
▁balles	-10.2208
▁couche	-10.2219
▁levant	-10.2233
▁plancher	-10.2267
al	-10.227
▁bat	-10.2278
▁marine	-10.2282
▁creuse	-10.2302
▁re	-10.2321
▁dessous	-10.2349
▁bancs	-10.2355
▁étudiant	-10.2404
▁baril	-10.241
C	-10.2437
▁g	-10.2449
in	-10.2465
corps	-10.2512
ance	-10.2521
▁portables	-10.2521
▁argenté	-10.2529
▁heureuse	-10.2556
omme	-10.2573
▁âne	-10.2573
▁papillon	-10.2576
▁fusil	-10.2589
▁ombrelle	-10.2589
▁cerf	-10.2592
▁cœur	-10.2593
▁professionnel	-10.2597
▁chiot	-10.2599
▁V	-10.2603
▁arme	-10.2613
▁brique	-10.2634
amuse	-10.2702
embras	-10.2736
▁conducteur	-10.2743
▁disput	-10.2743
▁gymnastique	-10.2743
▁montgolfière	-10.2743
▁nacelle	-10.2743
▁patauge	-10.2743
▁château	-10.2743
▁victoire	-10.2743
▁prob	-10.2743
▁papa	-10.2743
▁dedans	-10.2743
▁tongs	-10.2744
envers	-10.2745
▁partout	-10.2745
▁paire	-10.2746
ablement	-10.2747
▁style	-10.275
▁ventre	-10.2751
▁fumée	-10.2763
▁sortie	-10.2766
▁rocheux	-10.2768
▁faux	-10.2777
▁fil	-10.2788
▁jeans	-10.2794
▁palmiers	-10.2809
▁observent	-10.281
▁américains	-10.2817
▁crie	-10.2824
▁agite	-10.2845
▁scie	-10.2846
▁Asiatiques	-10.2857
ons	-10.2859
▁vente	-10.2869
▁plante	-10.2895
▁rase	-10.2915
▁arrive	-10.2926
▁attachés	-10.2967
▁boisée	-10.2972
▁féminin	-10.2978
abri	-10.2994
▁tatouages	-10.2995
▁découpe	-10.3006
▁barres	-10.3031
▁roues	-10.3031
ire	-10.305
▁caisses	-10.3058
aire	-10.312
use	-10.3134
arbitre	-10.3141
▁crâne	-10.3202
▁cage	-10.3204
▁hoop	-10.3204
utiliser	-10.321
▁artistique	-10.3214
▁banderole	-10.3214
▁canard	-10.3221
▁individu	-10.3225
▁toge	-10.3225
▁traditionnel	-10.3226
▁coll	-10.3273
▁maisons	-10.328
▁br	-10.3281
▁écossaise	-10.33
ées	-10.3326
▁flotte	-10.3352
▁lutte	-10.3357
▁traîneau	-10.3366
honneur	-10.3368
▁caoutchouc	-10.3368
▁circulant	-10.3368
▁cornemuse	-10.3368
▁crépuscule	-10.3368
▁fanfare	-10.3368
▁liquide	-10.3368
▁moderne	-10.3368
▁monocycle	-10.3368
▁baignoire	-10.3368
▁foraine	-10.3368
▁caddie	-10.3368
▁crème	-10.3368
▁patio	-10.3368
▁métier	-10.3368
▁beach	-10.3369
▁nourrisson	-10.3369
▁turban	-10.3369
▁receveur	-10.3369
▁benne	-10.3369
▁laverie	-10.3369
▁bouée	-10.3369
▁marbre	-10.337
▁propos	-10.3371
éloignant	-10.3372
▁parquet	-10.3373
▁fin	-10.3374
▁craie	-10.3375
▁poteaux	-10.3377
ans	-10.338
▁paniers	-10.3385
▁choses	-10.3385
▁retourne	-10.339
▁intersection	-10.3391
▁sèche	-10.3395
▁vaisselle	-10.3406
▁cape	-10.3407
▁ancien	-10.3419
▁écoutent	-10.3423
▁bougies	-10.3438
▁pigeons	-10.3438
▁char	-10.3443
arrivée	-10.3445
▁clôturée	-10.3456
▁déguisés	-10.3459
▁moi	-10.3459
semblant	-10.351
▁toges	-10.3514
▁bandeau	-10.3517
▁crée	-10.3518
▁h	-10.3546
▁vo	-10.3568
entraînant	-10.3582
▁décoré	-10.3583
▁individus	-10.3598
▁tenu	-10.3668
dog	-10.3681
▁Su	-10.3691
▁africain	-10.3704
▁local	-10.3723
▁no	-10.3724
S	-10.3736
▁creus	-10.3761
▁voies	-10.3801
dessous	-10.3806
escalier	-10.3811
▁chefs	-10.382
▁lampadaire	-10.3848
▁animé	-10.3852
▁scolaire	-10.3857
▁médecin	-10.3884
▁poupée	-10.3884
▁valise	-10.3884
▁portrait	-10.3884
▁geste	-10.3891
▁skieurs	-10.3892
▁manche	-10.3902
▁bulle	-10.3913
able	-10.3915
▁allongées	-10.3918
▁dames	-10.3976
▁protége	-10.3982
▁discute	-10.3995
▁cerceau	-10.4033
▁toile	-10.4034
▁badauds	-10.4035
▁fraîche	-10.4035
▁mannequin	-10.4035
▁pistolet	-10.4035
▁professeur	-10.4035
horizon	-10.4035
▁applaudissent	-10.4035
▁celui	-10.4035
▁kitesurf	-10.4035
▁voilier	-10.4035
▁poignée	-10.4035
▁hall	-10.4035
▁rayon	-10.4035
▁région	-10.4035
▁écartés	-10.4035
▁réunissent	-10.4035
escrime	-10.4035
œil	-10.4036
▁tombant	-10.4036
▁enveloppé	-10.4039
▁tourné	-10.4039
égale	-10.404
▁imperméable	-10.4044
▁électronique	-10.4044
▁huit	-10.4044
▁marquer	-10.4045
▁détendent	-10.4046
▁derby	-10.4047
▁bonbons	-10.405
▁lèvres	-10.405
▁bordure	-10.4053
▁immense	-10.4059
▁étoffe	-10.4059
▁hot	-10.4061
▁coiffe	-10.4065
▁laver	-10.4073
▁présente	-10.4074
▁parents	-10.408
▁levés	-10.4091
▁fans	-10.4091
iste	-10.4102
▁acheter	-10.4112
▁embrasse	-10.4121
embrasser	-10.4167
▁conten	-10.4188
▁exposition	-10.4189
▁cache	-10.4192
les	-10.4204
▁balay	-10.4211
▁reçoi	-10.4217
▁branches	-10.4221
ion	-10.4237
▁poste	-10.4239
P	-10.4261
▁froide	-10.4267
▁chaud	-10.4276
▁ferme	-10.4278
▁orientale	-10.428
mment	-10.4282
▁seaux	-10.4292
▁athlètes	-10.4344
▁pench	-10.4365
▁tirée	-10.4412
▁garé	-10.4416
entraîne	-10.4443
approche	-10.4473
entraînement	-10.4508
côté	-10.4526
▁micros	-10.4531
▁bonnets	-10.4548
▁cherch	-10.4567
▁tricycle	-10.4583
▁scientifique	-10.4591
▁boutique	-10.4593
▁coéquipier	-10.46
▁ferrée	-10.4603
▁bac	-10.461
▁claire	-10.4616
▁outil	-10.4634
ière	-10.4667
▁navigue	-10.467
▁tu	-10.4683
▁rempliss	-10.4703
▁E	-10.4707
▁tond	-10.4732
▁couteau	-10.4747
▁bouquet	-10.4748
aspirateur	-10.4749
▁badge	-10.4749
▁chorale	-10.4749
▁cuisinière	-10.4749
▁dégarni	-10.4749
▁forestier	-10.4749
▁première	-10.4749
▁prochain	-10.4749
▁protège	-10.4749
▁répète	-10.4749
▁studio	-10.4749
▁étudie	-10.4749
▁charrette	-10.4749
▁servant	-10.4749
▁collection	-10.4749
▁reflet	-10.4749
▁retournant	-10.4749
▁présentation	-10.4749
▁grue	-10.4749
▁péri	-10.4749
▁drôle	-10.4749
▁frère	-10.475
attente	-10.475
▁poterie	-10.475
▁aussi	-10.4752
▁fonctionne	-10.4755
▁russes	-10.4755
▁pellette	-10.4756
▁théâtre	-10.4757
▁plongée	-10.4759
▁cible	-10.476
▁ring	-10.4761
▁bordeaux	-10.4765
▁on	-10.4771
p	-10.4774
▁veau	-10.4777
▁extérieure	-10.4785
▁non	-10.4787
▁nuageux	-10.479
▁voler	-10.4803
▁plumes	-10.4809
▁vous	-10.4811
entraînent	-10.4819
▁camions	-10.4828
▁câbles	-10.483
▁rapides	-10.483
D	-10.484
▁apprécie	-10.4876
▁volent	-10.4883
▁garés	-10.4898
▁passants	-10.4899
E	-10.4904
▁gestes	-10.4906
▁gratte	-10.4917
▁pneus	-10.495
▁amie	-10.4982
▁boueux	-10.4984
▁nature	-10.5005
▁corps	-10.5039
▁mari	-10.5053
man	-10.5061
▁tombée	-10.5111
▁admire	-10.5117
▁tr	-10.5145
▁machines	-10.5149
▁raquettes	-10.516
▁exécute	-10.5161
▁japonais	-10.5165
▁fini	-10.5182
▁client	-10.5185
▁ta	-10.521
▁attachée	-10.5237
arrosage	-10.5242
anniversaire	-10.5259
▁joli	-10.5263
automne	-10.5282
orchestre	-10.5293
ville	-10.5296
▁patient	-10.5322
▁cuillère	-10.5333
▁côtés	-10.534
▁grill	-10.5357
▁sauvage	-10.536
▁kilt	-10.536
▁cuire	-10.5363
▁acrobatie	-10.537
▁document	-10.5374
avoir	-10.5378
▁engin	-10.5393
▁pomme	-10.5403
▁hache	-10.5413
▁épée	-10.547
ème	-10.5517
▁abrupte	-10.5518
▁bannière	-10.5518
▁chèvre	-10.5518
▁croix	-10.5518
▁discussion	-10.5518
▁débris	-10.5518
▁espagnol	-10.5518
▁monument	-10.5518
▁mousse	-10.5518
▁officier	-10.5518
▁performance	-10.5518
▁pratiquant	-10.5518
▁pâle	-10.5518
▁Londres	-10.5518
▁paquet	-10.5518
▁caniche	-10.5518
▁perceuse	-10.5518
▁stylo	-10.5519
▁perron	-10.5519
▁série	-10.5519
▁tondeuse	-10.5519
▁réunion	-10.5519
olden	-10.5519
▁départ	-10.5519
▁menu	-10.5521
▁bretelles	-10.5525
▁morceaux	-10.5528
▁écolier	-10.5529
▁apprend	-10.5538
▁commencer	-10.5541
▁commande	-10.5541
▁pleurs	-10.5542
▁gravit	-10.5553
▁usine	-10.5566
▁bascule	-10.5569
▁garée	-10.5571
▁skie	-10.5572
▁rouler	-10.5574
▁hauteur	-10.5586
lip	-10.5588
▁termine	-10.5594
▁mal	-10.5602
▁rails	-10.5607
▁service	-10.5622
▁laine	-10.5626
▁manifestants	-10.563
▁film	-10.5652
▁moutons	-10.5653
▁ours	-10.5663
▁brillante	-10.5697
▁pêcher	-10.5704
▁chiots	-10.5712
▁aéroport	-10.5717
iers	-10.573
▁quitte	-10.5738
▁magazines	-10.5748
▁documents	-10.577
▁tee	-10.578
▁engagé	-10.5788
▁exposé	-10.5798
pousse	-10.5805
avion	-10.5835
▁parasols	-10.5843
▁rassemble	-10.5859
▁install	-10.5914
vêtements	-10.5918
gle	-10.5929
▁verse	-10.595
▁admir	-10.5959
issant	-10.596
▁mouvements	-10.5964
armée	-10.598
▁intérieure	-10.5997
et	-10.5998
▁jongl	-10.6029
▁je	-10.6055
▁oriental	-10.6064
▁vérifie	-10.607
poids	-10.6093
affaires	-10.6122
allée	-10.6126
étudiants	-10.6126
accroupi	-10.6127
ateur	-10.6127
▁pêch	-10.6156
▁smash	-10.6156
▁appareils	-10.6169
▁bloc	-10.6181
▁baskets	-10.6182
▁mouton	-10.6219
▁parti	-10.6221
▁tap	-10.6223
▁éléphant	-10.6231
▁tentes	-10.6235
entretien	-10.6259
▁fenêtres	-10.6266
▁œuvre	-10.6297
part	-10.6302
▁violets	-10.6315
▁four	-10.6327
▁surveille	-10.6346
▁contrebas	-10.6349
▁matelas	-10.6351
▁renifl	-10.6352
▁DJ	-10.6352
▁banjo	-10.6352
▁canot	-10.6352
▁galerie	-10.6352
▁médical	-10.6352
▁phase	-10.6352
▁poêle	-10.6352
▁société	-10.6352
▁turquoise	-10.6352
▁yoga	-10.6352
▁tronçonneuse	-10.6352
argile	-10.6352
▁porche	-10.6352
▁fourrure	-10.6352
▁mec	-10.6352
▁talent	-10.6352
▁poing	-10.6352
▁carrelage	-10.6352
▁thé	-10.6353
tié	-10.6353
▁Ju	-10.6353
▁plongeoir	-10.6353
▁encombré	-10.6354
▁parade	-10.6358
étreignent	-10.6358
▁con	-10.6359
▁croisés	-10.6359
▁bombe	-10.6361
▁baissée	-10.6364
▁hockeyeurs	-10.6364
▁bureaux	-10.6365
▁jumelles	-10.6371
▁dorment	-10.6371
▁essentielle	-10.6371
▁commun	-10.6371
▁lettres	-10.6371
▁arche	-10.638
▁habit	-10.6383
▁bouclés	-10.6384
▁artistes	-10.6387
▁glacée	-10.6392
an	-10.6393
▁baguettes	-10.6396
▁Au	-10.6397
▁herbeux	-10.6403
▁bor	-10.6412
▁tournoi	-10.6417
nce	-10.6417
zer	-10.6418
▁nager	-10.6421
▁intégrale	-10.6432
▁sculpte	-10.6437
resque	-10.6439
▁glisser	-10.6445
▁olympiques	-10.6448
▁aller	-10.645
▁flân	-10.6455
▁nuages	-10.6461
▁crosse	-10.6467
▁étroite	-10.6471
▁patineurs	-10.6475
▁chasse	-10.6479
and	-10.6496
▁essaye	-10.6498
▁pommes	-10.6512
▁dorée	-10.6512
▁garées	-10.6521
aille	-10.6529
▁col	-10.6552
▁attache	-10.6556
▁poche	-10.6585
▁verdoyante	-10.6624
▁vent	-10.6637
▁vas	-10.6677
▁marque	-10.6712
▁manipule	-10.6712
▁école	-10.676
▁peints	-10.6779
▁sales	-10.6794
▁ouvr	-10.6795
▁entrée	-10.686
▁couvr	-10.687
ci	-10.6872
oreille	-10.6877
▁pro	-10.688
chef	-10.6882
▁lancé	-10.6883
cour	-10.6897
▁gr	-10.6898
écume	-10.6902
ient	-10.6931
▁v	-10.6937
awa	-10.6944
ns	-10.6973
▁moin	-10.6995
vant	-10.6997
Orient	-10.7023
aéroport	-10.7029
▁sombres	-10.7039
▁délabré	-10.7043
U	-10.7048
▁blessé	-10.7052
▁écossais	-10.7075
▁bizarre	-10.7076
▁cré	-10.7093
▁traditionnelle	-10.7104
▁couvertures	-10.7106
▁haie	-10.7107
▁cor	-10.7109
▁crayon	-10.7111
▁calme	-10.7113
▁enthousiaste	-10.7115
▁boules	-10.712
▁pliante	-10.7138
▁ré	-10.714
▁étoile	-10.7151
▁unique	-10.7229
▁bla	-10.7237
▁secou	-10.7242
▁all	-10.7245
▁ronde	-10.725
▁accident	-10.7259
affrontant	-10.7261
▁chorégraphie	-10.7261
▁construire	-10.7261
▁célébr	-10.7261
▁déchets	-10.7261
▁enthousiasme	-10.7261
▁jungle	-10.7261
▁observant	-10.7261
▁percussion	-10.7261
▁poussiéreux	-10.7261
▁ramant	-10.7261
▁similaire	-10.7261
▁smoking	-10.7261
▁Coca	-10.7261
▁religieuse	-10.7261
▁distributeur	-10.7261
▁nappe	-10.7261
▁miniature	-10.7261
▁rive	-10.7261
▁décharge	-10.7261
▁rappel	-10.7261
▁casserole	-10.7261
▁municipal	-10.7261
▁veston	-10.7261
▁tacheté	-10.7261
▁joie	-10.7261
▁formation	-10.7262
▁natte	-10.7262
▁chameaux	-10.7263
▁combattant	-10.7263
▁sortir	-10.7265
▁perdu	-10.7266
▁chargement	-10.7268
▁tisser	-10.7269
▁environn	-10.7269
▁appren	-10.727
▁violoncelle	-10.7271
▁expérience	-10.7273
▁joué	-10.7275
▁nageuse	-10.7275
▁alignées	-10.7282
▁découper	-10.7284
▁épaisse	-10.7285
▁raf	-10.7286
▁concentre	-10.7287
▁diverses	-10.7288
▁appuyée	-10.73
▁celle	-10.7302
▁dépla	-10.7304
▁aile	-10.7325
▁rament	-10.7331
▁reposer	-10.7335
▁portes	-10.7337
▁meubles	-10.7338
▁colonnes	-10.7338
▁peintre	-10.735
▁douche	-10.7361
▁navigu	-10.7364
▁Bo	-10.7381
▁retire	-10.7392
▁enthousiastes	-10.7408
▁géante	-10.7415
f	-10.7434
▁fleurie	-10.7435
▁lignes	-10.7435
▁baigne	-10.7443
▁éta	-10.7485
▁ve	-10.7499
▁poursui	-10.7507
▁grimaces	-10.7508
z	-10.7536
▁aider	-10.7539
▁in	-10.7547
▁dresse	-10.7549
▁gobelets	-10.7565
▁papiers	-10.7575
▁bains	-10.7591
▁photographie	-10.7592
▁N	-10.7599
car	-10.7604
▁argentée	-10.764
▁cavaliers	-10.7651
▁directions	-10.7651
▁plaqu	-10.7672
▁fleuri	-10.7685
▁atterri	-10.7697
up	-10.7698
▁plats	-10.771
▁bols	-10.7738
▁O	-10.7747
id	-10.777
at	-10.7776
orange	-10.7789
▁barrières	-10.7797
▁inspect	-10.7818
▁suspendue	-10.784
▁fort	-10.7841
T	-10.7879
même	-10.7899
L	-10.7908
▁déguisé	-10.7923
▁verdoyant	-10.7941
▁art	-10.7954
▁violettes	-10.799
embrasse	-10.7995
ab	-10.8013
cas	-10.8016
▁marchand	-10.8017
hôpital	-10.8023
▁touch	-10.803
exposition	-10.8031
animaux	-10.8033
▁rasé	-10.8033
obstacle	-10.8035
rie	-10.8045
adolescents	-10.8045
uit	-10.8049
▁attraction	-10.8067
▁pupitre	-10.8076
▁triste	-10.8076
aider	-10.808
▁imprimé	-10.809
ouvriers	-10.8093
▁arrêté	-10.81
▁rond	-10.8101
▁nœud	-10.8102
▁citron	-10.8102
▁canette	-10.8107
▁poulet	-10.811
▁mince	-10.811
▁manifestant	-10.8116
ité	-10.8119
▁patineur	-10.812
▁graffiti	-10.8121
▁infirmière	-10.8123
la	-10.8125
▁ange	-10.8134
▁disque	-10.8136
ed	-10.814
▁éclairage	-10.8147
me	-10.8147
▁travailleur	-10.8149
oire	-10.8197
▁breakdance	-10.8244
ym	-10.8255
▁genou	-10.8259
▁chameau	-10.826
▁bonne	-10.826
▁recev	-10.8261
▁pauvre	-10.8261
▁mini	-10.8261
obscurité	-10.8261
▁agricole	-10.8261
▁auditorium	-10.8261
▁bandoulière	-10.8261
▁châle	-10.8261
▁flamme	-10.8261
▁fromage	-10.8261
▁lèche	-10.8261
▁masculin	-10.8261
▁navire	-10.8261
▁parallèle	-10.8261
▁plaisir	-10.8261
▁propre	-10.8261
▁restauration	-10.8261
▁sarcelle	-10.8261
▁signalisation	-10.8261
▁universitaire	-10.8261
▁vacances	-10.8261
▁échasses	-10.8261
▁demoiselle	-10.8261
▁pédale	-10.8261
▁fatigué	-10.8261
▁célèbre	-10.8261
▁vrai	-10.8261
▁classique	-10.8261
▁aride	-10.8261
▁gagner	-10.8261
▁sportive	-10.8261
arcade	-10.8261
▁pilier	-10.8261
▁libre	-10.8262
▁peignoir	-10.8263
▁réunies	-10.8264
▁gazonné	-10.8265
▁appelé	-10.8266
▁tranquille	-10.8267
▁boucle	-10.8268
▁pièces	-10.8269
▁soutien	-10.8271
▁enlève	-10.8274
▁épicerie	-10.8275
▁étagère	-10.8275
▁nuageuse	-10.8275
▁ponton	-10.8275
lleux	-10.8299
▁presse	-10.83
▁Texas	-10.8307
▁interagiss	-10.8308
▁lutteur	-10.8309
▁si	-10.8309
agenouille	-10.831
▁Tim	-10.8324
▁frappé	-10.8325
▁trace	-10.8326
▁concours	-10.833
▁bondi	-10.8338
▁capot	-10.8348
▁évier	-10.8349
▁allume	-10.8353
▁oreille	-10.837
▁Asie	-10.8374
▁pins	-10.8375
▁rayés	-10.8416
▁remplis	-10.8419
▁œufs	-10.8425
ard	-10.8452
▁trouver	-10.8454
enlace	-10.8464
▁pince	-10.8472
▁opération	-10.8475
▁décolle	-10.8477
tient	-10.8487
ord	-10.8491
▁ballet	-10.8496
▁cuisiner	-10.8505
▁sé	-10.8506
us	-10.8513
g	-10.8529
▁arrose	-10.8553
▁échafaudages	-10.8599
▁Mar	-10.8612
▁cir	-10.8634
ob	-10.8685
el	-10.8715
ate	-10.8725
▁magasins	-10.8734
▁adverses	-10.8744
ille	-10.8752
▁découp	-10.8781
ail	-10.8821
▁boîtes	-10.8826
lever	-10.8831
▁accroupis	-10.8838
ce	-10.8843
em	-10.8844
▁bo	-10.8856
▁boxe	-10.8864
▁rassembl	-10.8872
▁photographié	-10.889
image	-10.8985
▁bébés	-10.9002
▁souffl	-10.9017
▁retourné	-10.902
▁accompagné	-10.902
▁installé	-10.9027
▁tri	-10.9053
▁orné	-10.9064
mon	-10.9067
issent	-10.9092
appuy	-10.9106
▁couples	-10.9125
écrire	-10.9127
▁plant	-10.9128
▁situé	-10.9129
od	-10.913
opération	-10.9138
oiseaux	-10.9146
église	-10.9146
board	-10.9147
da	-10.9163
▁quitt	-10.9166
▁adolescente	-10.9168
co	-10.9174
▁construit	-10.9184
▁nuage	-10.9184
▁moustach	-10.9184
▁éventail	-10.9187
▁partition	-10.9187
fin	-10.919
▁salu	-10.9194
▁John	-10.9203
▁soda	-10.9206
▁perruque	-10.9213
▁texto	-10.9214
▁tâche	-10.9221
▁proche	-10.9226
▁marchandise	-10.9231
▁perch	-10.9247
▁jailli	-10.9282
▁impliqu	-10.932
▁transporte	-10.933
ine	-10.9352
▁fixe	-10.9355
▁ba	-10.9361
▁cet	-10.9371
Amérique	-10.9372
alloween	-10.9372
ébroue	-10.9372
▁McDonald	-10.9372
▁aquarium	-10.9372
▁bambin	-10.9372
▁brouillard	-10.9372
▁buffet	-10.9372
▁calèche	-10.9372
▁chocolat	-10.9372
▁couvercle	-10.9372
▁défend	-10.9372
▁emmitouflé	-10.9372
▁entrepôt	-10.9372
▁marmite	-10.9372
▁monospace	-10.9372
▁muselé	-10.9372
▁piercing	-10.9372
▁quarterback	-10.9372
▁revêtement	-10.9372
▁soyeux	-10.9372
▁trépied	-10.9372
▁wakeboard	-10.9372
▁modèle	-10.9372
▁retriever	-10.9372
▁éjecté	-10.9372
▁épouse	-10.9372
▁complet	-10.9372
▁pourpre	-10.9372
▁canal	-10.9372
artifice	-10.9372
▁baiser	-10.9372
▁foyer	-10.9372
▁curieux	-10.9372
▁prix	-10.9372
▁vallée	-10.9372
▁balanç	-10.9373
▁tuba	-10.9373
▁lacrosse	-10.9373
▁cuit	-10.9373
▁avance	-10.9373
▁officielle	-10.9374
▁manière	-10.9374
▁flan	-10.9374
▁collation	-10.9374
midi	-10.9374
Cola	-10.9374
▁servir	-10.9375
▁fausse	-10.9375
▁sécher	-10.9375
▁kayakiste	-10.9375
▁vite	-10.9375
▁singe	-10.9378
▁monté	-10.9379
▁défilent	-10.938
▁jardinage	-10.9381
▁gâteaux	-10.9383
▁serveur	-10.9384
▁époux	-10.9387
▁bracelet	-10.9388
▁food	-10.9388
▁perles	-10.9399
▁décorations	-10.9399
▁cheminée	-10.9399
▁fois	-10.9401
▁raser	-10.9401
▁suivant	-10.9407
▁double	-10.941
▁boxeur	-10.941
▁surveillent	-10.9413
▁scouts	-10.9414
▁échecs	-10.9415
▁pastèques	-10.9416
▁ici	-10.9417
▁choisiss	-10.9418
▁moyenne	-10.9419
▁plaqué	-10.9419
▁soir	-10.9423
▁chercher	-10.9428
▁murale	-10.9431
▁sens	-10.9435
▁tendus	-10.9435
▁fumer	-10.9439
lant	-10.9445
▁deuxième	-10.9451
▁chinoises	-10.9462
ou	-10.9464
▁tombent	-10.9464
▁guide	-10.9476
▁pagay	-10.9488
▁maquille	-10.9488
▁assistant	-10.9496
▁surfer	-10.9501
▁mâche	-10.9503
▁visibles	-10.9503
▁suivi	-10.9513
▁ras	-10.9517
▁proches	-10.9521
venant	-10.9544
ack	-10.9554
épo	-10.958
▁ferrées	-10.961
lé	-10.9611
▁située	-10.9627
▁canards	-10.9645
▁lever	-10.9649
▁soulev	-10.9655
▁œuvres	-10.9673
▁cra	-10.9675
ique	-10.969
del	-10.97
▁affaires	-10.9701
▁sari	-10.9702
gorge	-10.9711
tent	-10.9719
américains	-10.9721
▁armes	-10.9734
▁automne	-10.9743
▁El	-10.9753
▁installée	-10.9776
attendre	-10.9777
▁Vu	-10.9806
▁fabrique	-10.9864
arrêt	-10.9865
▁box	-10.987
▁pots	-10.9875
▁patine	-10.9882
▁collines	-11.0005
ois	-11.002
euse	-11.0045
▁réception	-11.0063
▁bross	-11.0078
▁installe	-11.0079
▁chariots	-11.0131
emment	-11.0131
ort	-11.0159
▁carré	-11.0189
▁profond	-11.0191
traînant	-11.0195
tre	-11.0208
▁assorti	-11.0213
environ	-11.024
instrument	-11.025
os	-11.025
▁peinte	-11.0269
▁diverti	-11.0291
▁accordéon	-11.0309
étire	-11.0311
▁super	-11.0331
▁immeubles	-11.0333
▁bikinis	-11.0345
▁photographes	-11.0345
▁flou	-11.0364
près	-11.0379
▁musical	-11.0382
▁cannes	-11.0383
tion	-11.0386
▁courbé	-11.039
▁musclé	-11.0392
animal	-11.0397
▁éclabouss	-11.0399
▁mis	-11.0403
té	-11.0405
▁compr	-11.0409
▁coud	-11.0409
▁renversé	-11.0415
▁hiver	-11.0422
▁clôturé	-11.0444
▁étendu	-11.0447
▁survêtement	-11.0452
▁bambou	-11.0456
▁coussin	-11.0456
▁concentré	-11.0458
▁étroit	-11.046
▁muselière	-11.0464
▁flâne	-11.0466
▁lapin	-11.0471
▁citrouille	-11.0471
▁raide	-11.0471
▁ethnique	-11.0471
▁rapide	-11.0474
▁olympique	-11.0477
▁câble	-11.0478
▁pigeon	-11.0479
▁bougie	-11.0479
▁palmier	-11.0479
▁rail	-11.0481
▁touriste	-11.0483
▁visible	-11.0483
ffre	-11.0489
▁oreiller	-11.0491
agent	-11.0501
▁prête	-11.0507
▁rayées	-11.0508
▁élève	-11.0517
▁américaine	-11.0531
▁roulants	-11.0536
quelle	-11.0537
ume	-11.0546
instruments	-11.0548
▁passager	-11.0555
▁dispos	-11.0575
▁rebondi	-11.0588
iro	-11.0592
rédi	-11.0597
▁skateurs	-11.0597
étreign	-11.0614
m	-11.0617
▁savon	-11.062
▁cigare	-11.0621
▁Jack	-11.0622
harmonica	-11.0622
urgence	-11.0622
▁Batman	-11.0622
▁casino	-11.0622
▁complexe	-11.0622
▁container	-11.0622
▁dinosaure	-11.0622
▁déchiré	-11.0622
▁démonstration	-11.0622
▁genouillères	-11.0622
▁hamac	-11.0622
▁historique	-11.0622
▁obscure	-11.0622
▁peuplé	-11.0622
▁poussiéreuse	-11.0622
▁shopping	-11.0622
▁trafic	-11.0622
▁xylophone	-11.0622
▁établissement	-11.0622
▁attelage	-11.0622
▁fourgonnette	-11.0622
▁glacier	-11.0622
▁patron	-11.0622
▁remuant	-11.0622
▁jeep	-11.0622
▁pub	-11.0622
▁mutuellement	-11.0622
▁pinata	-11.0622
▁canin	-11.0622
▁emmène	-11.0622
▁logo	-11.0622
▁riz	-11.0622
almart	-11.0622
▁messieurs	-11.0622
▁maquette	-11.0622
▁visière	-11.0622
quoise	-11.0622
▁catcheur	-11.0622
▁chic	-11.0622
▁Chine	-11.0623
▁attei	-11.0623
▁pelleteuse	-11.0623
▁sucette	-11.0623
▁nourrit	-11.0624
▁noix	-11.0625
▁plateforme	-11.0625
▁baie	-11.0625
▁coiffeur	-11.0625
▁cerceaux	-11.0626
▁cadeaux	-11.0631
▁page	-11.0632
▁croisées	-11.0634
▁bloquer	-11.0634
▁nommé	-11.0635
▁épais	-11.0637
▁contenu	-11.0638
▁Europe	-11.064
▁truck	-11.064
▁photographier	-11.0641
▁mobile	-11.0641
▁brille	-11.0644
boys	-11.0647
▁forces	-11.0652
▁girl	-11.0653
▁live	-11.0654
▁saluent	-11.0661
▁rencontre	-11.0669
▁entreprise	-11.0671
▁hélicoptère	-11.0671
▁juges	-11.0672
▁plaquer	-11.0672
▁nous	-11.0683
▁dribble	-11.0688
▁tomates	-11.0692
▁ongles	-11.0692
▁colorie	-11.0693
▁paresse	-11.0694
▁pin	-11.0696
▁muret	-11.0697
chute	-11.07
▁écart	-11.0701
▁creusent	-11.0706
▁déguisée	-11.0709
eusement	-11.071
▁billets	-11.0712
▁quilles	-11.0717
▁surélevée	-11.0734
ours	-11.0738
▁direct	-11.0754
▁serveu	-11.0757
▁rurale	-11.0759
▁filmant	-11.0766
▁hôtel	-11.0768
▁empilé	-11.0779
▁oreillers	-11.079
▁salue	-11.0791
▁posées	-11.0798
▁eff	-11.0817
▁calmes	-11.0833
▁pi	-11.0841
▁acrobaties	-11.0873
ge	-11.0894
▁brillantes	-11.0897
▁demande	-11.0897
▁hôpital	-11.0932
di	-11.0952
▁Orient	-11.0966
▁entrer	-11.0969
▁vitres	-11.0976
▁contrer	-11.1018
▁j	-11.1031
ig	-11.1042
▁ouverts	-11.1046
lu	-11.1059
▁vérifi	-11.107
▁posée	-11.1078
▁images	-11.1089
atterrir	-11.114
vention	-11.1163
ad	-11.1165
▁car	-11.1168
ste	-11.119
▁moine	-11.1196
▁mi	-11.1215
am	-11.1235
▁accrochée	-11.126
ins	-11.1282
▁cuisinent	-11.1287
▁locale	-11.1288
▁fouille	-11.132
▁dessins	-11.1361
▁endroits	-11.1372
▁sculptures	-11.1373
▁recouvr	-11.1377
▁soc	-11.1388
▁su	-11.1391
▁barque	-11.1402
▁manipul	-11.1445
▁garder	-11.1445
▁trans	-11.1469
▁clowns	-11.1501
▁cire	-11.1534
▁é	-11.1552
▁trouv	-11.1566
▁vi	-11.1599
c	-11.1605
ry	-11.161
▁écrans	-11.1638
écran	-11.1642
▁mort	-11.1676
viron	-11.1703
▁gratt	-11.171
amour	-11.1719
enne	-11.1737
ota	-11.1746
▁pilot	-11.1761
I	-11.1763
arde	-11.1773
our	-11.1791
▁drap	-11.1793
▁pinceau	-11.1798
attention	-11.1802
ordures	-11.1808
▁explor	-11.1813
▁excité	-11.182
épaule	-11.1824
▁Nou	-11.1827
Asiatiques	-11.1835
ros	-11.1858
uniformes	-11.1863
▁étreint	-11.1864
▁mobylette	-11.1866
▁circulaire	-11.1866
alcool	-11.1866
▁mexicain	-11.1867
▁bâche	-11.1884
équipement	-11.189
ordre	-11.1891
▁pirate	-11.1892
▁défenseur	-11.1893
▁manuel	-11.1897
▁collègue	-11.1901
escalader	-11.1902
▁extrémité	-11.1905
▁fruit	-11.1911
▁spectateur	-11.1911
▁œuf	-11.1925
objets	-11.1931
▁franchi	-11.1944
nu	-11.1955
▁projecteur	-11.1955
▁rassemblée	-11.1956
▁para	-11.196
▁roche	-11.1975
▁tige	-11.1985
▁tendue	-11.1987
▁sang	-11.1994
ets	-11.1995
▁ver	-11.2003
insi	-11.2024
▁pleu	-11.2027
ke	-11.2035
▁déneige	-11.2036
▁berge	-11.2038
▁ju	-11.2043
▁industriel	-11.2049
homa	-11.2049
itif	-11.2049
tats	-11.2049
nière	-11.205
▁compagn	-11.205
athlétisme	-11.2051
autoroute	-11.2051
tôt	-11.2051
▁Jenga	-11.2051
▁Sooner	-11.2051
▁Square	-11.2051
▁arabe	-11.2051
▁automobile	-11.2051
▁bermuda	-11.2051
▁bicyclette	-11.2051
▁bulldozer	-11.2051
▁cathédrale	-11.2051
▁chapiteau	-11.2051
▁chips	-11.2051
▁chirurgien	-11.2051
▁confetti	-11.2051
▁galets	-11.2051
▁guichet	-11.2051
▁inachevé	-11.2051
▁javelot	-11.2051
▁littoral	-11.2051
▁lumineux	-11.2051
▁mascotte	-11.2051
▁musulman	-11.2051
▁numérique	-11.2051
▁pizza	-11.2051
▁pizzeria	-11.2051
▁propriétaire	-11.2051
▁rallye	-11.2051
▁toujours	-11.2051
▁tournage	-11.2051
▁trophée	-11.2051
▁élévateur	-11.2051
▁récupère	-11.2051
▁soigneusement	-11.2051
artisanat	-11.2051
▁grotte	-11.2051
▁inscription	-11.2051
▁tigre	-11.2051
▁échantillon	-11.2051
▁hispanique	-11.2051
▁inclu	-11.2051
écrasant	-11.2051
▁Monopoly	-11.2051
▁iPod	-11.2051
▁pouv	-11.2051
▁végétation	-11.2051
▁Inde	-11.2051
▁verdure	-11.2051
▁cellulaire	-11.2051
▁aquatique	-11.2051
▁cygne	-11.2051
▁destination	-11.2051
▁ravin	-11.2051
▁frire	-11.2051
Est	-11.2051
▁trop	-11.2051
▁peloton	-11.2051
▁technique	-11.2051
▁défilant	-11.2051
▁herbeuse	-11.2051
▁fermier	-11.2051
▁poney	-11.2051
▁coco	-11.2051
▁début	-11.2051
▁ballot	-11.2051
▁Mia	-11.2052
▁chand	-11.2052
▁indiqu	-11.2053
▁applaudit	-11.2053
▁artificielle	-11.2053
▁temple	-11.2053
▁feutre	-11.2055
▁violoniste	-11.2055
▁suivent	-11.2056
▁impatie	-11.2057
▁impressionnant	-11.2058
élastique	-11.2062
▁mitaines	-11.2064
▁sourcils	-11.2064
▁réparations	-11.2064
Unis	-11.2064
▁chevalet	-11.2068
oreilles	-11.2068
▁niveau	-11.2069
▁moulant	-11.2071
▁autochtone	-11.2071
▁stationnement	-11.2072
▁expression	-11.2072
▁brassard	-11.2072
▁rentrer	-11.2075
▁quoi	-11.2075
▁marécage	-11.2078
th	-11.2084
teindre	-11.2085
amuser	-11.2086
menant	-11.2088
▁auto	-11.2089
▁arrange	-11.2094
▁tabliers	-11.2096
▁bloque	-11.2097
ue	-11.2098
▁passé	-11.2099
▁terminé	-11.2102
▁Elmo	-11.2108
▁appartement	-11.2109
▁I	-11.2113
▁flottent	-11.212
▁baisse	-11.212
▁guerre	-11.2122
ange	-11.2126
▁lanternes	-11.2153
▁teint	-11.2161
▁notes	-11.2165
▁jailliss	-11.2169
▁bananes	-11.2179
▁personnages	-11.2179
▁Indien	-11.218
▁débardeurs	-11.2181
▁rest	-11.2194
▁collègues	-11.2202
▁offr	-11.2208
▁bières	-11.221
▁enseignante	-11.221
▁écouter	-11.2211
▁mauvaise	-11.2211
▁touchent	-11.2218
tam	-11.2258
vert	-11.2276
▁occupée	-11.2276
ble	-11.2284
▁montagneux	-11.2292
▁crayons	-11.2296
▁pliantes	-11.2298
fs	-11.2303
▁remett	-11.231
lement	-11.2342
▁expose	-11.2347
▁pulvérise	-11.2349
▁étudiante	-11.2351
▁récolte	-11.2357
▁floue	-11.2366
▁coéquipiers	-11.2368
entourent	-11.2368
▁amies	-11.2403
▁professionnels	-11.244
▁barma	-11.2445
▁poser	-11.2447
cation	-11.245
▁élégante	-11.2454
ors	-11.2467
▁visite	-11.2469
▁pêchent	-11.2473
▁magnifiques	-11.2536
▁réalise	-11.2545
▁tableaux	-11.2571
▁bronze	-11.2627
▁maquillé	-11.2643
▁alimentaires	-11.2658
▁colle	-11.269
▁décorée	-11.2695
▁Se	-11.2702
land	-11.2709
▁balais	-11.2716
▁mise	-11.2735
k	-11.2737
▁japonaise	-11.2766
▁canoës	-11.2781
▁gonflables	-11.2805
▁principale	-11.2829
▁bi	-11.2831
na	-11.2846
▁mouillée	-11.2847
▁Par	-11.2852
▁tisse	-11.2865
▁fabriqu	-11.2877
▁accroche	-11.288
▁entassé	-11.2884
▁scooters	-11.2905
▁dépasse	-11.2905
▁troncs	-11.293
▁beiges	-11.294
▁inter	-11.2976
nnent	-11.299
▁transparent	-11.3001
▁trempé	-11.3009
be	-11.3026
op	-11.307
entourant	-11.3071
observer	-11.3077
▁élégant	-11.3092
▁électriques	-11.3132
▁ti	-11.3149
ies	-11.3159
ka	-11.3165
▁peigne	-11.3186
son	-11.3191
▁souple	-11.3212
▁impliqué	-11.323
ar	-11.3309
ut	-11.3321
▁serré	-11.3353
ench	-11.3364
▁prélass	-11.337
▁soulevé	-11.3374
▁mode	-11.3388
ête	-11.3397
▁balaye	-11.3402
V	-11.3408
voyant	-11.3415
▁entr	-11.3416
▁bal	-11.3432
née	-11.3471
▁couch	-11.3472
allure	-11.3474
girl	-11.3482
épée	-11.3486
con	-11.3486
service	-11.3486
documents	-11.3486
▁termin	-11.3488
individus	-11.3488
jour	-11.3492
▁masques	-11.3498
tête	-11.3501
pente	-11.3505
▁chargé	-11.3511
ap	-11.3514
ctur	-11.3527
▁cassé	-11.3529
▁levé	-11.3533
▁rural	-11.3533
▁dossard	-11.3534
▁sœur	-11.3543
▁hutte	-11.3551
▁porc	-11.3551
▁synchronisée	-11.3552
▁marathonien	-11.3553
ouche	-11.3553
▁Mi	-11.3554
▁enseignant	-11.3557
▁corne	-11.3557
▁tutu	-11.3559
▁activité	-11.3563
▁friandise	-11.3563
▁tribu	-11.3566
▁fan	-11.3566
▁banane	-11.3568
▁personnage	-11.3568
▁meuble	-11.3572
▁colonne	-11.3572
▁buisson	-11.3575
▁patte	-11.3576
▁motif	-11.3576
▁plume	-11.3581
▁temp	-11.3584
▁pend	-11.3604
▁réfléchi	-11.3621
▁Br	-11.3625
▁chal	-11.3627
▁interagi	-11.3636
▁be	-11.3636
▁rocheuses	-11.3655
▁dessinée	-11.3679
▁porta	-11.368
▁bouc	-11.3689
nue	-11.3689
▁serpent	-11.3707
▁regroupé	-11.371
▁gaz	-11.3712
▁perd	-11.3712
▁joyeuse	-11.3717
icien	-11.3717
▁lycée	-11.3717
affichage	-11.3717
écrase	-11.3717
▁Certain	-11.3717
▁badminton	-11.3717
▁bouleversé	-11.3717
▁caucasien	-11.3717
▁cuivre	-11.3717
▁cupcake	-11.3717
▁dirigé	-11.3717
▁détritus	-11.3717
▁encadré	-11.3717
▁forestière	-11.3717
▁intensément	-11.3717
▁intitulé	-11.3717
▁lavabo	-11.3717
▁legging	-11.3717
▁léopard	-11.3717
▁maigre	-11.3717
▁médicaux	-11.3717
▁paisible	-11.3717
▁pittoresque	-11.3717
▁pédalant	-11.3717
▁rustique	-11.3717
▁spatule	-11.3717
▁trébuch	-11.3717
▁typique	-11.3717
▁télésiège	-11.3717
▁zébré	-11.3717
▁bardeaux	-11.3717
▁ciseaux	-11.3717
▁fantaisi	-11.3717
▁patrouille	-11.3717
▁priant	-11.3717
▁relais	-11.3717
▁robot	-11.3717
▁ruade	-11.3717
▁vieillard	-11.3717
▁lourd	-11.3717
▁navigable	-11.3717
▁antiémeute	-11.3717
▁revers	-11.3717
▁secouriste	-11.3717
▁adorable	-11.3717
▁radio	-11.3717
▁rétro	-11.3717
▁boulangerie	-11.3717
évite	-11.3717
▁roulé	-11.3717
▁soudure	-11.3717
▁labrado	-11.3717
▁sauveteur	-11.3717
▁plaine	-11.3717
▁dragon	-11.3718
▁tatoueur	-11.3718
▁tortue	-11.3718
▁toque	-11.3718
amique	-11.3718
▁compagnie	-11.3718
▁rasoir	-11.3718
▁crabe	-11.3718
▁State	-11.3718
▁menton	-11.3718
▁bik	-11.3718
▁sueur	-11.3718
▁soupe	-11.3719
▁frott	-11.372
▁bloqué	-11.372
▁grillage	-11.3721
▁remue	-11.3721
▁Nik	-11.3721
▁ceris	-11.3721
▁tunique	-11.3721
▁campement	-11.3722
▁plongeon	-11.3725
▁radeaux	-11.3726
▁pe	-11.3727
▁enterré	-11.373
▁tuyaux	-11.373
core	-11.373
▁banquet	-11.3732
▁saucisses	-11.3733
▁souvenirs	-11.3733
▁secours	-11.3733
▁rondin	-11.3734
▁prient	-11.3736
▁banlieue	-11.3737
▁pyramide	-11.3737
▁bouton	-11.3737
▁tresses	-11.3737
ueuses	-11.374
▁Apple	-11.3742
▁instructions	-11.3742
▁zoo	-11.3744
▁loupe	-11.3746
▁poudre	-11.3746
▁exposées	-11.3746
▁inférieure	-11.3747
ièrement	-11.3747
▁ancienne	-11.3747
▁fou	-11.3753
▁détourn	-11.3754
anneaux	-11.3755
▁barreaux	-11.3757
▁surveillant	-11.3757
▁croise	-11.3758
▁bœufs	-11.376
▁criant	-11.3762
▁encl	-11.3765
acheteurs	-11.3766
▁prêtre	-11.377
▁descente	-11.377
ch	-11.3773
▁parvien	-11.3774
▁planter	-11.3782
▁obten	-11.3782
▁éclaboussé	-11.3782
▁débarrasse	-11.3784
▁exhib	-11.3785
▁enceinte	-11.3785
▁approchant	-11.3785
▁ascension	-11.3785
▁anti	-11.3787
▁marin	-11.3788
▁Legos	-11.3789
▁enflammés	-11.3789
▁essuie	-11.3793
▁museau	-11.3798
▁gonfle	-11.3799
unk	-11.3801
sse	-11.3801
▁rouillée	-11.3804
mult	-11.3805
▁trait	-11.3811
▁mouettes	-11.3815
▁mots	-11.3815
▁plonger	-11.3816
time	-11.3824
▁cierge	-11.383
▁grimper	-11.3831
▁étend	-11.3834
▁golfeur	-11.3836
▁personnels	-11.3841
▁divertiss	-11.3848
▁Sou	-11.3849
▁campeur	-11.3858
▁ombres	-11.386
▁occupés	-11.3865
▁tropicale	-11.3874
▁poussé	-11.3876
▁péta	-11.388
▁projetée	-11.3889
▁projecteurs	-11.3899
▁cassée	-11.3909
▁tranche	-11.3914
ers	-11.3917
▁devanture	-11.3922
▁soin	-11.3922
▁acier	-11.3922
▁citrouilles	-11.3927
▁lapins	-11.3927
▁ethniques	-11.3927
▁bonhomme	-11.3932
▁déguisées	-11.3941
▁gi	-11.3967
▁allure	-11.3967
▁sports	-11.3978
▁déroule	-11.3978
▁tâches	-11.3981
▁lion	-11.3982
▁éclairages	-11.3984
▁minces	-11.3984
▁poulets	-11.3984
▁fi	-11.4008
▁fau	-11.4011
▁construite	-11.4015
▁rondes	-11.4027
▁pan	-11.4028
▁éléphants	-11.404
▁surplombe	-11.4045
▁stationnée	-11.4051
▁exposés	-11.4052
▁épées	-11.4069
▁test	-11.407
▁trotte	-11.4075
nis	-11.4093
cteur	-11.4118
▁fa	-11.4121
▁portraits	-11.4127
▁médecins	-11.4127
▁poupées	-11.4127
▁valises	-11.4127
essaye	-11.4139
▁trie	-11.4147
ford	-11.4156
roupe	-11.4167
▁taill	-11.4168
▁sit	-11.4173
▁cerfs	-11.4184
iens	-11.4206
▁enseignes	-11.4213
▁vise	-11.4228
▁africaines	-11.4236
▁escalader	-11.4241
▁tubes	-11.4244
création	-11.4267
▁approche	-11.4308
▁jou	-11.4333
▁entraînement	-11.4346
▁publicités	-11.4389
ément	-11.4393
buste	-11.4397
▁grav	-11.4401
sses	-11.442
▁serviettes	-11.4448
lice	-11.4449
lo	-11.4475
▁U	-11.4525
rasant	-11.4527
▁pourchasse	-11.4528
▁man	-11.4562
▁vaches	-11.4568
tes	-11.4585
ro	-11.4587
▁rapport	-11.4608
▁entassée	-11.4632
▁clé	-11.4654
▁fontaines	-11.4655
▁brunes	-11.4673
▁participants	-11.4717
▁caress	-11.4718
▁ajust	-11.4726
▁rapporte	-11.4728
▁vienn	-11.4769
▁Mac	-11.4785
▁vides	-11.4812
ston	-11.4812
▁fe	-11.4881
des	-11.4889
ères	-11.4897
▁féminine	-11.4905
▁profondes	-11.4907
▁hi	-11.4926
▁pa	-11.4947
▁suspendus	-11.4959
aison	-11.497
ain	-11.4987
ide	-11.5
aller	-11.5027
▁arriv	-11.5057
▁polos	-11.5064
ché	-11.5077
▁aime	-11.5085
way	-11.5108
cer	-11.5119
▁dés	-11.5124
▁al	-11.5137
▁pop	-11.5139
mar	-11.5141
▁pelles	-11.5144
▁th	-11.5239
▁jo	-11.524
▁cu	-11.5248
▁organis	-11.5249
exercice	-11.5266
▁Ma	-11.5266
yant	-11.5272
▁regardé	-11.5277
▁diplômé	-11.5283
▁sci	-11.53
▁rend	-11.5324
œuvre	-11.5327
▁stationné	-11.5335
objet	-11.5345
▁remet	-11.5354
aute	-11.5365
▁illuminé	-11.5365
▁coiffé	-11.5366
▁incliné	-11.5366
▁déployé	-11.5373
▁colliers	-11.5376
ish	-11.5379
égout	-11.5416
▁Bl	-11.5426
▁souriants	-11.544
▁porté	-11.5447
appare	-11.5451
gar	-11.5454
ame	-11.5461
informatique	-11.5462
çon	-11.5464
asphalte	-11.547
acier	-11.5476
soin	-11.5478
hôtel	-11.548
Asie	-11.5483
pêcher	-11.5487
artistes	-11.5488
acheter	-11.5488
articles	-11.5491
cercle	-11.5492
installe	-11.5493
▁empil	-11.5493
short	-11.5495
▁sculpt	-11.55
▁vitrines	-11.5501
▁cr	-11.5506
▁commerçant	-11.5511
▁allumé	-11.5514
▁tropical	-11.5529
▁légère	-11.553
▁surélevé	-11.5534
▁flèche	-11.5534
▁marionnette	-11.5534
oo	-11.5535
▁arroseur	-11.5538
oiseau	-11.5543
outils	-11.5545
▁truc	-11.5551
▁cahier	-11.5551
▁canadien	-11.5551
▁chiffon	-11.5551
▁vitrée	-11.5551
▁dinde	-11.5551
gue	-11.5552
▁surfeurs	-11.5553
linge	-11.5555
▁maître	-11.5558
▁concurrent	-11.5559
▁télé	-11.5561
▁St	-11.5562
▁billet	-11.557
▁ro	-11.5573
▁jeté	-11.5577
▁cal	-11.5578
▁botte	-11.5579
▁nom	-11.558
▁torche	-11.5587
▁clou	-11.559
▁mar	-11.5594
marine	-11.56
▁gen	-11.5616
▁bouch	-11.562
▁ombre	-11.5621
èches	-11.5627
▁choisi	-11.5635
▁présent	-11.5653
▁form	-11.5655
▁quille	-11.5664
▁étage	-11.5665
US	-11.5666
mo	-11.5666
cule	-11.5666
▁rouleau	-11.5668
▁puiss	-11.5675
▁concour	-11.5696
anger	-11.57
▁percute	-11.5703
▁décide	-11.5705
rit	-11.5706
▁découpé	-11.5706
▁quat	-11.571
▁personnel	-11.5711
▁rien	-11.5712
▁répét	-11.5713
▁européen	-11.5715
▁mout	-11.5716
▁pic	-11.5716
harpe	-11.5717
ank	-11.5717
▁matin	-11.5717
▁Japon	-11.5717
▁parachutis	-11.5717
Obama	-11.5717
ashington	-11.5717
autobus	-11.5717
électrici	-11.5717
▁Power	-11.5717
▁Speedo	-11.5717
▁Starbucks	-11.5717
▁Street	-11.5717
▁Subway	-11.5717
▁aspergé	-11.5717
▁autocollant	-11.5717
▁bringé	-11.5717
▁britannique	-11.5717
▁bétail	-11.5717
▁cafétéria	-11.5717
▁cagoule	-11.5717
▁caricatur	-11.5717
▁charbon	-11.5717
▁cimetière	-11.5717
▁clarinette	-11.5717
▁crochet	-11.5717
▁céréales	-11.5717
▁dauphin	-11.5717
▁diplôme	-11.5717
▁discothèque	-11.5717
▁disponibles	-11.5717
▁dizaine	-11.5717
▁déambulateur	-11.5717
▁désordonné	-11.5717
▁enroulé	-11.5717
▁flamboyant	-11.5717
▁fossé	-11.5717
▁hanches	-11.5717
▁hippique	-11.5717
▁invisible	-11.5717
▁lumineuse	-11.5717
▁neuf	-11.5717
▁observé	-11.5717
▁perplexe	-11.5717
▁physique	-11.5717
▁produire	-11.5717
▁rocailleux	-11.5717
▁senior	-11.5717
▁sujet	-11.5717
▁symbole	-11.5717
▁touristique	-11.5717
▁trombone	-11.5717
▁tyrolienne	-11.5717
▁ça	-11.5717
ICE	-11.5717
▁Disney	-11.5717
▁Ja	-11.5717
▁aérosol	-11.5717
▁bel	-11.5717
▁décombres	-11.5717
▁retrouve	-11.5717
▁treilli	-11.5717
▁arbor	-11.5717
▁sacoche	-11.5717
▁corniche	-11.5717
▁dégust	-11.5717
▁meilleur	-11.5717
▁squelette	-11.5717
▁distance	-11.5717
▁kickboxing	-11.5717
▁puits	-11.5717
▁sponsorisé	-11.5717
▁canyon	-11.5717
▁nouilles	-11.5717
▁mixage	-11.5717
▁nettoyage	-11.5717
▁dominos	-11.5717
▁coloriage	-11.5717
▁fourchette	-11.5717
▁fourneaux	-11.5717
▁sub	-11.5717
kla	-11.5717
▁lessive	-11.5717
▁passionné	-11.5717
▁reli	-11.5718
▁karting	-11.5718
▁mignon	-11.5718
▁applaudissant	-11.5718
▁randonneuse	-11.5718
▁frite	-11.5718
▁représentation	-11.5718
▁intense	-11.5718
UN	-11.5718
▁léger	-11.5718
▁malheureux	-11.5718
▁couture	-11.5718
▁cuve	-11.5718
▁verticale	-11.5718
▁sifflet	-11.5718
▁gym	-11.5718
▁français	-11.5718
▁promener	-11.5718
▁lingerie	-11.5719
▁saleté	-11.5719
▁paon	-11.5719
▁amarré	-11.5719
▁champagne	-11.5719
stance	-11.5719
▁religieux	-11.5719
▁paysan	-11.5719
▁aqua	-11.572
▁pense	-11.572
▁mara	-11.572
▁tricoté	-11.572
▁maille	-11.572
▁attir	-11.5721
▁audito	-11.5721
▁trouble	-11.5721
▁bosse	-11.5721
ultim	-11.5721
▁démarrer	-11.5722
enfonce	-11.5722
▁cho	-11.5724
▁masqué	-11.5724
▁dentaire	-11.5724
▁contrebasse	-11.5724
▁Toy	-11.5724
▁rideau	-11.5724
▁footing	-11.5725
▁étui	-11.5725
ucho	-11.5726
▁fée	-11.5726
▁of	-11.5727
igue	-11.5728
▁liberté	-11.573
▁gosse	-11.5731
▁cornet	-11.5732
▁canon	-11.5732
▁shooter	-11.5733
▁sangle	-11.5736
▁gratuits	-11.5737
▁bandés	-11.5737
▁couette	-11.5737
▁lacets	-11.574
▁rythme	-11.5741
▁tambourin	-11.5742
▁courbe	-11.5744
▁mâcher	-11.5746
▁ordinaire	-11.5748
▁Seattle	-11.5748
▁agripp	-11.5748
▁Superman	-11.5748
▁pipe	-11.5749
uor	-11.5755
▁envol	-11.5756
▁handicapée	-11.5756
▁salade	-11.5759
ewing	-11.576
▁anneau	-11.5765
▁nourriss	-11.5767
▁cigarettes	-11.5768
▁masse	-11.5769
▁sprinklers	-11.577
▁ruines	-11.577
▁chaton	-11.5773
▁poilu	-11.5782
▁assorties	-11.5782
▁sprinte	-11.5783
▁civile	-11.5783
▁pleurer	-11.5783
▁laveur	-11.5784
▁encourageant	-11.5785
▁expli	-11.5786
▁drapé	-11.5789
▁asperge	-11.5803
▁appliqu	-11.5803
▁steaks	-11.5804
▁kimonos	-11.5804
▁stores	-11.5804
▁tressés	-11.5804
▁toilettes	-11.5805
▁levée	-11.5807
▁étir	-11.5808
▁shoote	-11.5811
▁inconnue	-11.5826
▁médiévale	-11.5826
▁ratisse	-11.5836
▁dalles	-11.5839
▁glacières	-11.5839
adresse	-11.5841
▁morte	-11.5843
▁aube	-11.5854
▁agitée	-11.5855
chefs	-11.5856
sol	-11.5859
▁fortune	-11.5863
▁étages	-11.5874
▁noms	-11.5874
tique	-11.5874
▁torches	-11.5875
▁mène	-11.5881
▁encouragent	-11.5882
▁exercices	-11.5885
asse	-11.5904
▁friandises	-11.5908
▁cornes	-11.5909
▁bou	-11.5925
▁communique	-11.5928
▁marins	-11.594
▁arrêtée	-11.5949
▁longueur	-11.5955
▁wa	-11.5959
ol	-11.596
▁appare	-11.5964
ace	-11.5966
▁asphalte	-11.5971
▁auvent	-11.6001
▁anno	-11.6009
lin	-11.6009
▁ac	-11.602
lle	-11.6025
ions	-11.6029
▁canettes	-11.605
infirmières	-11.605
▁activités	-11.6052
ti	-11.6054
ien	-11.6057
▁k	-11.6066
▁haies	-11.6085
▁attention	-11.6087
▁Sud	-11.6098
éclabouss	-11.6098
app	-11.6108
▁étoiles	-11.6117
▁géantes	-11.6118
▁portée	-11.6143
oles	-11.6154
▁dorées	-11.6156
▁engins	-11.6157
▁coupé	-11.6169
▁placée	-11.6177
▁écrire	-11.6203
▁Qu	-11.6206
▁smashe	-11.6208
▁do	-11.6222
▁artistiques	-11.6265
▁banderoles	-11.6265
▁galope	-11.6274
▁cliente	-11.6277
pose	-11.629
▁adolescentes	-11.6296
ic	-11.6296
▁fusils	-11.6301
▁ombrelles	-11.6301
ak	-11.6322
▁ornée	-11.6328
▁proteste	-11.6336
▁photographiée	-11.6341
▁artisan	-11.6364
sion	-11.6379
▁déballe	-11.638
▁tricote	-11.638
ore	-11.6397
▁dorés	-11.6414
▁lama	-11.6456
échant	-11.6471
▁assemble	-11.6518
▁So	-11.6549
▁champs	-11.6566
▁tache	-11.6587
uer	-11.6615
▁sirote	-11.6631
sh	-11.6637
▁savour	-11.6653
ttes	-11.6671
▁prov	-11.6679
▁distribue	-11.6724
▁cueille	-11.6725
▁embrass	-11.6731
échauff	-11.6764
épice	-11.6783
▁manœuvre	-11.6801
▁guitaristes	-11.6824
▁em	-11.6835
▁pol	-11.6873
ple	-11.688
rava	-11.693
▁Afr	-11.6954
enlaçant	-11.6954
▁fouill	-11.6959
om	-11.7011
▁quel	-11.7017
ous	-11.7023
nnées	-11.7055
are	-11.7068
aligne	-11.708
ulaire	-11.7129
▁chats	-11.7134
euses	-11.7136
▁bronz	-11.7161
▁po	-11.7168
▁microscopes	-11.7174
marqué	-11.7176
examiner	-11.7188
▁tricot	-11.7217
▁reven	-11.7219
taches	-11.7224
▁pit	-11.7237
▁selle	-11.7246
ai	-11.7251
accroch	-11.7253
ser	-11.7256
ature	-11.7288
ture	-11.7293
mêmes	-11.7294
action	-11.731
▁trous	-11.7334
orte	-11.7337
ouse	-11.7362
va	-11.7366
▁pre	-11.7385
as	-11.7404
ton	-11.7414
cteurs	-11.7418
▁gravi	-11.7434
▁mat	-11.744
let	-11.7443
he	-11.7445
▁déball	-11.7453
corn	-11.7474
ang	-11.7494
▁post	-11.7515
▁affiches	-11.752
▁séch	-11.7562
oulever	-11.7598
âché	-11.7614
▁cascades	-11.7617
▁pellet	-11.7646
▁demand	-11.7654
ade	-11.7662
▁tribal	-11.7681
bout	-11.7682
▁expos	-11.7684
ouverture	-11.769
tin	-11.7717
ador	-11.7723
▁différent	-11.7737
bord	-11.7757
enn	-11.7763
▁nou	-11.7774
▁accroch	-11.7776
ac	-11.7787
▁suiv	-11.7794
immeuble	-11.7811
ède	-11.7833
emme	-11.7838
line	-11.7851
ouvrier	-11.7852
▁fermé	-11.7869
▁mo	-11.7869
pong	-11.7886
▁pagaye	-11.7917
Américain	-11.7919
ouvri	-11.792
ole	-11.7921
▁disposé	-11.7922
venir	-11.7929
▁appart	-11.7936
intéressant	-11.7938
effor	-11.7944
opposé	-11.7953
▁tendu	-11.7953
estomac	-11.7963
éponge	-11.7964
▁fêt	-11.7969
mène	-11.7971
levé	-11.7975
Indien	-11.7978
▁retiré	-11.7981
évier	-11.7984
jo	-11.7985
ancien	-11.7986
vous	-11.7987
enseigne	-11.7989
escalator	-11.7991
alpiniste	-11.7991
écharpe	-11.7993
événement	-11.7994
capot	-11.7999
mère	-11.8001
pt	-11.8002
échelle	-11.8005
quet	-11.8007
▁dressé	-11.8012
▁mon	-11.802
▁gelé	-11.8021
▁cross	-11.8022
▁accidenté	-11.8027
▁agriculteur	-11.8034
▁brochure	-11.8034
▁expert	-11.8034
▁armure	-11.8035
▁kart	-11.8036
▁patineuse	-11.8037
▁tarte	-11.8041
ados	-11.8042
▁ensoleillé	-11.8044
▁officiel	-11.8048
▁crêpe	-11.8052
▁magique	-11.8052
acc	-11.8055
▁casse	-11.806
▁dessiné	-11.806
▁quatr	-11.8063
▁glacière	-11.8063
▁dalle	-11.8065
▁mouette	-11.8067
▁tomate	-11.8069
▁ongle	-11.8071
▁mot	-11.8072
▁baguette	-11.8073
▁identique	-11.8076
▁légume	-11.8078
▁piétonn	-11.8092
▁lunette	-11.8095
can	-11.8113
▁tournoy	-11.8114
▁éclat	-11.8116
▁lanterne	-11.8124
▁représent	-11.8137
▁lutt	-11.8142
▁pos	-11.8145
▁caméras	-11.8164
if	-11.8174
roi	-11.8175
▁sec	-11.8179
assure	-11.818
œuvres	-11.8187
▁tremp	-11.8189
▁prie	-11.8192
▁spa	-11.8195
▁mule	-11.8206
▁accél	-11.8206
entrer	-11.8208
▁coq	-11.8208
▁enfon	-11.821
iné	-11.8211
▁douce	-11.8213
▁artificiel	-11.8213
▁pén	-11.8213
▁contra	-11.8214
▁aérien	-11.8214
▁tronçon	-11.8215
▁pu	-11.8216
bum	-11.8217
▁catch	-11.8217
▁compt	-11.8217
▁collect	-11.8217
▁moue	-11.8217
▁goudron	-11.8217
▁réfrigér	-11.8217
èle	-11.8217
▁minutieuse	-11.8217
▁multi	-11.8217
▁vaporis	-11.8217
amaha	-11.8217
ananas	-11.8217
enregistrement	-11.8217
espèce	-11.8217
itchenAid	-11.8217
occasion	-11.8217
▁Chinois	-11.8217
▁Petit	-11.8217
▁Vegas	-11.8217
▁accueill	-11.8217
▁apparaît	-11.8217
▁bidon	-11.8217
▁bénévole	-11.8217
▁carrefour	-11.8217
▁clairsemé	-11.8217
▁cockpit	-11.8217
▁deltaplane	-11.8217
▁diaporama	-11.8217
▁difficile	-11.8217
▁domicile	-11.8217
▁drainage	-11.8217
▁déambulant	-11.8217
▁déambule	-11.8217
▁décoratif	-11.8217
▁décorative	-11.8217
▁délicieuse	-11.8217
▁embarcation	-11.8217
▁endommagé	-11.8217
▁explosion	-11.8217
▁fasciné	-11.8217
▁forgeron	-11.8217
▁garni	-11.8217
▁guirlande	-11.8217
▁henné	-11.8217
▁hirsute	-11.8217
▁horloge	-11.8217
▁hurlant	-11.8217
▁insecte	-11.8217
▁insolite	-11.8217
▁institut	-11.8217
▁lambeaux	-11.8217
▁librairie	-11.8217
▁manifeste	-11.8217
▁marcel	-11.8217
▁mascara	-11.8217
▁message	-11.8217
▁obèse	-11.8217
▁occupations	-11.8217
▁palissade	-11.8217
▁panoramique	-11.8217
▁particulier	-11.8217
▁pieuvre	-11.8217
▁pluvieuse	-11.8217
▁poignard	-11.8217
▁postérieur	-11.8217
▁prestation	-11.8217
▁projection	-11.8217
▁préféré	-11.8217
▁pédalo	-11.8217
▁raconte	-11.8217
▁recherche	-11.8217
▁réduit	-11.8217
▁saxophoniste	-11.8217
▁slide	-11.8217
▁spectaculaire	-11.8217
▁synthétiseur	-11.8217
▁séminaire	-11.8217
▁teckel	-11.8217
▁trompettiste	-11.8217
▁ébouriff	-11.8217
▁élévatrice	-11.8217
▁éparpillés	-11.8217
▁équipé	-11.8217
▁étincelles	-11.8217
ignot	-11.8217
▁camarade	-11.8217
▁carriole	-11.8217
▁ficelle	-11.8217
▁ondul	-11.8217
▁paperasse	-11.8217
▁partenaire	-11.8217
▁pèse	-11.8217
▁râteau	-11.8217
▁tourniquet	-11.8217
▁étrangère	-11.8217
▁farine	-11.8217
▁paintball	-11.8217
▁répond	-11.8217
envole	-11.8217
▁fosse	-11.8217
▁ivre	-11.8217
▁menuisier	-11.8217
▁plaisanc	-11.8217
▁triangle	-11.8217
gum	-11.8217
▁phare	-11.8217
▁plâtre	-11.8217
▁sirène	-11.8217
▁textile	-11.8217
▁ukul	-11.8217
▁émission	-11.8217
▁Angeles	-11.8217
▁agréable	-11.8217
▁Divers	-11.8217
▁battu	-11.8217
▁charcuterie	-11.8217
endort	-11.8217
▁conduire	-11.8217
abeille	-11.8217
▁fast	-11.8217
▁fronce	-11.8217
▁récemment	-11.8217
▁Volkswagen	-11.8217
▁aboie	-11.8217
▁Stone	-11.8217
▁clos	-11.8217
▁protestation	-11.8217
▁bassiste	-11.8217
▁pick	-11.8217
▁extension	-11.8217
▁guidon	-11.8217
▁sumo	-11.8217
▁diable	-11.8217
▁second	-11.8217
ingham	-11.8217
▁mécanique	-11.8218
▁croisière	-11.8218
▁promo	-11.8218
▁Spiderman	-11.8218
▁mixte	-11.8218
▁enclos	-11.8218
▁rédige	-11.8218
▁frontale	-11.8218
gan	-11.8218
▁situation	-11.8218
▁crue	-11.8218
▁moquette	-11.8218
▁cuvette	-11.8218
▁boutonnée	-11.8218
▁inhabituelle	-11.8218
▁ponce	-11.8218
gantes	-11.8218
▁furieu	-11.8218
▁moque	-11.8218
mosa	-11.8218
▁Park	-11.8219
▁gay	-11.8219
▁coiffeuse	-11.8219
▁matinée	-11.8219
▁matelassé	-11.8219
▁complètement	-11.8219
▁Light	-11.822
▁mollet	-11.822
ood	-11.822
Afrique	-11.822
▁glissière	-11.822
▁colère	-11.822
▁télécommandé	-11.8221
▁bétonnière	-11.8221
▁convention	-11.8222
essence	-11.8222
▁star	-11.8222
▁bavardent	-11.8222
▁beauté	-11.8222
▁Mark	-11.8223
▁ping	-11.8224
zzle	-11.8224
▁inondé	-11.8224
▁isolé	-11.8224
▁fixé	-11.8224
▁boucherie	-11.8224
▁marelle	-11.8226
▁orage	-11.8226
▁final	-11.8226
ld	-11.8227
tuellement	-11.8227
▁santé	-11.8228
▁accélér	-11.8228
▁déjeunent	-11.8229
élance	-11.8229
▁dressée	-11.823
▁pein	-11.8231
▁relaxant	-11.8232
rouille	-11.8232
onze	-11.8232
▁terrier	-11.8234
▁Neu	-11.8235
▁montagneuse	-11.8235
▁percuter	-11.8236
▁relevé	-11.8236
▁éclabousse	-11.8236
alais	-11.8237
échauffent	-11.8238
flag	-11.8238
▁comprend	-11.8238
▁archet	-11.8238
tournant	-11.8239
▁traînent	-11.8239
▁fier	-11.8239
oker	-11.8239
▁melons	-11.8243
▁béquilles	-11.8243
▁hamburgers	-11.8243
▁tuiles	-11.8243
▁puces	-11.8243
▁cheminot	-11.8244
oney	-11.8246
▁invités	-11.8247
extrême	-11.8249
▁gesticule	-11.8249
▁olive	-11.8249
▁latine	-11.8249
▁humaine	-11.8249
▁débat	-11.8251
▁déployées	-11.8251
▁arrosé	-11.8251
▁heure	-11.8253
▁bondissant	-11.8255
▁saluer	-11.8257
▁achats	-11.8258
▁ustensile	-11.8258
▁ascenseur	-11.8258
▁émerge	-11.8258
▁domin	-11.8259
bec	-11.8259
▁décoller	-11.8259
▁stop	-11.8259
▁Bill	-11.826
▁show	-11.826
▁orienta	-11.826
▁déter	-11.826
▁sombrero	-11.8262
▁boxer	-11.8263
▁aig	-11.8265
▁commander	-11.8272
▁mordill	-11.8272
▁abatt	-11.8273
▁positionne	-11.828
▁accompliss	-11.8283
▁muni	-11.8284
▁vendus	-11.8285
▁acrobatiques	-11.8287
▁encourage	-11.8287
▁allumée	-11.8288
appartements	-11.8288
▁soie	-11.8291
équipes	-11.8293
▁planté	-11.8295
▁vision	-11.8296
ples	-11.83
▁mani	-11.8301
▁musicales	-11.8303
▁luxuriante	-11.8304
▁design	-11.8305
▁déc	-11.8308
uscule	-11.8308
xy	-11.8314
▁jongler	-11.8314
▁dirai	-11.8323
uma	-11.8323
▁jongleur	-11.8324
gé	-11.8324
▁DS	-11.8328
▁oeuvres	-11.8332
▁pneumatiques	-11.8332
▁pâtisseries	-11.8332
▁bongos	-11.8332
▁couronnes	-11.8332
▁pompes	-11.8333
▁voyageurs	-11.8335
yst	-11.8337
▁opposées	-11.8338
▁barbo	-11.8338
▁médaille	-11.834
▁voilée	-11.8341
peron	-11.8343
ag	-11.8346
▁informations	-11.835
▁ampli	-11.8358
▁skier	-11.836
▁ombragée	-11.836
▁chirurgicale	-11.836
▁douz	-11.8367
▁bagarre	-11.8368
ze	-11.8368
images	-11.8373
▁artisanale	-11.8376
ay	-11.8385
▁enregistre	-11.8391
▁brise	-11.8401
▁échappe	-11.8403
acteur	-11.8403
exprime	-11.8407
▁gelée	-11.8418
▁clous	-11.8424
▁concurrents	-11.8424
▁skater	-11.8426
▁piétonne	-11.8429
▁formé	-11.8432
fabriqué	-11.8432
▁protég	-11.8436
▁mortes	-11.8439
▁levées	-11.8458
▁classeur	-11.8459
téti	-11.8462
▁cale	-11.8469
▁tutus	-11.847
▁boutons	-11.847
▁venir	-11.8471
tex	-11.8471
▁coude	-11.8473
▁estomac	-11.8478
▁éponge	-11.8478
▁serrés	-11.8479
▁The	-11.848
▁enfil	-11.8493
▁Deere	-11.8494
▁Lo	-11.8498
▁récoltes	-11.8504
▁pirates	-11.8517
▁tiges	-11.8517
▁défenseurs	-11.8517
▁morts	-11.8523
ence	-11.8525
▁contempl	-11.8528
roupeau	-11.8533
▁informatique	-11.8554
nant	-11.8556
servent	-11.8558
▁muselières	-11.8564
oke	-11.8585
▁fine	-11.8595
ero	-11.8596
▁rampes	-11.8596
▁fixes	-11.8602
exer	-11.8607
▁perruques	-11.8611
▁textos	-11.8611
▁boucher	-11.8611
▁interviewe	-11.8621
▁voient	-11.8627
tative	-11.8628
▁tam	-11.8629
incline	-11.8632
piqueur	-11.8638
▁nœuds	-11.8658
▁citrons	-11.8658
ues	-11.8664
▁règ	-11.8664
▁explore	-11.8672
▁illuminée	-11.8687
▁coiffée	-11.8689
▁inclinée	-11.8689
▁vig	-11.8694
ckey	-11.8695
lie	-11.8697
▁traditionnelles	-11.8707
▁poches	-11.8716
ode	-11.872
ca	-11.8729
▁Nouve	-11.8732
▁nues	-11.8736
▁No	-11.8771
▁hach	-11.8772
orgi	-11.8779
▁prélasse	-11.8787
lot	-11.879
▁tribale	-11.879
▁av	-11.8793
▁kilts	-11.8801
▁sauvages	-11.8801
bi	-11.8803
▁montré	-11.8815
wa	-11.8821
ell	-11.8836
▁scientifiques	-11.8849
ud	-11.8852
aste	-11.8853
▁atterrissa	-11.8856
yer	-11.8902
▁mag	-11.8914
▁peintes	-11.8925
gent	-11.8949
Le	-11.8951
▁patiente	-11.8953
uses	-11.8956
mes	-11.8972
SA	-11.8991
▁ga	-11.8995
▁cœurs	-11.8995
nch	-11.9046
▁regardée	-11.9048
université	-11.906
▁géants	-11.9062
▁entraîne	-11.9077
▁automatiques	-11.9094
▁poids	-11.9111
▁retournée	-11.9123
▁accompagnée	-11.9128
urant	-11.9138
▁broussaille	-11.9156
▁grises	-11.9167
▁impliquée	-11.9168
▁attaqu	-11.9174
▁gla	-11.9181
▁anniversaire	-11.9199
▁pointu	-11.9201
▁An	-11.9212
do	-11.9215
ner	-11.9216
assie	-11.9224
ards	-11.9233
▁numéros	-11.9246
▁forte	-11.9249
mé	-11.9274
ot	-11.9277
anges	-11.928
▁ha	-11.9288
▁mesur	-11.933
▁compos	-11.9342
▁trottinettes	-11.9345
▁employée	-11.9363
naire	-11.9366
▁fleuris	-11.9376
to	-11.9389
▁parachutes	-11.9396
lage	-11.9402
▁com	-11.9416
enfile	-11.944
▁chant	-11.944
▁arbitres	-11.9445
▁rambardes	-11.9447
▁marie	-11.945
▁ins	-11.9472
ordinateurs	-11.9472
▁loca	-11.9495
b	-11.9502
▁bu	-11.953
▁Ne	-11.9551
lam	-11.9554
ill	-11.9574
▁mainten	-11.9601
année	-11.9615
▁Me	-11.9616
iment	-11.9633
▁dépass	-11.9637
▁balcons	-11.9707
ri	-11.9714
filant	-11.9741
side	-11.9747
rait	-11.9748
llette	-11.9759
▁lot	-11.9764
▁maquillée	-11.9764
ass	-11.9796
hio	-11.9829
▁manœuvr	-11.984
ieux	-11.9852
aid	-11.9855
▁ave	-11.9856
ments	-11.9875
▁Chi	-11.9905
▁enneigées	-11.9912
vie	-11.9929
▁distribu	-11.9944
boyant	-11.9958
▁Mor	-11.9969
▁dev	-11.9969
▁cueill	-11.997
fro	-11.9971
élé	-11.9977
▁ad	-11.9979
▁vir	-12.0006
▁ferr	-12.0015
▁pistes	-12.0033
▁pl	-12.0068
vement	-12.007
▁médit	-12.0095
▁chinoise	-12.0103
▁mesure	-12.0182
▁appel	-12.0187
sement	-12.0193
▁sirot	-12.0195
▁origin	-12.0237
qui	-12.0261
ok	-12.0285
ial	-12.0303
allonge	-12.0304
▁sein	-12.0312
▁engagée	-12.0317
▁lay	-12.0375
▁fraise	-12.0397
▁essu	-12.0398
dy	-12.0426
alité	-12.0431
nché	-12.0448
aine	-12.0468
cture	-12.0499
▁arros	-12.0502
▁cravates	-12.0525
oth	-12.0527
▁mil	-12.0537
▁lait	-12.0538
▁visit	-12.0539
els	-12.0549
▁troupe	-12.0582
▁cri	-12.0654
▁stands	-12.0665
endo	-12.0701
▁décoll	-12.0725
dre	-12.0736
▁culture	-12.0756
▁pati	-12.0757
▁placé	-12.0787
B	-12.0799
▁cl	-12.0813
▁occupé	-12.0831
▁lame	-12.0862
marin	-12.0865
▁trott	-12.0869
▁surdimensionné	-12.0889
▁acc	-12.0898
ph	-12.0922
information	-12.0928
tation	-12.0954
▁lesquel	-12.0954
ts	-12.0983
cre	-12.1004
▁commerciale	-12.1011
ision	-12.1018
▁techn	-12.1019
élev	-12.1034
affiche	-12.1053
ber	-12.1056
▁enflammé	-12.1062
tée	-12.1069
franc	-12.1115
étend	-12.1119
ver	-12.112
▁ho	-12.1123
▁arrivé	-12.1129
▁ceux	-12.1173
roll	-12.1176
hui	-12.119
▁blotti	-12.1202
aventure	-12.1209
▁déjeun	-12.1217
teur	-12.1231
▁command	-12.1241
spect	-12.1248
▁volante	-12.1254
Bien	-12.1255
plié	-12.1258
▁surveill	-12.1275
▁réuni	-12.1277
état	-12.1283
America	-12.1285
orangé	-12.1286
voix	-12.1286
erie	-12.1286
mètres	-12.1289
▁ab	-12.1292
formé	-12.1294
ressent	-12.1295
échappe	-12.1298
▁lo	-12.1299
cross	-12.1299
neige	-12.13
activités	-12.1305
cierge	-12.131
encouragent	-12.1312
▁enregistr	-12.1314
écart	-12.1317
tige	-12.1319
usine	-12.132
hauteur	-12.1321
▁gam	-12.1322
écouter	-12.1322
vaisselle	-12.1322
▁retrait	-12.1324
▁abandonné	-12.1324
arène	-12.1325
ski	-12.1327
endroit	-12.1327
énorme	-12.1327
volley	-12.1327
▁projeté	-12.1327
fille	-12.1328
bras	-12.1328
bébé	-12.1329
champ	-12.1329
après	-12.1334
entraîneur	-12.1334
adolescentes	-12.134
cake	-12.1341
fou	-12.1341
▁rentr	-12.1343
The	-12.1344
approchent	-12.135
▁important	-12.1352
▁vivant	-12.1354
œufs	-12.1354
▁ombragé	-12.1355
▁chirurgical	-12.1355
▁shoot	-12.1357
pas	-12.1357
▁inconnu	-12.136
▁médiéval	-12.136
pen	-12.1361
▁rouillé	-12.1364
▁pingouin	-12.1368
▁commerce	-12.1369
▁glacé	-12.1373
▁chape	-12.138
ouz	-12.1385
▁mètre	-12.1385
▁poncho	-12.1385
▁zombie	-12.1385
▁étiquette	-12.1385
▁politique	-12.1386
▁feuillage	-12.1386
rand	-12.1387
▁oeuvre	-12.1393
▁pâtisserie	-12.1393
▁pneumatique	-12.1393
▁bongo	-12.1394
▁couronne	-12.1394
▁Car	-12.1394
▁kimono	-12.1397
▁tressé	-12.1397
▁store	-12.1397
▁flotteur	-12.1398
▁steak	-12.14
▁spéci	-12.1402
aw	-12.1402
▁juge	-12.1404
▁pastèque	-12.1404
▁voyageur	-12.1407
▁aliment	-12.1408
armes	-12.141
▁sandale	-12.1411
▁Lego	-12.1413
eintes	-12.1417
athlètes	-12.1424
iques	-12.1424
ocal	-12.1425
▁jamb	-12.1431
▁for	-12.1434
▁bouclé	-12.1436
▁pompe	-12.1439
▁toilette	-12.1446
▁mâ	-12.1446
▁crois	-12.1452
▁nourri	-12.1454
▁accompli	-12.146
▁affronte	-12.1463
▁piét	-12.1466
▁Asiatique	-12.1468
tro	-12.1471
errier	-12.1474
▁guerr	-12.148
▁snowboardeurs	-12.1495
hanne	-12.1498
pper	-12.1501
▁contract	-12.1509
duisant	-12.1511
▁baiss	-12.1511
▁braqu	-12.1511
AT	-12.1511
▁traîne	-12.1512
▁élast	-12.1522
▁tatou	-12.1522
▁défile	-12.1523
got	-12.1525
arden	-12.1527
œur	-12.1528
issé	-12.1531
▁so	-12.1533
▁emball	-12.1535
▁écl	-12.1535
▁flora	-12.1538
ignon	-12.1539
▁ado	-12.1541
▁muscl	-12.1541
▁collie	-12.1542
rible	-12.1542
▁récupér	-12.1543
▁applaudi	-12.1544
▁compét	-12.1544
igh	-12.1545
▁engage	-12.1545
▁déménage	-12.1546
meute	-12.1546
ètre	-12.1546
impression	-12.1546
▁cavali	-12.1547
▁polici	-12.1547
▁quotidien	-12.1548
▁cul	-12.1549
▁inhabituel	-12.1549
onverse	-12.155
▁motocycl	-12.155
risbee	-12.155
▁bowl	-12.155
▁agressi	-12.1551
▁châtai	-12.1551
Mexique	-12.1551
affronter	-12.1551
algues	-12.1551
alimentation	-12.1551
aluminium	-12.1551
assoient	-12.1551
avertissement	-12.1551
ietnamien	-12.1551
étudier	-12.1551
▁Berlin	-12.1551
▁Californi	-12.1551
▁Chinatown	-12.1551
▁Company	-12.1551
▁Concert	-12.1551
▁Joe	-12.1551
▁Personne	-12.1551
▁Pizza	-12.1551
▁Pâques	-12.1551
▁Vêtu	-12.1551
▁amicale	-12.1551
▁attablé	-12.1551
▁attentif	-12.1551
▁beignets	-12.1551
▁bitume	-12.1551
▁branchages	-12.1551
▁bunker	-12.1551
▁burqa	-12.1551
▁caissière	-12.1551
▁cameram	-12.1551
▁caméscope	-12.1551
▁cardiaque	-12.1551
▁charriot	-12.1551
▁cloche	-12.1551
▁cocktail	-12.1551
▁concession	-12.1551
▁confus	-12.1551
▁conçu	-12.1551
▁correctement	-12.1551
▁cortège	-12.1551
▁crampons	-12.1551
▁crevettes	-12.1551
▁crocodile	-12.1551
▁croupier	-12.1551
▁cruche	-12.1551
▁créatif	-12.1551
▁dalmatien	-12.1551
▁dramatique	-12.1551
▁démêle	-12.1551
▁dépanneuse	-12.1551
▁déprimé	-12.1551
▁enchaîné	-12.1551
▁escabeau	-12.1551
▁exploit	-12.1551
▁ferroviaire	-12.1551
▁fougères	-12.1551
▁fournitures	-12.1551
▁frustré	-12.1551
▁féroce	-12.1551
▁gaufre	-12.1551
▁graphique	-12.1551
▁grenouill	-12.1551
▁géométrique	-12.1551
▁half	-12.1551
▁haricots	-12.1551
▁harnaché	-12.1551
▁hipster	-12.1551
▁humoristique	-12.1551
▁index	-12.1551
▁intrigué	-12.1551
▁irrité	-12.1551
▁jazz	-12.1551
▁karaoké	-12.1551
▁limousine	-12.1551
▁locomotive	-12.1551
▁lézard	-12.1551
▁majeur	-12.1551
▁menuiserie	-12.1551
▁mosquée	-12.1551
▁mouchoir	-12.1551
▁musculation	-12.1551
▁mécanicien	-12.1551
▁médiévaux	-12.1551
▁mégaphone	-12.1551
▁ninja	-12.1551
▁nécessaire	-12.1551
▁palourdes	-12.1551
▁particulière	-12.1551
▁passagère	-12.1551
▁percuté	-12.1551
▁pharmacie	-12.1551
▁pissenlit	-12.1551
▁princesse	-12.1551
▁printemps	-12.1551
▁prononc	-12.1551
▁propane	-12.1551
▁provisions	-12.1551
▁précipit	-12.1551
▁préservatif	-12.1551
▁pélican	-12.1551
▁rampant	-12.1551
▁rectangulaire	-12.1551
▁recycl	-12.1551
▁rembourré	-12.1551
▁ridicule	-12.1551
▁réchaud	-12.1551
▁réconfortant	-12.1551
▁réconforte	-12.1551
▁sanitaires	-12.1551
▁serpillière	-12.1551
▁simultanément	-12.1551
▁sinistre	-12.1551
▁skimboard	-12.1551
▁street	-12.1551
▁stroboscopiques	-12.1551
▁stupide	-12.1551
▁stéthoscope	-12.1551
▁surpris	-12.1551
▁tabac	-12.1551
▁tagué	-12.1551
▁temporaire	-12.1551
▁toast	-12.1551
▁traje	-12.1551
▁transpir	-12.1551
▁trapèze	-12.1551
▁témoin	-12.1551
▁vallonné	-12.1551
▁varech	-12.1551
▁véranda	-12.1551
▁échiquier	-12.1551
▁éparpillées	-12.1551
▁éprouvette	-12.1551
▁équestre	-12.1551
▁équipage	-12.1551
▁éventuel	-12.1551
▁évènement	-12.1551
aspire	-12.1551
planchiste	-12.1551
▁Saint	-12.1551
▁audio	-12.1551
▁caillou	-12.1551
▁détail	-12.1551
▁gambade	-12.1551
▁vapeur	-12.1551
▁évacue	-12.1551
épluch	-12.1551
▁Broad	-12.1551
▁Patrick	-12.1551
▁beurre	-12.1551
▁bijouterie	-12.1551
▁break	-12.1551
▁diabol	-12.1551
▁hurle	-12.1551
▁immergé	-12.1551
▁reconstitu	-12.1551
▁Angels	-12.1551
▁graines	-12.1551
▁moniteur	-12.1551
▁putt	-12.1551
jab	-12.1551
▁carnet	-12.1551
▁consult	-12.1551
▁dragster	-12.1551
▁folle	-12.1551
▁hangar	-12.1551
oyen	-12.1551
▁colorant	-12.1551
▁wok	-12.1551
▁tribunes	-12.1551
ivan	-12.1551
▁plastron	-12.1551
▁burin	-12.1551
▁escrimeurs	-12.1551
▁franges	-12.1551
▁lointain	-12.1551
▁pavillon	-12.1551
▁cyclable	-12.1551
▁Island	-12.1551
▁geisha	-12.1551
▁liesse	-12.1551
▁loterie	-12.1551
▁pompons	-12.1551
▁soigne	-12.1551
▁inclinable	-12.1551
▁Lakers	-12.1551
▁estrade	-12.1551
▁grains	-12.1551
IN	-12.1551
▁Dieu	-12.1551
▁élément	-12.1551
▁Barbie	-12.1551
▁fourgon	-12.1551
▁talkie	-12.1551
▁entrelacés	-12.1551
▁souffre	-12.1551
▁Shop	-12.1551
▁Castro	-12.1551
▁fitness	-12.1551
itty	-12.1551
▁machette	-12.1551
▁dispers	-12.1551
entrejambe	-12.1551
ketch	-12.1551
▁bague	-12.1551
▁sépare	-12.1551
afé	-12.1551
▁judo	-12.1551
▁couturière	-12.1551
▁histo	-12.1551
▁soutenu	-12.1551
▁bécher	-12.1551
▁comique	-12.1551
▁pollu	-12.1551
▁buggy	-12.1551
▁primaire	-12.1551
inspiration	-12.1551
▁informel	-12.1551
▁protect	-12.1551
▁plaisant	-12.1551
▁affalé	-12.1551
▁congrès	-12.1551
▁Martin	-12.1551
approchés	-12.1551
▁pastel	-12.1551
▁désordre	-12.1551
▁cade	-12.1551
▁panda	-12.1551
▁valeur	-12.1551
▁rituelle	-12.1551
▁brumeuse	-12.1551
▁chope	-12.1551
▁amusé	-12.1551
▁mug	-12.1551
▁bret	-12.1551
▁tournevis	-12.1551
▁séjour	-12.1551
▁tranchée	-12.1551
rape	-12.1551
uitar	-12.1551
▁motocycliste	-12.1551
▁sablonneuse	-12.1551
sphère	-12.1551
▁abdo	-12.1551
▁Japonais	-12.1551
▁amateur	-12.1551
▁décolleté	-12.1551
▁flic	-12.1551
▁accept	-12.1551
▁intéressé	-12.1551
iki	-12.1551
▁soudage	-12.1552
astron	-12.1552
▁patriotique	-12.1552
▁juif	-12.1552
▁élevé	-12.1552
opin	-12.1552
▁rin	-12.1552
arbuste	-12.1552
▁posture	-12.1552
▁coton	-12.1552
unisson	-12.1552
▁confortablement	-12.1552
▁proc	-12.1552
▁enfoncé	-12.1552
▁mixeur	-12.1552
▁mouche	-12.1552
▁Story	-12.1552
▁latino	-12.1552
▁pasteur	-12.1552
▁poker	-12.1552
▁console	-12.1552
▁quasi	-12.1552
▁concev	-12.1552
▁devoirs	-12.1552
▁tournesol	-12.1552
▁atteign	-12.1552
walkie	-12.1552
aviateur	-12.1552
▁acrobate	-12.1553
▁rôle	-12.1553
▁passion	-12.1553
âtre	-12.1553
▁carrel	-12.1553
▁imit	-12.1553
▁découvr	-12.1553
▁expérimenté	-12.1553
▁aval	-12.1553
▁cordon	-12.1553
green	-12.1553
add	-12.1553
▁nid	-12.1553
▁fièrement	-12.1553
▁cause	-12.1553
▁présentateur	-12.1553
▁remont	-12.1553
▁fuit	-12.1554
mpérial	-12.1554
▁bavarder	-12.1554
▁programme	-12.1554
▁cér	-12.1554
▁cowgirl	-12.1554
▁récupéré	-12.1554
idge	-12.1554
▁gitan	-12.1554
▁fré	-12.1554
▁bouclier	-12.1555
▁cata	-12.1555
▁Mad	-12.1555
umeau	-12.1555
▁prof	-12.1555
▁déverse	-12.1555
▁Big	-12.1555
Book	-12.1555
▁motoneige	-12.1555
▁lentement	-12.1555
▁balancelle	-12.1555
▁tissage	-12.1556
▁trio	-12.1556
▁positionné	-12.1556
▁niveaux	-12.1556
▁baille	-12.1556
▁routier	-12.1556
▁signal	-12.1556
▁sauna	-12.1556
▁champignon	-12.1557
▁change	-12.1557
▁doucement	-12.1557
▁boa	-12.1557
▁dentiste	-12.1557
émeute	-12.1557
▁berce	-12.1557
▁épinglé	-12.1557
▁portière	-12.1558
▁sculpté	-12.1558
▁traction	-12.1558
▁découpage	-12.1558
▁savonne	-12.1558
▁gazeuse	-12.1558
▁frime	-12.1559
▁raté	-12.1559
▁oriente	-12.1559
▁déblaie	-12.1559
▁bouquetière	-12.156
▁déguiser	-12.156
▁chauffeur	-12.156
habiller	-12.156
▁nettoyé	-12.156
▁casier	-12.1561
▁cit	-12.1561
▁affiché	-12.1561
ulent	-12.1561
▁promeneur	-12.1561
▁couteaux	-12.1562
Eas	-12.1562
▁désarçonner	-12.1562
▁tiroir	-12.1562
échauffer	-12.1563
▁pouf	-12.1563
ollis	-12.1563
▁malad	-12.1564
▁altitude	-12.1564
cheron	-12.1564
▁joyeu	-12.1565
▁baigné	-12.1565
tiquement	-12.1565
fuyant	-12.1566
▁poursuivi	-12.1567
▁majestueuse	-12.1567
▁identifié	-12.1569
▁préparation	-12.1569
ive	-12.157
▁éteign	-12.157
▁Ni	-12.1572
▁mendiant	-12.1572
▁pleurant	-12.1572
▁serpentin	-12.1573
▁regroupées	-12.1575
▁marteaux	-12.1576
▁situ	-12.1578
▁entretenu	-12.1578
▁mineur	-12.1578
▁décider	-12.1578
▁désertique	-12.1578
▁note	-12.1579
▁coincé	-12.158
ntaines	-12.158
heel	-12.158
▁pulvérisé	-12.1581
▁tricoter	-12.1582
▁Tout	-12.1583
▁envelopp	-12.1585
chet	-12.1586
▁dévis	-12.1586
▁retroussé	-12.1586
▁brochettes	-12.1588
▁cookies	-12.1588
▁massues	-12.1588
▁figurines	-12.1588
▁taillés	-12.1589
▁pelletée	-12.1589
▁vic	-12.1589
▁bich	-12.159
▁déneiger	-12.159
▁Scr	-12.159
▁technologie	-12.1592
▁conditions	-12.1593
▁braqué	-12.1594
▁smasher	-12.1595
atrice	-12.1597
▁colorier	-12.1597
▁pétrole	-12.1597
▁touffue	-12.1597
▁opposée	-12.1598
usée	-12.16
▁rejoin	-12.16
uvant	-12.16
▁pliss	-12.1601
▁maquiller	-12.1602
▁noué	-12.1603
Bron	-12.1603
▁fouett	-12.1606
▁Bur	-12.1606
▁réagiss	-12.1607
out	-12.1607
▁mènent	-12.1607
▁échange	-12.1609
▁ollie	-12.161
teuse	-12.161
▁flexible	-12.161
▁Africain	-12.161
▁Amérindien	-12.161
▁Bull	-12.161
▁Twister	-12.161
▁ambulanc	-12.161
▁interdit	-12.161
▁body	-12.161
▁Cafe	-12.161
▁angle	-12.1611
▁amoureux	-12.1611
▁examen	-12.1611
▁cool	-12.1611
eye	-12.1611
▁race	-12.1611
▁antique	-12.1614
▁maçon	-12.1616
▁palette	-12.1616
▁blé	-12.1616
▁conn	-12.1617
▁gère	-12.1617
engagement	-12.162
▁présenté	-12.1624
▁détendre	-12.1625
▁chasseur	-12.1626
▁cuis	-12.1629
▁Oh	-12.163
▁apparaiss	-12.1631
▁pendu	-12.1632
éc	-12.1635
▁péni	-12.1636
ky	-12.164
▁armés	-12.1644
▁tondu	-12.1645
▁tissée	-12.1648
▁barbelés	-12.1649
▁solaire	-12.1649
ionnelle	-12.1649
agilit	-12.1651
▁joggeurs	-12.1652
▁athlétiques	-12.1652
▁conserves	-12.1652
▁fléchettes	-12.1652
▁hér	-12.1655
▁servis	-12.1656
gers	-12.1657
▁bronzé	-12.166
▁épi	-12.1661
ator	-12.1668
▁touché	-12.1672
▁rouet	-12.1673
▁assemblée	-12.1675
▁effrayée	-12.1677
▁escarpée	-12.1677
▁contr	-12.1681
▁Pap	-12.1683
▁blottiss	-12.1686
▁section	-12.1689
ssent	-12.1699
lée	-12.1704
ON	-12.1704
▁Minne	-12.1705
▁rentre	-12.1708
▁affect	-12.1712
▁accessoires	-12.1713
▁opposé	-12.1713
▁hôte	-12.1714
▁incroyable	-12.1715
▁écolière	-12.1715
▁idiot	-12.1715
▁emballage	-12.1716
usiness	-12.1718
▁feuillages	-12.1718
▁ponchos	-12.1718
▁zombies	-12.1718
▁étiquettes	-12.1718
▁politiques	-12.1718
▁crier	-12.1719
▁coli	-12.1721
▁flotteurs	-12.1722
session	-12.1724
▁desserts	-12.1725
téri	-12.1728
pérer	-12.1741
ale	-12.1745
ignant	-12.1748
▁Sal	-12.1748
▁Ore	-12.1753
▁importante	-12.176
▁tard	-12.176
rendre	-12.1761
▁enterr	-12.1764
rum	-12.177
▁secs	-12.1782
▁crêpes	-12.1786
▁magiques	-12.1786
▁officiels	-12.1786
ences	-12.1787
▁troupes	-12.1787
gée	-12.1812
▁spéciale	-12.1814
▁élaborée	-12.1818
▁croque	-12.182
▁organisé	-12.1821
▁cachée	-12.1822
▁America	-12.1823
▁orangé	-12.1823
▁voix	-12.1831
vi	-12.1832
▁dégage	-12.1834
▁plié	-12.1836
▁saupoudre	-12.1838
▁exc	-12.1844
▁serrée	-12.1847
▁converse	-12.1849
▁fermée	-12.185
ado	-12.185
▁découpés	-12.1853
▁trucs	-12.1853
▁canadiens	-12.1853
▁chiffons	-12.1853
▁vitrées	-12.1853
▁cahiers	-12.1853
▁dindes	-12.1853
▁pr	-12.1855
▁ai	-12.1857
▁ornements	-12.186
▁télévis	-12.1862
▁défie	-12.187
chés	-12.1876
▁rebondiss	-12.1876
▁acheté	-12.1877
▁état	-12.1883
iller	-12.1887
▁creusé	-12.1892
▁exercice	-12.1896
obine	-12.1904
ison	-12.191
▁arrache	-12.1911
rtan	-12.1917
▁porcs	-12.1921
▁huttes	-12.1922
▁continue	-12.1923
▁marathoniens	-12.1924
▁assure	-12.1926
wan	-12.1929
▁commerçante	-12.193
bor	-12.1933
▁sauc	-12.1934
▁dessinées	-12.194
▁élégants	-12.1955
▁intern	-12.1955
sti	-12.1958
pi	-12.1958
▁inspecteur	-12.1963
▁slalome	-12.1966
amp	-12.1985
▁manuels	-12.199
▁extrémités	-12.1991
▁bâches	-12.1991
▁mètres	-12.1997
▁renvo	-12.1998
▁tendues	-12.2005
▁auditi	-12.2006
cide	-12.2007
▁dia	-12.2014
▁chargée	-12.2017
▁cendr	-12.202
▁mâch	-12.2043
ables	-12.2046
▁bambous	-12.206
▁concentrés	-12.206
▁coussins	-12.206
court	-12.2062
▁raides	-12.2062
▁remporte	-12.2065
▁aidé	-12.2068
▁enroule	-12.2071
▁assortis	-12.2073
volte	-12.2092
iquement	-12.2103
▁étreinte	-12.2104
▁préparée	-12.2106
▁chercheur	-12.2119
▁ornement	-12.2122
▁sodas	-12.213
obs	-12.2131
▁Ste	-12.2136
▁vis	-12.214
avantage	-12.2148
▁descendu	-12.2152
▁écur	-12.2156
▁lois	-12.2157
▁photographiés	-12.2158
▁ap	-12.2159
antiquités	-12.2168
▁retien	-12.2171
bo	-12.2175
▁renversée	-12.2193
▁compren	-12.2194
▁intéressante	-12.2195
▁disques	-12.2201
▁disposée	-12.2205
▁grilla	-12.2226
ouf	-12.2226
▁savoureux	-12.223
accrocher	-12.2256
▁bouill	-12.2256
▁délabrée	-12.2267
▁claque	-12.228
▁ouvri	-12.2288
▁lancés	-12.2288
▁transporté	-12.229
eries	-12.231
TE	-12.2314
▁embarque	-12.2317
▁renverse	-12.2325
ements	-12.2328
lus	-12.2331
ateurs	-12.2341
▁imprimée	-12.2373
▁cultive	-12.2375
▁diplômée	-12.2375
▁grillé	-12.2387
ark	-12.2394
go	-12.2399
quent	-12.241
io	-12.2415
ines	-12.242
ster	-12.2438
▁bri	-12.2438
▁suspendues	-12.2441
▁blessée	-12.2465
▁supervis	-12.2465
▁ra	-12.2474
▁meule	-12.248
ances	-12.2488
▁tricycles	-12.2489
▁boutiques	-12.249
▁appuy	-12.2504
▁lancée	-12.2508
ières	-12.252
lent	-12.252
euil	-12.2526
▁rés	-12.2529
sière	-12.253
▁fr	-12.2536
▁Bus	-12.2537
▁rep	-12.2582
éclabousser	-12.2585
sier	-12.259
courent	-12.2608
▁cages	-12.2636
▁crânes	-12.2637
▁sortis	-12.265
▁cap	-12.2667
opcorn	-12.2677
impl	-12.2678
▁étals	-12.2694
▁ajoute	-12.2697
▁papillons	-12.2711
▁st	-12.2727
ches	-12.2742
gine	-12.2745
▁Chan	-12.2749
▁étire	-12.2754
▁na	-12.2767
sage	-12.2779
▁somme	-12.2791
▁patinant	-12.2792
▁hum	-12.2803
▁dessert	-12.2807
▁ass	-12.2808
▁tambours	-12.2864
▁Bra	-12.2894
emp	-12.2897
men	-12.29
▁per	-12.2922
igne	-12.2924
▁étranges	-12.2936
▁tie	-12.2947
ul	-12.2959
▁vase	-12.2962
▁carrée	-12.2969
tension	-12.2977
LA	-12.2978
orce	-12.2983
▁publicitaires	-12.3015
▁étrangers	-12.3016
▁men	-12.3018
▁extra	-12.3038
▁arrosage	-12.3044
ication	-12.305
quin	-12.3114
▁statues	-12.3117
suite	-12.3121
▁accord	-12.3129
▁Sch	-12.3133
entrain	-12.3141
itaine	-12.3144
▁survêtements	-12.315
▁cos	-12.3156
▁poursuiv	-12.3166
▁bérets	-12.3171
ations	-12.3173
▁cent	-12.318
▁campe	-12.3182
▁cara	-12.3182
ré	-12.3213
vel	-12.323
▁gouverne	-12.3251
▁pains	-12.3254
▁aventure	-12.3354
nal	-12.3377
▁Co	-12.3379
ek	-12.338
trait	-12.339
▁sommets	-12.3399
▁rames	-12.3401
▁Do	-12.3407
▁chambres	-12.341
▁réceptionn	-12.3418
▁éclairées	-12.3435
înent	-12.3444
erçant	-12.348
quette	-12.3492
appel	-12.3502
ssis	-12.3514
oint	-12.3535
ec	-12.3556
▁ven	-12.3567
▁relev	-12.3579
sence	-12.3582
▁exécut	-12.3593
lotte	-12.3644
▁Av	-12.3662
ltim	-12.3668
laçant	-12.3684
▁barbi	-12.369
▁survole	-12.3696
▁frac	-12.3721
▁conduite	-12.3722
▁Centr	-12.3747
▁boisseau	-12.3754
ler	-12.3772
▁plates	-12.3793
act	-12.3795
▁principal	-12.3807
▁sign	-12.3808
altim	-12.3818
▁luxe	-12.3831
li	-12.3836
▁app	-12.3856
▁perce	-12.3923
▁mét	-12.393
▁Che	-12.3987
▁marqu	-12.4001
posés	-12.4004
▁emprunte	-12.4011
▁dîne	-12.4046
▁cli	-12.4051
▁poi	-12.406
▁enneigés	-12.4069
day	-12.4136
onnée	-12.4176
pare	-12.42
▁li	-12.4207
▁rénov	-12.4222
▁Sta	-12.4254
▁boy	-12.4304
▁capita	-12.4346
▁traineau	-12.4371
▁finiss	-12.4391
▁finisse	-12.4402
▁exa	-12.442
w	-12.4442
ache	-12.4442
▁danseur	-12.4444
onc	-12.4465
▁photographi	-12.4468
yn	-12.4498
cher	-12.4593
▁husk	-12.4694
équi	-12.4699
▁réalis	-12.47
nou	-12.471
occup	-12.4736
rid	-12.4736
▁labour	-12.4743
▁attaque	-12.4753
cha	-12.4753
immobilis	-12.4775
mmer	-12.4777
▁sauteur	-12.4779
▁me	-12.4793
▁récolt	-12.4797
rette	-12.481
▁soud	-12.4853
ga	-12.4877
fo	-12.4909
taille	-12.4912
ration	-12.4916
end	-12.4917
▁Air	-12.4919
▁récréati	-12.495
▁miroirs	-12.4972
▁reç	-12.4988
▁gorg	-12.5017
ta	-12.508
▁prépara	-12.508
▁galop	-12.5082
uc	-12.509
▁Ch	-12.5095
▁sauve	-12.511
▁Vo	-12.5116
▁poses	-12.5136
tch	-12.5136
interroge	-12.5147
▁ajout	-12.5153
accorde	-12.5161
▁tasses	-12.5178
rée	-12.5213
▁cach	-12.5263
▁pulvéris	-12.5338
illa	-12.5343
▁attach	-12.5369
riture	-12.5389
▁embarqu	-12.5411
pace	-12.5418
▁Bu	-12.5428
no	-12.5449
▁mine	-12.5455
uve	-12.5462
▁ornementa	-12.547
lub	-12.5497
▁parois	-12.552
▁pass	-12.5531
▁to	-12.5534
▁détach	-12.5546
▁jac	-12.5555
endant	-12.5567
▁animées	-12.5568
▁agi	-12.5578
▁interview	-12.5668
ho	-12.5669
isme	-12.5687
iking	-12.5693
ologique	-12.5697
▁étonn	-12.5698
levant	-12.5704
iole	-12.5705
nette	-12.5706
rte	-12.5737
▁ferm	-12.5743
▁rem	-12.5749
▁flottante	-12.5793
ling	-12.5797
▁publics	-12.5812
aise	-12.5828
N	-12.5833
vo	-12.5846
▁sou	-12.5847
▁audition	-12.5863
▁contemple	-12.5888
▁mauvais	-12.5901
ger	-12.5929
cés	-12.5955
▁entoure	-12.5956
ime	-12.597
▁intégral	-12.5977
intéressantes	-12.5992
ha	-12.602
llés	-12.6037
▁servi	-12.605
amas	-12.6067
étoile	-12.6072
ici	-12.6073
▁tournoie	-12.6076
ques	-12.6078
iqué	-12.6078
vin	-12.608
▁nation	-12.6088
▁repren	-12.6114
aillant	-12.6117
▁croqu	-12.6125
▁élaboré	-12.6128
accompagn	-12.6135
mart	-12.6141
In	-12.6142
▁Pa	-12.6151
appartement	-12.6155
face	-12.6158
élan	-12.6161
athlète	-12.6164
▁sau	-12.6177
gonflé	-12.618
mb	-12.618
attraction	-12.6181
▁caché	-12.6187
outil	-12.6189
▁déten	-12.6201
▁artisanal	-12.6206
chut	-12.6206
mbo	-12.6208
ouer	-12.6214
▁appui	-12.6218
yo	-12.6219
uniforme	-12.6227
▁sorti	-12.623
fer	-12.6232
arm	-12.6232
âne	-12.6235
▁permet	-12.6238
Un	-12.6239
▁rassemblé	-12.6242
back	-12.6246
▁moul	-12.625
▁médi	-12.6252
ract	-12.6254
imm	-12.6256
hippodrome	-12.626
com	-12.6267
iner	-12.6268
traînée	-12.6277
ajoute	-12.6281
étal	-12.6284
hôte	-12.6287
ornements	-12.6288
emballage	-12.6288
incroyable	-12.6288
idiot	-12.6288
écolière	-12.6288
épi	-12.6294
affect	-12.6294
attach	-12.6294
atterrissa	-12.6298
brise	-12.6301
ôme	-12.6301
▁agité	-12.6302
fait	-12.6304
asperge	-12.6306
all	-12.6307
appliqu	-12.6307
▁préparé	-12.6309
étage	-12.6309
abst	-12.6309
approchant	-12.6311
ascension	-12.6312
enceinte	-12.6312
essuie	-12.6312
occupés	-12.6312
projecteur	-12.6315
rai	-12.6315
Elmo	-12.6315
notes	-12.6315
écoute	-12.6315
hélicoptère	-12.6317
entreprise	-12.6317
épais	-12.6317
anneau	-12.6318
▁tract	-12.6318
direct	-12.6319
échecs	-12.6319
plaqué	-12.6319
arche	-12.632
Texas	-12.632
imprimé	-12.632
éclairage	-12.632
auvent	-12.6321
parents	-12.6321
éléphant	-12.6322
agite	-12.6322
habit	-12.6322
disque	-12.6322
engin	-12.6323
cou	-12.6323
▁désarçonn	-12.6323
immense	-12.6324
étoffe	-12.6324
hoop	-12.6324
intersection	-12.6325
ouvre	-12.6325
▁entraîné	-12.6325
incendie	-12.6326
taxi	-12.6326
aliments	-12.6326
▁familial	-12.6326
▁verglacé	-12.6326
▁souterrain	-12.6326
▁costumé	-12.6327
adversaire	-12.6327
TV	-12.6327
câlin	-12.6328
étang	-12.6328
remorque	-12.6328
envoi	-12.6329
golf	-12.6329
jupe	-12.633
temps	-12.633
▁décontracté	-12.633
foot	-12.633
pierre	-12.633
cheveux	-12.6331
terrain	-12.6331
zone	-12.6332
▁lavan	-12.6332
plein	-12.6333
ura	-12.6333
vélos	-12.6334
père	-12.6334
tout	-12.6337
observent	-12.6338
En	-12.6338
▁retour	-12.6341
ommes	-12.6342
▁tub	-12.6346
terre	-12.6347
▁effrayé	-12.6347
hot	-12.6348
▁escarpé	-12.6349
couvert	-12.6349
▁assemblé	-12.6351
ajuste	-12.6353
▁masqu	-12.6354
▁conférenc	-12.6356
▁luxuriant	-12.6357
Bo	-12.6358
▁civil	-12.6362
▁sprint	-12.6362
▁pliant	-12.6365
▁descent	-12.6369
▁poignet	-12.637
parleur	-12.637
▁indigène	-12.637
▁boît	-12.6371
▁minijupe	-12.6371
▁poulie	-12.6371
▁mauve	-12.6372
▁spécial	-12.6373
▁question	-12.6373
▁casqu	-12.6373
▁Va	-12.6378
▁pelucheuse	-12.6383
héro	-12.6387
▁accessoire	-12.6387
▁athlétique	-12.6387
▁conserve	-12.6387
ruelle	-12.6388
▁fléchette	-12.6388
ich	-12.6391
exhib	-12.6393
▁acrobatique	-12.6395
ning	-12.6396
▁arm	-12.6398
▁sprinkler	-12.6399
▁ruine	-12.6399
▁bœuf	-12.6402
▁joggeur	-12.6404
▁force	-12.6406
▁perle	-12.6408
▁jumelle	-12.6408
▁alignée	-12.6408
▁lèvre	-12.6409
▁bonbon	-12.641
▁article	-12.6411
excit	-12.6414
▁rout	-12.6416
pote	-12.6417
fes	-12.6417
▁décoration	-12.6417
versa	-12.6421
ales	-12.6425
▁mural	-12.6428
▁abat	-12.6434
roite	-12.6435
bag	-12.6438
▁appr	-12.6439
▁fumé	-12.6451
▁promen	-12.6451
grès	-12.6452
▁écouteur	-12.6455
ilité	-12.6455
nterne	-12.6458
▁réagi	-12.6459
▁trot	-12.6461
▁ress	-12.6461
usement	-12.6466
▁gri	-12.6472
bar	-12.6476
▁mu	-12.6478
▁bull	-12.6478
▁dég	-12.6479
▁emb	-12.6481
▁équilibr	-12.6487
▁lettre	-12.6491
▁lib	-12.6493
AM	-12.6497
▁journaliste	-12.6498
ica	-12.6501
▁rev	-12.6502
▁crus	-12.6509
ffleur	-12.6511
▁rép	-12.6512
▁scout	-12.6515
otel	-12.6517
▁flot	-12.6517
▁mémo	-12.6521
architectur	-12.6522
▁brilla	-12.6524
▁cime	-12.6525
ara	-12.6528
rès	-12.6529
ltitude	-12.653
iège	-12.653
▁commen	-12.6532
ranch	-12.6532
écou	-12.6534
▁joggeu	-12.6534
entaine	-12.6535
habille	-12.6535
▁déguise	-12.6535
▁triba	-12.6536
ipe	-12.6536
vêt	-12.6537
▁démar	-12.6538
▁chauffe	-12.6538
zz	-12.6539
iz	-12.6539
▁entreten	-12.654
férence	-12.6541
own	-12.6541
Ne	-12.6543
rice	-12.6544
▁suspend	-12.6544
endorm	-12.6544
▁rév	-12.6544
Bre	-12.6545
uzz	-12.6546
vage	-12.6546
▁cristal	-12.6546
▁complète	-12.6546
lympiques	-12.6546
uffe	-12.6546
▁instru	-12.6547
▁expériment	-12.6547
▁déj	-12.6547
▁concer	-12.6547
édiat	-12.6548
ignée	-12.6548
▁défense	-12.6548
▁intervie	-12.6548
▁suspen	-12.6548
▁malheureu	-12.6549
olo	-12.6549
▁habil	-12.6549
▁énergi	-12.6549
▁patriot	-12.6549
▁néglig	-12.6549
row	-12.6549
▁ethni	-12.6549
▁échafaud	-12.6549
ébé	-12.6549
except	-12.655
reakdance	-12.655
▁chimi	-12.655
▁confort	-12.655
▁perro	-12.655
▁municipa	-12.655
▁pelot	-12.655
lettes	-12.655
▁réfugi	-12.655
▁boulanger	-12.655
onsieur	-12.655
enaissance	-12.655
olkswagen	-12.655
înant	-12.655
▁commémorati	-12.655
▁resp	-12.655
▁punch	-12.655
▁crè	-12.655
▁végéta	-12.655
▁sponsor	-12.655
bér	-12.655
alphab	-12.6551
uffle	-12.6551
▁baptis	-12.6551
▁comédie	-12.6551
▁fluorescent	-12.6551
▁poivr	-12.6551
▁web	-12.6551
Alaska	-12.6551
Angleterre	-12.6551
Atlanta	-12.6551
Italie	-12.6551
Joyeu	-12.6551
achève	-12.6551
adio	-12.6551
alligator	-12.6551
arlem	-12.6551
assoupi	-12.6551
aël	-12.6551
builder	-12.6551
bâille	-12.6551
dgets	-12.6551
eineken	-12.6551
elcome	-12.6551
embarcadère	-12.6551
empanadas	-12.6551
emplacement	-12.6551
encadrement	-12.6551
entrepreneur	-12.6551
grenier	-12.6551
ibbon	-12.6551
igital	-12.6551
innocen	-12.6551
intimité	-12.6551
inverse	-12.6551
noopy	-12.6551
nstructeur	-12.6551
observation	-12.6551
occinelle	-12.6551
oxygène	-12.6551
parfum	-12.6551
rancisco	-12.6551
séquence	-12.6551
udweiser	-12.6551
urdou	-12.6551
ébrouant	-12.6551
élimin	-12.6551
▁Blanche	-12.6551
▁Block	-12.6551
▁Canada	-12.6551
▁Challenge	-12.6551
▁Circus	-12.6551
▁David	-12.6551
▁Doberman	-12.6551
▁Eiffel	-12.6551
▁Express	-12.6551
▁Joue	-12.6551
▁McDo	-12.6551
▁Michigan	-12.6551
▁Mohawk	-12.6551
▁Samsung	-12.6551
▁Scooby	-12.6551
▁Scout	-12.6551
▁Seahawks	-12.6551
▁Swiffer	-12.6551
▁Transformer	-12.6551
▁abaissé	-12.6551
▁administrati	-12.6551
▁agrafe	-12.6551
▁alcoolisées	-12.6551
▁ambré	-12.6551
▁amphithéâtre	-12.6551
▁amputé	-12.6551
▁angoiss	-12.6551
▁artérielle	-12.6551
▁aîné	-12.6551
▁bazar	-12.6551
▁beffroi	-12.6551
▁bibelots	-12.6551
▁biberon	-12.6551
▁biscuits	-12.6551
▁bitumé	-12.6551
▁blindé	-12.6551
▁bouddhiste	-12.6551
▁braderie	-12.6551
▁brancard	-12.6551
▁breuvage	-12.6551
▁brigad	-12.6551
▁brindille	-12.6551
▁broché	-12.6551
▁brocolis	-12.6551
▁brésilien	-12.6551
▁buanderie	-12.6551
▁cabanon	-12.6551
▁cactus	-12.6551
▁captivé	-12.6551
▁capuchon	-12.6551
▁carabine	-12.6551
▁chatouill	-12.6551
▁chiffre	-12.6551
▁choristes	-12.6551
▁cinéma	-12.6551
▁citerne	-12.6551
▁cochon	-12.6551
▁comestible	-12.6551
▁communautaire	-12.6551
▁compartiment	-12.6551
▁composition	-12.6551
▁condiment	-12.6551
▁confiserie	-12.6551
▁conifère	-12.6551
▁contorsionn	-12.6551
▁corbeille	-12.6551
▁costaud	-12.6551
▁coéquipière	-12.6551
▁crevasse	-12.6551
▁cuissardes	-12.6551
▁côtière	-12.6551
▁difficulté	-12.6551
▁dissimul	-12.6551
▁distinct	-12.6551
▁domaine	-12.6551
▁déchaînée	-12.6551
▁défensi	-12.6551
▁délimitée	-12.6551
▁déluge	-12.6551
▁dépotoir	-12.6551
▁désolé	-12.6551
▁déterminé	-12.6551
▁embrumé	-12.6551
▁enfermé	-12.6551
▁engrenage	-12.6551
▁espadrilles	-12.6551
▁espresso	-12.6551
▁esquiv	-12.6551
▁excentrique	-12.6551
▁exemplaire	-12.6551
▁explose	-12.6551
▁extatiquement	-12.6551
▁extravagant	-12.6551
▁festivités	-12.6551
▁fidèle	-12.6551
▁fissuré	-12.6551
▁flambeau	-12.6551
▁freestyle	-12.6551
▁gastronomique	-12.6551
▁glaçage	-12.6551
▁gondol	-12.6551
▁grimaçant	-12.6551
▁grogne	-12.6551
▁haltère	-12.6551
▁harmonie	-12.6551
▁horrifié	-12.6551
▁hydraulique	-12.6551
▁iPhone	-12.6551
▁illustr	-12.6551
▁irlandais	-12.6551
▁islamique	-12.6551
▁jumeaux	-12.6551
▁jumping	-12.6551
▁latérale	-12.6551
▁limonade	-12.6551
▁looping	-12.6551
▁luminaires	-12.6551
▁manivelle	-12.6551
▁manucure	-12.6551
▁mathématiques	-12.6551
▁mongol	-12.6551
▁moussu	-12.6551
▁multimédia	-12.6551
▁niveler	-12.6551
▁néerlandais	-12.6551
▁négocie	-12.6551
▁observateurs	-12.6551
▁occidenta	-12.6551
▁offert	-12.6551
▁ovation	-12.6551
▁panorama	-12.6551
▁parcmètre	-12.6551
▁pianiste	-12.6551
▁pioche	-12.6551
▁pirogue	-12.6551
▁polystyrène	-12.6551
▁poméranien	-12.6551
▁portative	-12.6551
▁primitif	-12.6551
▁privé	-12.6551
▁production	-12.6551
▁propriété	-12.6551
▁pylône	-12.6551
▁pâtissier	-12.6551
▁pâturage	-12.6551
▁pédestre	-12.6551
▁racines	-12.6551
▁rembarde	-12.6551
▁rembourrage	-12.6551
▁remorqué	-12.6551
▁reportage	-12.6551
▁respiratoire	-12.6551
▁respirer	-12.6551
▁ressources	-12.6551
▁rocailleuse	-12.6551
▁râp	-12.6551
▁réflexion	-12.6551
▁réservoir	-12.6551
▁résidentiel	-12.6551
▁réticent	-12.6551
▁snorkeling	-12.6551
▁somnolent	-12.6551
▁source	-12.6551
▁spaghetti	-12.6551
▁spinning	-12.6551
▁stabilise	-12.6551
▁stock	-12.6551
▁succès	-12.6551
▁supérieur	-12.6551
▁surchargé	-12.6551
▁sushis	-12.6551
▁séquoia	-12.6551
▁tickets	-12.6551
▁transforma	-12.6551
▁trèfle	-12.6551
▁tôle	-12.6551
▁urgentistes	-12.6551
▁urinoir	-12.6551
▁vignoble	-12.6551
▁vétérans	-12.6551
▁western	-12.6551
▁écrasée	-12.6551
▁égyptien	-12.6551
▁érigé	-12.6551
▁établi	-12.6551
▁étiqueté	-12.6551
▁bistro	-12.6551
Arrêt	-12.6551
hospitali	-12.6551
jarret	-12.6551
réservé	-12.6551
▁Ocean	-12.6551
▁ampoule	-12.6551
▁aveugl	-12.6551
▁baladant	-12.6551
▁besace	-12.6551
▁carotte	-12.6551
▁carrosse	-12.6551
▁chevelu	-12.6551
▁comporte	-12.6551
▁coréen	-12.6551
▁effrayant	-12.6551
▁exotique	-12.6551
▁gravats	-12.6551
▁gên	-12.6551
▁mousquet	-12.6551
▁métropol	-12.6551
▁ovale	-12.6551
▁porcelet	-12.6551
▁racl	-12.6551
▁respectifs	-12.6551
▁sinueux	-12.6551
▁terroris	-12.6551
▁ventilateur	-12.6551
▁verrière	-12.6551
▁yoyo	-12.6551
dimanch	-12.6551
horrible	-12.6551
icolore	-12.6551
▁City	-12.6551
▁JA	-12.6551
▁déclar	-12.6551
▁fantaisistes	-12.6551
▁friser	-12.6551
▁réjoui	-12.6551
▁string	-12.6551
▁élagu	-12.6551
▁Chevrolet	-12.6551
▁affairé	-12.6551
▁dédica	-12.6551
▁envahi	-12.6551
▁fonctionnaire	-12.6551
▁grind	-12.6551
▁housse	-12.6551
▁justice	-12.6551
▁possib	-12.6551
▁rafraîchiss	-12.6551
oustiqu	-12.6551
compens	-12.6551
opsicle	-12.6551
rayola	-12.6551
▁cadenas	-12.6551
▁central	-12.6551
▁démoli	-12.6551
▁emporter	-12.6551
▁fluide	-12.6551
▁gentlem	-12.6551
▁hibou	-12.6551
▁internationaux	-12.6551
▁manquante	-12.6551
▁risque	-12.6551
▁somptueu	-12.6551
▁téléphérique	-12.6551
burn	-12.6551
▁copine	-12.6551
▁héb	-12.6551
▁mouille	-12.6551
entendent	-12.6551
▁canalisation	-12.6551
▁protectrice	-12.6551
▁riche	-12.6551
▁signifi	-12.6551
▁furet	-12.6551
▁faim	-12.6551
▁pensée	-12.6551
▁vingtaine	-12.6551
spiration	-12.6551
▁Prince	-12.6551
▁baby	-12.6551
▁réussi	-12.6551
▁scanne	-12.6551
▁spécialisé	-12.6551
▁violence	-12.6551
▁grillagée	-12.6551
▁pétriss	-12.6551
▁raffiné	-12.6551
horns	-12.6551
▁broyeuse	-12.6551
▁corsaire	-12.6551
▁moelleux	-12.6551
▁soignée	-12.6551
▁capture	-12.6551
▁excavat	-12.6551
▁médias	-12.6551
▁sinueuse	-12.6551
riomph	-12.6551
wood	-12.6551
▁hippie	-12.6551
burger	-12.6551
▁baleine	-12.6551
▁motorisé	-12.6551
▁soucoupe	-12.6551
▁cuisiné	-12.6551
▁binette	-12.6551
orah	-12.6551
▁gyro	-12.6551
Spring	-12.6551
ndou	-12.6551
▁MMA	-12.6551
▁exig	-12.6551
▁renommé	-12.6551
▁Mustang	-12.6551
Arc	-12.6551
▁contour	-12.6551
▁détrui	-12.6551
▁mariachi	-12.6551
▁colporteur	-12.6551
▁hivernal	-12.6551
▁batelier	-12.6551
▁foulée	-12.6551
▁iP	-12.6551
▁Olympiques	-12.6551
▁Life	-12.6551
▁tourbillon	-12.6551
▁commémoratif	-12.6551
▁juive	-12.6551
▁moussant	-12.6551
▁tacle	-12.6551
averse	-12.6551
▁répand	-12.6551
▁certifi	-12.6551
érable	-12.6551
▁mécon	-12.6551
▁récréatif	-12.6551
▁inox	-12.6551
▁rapprochant	-12.6551
▁renaissance	-12.6551
▁bodyboard	-12.6551
▁sucre	-12.6551
▁suspect	-12.6551
EN	-12.6551
vote	-12.6551
▁copie	-12.6551
▁résille	-12.6551
▁concombre	-12.6551
▁dispar	-12.6551
▁déchaîne	-12.6551
MCA	-12.6551
berry	-12.6551
▁néon	-12.6551
▁sarong	-12.6551
▁charlotte	-12.6551
▁fierté	-12.6551
▁punching	-12.6551
▁sauf	-12.6551
▁cargo	-12.6551
giste	-12.6551
mêlée	-12.6551
▁bandage	-12.6551
▁démodé	-12.6551
▁Profi	-12.6551
▁épar	-12.6551
mands	-12.6551
▁coulissante	-12.6551
▁réfugiés	-12.6551
▁attirail	-12.6551
▁prière	-12.6551
▁festive	-12.6551
▁congé	-12.6551
▁choc	-12.6551
▁hissé	-12.6551
▁Notre	-12.6551
pression	-12.6551
▁Peter	-12.6551
▁consomm	-12.6551
▁laitue	-12.6551
▁repéré	-12.6551
▁requin	-12.6551
keb	-12.6551
▁amérindienne	-12.6551
▁léché	-12.6551
▁meulage	-12.6551
▁récoltés	-12.6551
▁favorite	-12.6551
▁fumier	-12.6551
▁modeste	-12.6551
▁chiche	-12.6551
▁cardi	-12.6551
down	-12.6551
▁assuré	-12.6551
▁Sport	-12.6552
▁intime	-12.6552
argenterie	-12.6552
▁récit	-12.6552
▁oculaire	-12.6552
▁excepté	-12.6552
▁Out	-12.6552
▁ridé	-12.6552
▁défait	-12.6552
UI	-12.6552
▁tourisme	-12.6552
▁goulot	-12.6552
▁pauvreté	-12.6552
▁percée	-12.6552
▁chimique	-12.6552
▁pépi	-12.6552
▁poudreuse	-12.6552
▁silenc	-12.6552
▁postales	-12.6552
▁négligée	-12.6552
illons	-12.6552
▁Iz	-12.6552
▁new	-12.6552
▁empr	-12.6552
▁rafraîchissante	-12.6552
▁plomb	-12.6552
▁terminus	-12.6552
▁escar	-12.6552
▁énergiquement	-12.6552
▁photographique	-12.6552
▁semelle	-12.6552
▁démarre	-12.6553
▁volcan	-12.6553
ral	-12.6553
Arm	-12.6553
▁trente	-12.6553
won	-12.6553
▁courrier	-12.6553
▁présentoir	-12.6553
▁créateur	-12.6553
▁pénombre	-12.6553
opper	-12.6553
expressif	-12.6553
UE	-12.6553
▁Coffee	-12.6553
fuient	-12.6553
▁rigolote	-12.6553
▁mime	-12.6553
ink	-12.6553
▁attelle	-12.6553
▁fish	-12.6553
onder	-12.6554
▁chaume	-12.6554
évas	-12.6554
▁Mc	-12.6554
▁secret	-12.6554
LO	-12.6554
ulk	-12.6554
▁réc	-12.6554
rizzl	-12.6554
▁féli	-12.6554
sevel	-12.6555
Carol	-12.6555
▁jointes	-12.6555
anora	-12.6555
▁cristallin	-12.6555
▁Bank	-12.6555
▁brisé	-12.6555
taires	-12.6555
▁orateur	-12.6555
▁corrid	-12.6555
▁opère	-12.6556
▁bagg	-12.6556
▁campus	-12.6556
▁industrielle	-12.6556
▁Cost	-12.6556
▁bison	-12.6556
▁kit	-12.6556
lap	-12.6556
rodé	-12.6557
▁gallon	-12.6557
aki	-12.6557
êt	-12.6557
▁chandelles	-12.6557
▁May	-12.6557
▁fourche	-12.6557
▁facia	-12.6557
ight	-12.6557
▁européenne	-12.6557
▁usé	-12.6557
▁sanglée	-12.6557
▁Domin	-12.6558
mbre	-12.6558
olution	-12.6558
▁révise	-12.6558
▁idé	-12.6558
icule	-12.6558
▁raff	-12.6558
▁ocre	-12.6558
▁oignon	-12.6559
▁déménagement	-12.6559
▁serein	-12.6559
▁swe	-12.6559
▁voisin	-12.6559
▁géran	-12.6559
▁navetteur	-12.6559
tory	-12.656
uilles	-12.656
▁Indienne	-12.656
espoir	-12.656
▁ni	-12.656
gon	-12.6561
apporte	-12.6561
▁colorié	-12.6561
▁swing	-12.6561
▁déplacé	-12.6561
arié	-12.6561
▁suce	-12.6562
▁fon	-12.6562
▁bruy	-12.6562
▁Peu	-12.6562
IS	-12.6563
eize	-12.6563
▁violent	-12.6563
▁démont	-12.6563
uck	-12.6563
lein	-12.6565
▁rattraper	-12.6565
terback	-12.6565
▁rapprocher	-12.6567
aker	-12.6567
▁oies	-12.6568
▁gateau	-12.6568
▁improvisé	-12.6568
human	-12.6568
flash	-12.6568
▁illumine	-12.6569
▁mixer	-12.6569
Cyclone	-12.6569
▁gagné	-12.6569
▁Louis	-12.657
▁Mon	-12.657
blement	-12.657
▁dernier	-12.6571
▁croc	-12.6571
lique	-12.6571
oppos	-12.6573
ouchement	-12.6574
Center	-12.6574
zag	-12.6574
▁my	-12.6574
▁installation	-12.6574
▁repasser	-12.6575
▁Cap	-12.6576
▁permanent	-12.6576
▁Pat	-12.6576
▁fonc	-12.6576
assey	-12.6577
▁dépli	-12.6577
▁mulet	-12.6577
▁branché	-12.6578
▁parfait	-12.6579
▁recueilli	-12.6579
▁architectura	-12.6579
résil	-12.6579
▁brumeux	-12.658
▁drag	-12.658
morial	-12.6581
▁Vieil	-12.6581
▁tranquillement	-12.6582
attire	-12.6582
▁val	-12.6583
yan	-12.6583
▁tireuse	-12.6584
ptée	-12.6586
▁traîneaux	-12.6586
▁Cher	-12.6587
▁party	-12.6587
▁chut	-12.6588
▁abondant	-12.6588
équat	-12.6588
pé	-12.6589
▁Day	-12.659
house	-12.659
▁plaqueur	-12.6591
▁symp	-12.6592
ituée	-12.6592
gardée	-12.6593
▁pensive	-12.6594
▁liée	-12.6594
▁piment	-12.6594
▁SM	-12.6597
▁Mur	-12.6597
quée	-12.6598
▁remorqueur	-12.6599
▁activ	-12.66
▁libér	-12.66
niste	-12.66
niers	-12.66
▁déroulant	-12.66
▁capital	-12.6602
▁dense	-12.6602
▁distribuer	-12.6602
liner	-12.6603
▁fraie	-12.6603
acker	-12.6603
▁manœuvré	-12.6604
NE	-12.6606
inger	-12.6606
uz	-12.6606
▁fourre	-12.6608
alter	-12.6609
informations	-12.661
pagne	-12.661
▁connu	-12.661
▁spare	-12.661
▁pagayer	-12.6613
▁mortier	-12.6613
▁voca	-12.6613
èrement	-12.6614
▁mixe	-12.6615
nel	-12.6617
▁quotidiennes	-12.6617
▁immobiles	-12.6617
▁chevilles	-12.6617
▁semblables	-12.6617
▁blessures	-12.6617
▁chamallows	-12.6617
▁coquillages	-12.6617
▁dollars	-12.6617
▁flocons	-12.6617
▁noeuds	-12.6617
▁conseils	-12.6617
▁euros	-12.6618
▁cuisses	-12.6618
rous	-12.6618
▁dossiers	-12.6618
▁Mach	-12.6619
▁humains	-12.6619
▁bouchons	-12.6619
▁écartées	-12.6619
▁séparées	-12.662
▁métall	-12.6621
▁visiteurs	-12.6621
MC	-12.6622
▁taureaux	-12.6623
▁mené	-12.6624
shir	-12.6625
▁marier	-12.6626
▁enflammées	-12.663
▁identifi	-12.663
▁Cal	-12.6632
▁DI	-12.6632
▁fâchée	-12.6634
▁taggée	-12.6634
▁scintillante	-12.6634
▁émerveillée	-12.6634
▁barbelé	-12.6634
Shi	-12.6634
rés	-12.6637
▁fondation	-12.6639
▁Petr	-12.6641
éch	-12.6641
lées	-12.6641
▁Mang	-12.6642
AI	-12.6645
▁soulevées	-12.6646
▁molle	-12.6652
erb	-12.6652
enlacer	-12.6653
▁rapproche	-12.6653
▁breakdancer	-12.6655
irt	-12.6656
▁enjamb	-12.6658
▁italien	-12.6659
▁vingt	-12.6659
▁ardoise	-12.6659
▁Espagne	-12.6659
▁shampooing	-12.6659
▁émotion	-12.6659
▁archéolog	-12.6659
▁Jim	-12.6659
▁excitant	-12.6659
▁play	-12.6661
▁trave	-12.6662
mpact	-12.6663
▁Chun	-12.6663
▁science	-12.667
▁pla	-12.667
hers	-12.6672
lass	-12.6674
▁éclair	-12.6677
liers	-12.6678
▁colonia	-12.668
▁surveiller	-12.6684
▁tort	-12.6685
uel	-12.6688
péré	-12.6688
▁repasse	-12.6688
▁Am	-12.6689
▁peuple	-12.669
▁génér	-12.6693
rder	-12.6695
▁fourr	-12.6702
étr	-12.6703
entraîner	-12.6704
▁devrai	-12.6704
▁majorit	-12.6706
▁Seu	-12.671
▁siro	-12.6712
rance	-12.6713
▁volleyeuse	-12.6717
rri	-12.6719
▁cy	-12.672
▁tablette	-12.6721
étirent	-12.6727
▁intervenant	-12.6727
utilis	-12.6729
▁martia	-12.6732
▁tassé	-12.6733
▁journalistes	-12.6734
▁mauves	-12.6734
▁indigènes	-12.6734
▁minijupes	-12.6734
▁questions	-12.6734
▁poulies	-12.6734
parleurs	-12.6736
▁pelucheuses	-12.6737
agés	-12.6741
immeubles	-12.6747
▁grisonnant	-12.675
▁devine	-12.6751
urrit	-12.6752
▁retirées	-12.6754
alliance	-12.6757
▁Sh	-12.6758
▁piloté	-12.6762
▁désarçonne	-12.6764
▁moule	-12.6777
▁costumée	-12.6779
▁souterraine	-12.678
▁familiale	-12.678
▁verglacée	-12.678
llo	-12.6781
Adi	-12.6783
▁goutte	-12.6784
▁barricade	-12.6784
▁intéressant	-12.6785
▁gonflée	-12.6785
sanglant	-12.6786
▁interrogée	-12.6789
▁respect	-12.6789
▁tournoyant	-12.679
▁éclatant	-12.679
▁laissé	-12.6794
▁invitée	-12.6795
▁zi	-12.6799
▁viseur	-12.6801
▁interviewée	-12.6803
▁sautille	-12.6805
blo	-12.6808
▁florale	-12.6811
iffe	-12.6816
▁réfléchiss	-12.6819
▁w	-12.6824
▁Dor	-12.6837
der	-12.6838
rank	-12.6842
▁poignets	-12.6845
▁hippodrome	-12.685
▁Cours	-12.685
hai	-12.6852
▁commerces	-12.6855
▁pingouins	-12.6855
▁commandent	-12.6856
▁vote	-12.6859
▁back	-12.6859
▁caritati	-12.6861
agne	-12.6861
exercices	-12.6861
endr	-12.6862
▁imm	-12.6862
egarde	-12.6863
▁pé	-12.6868
av	-12.687
table	-12.6871
▁permett	-12.6873
nge	-12.6874
assage	-12.6881
▁serrées	-12.6896
▁retirée	-12.6902
ces	-12.6904
▁incu	-12.6906
▁Vir	-12.6907
▁délabrées	-12.692
déré	-12.692
mat	-12.6927
▁vivante	-12.6932
▁retraite	-12.6932
rande	-12.6933
▁abandonnée	-12.6933
▁stee	-12.6942
mong	-12.6943
ries	-12.6949
tra	-12.695
▁filmé	-12.6952
▁combin	-12.6958
▁Care	-12.6961
▁numéroté	-12.6961
▁scient	-12.6965
▁puissant	-12.6966
bateur	-12.697
verte	-12.697
▁inst	-12.6975
▁armures	-12.6979
▁brochures	-12.6979
▁experts	-12.6979
▁tartes	-12.6979
▁patineuses	-12.6982
▁karts	-12.6983
▁TV	-12.6983
cassette	-12.6993
▁dressées	-12.7002
▁inf	-12.7006
▁allumées	-12.7008
ealt	-12.7011
ites	-12.7012
▁franchiss	-12.7013
omm	-12.702
▁tricots	-12.7021
borde	-12.7024
renne	-12.7026
▁talon	-12.7026
▁conditionn	-12.7028
▁Nes	-12.7028
▁coudes	-12.703
inst	-12.703
▁éc	-12.7038
Bir	-12.7045
lins	-12.7051
diant	-12.7052
ata	-12.7055
▁spect	-12.7057
▁Bien	-12.7057
▁vois	-12.7067
cré	-12.7067
▁entraînée	-12.7068
rets	-12.7076
villon	-12.7078
▁Can	-12.7083
▁ph	-12.7087
prendre	-12.7091
▁agriculteurs	-12.7094
▁session	-12.7094
▁accidentée	-12.7098
locks	-12.7101
▁cris	-12.7104
▁marionnettes	-12.7104
▁légères	-12.7105
▁brutale	-12.7105
▁flèches	-12.7106
▁maîtres	-12.7108
▁venai	-12.7109
▁arroseurs	-12.711
▁fem	-12.7119
▁ton	-12.7126
écrans	-12.7128
▁alpinis	-12.7162
▁arrêtées	-12.7176
▁approchent	-12.7185
▁rempl	-12.7185
mons	-12.7189
▁divis	-12.7202
▁vielle	-12.721
▁bondiss	-12.7216
▁appartien	-12.7219
▁dix	-12.7225
cesse	-12.7228
▁sœurs	-12.7232
▁dossards	-12.7235
▁synchronisées	-12.7236
▁cher	-12.7241
▁horizontale	-12.7257
▁ber	-12.7258
iaire	-12.7263
▁Américain	-12.7263
erc	-12.7263
grou	-12.7265
tué	-12.728
▁sécurise	-12.7298
dilla	-12.7324
▁dirigent	-12.7328
▁Bear	-12.7329
irway	-12.7331
ra	-12.7334
arc	-12.7347
▁gaucher	-12.735
▁mexicains	-12.7362
▁circulaires	-12.7362
▁mobylettes	-12.7362
alcools	-12.7362
▁Is	-12.7364
▁grillent	-12.737
▁maquillés	-12.7373
▁draps	-12.7374
▁gueules	-12.7389
▁avi	-12.7415
vis	-12.7416
vec	-12.7423
ute	-12.7466
agas	-12.7471
▁égout	-12.7482
▁étudiantes	-12.7484
obe	-12.7489
aternité	-12.7495
onne	-12.7499
vins	-12.7512
▁poul	-12.752
rido	-12.754
ct	-12.7553
▁ados	-12.7572
▁musicale	-12.7583
▁excitée	-12.7584
▁Ca	-12.7587
▁fourn	-12.7602
▁assortie	-12.7606
▁ka	-12.7614
lante	-12.7618
▁tamise	-12.7619
▁neigeuse	-12.7621
▁esp	-12.7623
▁Johns	-12.7628
▁éventails	-12.7628
▁partitions	-12.7628
▁teinté	-12.7632
▁rotati	-12.7662
airway	-12.7691
▁scrute	-12.7698
étho	-12.7704
sole	-12.7719
▁surdimensionnée	-12.7732
aud	-12.7739
él	-12.7742
▁voyant	-12.7756
▁courbée	-12.7757
▁musclée	-12.7759
▁pupitres	-12.7764
▁tristes	-12.7765
▁conviv	-12.7767
▁bricole	-12.7781
▁organise	-12.779
▁rass	-12.7821
▁allaite	-12.7834
▁Vi	-12.7835
▁Ta	-12.7844
▁acclame	-12.7844
▁pointé	-12.7849
mania	-12.7853
▁Com	-12.7858
cc	-12.7867
▁ob	-12.7868
▁model	-12.7897
▁bizarres	-12.7903
onna	-12.7907
▁coule	-12.794
▁chass	-12.7962
▁vendu	-12.7973
▁cons	-12.7978
▁culturel	-12.7997
rons	-12.8003
porteur	-12.8003
ités	-12.8006
ayer	-12.8091
illes	-12.8107
▁écriteau	-12.8116
▁rasée	-12.8125
▁fines	-12.8137
év	-12.8145
boards	-12.8149
pea	-12.8172
▁parent	-12.8179
▁marchande	-12.8179
▁cuillères	-12.8187
▁mont	-12.8191
ama	-12.8204
▁interacti	-12.8224
▁qua	-12.8246
ocks	-12.8248
crée	-12.8251
arley	-12.8264
▁ros	-12.829
▁vais	-12.8337
ennes	-12.8361
▁pay	-12.8415
réponses	-12.8456
uver	-12.8456
▁présentes	-12.847
emballés	-12.8477
▁scolaires	-12.848
▁lampadaires	-12.8481
▁entour	-12.8495
her	-12.8519
▁retir	-12.8568
▁décorés	-12.8575
▁souples	-12.8593
Po	-12.8598
▁hoops	-12.8629
▁livrer	-12.8665
ma	-12.8686
▁ex	-12.8702
▁immobili	-12.8708
ourse	-12.8709
uyant	-12.8715
▁écossaises	-12.8735
▁laboure	-12.8744
nos	-12.8773
rier	-12.8778
▁heureuses	-12.8785
ik	-12.879
oignant	-12.8794
uskies	-12.8823
▁ép	-12.8877
uisé	-12.8903
▁abs	-12.8912
▁poitrines	-12.894
▁lampes	-12.8942
iver	-12.8948
ânes	-12.8954
▁uniques	-12.9002
▁arcs	-12.9028
▁moustaches	-12.9032
▁assaisonne	-12.9038
▁bourg	-12.9055
ff	-12.9056
antenne	-12.9062
llon	-12.9079
idement	-12.9086
▁graviers	-12.9102
▁matéri	-12.9114
▁cont	-12.9119
▁All	-12.9155
achi	-12.9194
▁Mu	-12.9206
▁reb	-12.9229
▁dire	-12.9352
gardant	-12.9371
ivement	-12.9379
▁écume	-12.9382
agissa	-12.9385
gne	-12.9386
ér	-12.9407
▁circuits	-12.9425
fa	-12.9431
étonnant	-12.9432
▁flottants	-12.9437
ignore	-12.9448
▁adj	-12.9454
mble	-12.9477
▁éclairés	-12.951
mer	-12.9519
▁rénove	-12.9564
ouple	-12.9568
▁séché	-12.9576
assi	-12.9593
▁transparente	-12.9603
quant	-12.9612
ves	-12.9636
▁trempée	-12.9644
tard	-12.9657
▁remarqu	-12.9662
▁sc	-12.9738
▁utilisé	-12.9776
▁Mari	-12.9802
chi	-12.9811
▁ess	-12.9811
eader	-12.9812
▁désor	-12.9879
admir	-12.9894
▁lavée	-12.9895
▁médite	-12.99
▁décore	-12.9901
enfourch	-12.9919
▁Pen	-12.9933
▁armé	-12.9965
▁recouvre	-12.999
lien	-13.0004
▁toi	-13.0015
▁ménage	-13.0046
raw	-13.0068
▁emprunt	-13.0096
douleur	-13.0104
bien	-13.0136
ave	-13.0237
▁Cor	-13.0264
DE	-13.03
volent	-13.0315
▁Mo	-13.0361
▁malle	-13.0406
Paris	-13.0427
pie	-13.0462
illant	-13.0473
▁fra	-13.0474
▁dan	-13.0481
▁hu	-13.0499
▁sta	-13.0502
clés	-13.0542
▁ret	-13.0575
▁sex	-13.0601
▁vieillot	-13.0639
▁ouverture	-13.065
aisant	-13.0657
▁Chie	-13.0684
▁rugbym	-13.0719
▁particip	-13.0724
ouleur	-13.0732
urn	-13.0732
▁Cl	-13.0737
ske	-13.0747
lyer	-13.0782
orient	-13.0782
▁gard	-13.0785
▁ménag	-13.0794
échauffe	-13.0806
orée	-13.0829
▁saxophones	-13.0871
▁bl	-13.0894
▁sh	-13.091
fourch	-13.0928
▁amo	-13.0946
▁épic	-13.0956
ron	-13.0975
tueux	-13.1022
▁parcour	-13.1064
▁sourires	-13.1073
DA	-13.1083
ader	-13.1182
▁gra	-13.1196
sonne	-13.1198
▁dog	-13.1261
ochette	-13.128
ettes	-13.129
açant	-13.1297
▁perc	-13.1311
▁attenda	-13.1319
▁abri	-13.1342
vées	-13.1363
hélice	-13.1369
▁Con	-13.1416
train	-13.1424
▁gouvern	-13.143
▁ignor	-13.1476
▁glissa	-13.1537
▁compose	-13.1561
▁z	-13.1602
▁Ci	-13.1608
ann	-13.161
gulière	-13.1629
én	-13.1647
▁gardiens	-13.1656
▁gu	-13.1701
hel	-13.1704
nd	-13.172
▁teinte	-13.1735
gu	-13.1839
▁poli	-13.1858
lly	-13.1863
▁matériau	-13.1898
lissant	-13.194
lier	-13.1951
ley	-13.1959
ult	-13.1962
▁bourgeo	-13.1973
▁assaisonn	-13.1995
▁naturel	-13.2023
extrai	-13.2028
▁solide	-13.2029
▁balustrades	-13.2078
▁aventur	-13.2132
Ann	-13.2133
▁zé	-13.2136
▁ren	-13.2144
oy	-13.2168
lamm	-13.2262
ew	-13.2274
présentant	-13.2293
assemblent	-13.2295
urance	-13.2323
▁Liv	-13.2334
pain	-13.2353
ope	-13.2358
tland	-13.2381
▁Conc	-13.2435
eva	-13.2478
ellement	-13.2546
▁dock	-13.2549
éclabousse	-13.2557
▁Qua	-13.2583
encre	-13.2592
▁via	-13.2617
essay	-13.2618
imp	-13.2629
iversité	-13.2644
éro	-13.2671
cy	-13.2721
Au	-13.2733
▁protest	-13.28
▁Cha	-13.2805
mentée	-13.2811
▁réponse	-13.2819
▁artisana	-13.2826
▁emballé	-13.2837
▁tresse	-13.284
▁brut	-13.2876
porter	-13.296
ake	-13.2981
▁joua	-13.303
outre	-13.303
▁dép	-13.3035
▁origina	-13.3058
assembl	-13.3071
▁cas	-13.3099
hi	-13.3111
lots	-13.3147
▁bouvi	-13.3196
avi	-13.3211
gi	-13.3235
met	-13.3237
erre	-13.3312
im	-13.3353
▁meul	-13.3356
▁serve	-13.3396
erry	-13.3427
gile	-13.3444
gie	-13.3473
lon	-13.3477
afficher	-13.352
rov	-13.354
sséché	-13.3597
mas	-13.3603
▁prénom	-13.3605
attrapent	-13.3613
▁cultiv	-13.3663
ndi	-13.3683
LU	-13.3689
▁am	-13.3702
gas	-13.3731
reint	-13.3778
alie	-13.3828
séchée	-13.3846
ES	-13.3855
az	-13.3865
dan	-13.3886
▁fu	-13.3902
▁avions	-13.3922
gs	-13.3926
▁bricol	-13.3928
▁enlac	-13.3936
▁claqu	-13.3948
▁Spar	-13.3955
▁convi	-13.3959
▁gran	-13.396
vial	-13.3981
▁acclam	-13.4047
▁allait	-13.4072
▁scrut	-13.4077
▁renvers	-13.4108
once	-13.411
▁Mick	-13.413
emm	-13.4135
▁baign	-13.4164
surfent	-13.4176
ouillante	-13.4256
place	-13.4258
ègle	-13.4268
nnel	-13.4273
▁antiquité	-13.43
▁fourni	-13.4317
onné	-13.4357
lac	-13.4364
▁inclin	-13.4403
poule	-13.4409
▁matern	-13.4457
ring	-13.4458
▁ann	-13.4466
accord	-13.4467
ascar	-13.4508
choir	-13.4512
vision	-13.4523
oi	-13.457
af	-13.4578
gro	-13.4616
▁partag	-13.4622
▁bond	-13.4669
box	-13.4672
casse	-13.4704
▁cycl	-13.4719
▁déte	-13.4719
▁conv	-13.4724
vé	-13.4738
▁lisse	-13.4786
endrier	-13.4793
éti	-13.4799
▁fix	-13.4812
▁battes	-13.4816
▁maquill	-13.4819
▁ki	-13.4824
▁sécuris	-13.4848
ession	-13.4858
dam	-13.4888
mage	-13.4889
nic	-13.4917
▁horizontal	-13.4933
▁déroul	-13.496
▁tranch	-13.4961
▁slalom	-13.4971
▁Po	-13.4993
ilisation	-13.5008
▁hand	-13.5019
viseur	-13.5062
onald	-13.5071
min	-13.5075
fig	-13.5088
▁sab	-13.51
emploi	-13.5101
▁communiqu	-13.5105
▁alpin	-13.5123
▁pai	-13.5124
▁continu	-13.5127
ancée	-13.5159
▁arrach	-13.5165
ond	-13.5221
emporté	-13.5222
▁stationn	-13.5226
chant	-13.5228
tor	-13.5247
▁rec	-13.5248
▁condition	-13.5261
▁pét	-13.5263
Lo	-13.5281
nez	-13.5288
▁Sp	-13.5304
▁défi	-13.5312
▁compl	-13.5329
exerce	-13.5335
br	-13.5358
▁guid	-13.5384
▁saupoudr	-13.5428
▁dégag	-13.5445
cept	-13.5448
▁feuill	-13.5451
Oh	-13.5457
vol	-13.5459
▁allum	-13.5473
infect	-13.5473
gard	-13.5474
éré	-13.5478
pa	-13.5487
▁amusant	-13.5502
exprim	-13.5509
▁grimp	-13.5521
▁colori	-13.5534
▁mélang	-13.5536
bre	-13.5543
ran	-13.5575
▁comptoirs	-13.5582
cé	-13.5601
▁convers	-13.5604
▁étan	-13.5615
▁mons	-13.5626
▁acco	-13.5635
tale	-13.5637
▁ruisse	-13.5639
uke	-13.5653
trée	-13.5656
ât	-13.566
▁trac	-13.5668
▁mod	-13.5673
▁rebond	-13.5676
ya	-13.5679
mant	-13.5695
▁inc	-13.5702
▁tamis	-13.5715
fre	-13.5715
▁bagarr	-13.5716
▁Pho	-13.5719
adress	-13.572
lay	-13.5738
éloign	-13.574
enc	-13.5756
▁ratiss	-13.5758
▁dribbl	-13.5762
érer	-13.5774
lade	-13.5774
▁bascul	-13.5775
moi	-13.5786
▁invité	-13.579
▁coiff	-13.5791
dit	-13.5794
bou	-13.5797
agenouill	-13.5806
▁gonfl	-13.5813
▁fac	-13.5816
hu	-13.5819
haw	-13.5838
uce	-13.584
ction	-13.5845
du	-13.5856
▁voilé	-13.5862
▁médaill	-13.5863
▁essai	-13.5869
▁ombr	-13.5883
▁dérou	-13.589
ala	-13.5892
▁bloqu	-13.5893
adolescent	-13.59
▁indi	-13.5903
voy	-13.5907
oufle	-13.5908
▁remport	-13.5917
▁Minn	-13.5928
lume	-13.5942
TO	-13.5946
▁Sant	-13.5947
▁prédi	-13.5951
Th	-13.5959
êle	-13.5964
▁Enf	-13.5965
▁barricad	-13.5976
▁goutt	-13.5977
ongboard	-13.5979
▁interrogé	-13.5979
▁floral	-13.5981
▁briquet	-13.5981
respecti	-13.5982
▁rencontr	-13.5988
onnier	-13.5988
▁interviewé	-13.599
ê	-13.5993
hor	-13.5999
jamb	-13.6015
mani	-13.6016
j	-13.602
chette	-13.602
▁San	-13.6027
uffée	-13.6029
▁ampl	-13.6033
▁doubl	-13.6036
ueuse	-13.6036
iff	-13.6038
organis	-13.604
apparai	-13.604
▁Long	-13.6042
but	-13.6042
uk	-13.6042
lliance	-13.6043
▁viv	-13.6046
ég	-13.6046
scout	-13.6048
utre	-13.605
point	-13.6052
col	-13.6056
▁pinc	-13.6058
plication	-13.6059
cam	-13.6061
▁fum	-13.6072
▁comm	-13.6078
▁concentr	-13.6082
rill	-13.6085
▁encourag	-13.6087
▁arrang	-13.6094
pér	-13.6101
roule	-13.6101
vitrine	-13.611
akes	-13.6111
équilibr	-13.6116
▁Or	-13.6123
▁band	-13.6123
lève	-13.6126
tention	-13.6134
tenue	-13.614
par	-13.6147
▁croisé	-13.6147
iv	-13.6151
ndis	-13.6153
▁baigna	-13.6161
▁major	-13.6164
q	-13.6166
Asiatique	-13.6166
Ori	-13.6169
aéro	-13.6169
▁pomm	-13.6173
cellul	-13.6174
git	-13.6174
œuf	-13.6175
▁affich	-13.6178
▁flott	-13.6181
▁mobil	-13.6184
gen	-13.6188
▁essentiel	-13.6188
▁débarrass	-13.6194
générat	-13.6195
▁humain	-13.6198
▁poss	-13.62
▁branch	-13.6202
adulte	-13.6211
wing	-13.6212
▁plac	-13.6221
arro	-13.6231
hom	-13.6235
visage	-13.6235
allum	-13.6236
▁heur	-13.6239
Ex	-13.6239
posé	-13.6244
vest	-13.6244
raf	-13.6245
hors	-13.6251
riff	-13.6252
▁séparé	-13.6254
ague	-13.6259
▁Tha	-13.6259
▁colon	-13.6261
acclame	-13.6262
ific	-13.6262
allaite	-13.6262
▁marécageu	-13.6262
emprunte	-13.6263
▁handicapé	-13.6263
▁salad	-13.6264
▁prév	-13.6268
iforme	-13.6269
scend	-13.627
No	-13.627
▁figur	-13.6271
éclair	-13.6273
▁livr	-13.6273
▁randonn	-13.6273
Live	-13.6273
entoure	-13.6274
bull	-13.6274
attaque	-13.6274
trave	-13.6275
identifi	-13.6276
devine	-13.6278
agriculteurs	-13.6278
intervenant	-13.6278
poignets	-13.6279
Jim	-13.6279
archéolog	-13.628
shampooing	-13.628
émotion	-13.628
Espagne	-13.628
vingt	-13.628
ardoise	-13.628
italien	-13.628
play	-13.628
journaliste	-13.628
stop	-13.6281
élève	-13.6281
molle	-13.6281
fra	-13.6282
science	-13.6282
fumé	-13.6282
kieur	-13.6283
tub	-13.6284
encourage	-13.6285
▁inférieur	-13.6287
▁poudr	-13.6287
angle	-13.6287
▁lavé	-13.6288
infirmière	-13.6289
rby	-13.6289
▁tissé	-13.6289
fu	-13.6291
▁souri	-13.6291
comb	-13.6295
ouch	-13.6298
larme	-13.6298
Chi	-13.6298
engage	-13.6299
blé	-13.6299
professionnel	-13.6299
campe	-13.63
observe	-13.63
ban	-13.6301
maçon	-13.6302
Qu	-13.6303
accessoires	-13.6305
examen	-13.6305
Cafe	-13.6305
Amérindien	-13.6305
Bull	-13.6305
Twister	-13.6305
ambulanc	-13.6305
Africain	-13.6305
flexible	-13.6305
body	-13.6305
crier	-13.6306
bri	-13.6306
cool	-13.6306
show	-13.6307
chasse	-13.6309
Pap	-13.631
▁fla	-13.631
pac	-13.631
command	-13.6312
▁cibl	-13.6312
interdit	-13.6314
ube	-13.6314
▁débarras	-13.6315
eff	-13.6315
niche	-13.6316
portée	-13.6316
ascenseur	-13.6316
ustensile	-13.6316
émerge	-13.6316
étranges	-13.6319
ctrice	-13.6319
Bill	-13.632
velopp	-13.632
achat	-13.6322
clou	-13.6322
Seattle	-13.6322
Superman	-13.6322
agripp	-13.6322
pipe	-13.6323
bouch	-13.6324
heure	-13.6324
DS	-13.6326
gère	-13.6326
fique	-13.6326
instructions	-13.6327
Apple	-13.6327
artisan	-13.6327
tâches	-13.6327
enseignant	-13.6327
▁conver	-13.6328
quoi	-13.6329
extrémité	-13.6329
stationnement	-13.6329
autochtone	-13.6329
lanternes	-13.6329
expression	-13.6329
étreint	-13.633
niveau	-13.633
domin	-13.633
aime	-13.6331
▁paysag	-13.6331
rond	-13.6331
Europe	-13.6331
truck	-13.6331
exécute	-13.6332
zoo	-13.6332
inter	-13.6332
John	-13.6333
guide	-13.6333
bracelet	-13.6333
auto	-13.6334
▁lettr	-13.6334
nuageuse	-13.6334
étagère	-13.6334
bat	-13.6335
examine	-13.6335
port	-13.6335
garder	-13.6335
▁rou	-13.6335
expérience	-13.6335
joué	-13.6335
accident	-13.6336
ingo	-13.6336
étroit	-13.6336
orientale	-13.6336
mouton	-13.6336
food	-13.6336
apprécie	-13.6336
bascule	-13.6337
épicerie	-13.6337
écolier	-13.6337
oreillers	-13.6337
Mac	-13.6337
plongée	-13.6338
scolaire	-13.6338
imperméable	-13.6338
électronique	-13.6338
inspecte	-13.6339
sauve	-13.6339
cône	-13.6339
boutique	-13.6339
prête	-13.634
cœur	-13.634
échafaudage	-13.634
dreadlocks	-13.634
tomber	-13.634
moteur	-13.634
cabine	-13.634
violets	-13.634
brique	-13.6341
▁scintillant	-13.6341
feuille	-13.6341
▁taggé	-13.6341
▁émerveillé	-13.6341
dîner	-13.6341
éclaboussures	-13.6341
tracteur	-13.6341
Sou	-13.6342
effectue	-13.6342
chaîne	-13.6342
chemise	-13.6342
caisse	-13.6342
roulant	-13.6342
tuyau	-13.6342
cravate	-13.6342
xhib	-13.6342
peut	-13.6342
▁faut	-13.6343
pompiers	-13.6343
drapeaux	-13.6343
longue	-13.6343
pilote	-13.6343
papier	-13.6343
vue	-13.6344
attendent	-13.6344
dehors	-13.6344
parking	-13.6344
voile	-13.6344
scène	-13.6344
colorés	-13.6344
cheval	-13.6344
ancienne	-13.6344
écoutant	-13.6344
pieds	-13.6344
nageur	-13.6344
tér	-13.6345
cow	-13.6345
côte	-13.6345
employé	-13.6345
pré	-13.6345
café	-13.6345
ordinaire	-13.6345
éclairé	-13.6345
park	-13.6346
boire	-13.6346
longs	-13.6346
▁fâché	-13.6348
▁Man	-13.6352
autour	-13.6353
▁styl	-13.6354
▁vid	-13.6355
Cours	-13.6356
net	-13.6356
jambes	-13.6359
ouché	-13.6359
▁touffu	-13.636
▁pétrol	-13.636
ach	-13.6361
▁Ad	-13.6362
ébat	-13.6363
▁pât	-13.6364
lig	-13.6364
restaurant	-13.6365
▁maîtr	-13.6365
tron	-13.6365
▁baissé	-13.6365
▁toilett	-13.6366
robes	-13.6366
▁torch	-13.6366
fouille	-13.6367
▁synchronisé	-13.6368
▁nouvel	-13.6368
xtrême	-13.6369
▁gesticul	-13.6369
▁oliv	-13.6369
niqu	-13.6369
orang	-13.6371
empil	-13.6371
▁rythm	-13.6374
▁class	-13.6374
▁paill	-13.6375
▁énorm	-13.6376
vêtu	-13.6376
▁étoil	-13.6376
▁pyramid	-13.6377
▁banlieu	-13.6377
▁imag	-13.6379
atric	-13.638
professionnelle	-13.6381
▁automn	-13.6381
ifférentes	-13.6382
▁blessure	-13.6382
▁chamallow	-13.6382
▁coquillage	-13.6382
▁dollar	-13.6382
▁noeud	-13.6382
▁semblable	-13.6382
▁tranquill	-13.6382
▁immobile	-13.6382
La	-13.6382
▁flocon	-13.6382
▁conseil	-13.6382
▁cheville	-13.6383
raft	-13.6383
▁violoncell	-13.6384
▁euro	-13.6384
▁group	-13.6384
▁bomb	-13.6385
▁pomp	-13.6385
▁théâtr	-13.6385
▁gauch	-13.6386
dents	-13.6387
▁manch	-13.6388
cle	-13.6389
▁cérémoni	-13.6389
ina	-13.6389
bâti	-13.639
▁pell	-13.6391
Vo	-13.6392
▁réel	-13.6393
▁raid	-13.6393
huit	-13.6394
▁quotidienne	-13.6394
▁courb	-13.6395
▁bouchon	-13.6395
▁cookie	-13.6397
▁massue	-13.6397
▁figurine	-13.6398
manteau	-13.6398
ili	-13.6398
▁brochette	-13.6398
▁uniform	-13.64
▁cuisse	-13.64
essus	-13.64
Nou	-13.6401
trou	-13.6402
illée	-13.6402
▁retrouss	-13.6402
▁pleur	-13.6404
▁béquille	-13.6404
▁hamburger	-13.6404
▁melon	-13.6404
gr	-13.6406
▁gratuit	-13.6408
▁écartée	-13.6408
▁puce	-13.6408
▁tuile	-13.6409
▁foi	-13.641
riller	-13.641
▁souvenir	-13.6411
▁cord	-13.6412
▁sourcil	-13.6412
cinq	-13.6413
assiette	-13.6414
▁bandé	-13.6414
rend	-13.6415
▁mitaine	-13.6416
fact	-13.6417
▁visiteur	-13.6417
course	-13.6418
▁russe	-13.6418
▁rayure	-13.642
ousser	-13.642
▁bagage	-13.6422
bas	-13.6422
affaire	-13.6422
▁fonction	-13.6425
po	-13.6426
fils	-13.6426
▁commenc	-13.6428
▁conc	-13.6428
apparaiss	-13.643
oll	-13.643
▁nettoy	-13.6432
▁éclaboussure	-13.6432
▁Snow	-13.6441
▁taillé	-13.6441
noir	-13.6442
▁dossier	-13.6442
▁saucisse	-13.6443
ctive	-13.6446
▁réparation	-13.6447
ongs	-13.6451
éleri	-13.6453
▁travaill	-13.6453
▁visib	-13.6454
▁abond	-13.6455
boardeurs	-13.6455
▁bretelle	-13.6457
▁pourra	-13.6459
iberté	-13.646
embl	-13.6462
▁mendi	-13.6464
race	-13.6465
modé	-13.6465
intéress	-13.6465
ourir	-13.6465
▁mus	-13.6467
▁relax	-13.6467
ongues	-13.6471
▁gl	-13.6473
main	-13.6473
ç	-13.6474
angue	-13.6475
▁mix	-13.6475
oussant	-13.6476
▁tami	-13.6476
▁recueill	-13.6478
▁majestueu	-13.6481
▁brume	-13.6482
bleu	-13.6482
adolescente	-13.6485
▁permanen	-13.6486
qua	-13.6487
▁impressionn	-13.6491
Sub	-13.6491
droite	-13.6494
anc	-13.6497
ollie	-13.6498
och	-13.6499
rocs	-13.65
hy	-13.6501
▁décri	-13.6501
▁pensi	-13.6501
▁gagn	-13.6503
patience	-13.6503
â	-13.6503
▁Cyclo	-13.6504
illumin	-13.6504
▁improvis	-13.6506
▁bala	-13.6508
▁rat	-13.6508
▁bavarde	-13.6508
▁écossa	-13.651
▁entass	-13.651
Conn	-13.651
▁atter	-13.6511
▁inond	-13.6513
▁regroup	-13.6513
▁util	-13.6515
▁débla	-13.6515
aucisse	-13.6518
▁loup	-13.6518
▁viole	-13.6518
▁contemp	-13.652
▁chan	-13.6522
▁épingl	-13.6522
gré	-13.6523
nim	-13.6523
▁isol	-13.6524
▁éléga	-13.6525
▁tomba	-13.6525
Jum	-13.6525
alk	-13.6527
▁partici	-13.6527
▁navette	-13.6528
▁démo	-13.6529
puissant	-13.6529
œ	-13.6529
ignal	-13.6529
inaires	-13.6529
▁déplo	-13.6529
estaurant	-13.653
nniversaire	-13.653
▁télécommand	-13.653
rtisan	-13.653
▁viva	-13.653
ccompagnée	-13.653
cieuse	-13.6531
▁clai	-13.6531
rène	-13.6532
oldat	-13.6532
ravailleurs	-13.6532
culé	-13.6532
donn	-13.6532
ccroupi	-13.6532
llongée	-13.6534
ticipant	-13.6534
invent	-13.6535
▁religi	-13.6535
vée	-13.6535
▁crai	-13.6535
î	-13.6535
graphie	-13.6536
rôl	-13.6536
▁exam	-13.6536
emple	-13.6536
rott	-13.6537
grammes	-13.6537
▁impé	-13.6537
Q	-13.6538
omp	-13.6538
pul	-13.6538
▁navig	-13.6539
▁supp	-13.6539
romp	-13.6539
▁déver	-13.6539
▁imma	-13.6539
▁expressi	-13.654
Tea	-13.654
▁amarr	-13.6541
actu	-13.6541
▁turb	-13.6542
acrobat	-13.6542
by	-13.6542
▁bran	-13.6543
▁walk	-13.6543
rançaise	-13.6543
▁imprim	-13.6543
acial	-13.6544
▁rigolo	-13.6544
▁commercia	-13.6544
▁écar	-13.6544
scope	-13.6544
ictori	-13.6544
offee	-13.6544
étrang	-13.6544
▁siffle	-13.6545
▁charcut	-13.6545
sensib	-13.6545
gnée	-13.6546
merveill	-13.6546
tual	-13.6546
▁abandonn	-13.6546
lombie	-13.6546
achats	-13.6546
▁rafraîchi	-13.6546
rchestre	-13.6546
▁infirmi	-13.6546
▁miroi	-13.6546
organise	-13.6547
phone	-13.6547
intens	-13.6547
interdi	-13.6547
▁fréquent	-13.6547
postale	-13.6547
▁escarp	-13.6547
▁attentive	-13.6547
ntouré	-13.6547
▁clavi	-13.6548
▁confortable	-13.6548
Bar	-13.6548
▁sablonneu	-13.6548
▁refl	-13.6548
J	-14.9944
ë	-14.9945
ô	-14.9946
è	-14.9947
v	-14.9948
